<unk>	0
<s>	0
</s>	0
.	-3.87572
▁그	-4.09868
?	-4.38396
이	-4.55808
▁막	-4.59415
▁거	-4.65525
도	-4.75774
▁안	-4.76971
▁나	-4.98518
▁아	-4.99528
▁근데	-5.00902
▁	-5.04257
▁이	-5.04322
▁뭐	-5.07668
▁다	-5.13329
▁이제	-5.19401
▁진짜	-5.19829
▁그냥	-5.21851
▁한	-5.23378
▁우리	-5.28696
는	-5.34488
가	-5.34821
▁이렇게	-5.34883
▁아니	-5.37737
▁내가	-5.48287
▁좀	-5.51825
▁그거	-5.57219
▁어	-5.58222
을	-5.60648
▁그런	-5.61712
▁그래서	-5.62186
▁또	-5.63337
▁name	-5.63989
에	-5.64841
▁때	-5.64866
▁#	-5.69751
게	-5.70325
▁그렇게	-5.70941
은	-5.76392
▁게	-5.7781
▁잘	-5.81834
▁난	-5.84301
▁나는	-5.84457
▁너무	-5.85457
▁저	-5.88565
▁해	-5.88648
만	-5.92427
를	-5.96468
지	-6.00177
▁이거	-6.0102
▁약간	-6.01424
▁못	-6.02404
▁많이	-6.02665
▁하고	-6.08785
▁일	-6.14028
고	-6.14765
▁너	-6.16564
▁지금	-6.17261
▁해서	-6.19397
▁하는	-6.23413
▁그런데	-6.28362
▁더	-6.29209
▁그때	-6.29369
▁할	-6.29459
▁야	-6.29804
▁수	-6.30928
▁가지고	-6.3208
▁이런	-6.32721
▁그러니까	-6.34028
▁나도	-6.34587
▁완전	-6.37751
로	-6.39259
▁거기	-6.42433
▁왜	-6.44175
▁그게	-6.44557
▁내	-6.45133
▁딱	-6.4627
▁하면	-6.48893
▁것	-6.5001
▁있는	-6.50529
하고	-6.52548
▁하니까	-6.54619
예	-6.55287
▁맞아	-6.55493
▁거야	-6.55646
▁그니까	-6.56171
서	-6.57022
나	-6.5786
~	-6.58689
요	-6.58802
▁돼	-6.60905
▁것도	-6.62038
▁그리고	-6.65269
▁말	-6.66436
▁같은	-6.66819
▁사람	-6.67604
▁있어	-6.68622
에서	-6.71197
▁영	-6.72985
으로	-6.73386
랑	-6.73578
▁어떻게	-6.74196
▁저기	-6.75268
의	-6.7691
다	-6.77744
▁무슨	-6.80222
▁번	-6.80653
야	-6.80683
▁응	-6.81658
▁가서	-6.82028
▁같이	-6.82738
▁이게	-6.8277
▁사	-6.83582
▁예	-6.84277
▁그럼	-6.8544
▁뭔가	-6.85634
▁있잖아	-6.85818
▁건	-6.86166
▁가	-6.86443
▁계속	-6.86556
▁어디	-6.8768
▁하면서	-6.87859
▁엄청	-6.88198
▁하나	-6.89161
▁여기	-6.89982
▁두	-6.90785
▁있고	-6.90893
▁아이고	-6.91123
▁돈	-6.92372
▁먹고	-6.93459
▁같아	-6.93838
네	-6.9417
▁사람이	-6.95034
▁그러면	-6.95133
▁했는데	-6.95193
라	-6.95485
▁걸	-6.96181
▁개	-6.97374
거	-6.98455
해	-6.98517
▁살	-7.00702
한	-7.01113
▁줄	-7.01735
▁몇	-7.01789
▁원래	-7.03044
▁원	-7.03244
▁되게	-7.04265
▁오	-7.0427
▁다른	-7.0435
▁그래도	-7.05223
▁해야	-7.05443
▁조금	-7.06469
▁삼	-7.08855
니까	-7.0971
▁보면	-7.10819
▁겅	-7.12387
▁그래	-7.14066
들	-7.1558
라고	-7.17404
▁맨날	-7.18224
인	-7.18567
▁아니고	-7.19933
▁년	-7.20121
▁한번	-7.20208
▁언니	-7.20404
▁좋은	-7.21538
▁집	-7.21797
▁&	-7.21918
▁하는데	-7.22282
▁제주도	-7.2327
▁와	-7.2346
▁우리가	-7.23496
name	-7.23942
이랑	-7.24047
▁거의	-7.24507
▁봐	-7.24652
▁닮아	-7.24979
▁다음에	-7.25408
잖아	-7.25553
▁그걸	-7.25873
▁자기	-7.26218
▁갈	-7.26607
▁엄마	-7.26683
▁될	-7.27029
▁거지	-7.28111
▁없어	-7.28232
▁제일	-7.28264
▁세	-7.28706
▁어떤	-7.29106
▁때문에	-7.30913
▁집에	-7.31588
면	-7.31675
▁알아	-7.3254
까지	-7.34711
대	-7.3492
▁있는데	-7.35302
▁갑자기	-7.35324
▁데	-7.35363
▁보고	-7.35419
▁companyname	-7.3552
▁때는	-7.35605
▁좋아	-7.35631
▁얘기	-7.37915
하는	-7.37927
기	-7.38037
▁해도	-7.38212
▁거기서	-7.39113
▁사람들이	-7.39251
▁아이	-7.39854
▁아니야	-7.40523
▁있네	-7.4157
어	-7.41682
▁요즘	-7.41856
▁사람들	-7.41966
▁게난	-7.41971
*	-7.42043
▁하지	-7.42698
▁보니까	-7.42809
▁되는	-7.43613
▁경	-7.43628
인데	-7.43887
사	-7.44168
▁큰	-7.44192
▁같애	-7.44609
▁지	-7.44699
▁해가지고	-7.44773
▁날	-7.45628
▁솔직히	-7.45684
▁밥	-7.45954
▁시간	-7.46196
▁생각	-7.46352
▁오늘	-7.4681
▁그것도	-7.47259
▁시	-7.48061
▁그건	-7.48106
할	-7.48505
▁가고	-7.48964
▁먹어	-7.49488
거든	-7.49938
▁나가	-7.50663
▁몰라	-7.50689
▁가면	-7.51923
▁차	-7.53287
▁이젠	-7.53432
▁간	-7.54051
▁했어	-7.54689
▁아니라	-7.55206
데	-7.57088
▁인	-7.57362
▁나중에	-7.57679
▁행	-7.5795
▁혼자	-7.58015
▁뭐냐	-7.58892
▁하	-7.59315
해서	-7.59321
▁나한테	-7.59367
▁강	-7.59418
▁물	-7.60579
▁일단	-7.61436
인가	-7.61648
▁다시	-7.61828
▁십	-7.62089
▁명	-7.62441
▁너네	-7.62702
▁바로	-7.63162
▁갔다	-7.63564
▁우리는	-7.6373
가지고	-7.64047
▁별로	-7.64226
난	-7.64519
▁빨리	-7.64938
▁않아	-7.65338
하면	-7.65469
▁열	-7.65878
▁수도	-7.65982
▁아니면	-7.66934
이나	-7.67072
▁옛날에	-7.67255
주	-7.68327
▁학교	-7.68433
▁밖에	-7.68947
는데	-7.69577
▁되고	-7.69609
▁먹는	-7.6982
▁없는	-7.70139
▁들어	-7.70331
▁가는	-7.70795
▁먹을	-7.70927
▁너가	-7.70929
▁코로나	-7.71015
▁거라	-7.71511
▁전에	-7.72409
▁어떵	-7.73
▁걍	-7.73231
아	-7.73311
▁애들	-7.73368
▁아까	-7.73571
들이	-7.73797
▁같은데	-7.7387
▁왜냐하면	-7.73876
긴	-7.74541
▁정도	-7.74734
▁있지	-7.75245
▁와서	-7.75737
진	-7.75865
▁거는	-7.77299
▁있을	-7.77563
자	-7.78818
하게	-7.79741
▁옛날	-7.80796
▁네	-7.80944
▁말고	-7.81196
▁참	-7.82217
▁아예	-7.82515
▁분	-7.82696
한테	-7.82898
양	-7.83056
▁없고	-7.83142
▁학년	-7.84264
▁만	-7.84432
▁이번에	-7.84616
▁자기가	-7.8496
#	-7.85161
▁있으면	-7.86207
▁달	-7.8663
▁주	-7.8684
▁술	-7.8707
▁대	-7.87154
디	-7.87384
▁되는데	-7.87514
▁정말	-7.87528
다고	-7.8788
▁온	-7.88265
▁꼭	-7.88306
▁많아	-7.88742
▁본	-7.88877
&	-7.90283
신디	-7.90962
이라고	-7.91832
▁어쨌든	-7.9188
▁처음	-7.92318
▁친구	-7.92512
▁엄마가	-7.92717
▁팔	-7.92823
일	-7.94036
▁뭐지	-7.94042
▁걔	-7.94394
리	-7.94573
▁말을	-7.94715
▁반	-7.95351
처럼	-7.97133
▁사람은	-7.97266
댄	-7.97613
▁누가	-7.97681
▁눈	-7.97796
▁얼마나	-7.9796
▁얼마	-7.98012
시	-7.98553
▁왜냐면	-7.99343
▁말이	-7.99462
▁애기	-7.99574
영	-7.99908
▁핸	-8.00346
져	-8.00565
▁사람들은	-8.00806
▁집에서	-8.0087
▁때도	-8.01035
▁볼	-8.01324
▁건데	-8.0133
▁이서	-8.01844
▁맛	-8.02299
▁옆에	-8.0339
니	-8.03598
랜	-8.03822
▁음	-8.04158
▁비	-8.04206
▁이제는	-8.04367
▁월	-8.05013
▁구	-8.05091
▁되지	-8.05637
▁나랑	-8.05638
거야	-8.06018
▁백	-8.06942
▁만약에	-8.07099
▁사는	-8.07237
▁생각이	-8.07253
▁오빠	-8.07692
▁그거는	-8.08035
질	-8.08063
▁어제	-8.0813
▁오래	-8.08299
▁여행	-8.08378
▁쫌	-8.08982
▁해신디	-8.09457
▁머리	-8.10097
▁된	-8.10148
▁자	-8.10172
▁아빠	-8.10174
▁고	-8.1037
래	-8.10452
수	-8.11537
▁그거를	-8.11625
▁하면은	-8.11822
구나	-8.11961
▁생각을	-8.11983
▁xx	-8.12105
▁되면	-8.12277
냐	-8.1298
▁너는	-8.1298
▁어머니	-8.13662
당	-8.14027
▁산	-8.14039
▁나와	-8.14297
▁있으니까	-8.14618
▁하다가	-8.14949
다가	-8.15009
▁그런거	-8.15198
▁항상	-8.15211
▁전	-8.15245
▁뭘	-8.15754
▁싶어	-8.15776
▁싶은	-8.16002
▁그래가지고	-8.16164
▁전화	-8.16774
▁올	-8.1689
▁이건	-8.16946
▁육	-8.17414
▁애들이	-8.17436
▁여자	-8.176
▁우린	-8.17601
▁잘도	-8.17765
▁사진	-8.18001
▁거난	-8.18015
▁걔가	-8.18057
▁남자	-8.18151
▁양	-8.18212
▁어느	-8.1886
▁알고	-8.1888
▁써	-8.18913
▁되	-8.19168
스	-8.19394
▁한데	-8.19734
▁먼저	-8.20266
▁누구	-8.20325
보다	-8.20694
▁무조건	-8.21022
▁아주	-8.21255
▁알지	-8.21503
▁불	-8.21615
과	-8.21757
▁동안	-8.21963
단	-8.22295
▁먹으면	-8.22384
▁뭐라고	-8.22487
구	-8.22537
▁서울	-8.22618
라도	-8.23185
▁되니까	-8.2355
▁그때는	-8.2358
▁땐	-8.23774
▁아직	-8.24358
▁언제	-8.24999
▁하잖아	-8.2514
건	-8.25243
▁배	-8.25259
▁자꾸	-8.25516
▁주고	-8.25582
▁아이들	-8.25588
걸	-8.25654
▁이십	-8.26139
▁기	-8.26348
▁어서	-8.26585
장	-8.26677
려고	-8.26759
부터	-8.27001
▁했지	-8.27019
▁있거든	-8.27454
▁처음에	-8.2752
▁수가	-8.27636
▁언니가	-8.27899
▁둘	-8.28735
▁식으로	-8.29896
▁아는	-8.29897
▁이런거	-8.29942
▁갖고	-8.30007
▁보는	-8.30021
▁애	-8.30144
▁갔는데	-8.3028
▁알	-8.30508
▁열심히	-8.3093
▁지금은	-8.31215
▁알바	-8.31637
▁얘기를	-8.31885
▁옷	-8.31931
▁앞에	-8.32222
때	-8.32268
▁뭔	-8.32294
▁아들	-8.32339
▁사람도	-8.32355
▁공부	-8.32805
▁가야	-8.32941
하지	-8.32951
여	-8.3316
▁절대	-8.33216
▁거고	-8.33222
치	-8.3332
부	-8.33443
니깐	-8.34227
▁고등학교	-8.34396
이고	-8.34603
▁일이	-8.34723
더라	-8.34769
▁다음	-8.34814
▁느낌	-8.34877
▁요새	-8.35155
▁중에	-8.3522
▁할머니	-8.35239
주게	-8.3531
▁아무	-8.35978
▁소리	-8.36718
▁가지	-8.36743
▁그럴	-8.368
행	-8.36993
▁여기서	-8.37575
▁걸로	-8.37615
▁사실	-8.37841
까	-8.38033
▁하는거	-8.38616
▁중	-8.38713
와	-8.38783
▁나오는	-8.38997
▁얘	-8.39026
▁딸	-8.39183
이라	-8.39213
▁살아	-8.39295
▁나이	-8.39363
▁많은	-8.40354
▁손	-8.40595
▁무사	-8.40665
▁사고	-8.40884
▁다섯	-8.41108
▁칠	-8.41118
들은	-8.41204
▁선생님	-8.41366
▁시험	-8.41399
이야	-8.41572
▁좋아해	-8.41681
▁타고	-8.41947
▁도	-8.42646
▁쓰고	-8.43018
면서	-8.43221
▁했던	-8.43378
▁적	-8.43482
▁운동	-8.43915
▁결혼	-8.44212
꺼	-8.44213
▁어릴	-8.44228
▁받아	-8.44272
▁문	-8.44506
▁동네	-8.44643
밖에	-8.45067
▁상	-8.45133
▁우리도	-8.45182
거나	-8.45334
▁나온	-8.45354
하니까	-8.45498
▁육지	-8.455
▁영화	-8.45557
▁제주	-8.45853
▁거기에	-8.46033
▁오는	-8.46117
거라	-8.46152
▁좋아하는	-8.46454
▁쓰는	-8.4646
▁삼십	-8.46831
지는	-8.47076
▁얘가	-8.47243
러	-8.47632
▁돈을	-8.47676
▁넌	-8.47753
던	-8.47795
▁저거	-8.47902
▁줘	-8.47987
▁타	-8.48728
▁보통	-8.48866
그넹	-8.49176
▁말이야	-8.49177
▁있었어	-8.49368
▁저번에	-8.50206
▁싫어	-8.5036
▁있었는데	-8.50531
▁돈이	-8.50698
▁아침에	-8.50814
▁집이	-8.50922
▁했거든	-8.50924
▁거기는	-8.50932
더라고	-8.51054
신	-8.51316
▁어차피	-8.51376
▁만들어	-8.51379
▁하난	-8.51658
▁언	-8.51736
▁위에	-8.52193
▁방	-8.52455
▁요	-8.5251
안	-8.5268
-	-8.52701
▁옛날에는	-8.52884
▁하멍	-8.52899
▁노래	-8.52912
▁않고	-8.53246
줄	-8.53382
멍	-8.53384
비	-8.53774
▁부	-8.53855
▁아마	-8.54035
▁놓고	-8.54556
▁오면	-8.54638
▁들고	-8.54766
▁하여튼	-8.54829
하	-8.5498
▁아닌	-8.55098
▁않	-8.55237
▁없이	-8.56128
▁뭐가	-8.56518
▁시간이	-8.56545
▁조	-8.56642
하면서	-8.56722
▁생각해	-8.56738
▁일을	-8.56771
원	-8.56894
▁서	-8.5691
▁작은	-8.57136
상	-8.57244
▁오고	-8.57321
▁소	-8.57823
▁중학교	-8.57992
언	-8.58054
▁있어서	-8.5828
연	-8.58292
라는	-8.58391
▁아빠가	-8.5865
▁둘이	-8.58719
▁한다고	-8.58784
▁마	-8.58814
▁거를	-8.59247
▁이걸	-8.59459
▁친구가	-8.59501
▁따로	-8.60095
든	-8.6043
부난	-8.60623
▁이상	-8.60816
▁천	-8.60828
▁허	-8.60896
▁있다	-8.60954
▁하니깐	-8.60975
▁피	-8.61103
▁봤어	-8.61591
▁일본	-8.61698
▁허멍	-8.61765
▁뭐야	-8.61821
▁초등학교	-8.61839
▁이미	-8.61878
▁요즘은	-8.61882
▁그치	-8.62235
▁왕	-8.62379
▁맞는	-8.62432
▁하더라고	-8.62512
▁장	-8.62628
믄	-8.62643
▁봤는데	-8.62647
이네	-8.62789
▁하게	-8.62837
그네	-8.62916
실	-8.63094
▁약	-8.63212
▁아무튼	-8.6334
▁정	-8.63379
▁마스크	-8.63423
▁혹시	-8.63464
▁안에	-8.63487
▁기억	-8.63573
▁뭐라	-8.63737
▁얼굴	-8.63839
▁그렇지	-8.6398
엔	-8.64099
민	-8.64114
오	-8.64194
▁안돼	-8.64223
▁하나도	-8.64266
▁남	-8.64513
해야	-8.64656
▁하루	-8.64944
▁주는	-8.65531
▁에	-8.65623
▁가이	-8.65822
▁아닌데	-8.65926
▁돌	-8.66002
▁확	-8.66144
▁제	-8.66205
▁허난	-8.66262
▁음식	-8.66367
▁말하는	-8.66434
▁들	-8.66548
▁오십	-8.66642
▁보	-8.66658
집	-8.6688
▁안하고	-8.66922
▁이거는	-8.67123
▁이름	-8.6713
▁쓸	-8.67157
▁그걸로	-8.67261
▁모든	-8.67435
정	-8.67454
▁입고	-8.67514
▁애가	-8.6763
▁들어가	-8.67789
성	-8.68034
▁아이구	-8.68113
▁싶다	-8.68342
▁내일	-8.6846
▁했잖아	-8.6851
▁점	-8.68749
▁있어야	-8.68811
핸	-8.68906
▁무	-8.68917
▁있다고	-8.69369
동	-8.69704
▁싸	-8.69721
))	-8.69736
▁오히려	-8.69804
▁되잖아	-8.70025
▁보난	-8.70299
이니까	-8.70792
▁없는데	-8.7082
적	-8.7095
▁서로	-8.70955
했어	-8.71057
▁때부터	-8.71673
▁xxx	-8.71736
▁아유	-8.72033
마씸	-8.7233
▁발	-8.72415
▁보내	-8.72461
▁말도	-8.7253
▁갔을	-8.72621
▁받고	-8.72907
마	-8.73023
▁길	-8.73119
▁아닌가	-8.73367
▁보면은	-8.73803
▁선생님이	-8.73944
▁아이가	-8.73944
젠	-8.74018
company	-8.74021
던데	-8.74155
▁뒤에	-8.74187
▁밑에	-8.7419
▁것이	-8.74279
▁가게	-8.74601
으면	-8.74633
지도	-8.74704
▁모르겠어	-8.74786
▁말해	-8.74851
▁그다음에	-8.74889
▁맛이	-8.74912
▁된다고	-8.75076
▁그러니깐	-8.75119
▁건가	-8.75203
드	-8.75277
▁이번	-8.75377
▁책	-8.75632
▁굳이	-8.75674
▁대해서	-8.75788
▁오빠가	-8.75875
▁느낌이	-8.7602
이면	-8.76055
▁걔는	-8.76314
▁이것도	-8.7634
내	-8.76377
▁안해	-8.76447
▁없으니까	-8.76577
▁해야지	-8.76619
▁연락	-8.76852
씩	-8.7707
▁보면서	-8.771
▁많고	-8.77107
▁아직도	-8.77245
▁만원	-8.77259
덴	-8.77405
전	-8.77439
▁한국	-8.77704
제	-8.77874
▁못해	-8.7794
이가	-8.77969
냐고	-8.78006
▁시에	-8.78197
▁하더라	-8.78458
▁하다	-8.78487
▁지금도	-8.78499
▁맞지	-8.78954
▁다닐	-8.7899
▁((	-8.79011
차	-8.79079
미	-8.79135
▁확실히	-8.79176
방	-8.79209
▁하영	-8.79285
▁새	-8.79333
려	-8.79451
간	-8.79545
▁사투리	-8.79693
▁그니깐	-8.79709
▁모르는	-8.79881
▁힘들어	-8.79901
기도	-8.7997
▁때가	-8.79974
▁고기	-8.80232
▁거잖아	-8.8024
겠다	-8.80321
▁가니까	-8.80326
▁하거든	-8.80509
말	-8.81027
▁공	-8.81148
▁그날	-8.81179
▁되나	-8.8132
▁존나	-8.81374
▁달라	-8.8146
▁명이	-8.8162
▁신	-8.81664
마씨	-8.81704
▁기억이	-8.81739
▁살짝	-8.8176
▁잘못	-8.81813
선	-8.81819
▁수업	-8.81847
란	-8.81888
▁제가	-8.82019
이라도	-8.82036
인지	-8.82105
▁너도	-8.82153
▁버스	-8.82316
▁않을까	-8.82392
적인	-8.82688
▁입	-8.82761
▁핸드폰	-8.83049
주고	-8.83094
▁다들	-8.83861
▁가끔	-8.83988
물	-8.84098
▁이러면서	-8.84217
▁유	-8.8469
▁요번에	-8.84707
▁꺼	-8.84784
▁거니까	-8.84832
▁하긴	-8.84988
▁데가	-8.84991
▁없어서	-8.84996
▁그러고	-8.85045
▁같고	-8.85074
▁살고	-8.85092
▁듣고	-8.85169
▁없지	-8.85182
▁아버지	-8.85329
▁파	-8.85386
▁된다	-8.85553
▁따	-8.85575
▁여	-8.85611
▁나오고	-8.85664
에다가	-8.85735
▁거기가	-8.85957
▁좋고	-8.8612
▁성	-8.86249
화	-8.86415
▁적이	-8.86622
보	-8.86732
▁무신	-8.8677
▁크게	-8.86794
그	-8.86843
매	-8.86861
▁어디서	-8.8688
▁갔어	-8.87115
▁그것	-8.8724
▁여섯	-8.87337
▁병원	-8.8745
ing	-8.87684
▁차라리	-8.87886
▁겅행	-8.88277
죠	-8.88364
▁없잖아	-8.88491
▁겡	-8.88541
▁나를	-8.88923
면은	-8.88928
▁뭔지	-8.8912
▁한다	-8.89275
▁아침	-8.89338
▁쪽	-8.89408
▁게임	-8.89486
건데	-8.89528
▁마음이	-8.89802
는거	-8.90184
▁먹어야	-8.90218
것	-8.90353
▁당연히	-8.9037
▁보여	-8.90677
대로	-8.90772
▁했을	-8.90837
소	-8.90989
▁달에	-8.91041
▁아무것도	-8.91427
▁나서	-8.91579
▁여러	-8.9167
적으로	-8.91802
산	-8.91805
겠지	-8.92004
▁중국	-8.92245
▁개월	-8.92381
▁알아서	-8.92546
▁욕	-8.9266
▁맛있는	-8.92693
▁않애	-8.92735
▁초	-8.9277
▁탁	-8.92856
▁좋을	-8.93037
▁없다	-8.9305
▁대한	-8.93318
▁잠깐	-8.9345
▁기분	-8.93591
▁제사	-8.93601
보고	-8.93713
▁먹은	-8.94014
날	-8.9405
▁모	-8.94111
▁걔네	-8.94193
▁커	-8.9421
▁들어서	-8.94213
했는데	-8.94327
▁봔	-8.94749
식	-8.94851
레	-8.94941
▁다니고	-8.94958
에는	-8.95226
▁다니는	-8.95347
▁끝나고	-8.95363
▁맛있어	-8.95942
▁자기는	-8.95942
된	-8.95973
▁심	-8.96084
▁귤	-8.96112
▁봤을	-8.96216
▁니	-8.96315
트	-8.96568
살	-8.96592
▁암튼	-8.96736
▁문제	-8.96852
▁일찍	-8.96986
▁때마다	-8.97111
▁씨	-8.97269
▁커피	-8.97313
▁별	-8.97318
▁있어요	-8.97322
▁잠	-8.97536
▁것만	-8.97622
▁그렇고	-8.97708
불	-8.97741
▁잡아	-8.97768
▁애들은	-8.9791
▁따라	-8.97969
▁와가지고	-8.98014
}	-8.98014
▁이상한	-8.98033
세	-8.981
▁군대	-8.98204
▁가면은	-8.98504
반	-8.9851
▁만나	-8.98569
▁못하고	-8.9869
▁싶은데	-8.98766
▁동	-8.98839
▁넣고	-8.9905
▁나올	-8.99275
들도	-8.99458
우	-8.99549
▁저는	-8.99735
▁과	-8.99745
▁사람들도	-8.99808
▁왔다	-8.99988
▁키	-9.0003
▁아이들이	-9.0037
▁헐	-9.00431
었어	-9.00498
▁자기네	-9.00951
▁일곱	-9.0102
▁풀	-9.01149
▁준	-9.01315
▁딴	-9.01398
▁언니는	-9.01464
으니까	-9.01648
▁가만히	-9.01725
▁사십	-9.01732
▁대학	-9.01815
▁괜찮아	-9.01905
지고	-9.01925
▁왔어	-9.01939
해도	-9.02022
▁가가지고	-9.02024
▁단	-9.0204
▁빼	-9.02209
▁싹	-9.02236
▁젊은	-9.02321
▁어멍	-9.02337
▁편	-9.02383
문	-9.02406
▁사람을	-9.02732
에도	-9.02992
▁금방	-9.03106
▁어쩔	-9.03112
▁이신디	-9.03135
▁매	-9.03234
▁벌	-9.03318
▁먹지	-9.0336
▁좋다	-9.03375
▁올해	-9.03602
▁선	-9.03768
히	-9.03807
▁예전에	-9.03891
곡	-9.03907
▁에이	-9.03955
▁같다	-9.04046
▁예를	-9.04051
▁비싸	-9.04155
▁회사	-9.04166
▁좋지	-9.04323
수다	-9.04435
▁{	-9.04498
▁거라고	-9.04604
▁말라고	-9.04713
▁하려고	-9.04745
▁번도	-9.04828
하는데	-9.04978
▁완	-9.05
▁먹으러	-9.05114
▁다녀	-9.05314
▁학원	-9.0542
▁잔	-9.05491
분	-9.05774
▁몸	-9.0579
▁서귀포	-9.06142
▁쪽에	-9.06217
▁자체가	-9.0624
▁깜짝	-9.06277
▁닮	-9.06309
▁돌아	-9.06388
▁빵	-9.0652
▁받는	-9.06604
▁봐야	-9.06665
▁있나	-9.06701
▁알았어	-9.06789
▁거기도	-9.06823
▁호끔	-9.06836
▁같아요	-9.06964
봐	-9.0706
▁니가	-9.07123
▁대학교	-9.07128
▁모르고	-9.07169
▁모르겠는데	-9.07681
▁자주	-9.07819
▁아무리	-9.07989
라서	-9.07994
▁가도	-9.08061
▁드라마	-9.08187
바	-9.08211
▁밤에	-9.08213
▁봐봐	-9.08262
▁않은	-9.08359
▁정도로	-9.08405
▁그러면은	-9.08449
▁어머니가	-9.08477
▁화	-9.08712
▁카페	-9.08758
▁제주도에	-9.08839
▁영어	-9.08886
▁하기	-9.08997
▁아홉	-9.0905
▁밭	-9.09083
▁늦게	-9.09368
▁없을	-9.09376
▁여덟	-9.09423
▁덜	-9.09664
강	-9.09675
기는	-9.09791
▁친구들	-9.09816
▁닮은디	-9.09967
▁필요	-9.10054
▁제주도는	-9.10364
▁비행기	-9.10364
▁봐도	-9.1045
▁얘는	-9.10689
▁쪽으로	-9.10763
▁쳐	-9.10822
감	-9.10947
▁있긴	-9.11097
▁말은	-9.11284
▁옛날엔	-9.11343
▁좋은데	-9.11631
그냉	-9.11742
명	-9.11775
▁감	-9.1179
▁코	-9.11819
▁위	-9.11919
▁미	-9.12013
▁것들	-9.12096
▁요즘에	-9.1222
▁일부러	-9.12238
▁아우	-9.12753
▁걱정	-9.12759
▁그추룩	-9.12839
▁생각도	-9.12895
▁물론	-9.1291
▁심지어	-9.1292
▁받을	-9.13029
▁하도	-9.13158
마다	-9.13252
락	-9.1337
▁하루에	-9.13389
▁아냐	-9.134
▁아니지	-9.13445
었는데	-9.13542
▁신경	-9.13637
▁중간에	-9.13671
하다	-9.1374
▁완전히	-9.13857
▁엄마는	-9.13894
▁있언	-9.13946
▁우	-9.14184
▁지가	-9.14317
▁있었거든	-9.1434
▁파는	-9.1435
▁형	-9.1463
▁병	-9.14757
▁옆에서	-9.14781
▁노	-9.14839
가면	-9.14983
줘	-9.15096
맨	-9.15106
해가지고	-9.15458
▁어저께	-9.15526
▁하는게	-9.15583
▁하라고	-9.15638
린	-9.15669
중	-9.15776
▁똑같은	-9.1588
▁진	-9.15897
▁혼	-9.15905
이랜	-9.15942
하기	-9.15978
▁하나씩	-9.16069
개	-9.16189
▁걸어	-9.16191
▁스트레스	-9.16376
▁너한테	-9.16467
▁티	-9.16563
들을	-9.1662
▁머	-9.16833
▁맨	-9.17219
▁아이들은	-9.17248
카	-9.1727
▁등	-9.17354
▁데리고	-9.17361
▁아무도	-9.17365
▁스타일	-9.17476
▁왔는데	-9.17616
다는	-9.17885
지만	-9.17957
▁생각하면	-9.18003
▁보다	-9.18024
▁놀러	-9.18046
▁며칠	-9.18051
▁마음	-9.18054
▁미리	-9.18129
▁엄마한테	-9.18217
▁연	-9.18231
▁박	-9.18251
▁먹었어	-9.18283
▁그땐	-9.18316
▁그래가지구	-9.18374
▁통	-9.18567
▁시켜	-9.1869
음	-9.18764
▁마지막	-9.19164
▁육십	-9.192
▁눈이	-9.19248
▁갔다가	-9.1925
국	-9.19293
▁아니냐	-9.19378
▁끝	-9.19422
▁그러면서	-9.19476
▁건디	-9.19549
년	-9.1975
▁몸이	-9.19794
▁김	-9.19795
▁동생	-9.19852
인디	-9.19957
▁나쁜	-9.20031
▁똥	-9.20051
▁밭에	-9.2014
▁할아버지	-9.20164
▁냄새	-9.20245
▁김치	-9.20318
▁그디	-9.20484
왕	-9.20544
▁근디	-9.20593
▁아파	-9.20795
▁허고	-9.20829
▁재	-9.20973
▁첫	-9.21022
▁아무래도	-9.21105
▁저렇게	-9.21171
▁디	-9.21254
▁하는디	-9.21256
▁있다가	-9.21277
이지	-9.21289
▁하지만	-9.2156
▁먹	-9.21567
▁땅	-9.21579
▁찾아	-9.21861
▁밥을	-9.21875
▁놀	-9.21919
▁이유가	-9.22053
▁어렸을	-9.22136
▁바다	-9.2233
▁말하면	-9.22362
▁선물	-9.22557
있는	-9.22687
▁자고	-9.22706
▁키로	-9.22769
▁바	-9.22864
▁가기	-9.2319
▁있는거	-9.23196
했던	-9.23332
▁만들	-9.23379
▁까지	-9.23467
▁아픈	-9.23539
▁헌	-9.23613
▁처음에는	-9.23703
저	-9.23729
▁중요한	-9.23854
▁프로	-9.23887
▁떠	-9.23911
발	-9.23924
▁라고	-9.24081
▁나와서	-9.24162
▁점점	-9.24337
▁다리	-9.24421
▁비싼	-9.24546
▁없으면	-9.24606
있어	-9.24651
▁했다	-9.24679
▁제주도에서	-9.2473
▁목	-9.24907
▁하네	-9.25246
▁너랑	-9.253
▁데는	-9.25327
▁제대로	-9.25486
▁순간	-9.25542
본	-9.25551
▁벌써	-9.25589
잰	-9.25606
▁놔	-9.25754
이라는	-9.25793
▁저녁	-9.2583
루	-9.25872
▁보러	-9.25907
▁속	-9.25939
▁말한	-9.2604
▁앞에서	-9.26062
▁귀	-9.26156
▁얘기해	-9.26268
▁고구마	-9.26285
▁생활	-9.26427
▁만드는	-9.26499
▁먹어도	-9.26511
▁자리	-9.26589
▁담	-9.26796
였어	-9.26953
피	-9.27039
조	-9.27173
▁생긴	-9.27186
▁당	-9.27226
▁치	-9.2724
▁했네	-9.2725
▁이러고	-9.27279
▁생	-9.27403
놓고	-9.27533
달	-9.2764
▁사서	-9.27652
▁검사	-9.27811
▁받은	-9.28191
▁죽	-9.28373
▁만든	-9.28548
▁가자	-9.28614
▁않을	-9.28674
▁가는데	-9.2888
엉	-9.28893
▁그랬는데	-9.28917
되	-9.29182
것도	-9.29343
▁호	-9.29362
▁힘든	-9.2941
▁수술	-9.29563
e	-9.29596
재	-9.29829
파	-9.29949
▁여기는	-9.3014
▁때까지	-9.30412
▁앞으로	-9.30459
▁위해서	-9.30489
▁나무	-9.30493
▁가신디	-9.30528
▁할려고	-9.3063
▁절	-9.30646
▁토	-9.30737
▁하믄	-9.30855
티	-9.31083
▁그런게	-9.31199
▁아들이	-9.31328
)	-9.31382
▁미국	-9.31546
▁쭉	-9.31638
▁밤	-9.31677
▁장난	-9.31704
c	-9.31807
l	-9.31807
▁사람한테	-9.31954
거지	-9.32125
보면	-9.32235
▁할머니가	-9.32308
ar	-9.32358
▁같긴	-9.32496
▁생각하는	-9.32517
무	-9.32524
이잖아	-9.32561
씨	-9.3262
▁녹음	-9.32707
▁있	-9.32777
까지는	-9.32872
▁교육	-9.32913
▁잘해	-9.32997
▁찍어	-9.33017
▁갖다	-9.33108
▁우리나라	-9.33114
▁없다고	-9.33133
▁않나	-9.3314
▁죽을	-9.33143
▁되겠다	-9.33242
갈	-9.33275
▁했다고	-9.33385
▁축구	-9.33407
용	-9.33459
두	-9.33653
▁우리집	-9.33677
▁건강	-9.33727
▁특히	-9.3377
▁투	-9.33785
▁아휴	-9.33878
▁앉아서	-9.33886
▁좋다고	-9.3406
공	-9.34066
▁유명한	-9.34084
▁회	-9.34114
▁시작	-9.34154
▁겐디	-9.34282
▁하던데	-9.34304
▁이야기	-9.34326
야지	-9.3448
▁부산	-9.34575
▁짜	-9.34589
겠어	-9.34634
▁쌀	-9.34646
형	-9.34704
▁내려	-9.34812
모	-9.34823
▁있었던	-9.34876
▁건지	-9.34891
▁셋	-9.34898
막	-9.34904
▁겨울	-9.34948
▁되어	-9.35068
▁싶지	-9.35196
▁보이는	-9.35266
▁쓴	-9.35314
점	-9.35409
▁공부를	-9.35426
▁고민	-9.35537
▁생일	-9.35678
▁이거를	-9.35719
▁가장	-9.35764
▁아방	-9.35779
▁앉아	-9.35779
경	-9.35781
이라서	-9.35857
▁진짜로	-9.35963
이다	-9.36039
▁못하는	-9.36077
▁되는거	-9.3608
직	-9.361
▁다음날	-9.36115
▁여자가	-9.36179
▁강아지	-9.36184
르	-9.36202
▁나오면	-9.36267
▁직접	-9.36492
심	-9.36561
▁나이가	-9.36609
▁오늘은	-9.36615
▁새로	-9.36622
▁준비	-9.36688
가서	-9.36918
▁주면	-9.37077
▁곳	-9.37246
▁팔아	-9.37278
▁병원에	-9.37332
▁칠십	-9.37422
▁잘하는	-9.37488
▁거랑	-9.37623
▁친구랑	-9.37692
▁외국	-9.37728
▁정신	-9.37827
▁재미	-9.37976
▁가족	-9.38038
▁그대로	-9.38039
▁나만	-9.38087
▁거면	-9.38139
▁됐어	-9.38159
▁그저	-9.38159
▁분이	-9.38175
▁번씩	-9.38178
초	-9.38312
▁굉장히	-9.38372
▁학교에서	-9.38399
길	-9.38442
▁금	-9.38482
▁꽃	-9.38629
▁수능	-9.38648
▁일주일	-9.3867
▁라면	-9.38677
▁매일	-9.38803
기가	-9.38828
▁똑같이	-9.38914
▁물어	-9.38941
▁화장실	-9.38961
▁전혀	-9.39013
▁괜히	-9.39046
▁그러게	-9.3914
▁야이	-9.39238
▁빼고	-9.39282
▁치킨	-9.39328
박	-9.39497
▁난리	-9.3958
▁겁나	-9.39651
▁누나	-9.39692
▁그렇게해서	-9.39714
▁없네	-9.39781
▁이천	-9.39789
는디	-9.39861
▁그거에	-9.39881
▁줘야	-9.40205
크	-9.40315
▁(	-9.40347
생	-9.40439
돼	-9.40555
▁올려	-9.40563
▁척	-9.40691
▁집은	-9.40749
▁팔십	-9.40798
병	-9.4087
▁운전	-9.41029
▁말라	-9.41076
▁돈도	-9.41159
터	-9.41163
▁순	-9.41172
▁허는	-9.41177
한거	-9.4138
▁죽어	-9.41502
▁말야	-9.41508
▁저녁에	-9.4153
▁무서워	-9.41559
▁거예요	-9.41605
▁좋게	-9.41714
▁들어간	-9.41733
▁데서	-9.418
관	-9.41818
▁한테	-9.41867
xx	-9.41949
한다고	-9.41958
▁일도	-9.41973
▁address	-9.41982
▁한거	-9.42199
▁시간에	-9.42277
수가	-9.42284
▁나보고	-9.42368
▁해보고	-9.42384
였는데	-9.42465
계	-9.42548
▁불러	-9.42628
▁신고	-9.42714
▁시집	-9.42733
▁있어가지고	-9.42779
▁않는	-9.42787
▁보니깐	-9.42895
회	-9.42923
▁들어가서	-9.42958
▁가져	-9.43165
▁새끼	-9.433
▁마리	-9.43352
▁실	-9.43383
▁바람	-9.43401
▁좋겠다	-9.43483
▁깨	-9.43516
신가	-9.43591
▁고생	-9.43591
▁경행	-9.43667
▁듣는	-9.43761
▁학기	-9.43906
▁졸업	-9.43921
▁뒤	-9.43929
▁골	-9.43944
보다는	-9.4402
▁문제가	-9.44112
▁들어가는	-9.44245
▁없었어	-9.44251
▁했었는데	-9.44327
▁걸려	-9.44338
▁나라	-9.44426
▁돼지	-9.44432
▁xxxx	-9.44579
▁말할	-9.44897
▁딱히	-9.44962
같은	-9.4499
작	-9.45141
▁같지	-9.4515
▁차이	-9.45232
▁만날	-9.4524
▁국	-9.45276
땐	-9.45326
▁고양이	-9.45739
▁그나마	-9.45764
며	-9.45777
▁아니다	-9.45804
▁앞	-9.45868
▁생각하고	-9.45892
▁배달	-9.45901
▁인제	-9.45916
프	-9.46079
▁그것만	-9.4615
준	-9.46204
하다가	-9.46285
▁두개	-9.46361
칠	-9.46411
▁거에	-9.46431
어서	-9.46481
▁쓰	-9.46569
▁일반	-9.46635
▁올라가	-9.46834
▁들어가면	-9.46844
▁몸에	-9.46994
▁할망	-9.47169
▁들어갈	-9.47195
▁여기가	-9.47225
▁스	-9.47262
▁친한	-9.47412
▁씩	-9.47516
▁스무	-9.47586
▁여름	-9.47726
▁이름이	-9.47735
▁잡고	-9.47768
▁눈치	-9.47775
▁훨씬	-9.47947
▁점심	-9.4797
▁주변에	-9.48062
▁후	-9.48072
▁호텔	-9.48072
금	-9.48088
▁조금씩	-9.48167
▁결국	-9.48299
▁감자	-9.48392
▁공무원	-9.48407
▁조금만	-9.48424
판	-9.48427
▁스물	-9.48441
▁했었어	-9.48472
켜	-9.48608
▁미깡	-9.48659
▁싶	-9.48723
▁것처럼	-9.4889
▁차가	-9.48944
▁다이어트	-9.49036
▁교회	-9.49054
▁맞다	-9.49191
▁탈	-9.49239
▁끝나면	-9.49253
▁가난	-9.49437
▁콩	-9.4969
▁질	-9.49716
▁끝나	-9.49762
허	-9.49817
▁까	-9.49836
▁했으면	-9.49844
▁힘들	-9.4985
만은	-9.49964
▁판	-9.49967
▁식	-9.49992
코	-9.50113
하는거	-9.50168
▁기도	-9.5031
▁이모	-9.50532
▁오지	-9.5058
▁원래는	-9.50646
▁겅해도	-9.50791
릴	-9.50832
▁가이가	-9.50925
만큼	-9.50934
온	-9.51027
하잖아	-9.51078
▁영상	-9.51117
▁올라	-9.51325
▁끼	-9.51424
으네	-9.51527
▁이사	-9.51584
▁한라산	-9.51651
령	-9.5167
▁어린	-9.51729
▁해요	-9.5182
호	-9.51909
주는	-9.51922
통	-9.51953
▁남자가	-9.51989
▁드는	-9.52001
교	-9.52017
▁애기들	-9.52018
▁십이	-9.52062
▁생각보다	-9.52236
▁물이	-9.52241
▁총	-9.52256
천	-9.52284
되는	-9.5229
▁나고	-9.52378
▁이래	-9.52543
▁울	-9.52547
▁오니까	-9.52548
포	-9.52674
▁떡	-9.52746
▁웃긴	-9.52847
▁아버지가	-9.52874
▁엄마도	-9.52949
▁그것이	-9.52952
쯤	-9.52984
▁것들이	-9.53074
▁일단은	-9.53144
▁먹었는데	-9.53164
▁않았어	-9.53381
▁이것	-9.53432
▁하자	-9.53462
▁알안	-9.53465
▁넘어	-9.53761
▁많은데	-9.53768
▁막상	-9.53771
가고	-9.53843
앙	-9.53865
▁카톡	-9.5388
타	-9.53943
▁했나	-9.53947
▁크리스마스	-9.53955
더	-9.53966
▁제대	-9.54035
▁대충	-9.54288
▁속에	-9.54317
▁암	-9.54327
▁먹어서	-9.54355
▁먹언	-9.54394
▁친	-9.54448
▁성격	-9.54484
▁엄마랑	-9.54508
▁돼서	-9.54676
▁생각은	-9.54769
같이	-9.54783
▁찍고	-9.54786
▁벌어	-9.54797
▁그때부터	-9.54798
▁처음엔	-9.54905
체	-9.55
▁나갈	-9.55082
▁연애	-9.55148
▁싼	-9.55178
▁맞어	-9.55222
▁많지	-9.55355
주면	-9.55413
▁곧	-9.55561
▁해부난	-9.5557
▁있대	-9.55572
▁대신	-9.55572
▁챙겨	-9.55601
▁아니잖아	-9.55665
▁애들도	-9.55702
▁상황이	-9.55775
▁작년에	-9.55913
▁이러니까	-9.55914
▁처럼	-9.55928
▁색깔	-9.5594
▁오천	-9.55974
▁넣어	-9.561
▁할까	-9.56161
▁카드	-9.56171
▁식당	-9.56243
▁급	-9.56305
▁평	-9.5641
▁거네	-9.56422
인거	-9.56452
▁성격이	-9.56596
▁해그넹	-9.56636
나서	-9.56648
▁게믄	-9.56698
▁머리가	-9.56703
▁최근에	-9.56773
▁예쁜	-9.57003
▁간다고	-9.57501
애	-9.57662
는지	-9.57679
갖고	-9.57737
에서는	-9.57749
배	-9.5775
▁일어나	-9.57766
▁안나	-9.57769
▁마음에	-9.57816
▁워낙	-9.5793
한데	-9.58041
▁싶어서	-9.58046
▁놀고	-9.58125
▁이것저것	-9.58179
복	-9.5838
▁전부	-9.58468
되고	-9.58473
▁봐서	-9.58526
▁쓰레기	-9.58535
▁나보다	-9.5865
▁만약	-9.58789
▁하나만	-9.58809
▁관심	-9.5887
건가	-9.58962
▁들은	-9.59044
▁있던	-9.59096
▁행으네	-9.59282
▁괜찮은	-9.59289
켄	-9.59324
▁방에	-9.59324
▁한번도	-9.5937
▁요리	-9.59408
▁끼고	-9.59408
▁했고	-9.59426
이거든	-9.59578
▁해주고	-9.59596
▁비슷한	-9.59676
▁아파트	-9.59815
▁음악	-9.5997
▁시간을	-9.60067
▁달라고	-9.60149
키	-9.60162
걸로	-9.60242
▁딸이	-9.60326
▁되거든	-9.60366
▁글	-9.60487
냐면	-9.60538
▁싶고	-9.60901
▁요새는	-9.60909
▁맞	-9.60956
했지	-9.61008
▁집을	-9.61014
▁모르겐	-9.61031
▁직장	-9.61038
▁뭐랜	-9.61115
▁인정	-9.61119
울	-9.61245
▁허리	-9.61287
▁빠져	-9.61387
▁고사리	-9.61414
▁오백	-9.61541
▁남편	-9.61639
▁뻔	-9.61663
▁치고	-9.61716
▁만들고	-9.61878
▁보리	-9.62073
▁한참	-9.62086
으	-9.6214
▁정도는	-9.62255
▁지네	-9.62323
께	-9.62359
▁아래	-9.62365
▁되네	-9.62385
▁쉽게	-9.62427
▁쟤	-9.62428
▁나가서	-9.62459
▁할수	-9.62506
▁떼	-9.62511
낭	-9.62599
하려고	-9.62672
▁대화	-9.62824
▁포	-9.62951
▁십만	-9.62997
▁오빠는	-9.63031
▁좋아하고	-9.63054
▁된대	-9.6307
▁새벽	-9.63214
여서	-9.63276
▁쪼끔	-9.63405
었거든	-9.63597
▁바꿔	-9.63599
▁독	-9.63632
▁먹으니까	-9.6365
잖아요	-9.63707
유	-9.63734
▁부터	-9.63736
▁니네	-9.63787
▁아빠는	-9.63838
했을	-9.63933
▁날은	-9.63996
▁맥주	-9.64013
▁가보고	-9.64043
때는	-9.64083
▁오만	-9.64147
▁인스타	-9.6415
즈	-9.64254
▁걔도	-9.64274
▁언니네	-9.64333
한다	-9.64343
젼	-9.6436
▁알았는데	-9.64367
▁십일	-9.64368
담	-9.64369
가지구	-9.64389
▁이해	-9.64426
▁고라	-9.64457
▁털	-9.64822
▁제주시	-9.64827
▁번은	-9.64833
▁만나서	-9.64873
▁같기도	-9.64896
▁나오	-9.64925
▁데도	-9.64926
▁여름에	-9.64937
▁망	-9.65035
▁이해가	-9.65112
▁내고	-9.65124
▁외	-9.65161
▁이백	-9.65187
▁꽤	-9.65224
토	-9.65391
▁닮은	-9.65396
▁만난	-9.65451
▁웃겨	-9.65457
▁돼요	-9.65587
▁말로	-9.65647
▁많아서	-9.65691
▁만나고	-9.65808
세요	-9.65814
▁될지	-9.65884
▁단계	-9.65885
▁써야	-9.65926
▁꿈	-9.65952
▁계란	-9.66168
있고	-9.6617
▁티비	-9.66232
학	-9.66266
▁내년	-9.66304
▁대로	-9.66323
▁살이	-9.66416
부러	-9.66477
▁그때도	-9.6652
▁허믄	-9.6655
▁해그네	-9.66656
임	-9.66666
▁새로운	-9.66668
▁기억나	-9.66699
버	-9.66867
▁언니도	-9.66996
약	-9.67008
▁번째	-9.67106
▁했	-9.67146
▁이틀	-9.67207
▁안되고	-9.67212
급	-9.67218
▁겨울에	-9.67226
▁세상에	-9.67228
▁허영	-9.67321
▁수는	-9.67344
10&	-9.67596
크라	-9.6761
▁관리	-9.6777
와서	-9.67812
▁버	-9.6782
,	-9.67876
▁아기	-9.67897
▁취업	-9.67983
▁간다	-9.68032
겠다고	-9.68193
▁고치	-9.68206
겐	-9.68224
▁인사	-9.6826
▁층	-9.68383
▁보믄	-9.68383
▁오름	-9.68399
졍	-9.68417
▁경허난	-9.68562
▁같아서	-9.68564
▁라는	-9.68619
▁안에서	-9.68633
▁있었고	-9.6864
▁저런	-9.68712
▁밖에서	-9.68795
이는	-9.68934
▁일은	-9.68945
▁담배	-9.69057
▁먹는데	-9.69289
▁최고	-9.69302
▁출근	-9.69304
▁해라	-9.69309
건디	-9.69311
하네	-9.6949
▁노는	-9.69491
▁그랬어	-9.6955
헌	-9.69636
색	-9.69646
▁됐는데	-9.69648
쳐	-9.69666
▁쫙	-9.69693
▁기본	-9.69937
근	-9.70084
▁할거	-9.70114
▁그만큼	-9.70153
▁취미	-9.70167
▁말하고	-9.70266
▁만큼	-9.70343
▁학생	-9.70442
▁매우	-9.70474
▁사이에	-9.70574
메	-9.70581
▁개인	-9.70589
▁예약	-9.70618
▁얘네	-9.70741
▁어느정도	-9.70752
▁갔지	-9.70805
▁결혼식	-9.70964
▁아이는	-9.71014
▁일년	-9.71022
▁하는거야	-9.71076
▁담아	-9.71189
▁잡	-9.71406
하러	-9.71423
▁없	-9.71441
▁언니랑	-9.71549
▁시까지	-9.71635
▁해주는	-9.71738
남	-9.71747
▁나가는	-9.7176
▁새벽에	-9.71792
▁구십	-9.72005
운	-9.72137
▁술을	-9.72166
▁복	-9.72177
▁받아서	-9.72188
▁어우	-9.72206
▁소리가	-9.7221
련	-9.72334
지면	-9.72354
▁좋	-9.72387
▁면접	-9.72432
▁동생이	-9.72442
▁신발	-9.72492
▁아저씨	-9.72552
되면	-9.72557
▁물에	-9.72587
▁이만큼	-9.72627
▁힘	-9.72981
▁보지	-9.73028
▁놓은	-9.73047
▁끊어	-9.73092
▁농사	-9.73167
▁다니면서	-9.73168
▁얼굴이	-9.73176
버려	-9.73182
▁뭐냐면	-9.73258
▁닭	-9.73263
▁메	-9.73301
▁가방	-9.73319
▁나면	-9.73363
시믄	-9.73401
▁친구들이	-9.73494
져서	-9.73501
▁시청	-9.73504
▁큰일	-9.73608
▁에서	-9.73645
클	-9.73692
▁잔치	-9.73694
▁쓰면	-9.73724
▁풀어	-9.73748
▁거긴	-9.73803
▁무시거	-9.73818
▁년에	-9.73822
▁애들이랑	-9.73866
▁했어요	-9.73893
▁될거	-9.73921
▁호꼼	-9.73951
▁끓여	-9.74026
▁안되는	-9.7412
▁퍼	-9.74127
▁이러는	-9.74148
▁자기도	-9.74187
▁이불	-9.74218
▁사랑	-9.74226
▁작년	-9.74255
▁골아	-9.74275
▁그런가	-9.74374
▁x	-9.74393
▁있잖아요	-9.74406
▁해줘	-9.7444
이여	-9.74448
▁이신	-9.74498
▁서울에	-9.74511
▁늘	-9.74524
▁우리한테	-9.74582
▁들었어	-9.74682
▁컴퓨터	-9.74752
▁그쪽	-9.74768
▁눈에	-9.74797
▁베	-9.74905
▁봤거든	-9.74946
▁있다는	-9.74962
▁구경	-9.7505
▁만나는	-9.7511
▁계획	-9.75144
▁키워	-9.75204
▁떡볶이	-9.75236
▁쉬는	-9.75324
▁쇠	-9.75428
▁된장	-9.7543
▁하니	-9.75461
▁당장	-9.75486
▁침	-9.75509
번	-9.75622
▁철	-9.75703
▁짓	-9.75712
x	-9.75724
위	-9.75781
줘야	-9.75825
▁그렇다고	-9.75833
▁각	-9.75919
▁택시	-9.75961
▁손님	-9.75962
▁했었거든	-9.75963
▁남은	-9.76043
▁운동을	-9.76103
▁인가	-9.76177
▁같은거	-9.76231
하나	-9.76303
▁인생	-9.76441
▁갱	-9.76544
▁토익	-9.76553
▁오라고	-9.76629
▁안되	-9.76673
▁좋긴	-9.7668
▁과자	-9.76861
▁기름	-9.76873
허고	-9.7707
▁낼	-9.77078
보니까	-9.77173
완	-9.77187
▁재밌어	-9.77262
▁유투브	-9.77293
▁남편이	-9.77344
▁제주어	-9.77359
▁정도면	-9.7743
▁서울에서	-9.77513
▁경우는	-9.77542
▁주문	-9.77625
▁종	-9.77664
▁반찬	-9.77694
불고	-9.77925
▁꽉	-9.77933
력	-9.77958
▁충격	-9.77976
▁나쁘지	-9.78032
▁장사	-9.78042
▁살면서	-9.782
될	-9.78439
▁교수님	-9.78473
▁있게	-9.78553
▁맞고	-9.7867
▁자연	-9.78727
입	-9.78741
▁일하는	-9.7875
▁편의점	-9.78758
▁촌에	-9.78886
▁숨	-9.78928
증	-9.78974
▁나왔어	-9.79039
▁보는데	-9.79041
시난	-9.79086
▁밥도	-9.79122
평	-9.79144
▁이런게	-9.79284
▁아니면은	-9.79332
백	-9.79364
까봐	-9.79383
▁많으니까	-9.79392
▁같다고	-9.79539
▁있어도	-9.79549
▁맞춰	-9.79633
▁돈은	-9.79636
▁어려운	-9.79707
▁나아	-9.7975
려면	-9.7993
▁건물	-9.80002
▁기분이	-9.80035
▁있댄	-9.80126
신게	-9.80128
었지	-9.80252
▁낫지	-9.80299
▁무서운	-9.80346
▁많잖아	-9.80386
▁탕	-9.80397
사람	-9.80418
▁억	-9.80477
▁날씨	-9.80485
▁있지만	-9.80499
▁그러지	-9.80512
▁이후로	-9.80588
있	-9.80665
▁아니라고	-9.80738
망	-9.808
▁합니다	-9.80829
▁이시난	-9.80881
▁서른	-9.81019
▁봐신디	-9.81116
▁평생	-9.81187
▁남아	-9.81415
▁그난	-9.8149
▁들어와	-9.81527
워	-9.81538
에서도	-9.81641
▁추워	-9.81678
▁죽은	-9.81699
▁다니	-9.81701
권	-9.81806
▁촌	-9.81832
▁돈으로	-9.81844
▁일주일에	-9.81866
▁햄	-9.81904
▁바지	-9.81912
▁높은	-9.81936
먹고	-9.82023
입니다	-9.8204
목	-9.8217
▁사업	-9.82242
▁둘째	-9.82305
▁뒤로	-9.82307
팔	-9.82333
▁사촌	-9.82392
▁몰라도	-9.82526
▁요즘에는	-9.82654
군	-9.82824
▁같	-9.82833
▁배우	-9.82845
▁모르겠다	-9.82877
▁거거든	-9.82959
▁탄	-9.83065
▁얘기하고	-9.83138
현	-9.83179
▁만들어서	-9.83181
▁지금까지	-9.83181
▁이럴	-9.83246
▁옷을	-9.83251
수과	-9.83268
▁물을	-9.83333
노	-9.83336
▁길이	-9.83337
▁그러는	-9.83341
▁열어	-9.83368
▁낭	-9.83413
▁버려	-9.83461
▁유럽	-9.83571
▁어어	-9.83589
▁수영	-9.83596
듯이	-9.83628
▁세상	-9.8368
▁방학	-9.83774
▁얘기하는	-9.83793
▁남자친구	-9.83822
창	-9.83835
▁잠깐만	-9.83887
▁나름	-9.83908
▁대박	-9.83934
름	-9.83983
▁열두	-9.84127
▁청소	-9.84131
▁쯤	-9.84132
▁좋은거	-9.84199
▁나의	-9.84208
▁들을	-9.84242
▁좋아서	-9.84293
습니다	-9.84327
▁처음부터	-9.84403
▁그래야	-9.84433
▁이제까지	-9.84442
▁아니에요	-9.84525
버리고	-9.84703
▁돌려	-9.84767
▁해봐	-9.84854
석	-9.84899
▁사다	-9.84934
▁되는디	-9.84951
▁버리고	-9.84978
▁놈	-9.8503
▁그림	-9.85085
▁집도	-9.85232
▁오빠랑	-9.85236
▁개가	-9.85242
▁키우는	-9.85244
▁짜리	-9.85336
▁가져가	-9.85344
렁	-9.85362
이영	-9.85434
▁나오지	-9.85461
지가	-9.85472
▁상태	-9.85543
▁않으면	-9.85569
▁내년에	-9.85654
▁끝까지	-9.85697
▁차를	-9.85754
▁되면은	-9.85854
역	-9.85917
▁받	-9.85969
▁가이는	-9.86014
▁말해서	-9.86062
▁허여	-9.86071
▁추	-9.86151
청	-9.86165
겨	-9.86198
▁예뻐	-9.86316
▁뛰어	-9.8638
▁생선	-9.86386
▁쉬	-9.86443
▁기숙사	-9.86445
하난	-9.86457
▁있구나	-9.86459
▁없어요	-9.86495
▁나는데	-9.8658
▁이만	-9.86684
마는	-9.86709
▁경험	-9.86715
▁지역	-9.86721
▁여자친구	-9.86841
▁서방	-9.86846
▁살아야	-9.8685
▁결혼을	-9.86998
▁타는	-9.87015
▁자격증	-9.87036
▁있더라고	-9.87091
▁한대	-9.8713
▁사주	-9.87178
▁그다음	-9.87192
▁왜냐면은	-9.87201
▁보험	-9.87327
▁설	-9.8735
▁작	-9.87375
▁만나면	-9.87452
▁해외	-9.87456
▁수학	-9.87724
▁남의	-9.87841
▁싶다고	-9.8786
▁상관	-9.87949
▁싫은	-9.87953
▁들으면	-9.87961
▁동네에	-9.87984
볼	-9.88009
지를	-9.88031
탕	-9.88048
▁떨어져	-9.88187
▁선택	-9.88192
▁보기	-9.88239
▁삼백	-9.88267
알	-9.88335
▁가믄	-9.88367
이란	-9.8844
이었어	-9.88447
▁아님	-9.88453
11&	-9.88551
▁주변	-9.88688
▁피자	-9.8875
▁꿀	-9.88776
▁못할	-9.88819
밥	-9.88825
▁언니한테	-9.88827
▁모르니까	-9.8883
▁해줄	-9.88964
▁해영	-9.89037
▁그러다가	-9.89047
▁지도	-9.89134
▁분위기	-9.89147
▁것보다	-9.89167
▁나가고	-9.89316
▁봄	-9.89334
▁갔거든	-9.89374
▁아이들도	-9.89416
건지	-9.89444
▁거냐	-9.89453
▁가려고	-9.89536
▁옆	-9.89585
했거든	-9.89592
▁친구들이랑	-9.89646
▁입어	-9.89694
▁빨래	-9.89696
▁땜에	-9.89821
▁짜증	-9.89907
▁정리	-9.89918
▁엥	-9.89969
▁후에	-9.90014
론	-9.90022
▁짐	-9.90039
▁월급	-9.90058
▁싸게	-9.90082
라면	-9.90113
▁사야	-9.90212
함	-9.90294
버리니까	-9.90393
▁있을까	-9.90419
▁아니니까	-9.90473
▁반에	-9.905
▁얘기가	-9.90532
▁놓으면	-9.90566
▁좋겠어	-9.90691
▁시장	-9.90729
▁쓰지	-9.90807
▁제주도가	-9.90929
▁없어가지고	-9.90955
▁광고	-9.91015
▁필요한	-9.91114
▁채	-9.91185
▁미안	-9.91278
▁위로	-9.91353
▁뒷	-9.91382
▁하냐	-9.91387
▁찐	-9.91416
▁적은	-9.91422
▁들면	-9.91503
▁군데	-9.91531
▁카	-9.91537
▁너네가	-9.91566
▁관심이	-9.91578
▁한시간	-9.91596
▁당시에	-9.91681
▁몰	-9.91862
▁화가	-9.91873
▁든	-9.91966
▁신기해	-9.92031
떡	-9.92038
▁멀리	-9.92127
▁크	-9.9213
▁손으로	-9.92142
채	-9.92179
▁아줌마	-9.92199
가는	-9.92217
▁하겠다	-9.92218
▁냄새가	-9.92258
▁두번	-9.92272
▁에스	-9.9228
하면은	-9.92286
▁겅해	-9.92339
껄	-9.9236
▁왔다갔다	-9.92367
▁몇번	-9.92377
▁열한	-9.924
▁들어가고	-9.9245
▁팔고	-9.92472
였나	-9.92488
▁쎄	-9.9266
▁약속	-9.92781
▁맛집	-9.93015
▁된댄	-9.93148
▁필요가	-9.93154
했다	-9.93199
▁구워	-9.93336
▁먹엉	-9.93339
버리면	-9.93339
▁공항	-9.93344
태	-9.93554
▁마트	-9.93622
▁소주	-9.93644
▁처	-9.9365
▁보내고	-9.93696
▁날이	-9.93829
▁같으면	-9.9385
▁어멍이	-9.93864
▁모아	-9.93869
▁야이가	-9.93956
마씀	-9.93956
▁교수님이	-9.9397
▁어신	-9.93971
▁긴	-9.94079
▁들어온	-9.94119
▁아빠한테	-9.94196
하멍	-9.9429
▁봤지	-9.94328
▁형님	-9.94335
▁이번엔	-9.94378
▁나오니까	-9.94384
▁할인	-9.94399
▁톡	-9.94438
림	-9.94454
야돼	-9.94506
▁소고기	-9.94545
▁눈물	-9.94603
▁어려워	-9.94621
▁본인이	-9.9463
▁놀아	-9.94659
▁많	-9.94697
쪽	-9.94741
보난	-9.94772
▁생각나	-9.94814
▁거짓말	-9.94835
▁백만	-9.94852
▁부자	-9.94865
▁제발	-9.94873
▁모르게	-9.94901
▁방송	-9.94959
친	-9.94962
▁며느리	-9.94996
▁없거든	-9.95156
▁있었지	-9.95182
보단	-9.95212
▁친정	-9.95214
▁들려	-9.95218
▁법	-9.95219
▁하는지	-9.9523
▁먹었던	-9.95254
▁마시고	-9.95269
▁명절	-9.95309
▁이러면	-9.95334
▁삼천	-9.95356
▁명은	-9.95378
▁저번	-9.9538
▁연예인	-9.95383
▁마음을	-9.95404
▁인터넷	-9.95433
▁겅허난	-9.95455
었	-9.95539
닥	-9.95584
▁틀려	-9.9559
▁소금	-9.9563
▁부모	-9.95709
▁과제	-9.95725
▁받으면	-9.95733
▁이러	-9.9575
▁가면서	-9.95809
▁있냐	-9.95956
님	-9.95957
▁책을	-9.9597
▁중간	-9.95979
▁편하게	-9.96005
▁붙어	-9.96088
▁이제야	-9.9609
▁청	-9.96098
▁학교에	-9.96115
▁칼	-9.96243
겠네	-9.96245
▁시어머니	-9.96249
▁연기	-9.96307
▁말만	-9.96313
▁애초에	-9.96317
▁생각해보면	-9.96353
▁느	-9.96473
편	-9.96482
▁의사	-9.96516
▁끝난	-9.96553
끼	-9.96558
▁친구도	-9.96575
▁배가	-9.96596
는거야	-9.96603
▁봤던	-9.96615
▁용	-9.96626
▁먹기	-9.96629
부런	-9.96641
▁월에	-9.96645
▁게메	-9.96648
▁문화	-9.96651
▁물어봐	-9.96673
▁듯	-9.96678
▁크고	-9.96687
▁할때	-9.96811
▁뼈	-9.96856
▁꼬	-9.96871
▁도대체	-9.96916
▁친구는	-9.96958
▁일어나서	-9.97066
▁배워	-9.97117
▁몰랐어	-9.97124
▁어신디	-9.9714
▁하나가	-9.97164
▁했대	-9.97172
▁사람들한테	-9.97211
▁그러	-9.97231
였거든	-9.97314
덜	-9.97321
▁연습	-9.97339
▁스스로	-9.97347
졌어	-9.97368
쥬	-9.97444
▁과일	-9.97485
글	-9.97578
▁도로	-9.97623
▁한디	-9.97645
했다고	-9.97753
▁여기에	-9.97763
▁형이	-9.97829
▁걔랑	-9.97877
▁나머지	-9.97882
▁거기에서	-9.97892
▁애들한테	-9.97899
▁신청	-9.97901
▁꺼내	-9.97904
광	-9.98032
▁하당	-9.98098
▁동물	-9.98126
▁했지만	-9.98134
▁하나는	-9.98166
▁꿩	-9.98183
▁걸린	-9.98274
▁한번씩	-9.98301
▁말아	-9.98315
시면	-9.98345
▁전기	-9.98357
▁사람이랑	-9.98431
이었는데	-9.98477
▁함	-9.98477
▁개를	-9.98501
▁찍는	-9.98552
▁하나님	-9.98673
▁으	-9.987
따	-9.98704
▁쉬운	-9.9877
▁지나	-9.98786
올	-9.98849
▁박스	-9.98856
▁어때	-9.98968
▁삘	-9.99029
▁각자	-9.99115
드라	-9.99134
▁전에는	-9.99167
▁우유	-9.99179
▁하러	-9.99191
▁나가면	-9.99223
시냐	-9.99247
▁알게	-9.9927
▁오랜만에	-9.99314
▁죽는	-9.9933
▁있더라	-9.99516
▁보다가	-9.99555
▁했댄	-9.99566
▁상황	-9.9957
▁뭐니	-9.99653
▁안경	-9.99705
▁갈아	-9.99716
▁기계	-9.99737
▁모를	-9.99737
▁추석	-9.99786
삼	-9.99855
▁사면	-9.9988
▁계산	-9.99917
▁번에	-9.99918
▁여행을	-9.99969
▁그만	-10.0009
▁입을	-10.0016
▁거래	-10.0024
▁그거랑	-10.0025
▁거다	-10.0031
▁간에	-10.0034
시켜	-10.0039
▁이때	-10.004
▁대부분	-10.0046
▁아빠랑	-10.0047
▁가잖아	-10.0051
▁붙여	-10.0051
▁말하니까	-10.0052
더니	-10.0055
▁싶으면	-10.0057
하거든	-10.0061
▁했다가	-10.0062
▁아파서	-10.0067
▁지원	-10.0086
▁그릇	-10.0087
▁따라서	-10.0089
▁웹툰	-10.009
▁젤	-10.009
▁예쁘게	-10.0095
▁내용	-10.0099
▁휴가	-10.0101
▁나왔는데	-10.0102
▁감기	-10.0111
▁원씩	-10.0113
▁마늘	-10.0114
느냐	-10.0118
▁삼만	-10.0128
할때	-10.0129
▁안해도	-10.0129
▁해줘야	-10.013
▁마지막에	-10.013
▁그때가	-10.0136
▁화장	-10.0143
거리	-10.0148
▁십오	-10.0149
▁가라	-10.0159
▁입는	-10.0161
▁양념	-10.017
▁아프고	-10.0174
▁걔네가	-10.0176
▁곳이	-10.0184
▁배우고	-10.0187
▁분명히	-10.0194
▁낚시	-10.0214
▁싶었는데	-10.022
▁걔네는	-10.0223
이래	-10.0223
었던	-10.0224
▁각시	-10.0232
12&	-10.0233
▁했으니까	-10.0233
들어	-10.0241
놔	-10.0242
돈	-10.0245
▁생겨	-10.0253
▁명이서	-10.0275
▁와야	-10.0277
▁모르	-10.0277
▁왔을	-10.0282
▁모임	-10.029
▁지내	-10.0292
▁해주	-10.0295
▁때만	-10.0299
▁관광	-10.0302
른	-10.0303
돌	-10.0304
있는데	-10.0306
▁요가	-10.0311
▁스타일이	-10.0321
죽	-10.0327
▁가운데	-10.0328
▁무시	-10.0331
▁맞을	-10.0332
▁짜증나	-10.0332
▁직업	-10.0334
순	-10.0342
▁너네는	-10.0347
▁걷는	-10.0362
▁가야지	-10.0364
▁배운	-10.0366
▁무릎	-10.0375
허난	-10.0383
▁어떡해	-10.0393
▁헤	-10.0401
▁보게	-10.0401
자가	-10.0401
▁한두	-10.0402
▁가정	-10.0408
지지	-10.041
▁사회	-10.041
이긴	-10.0411
▁경해도	-10.042
▁얼	-10.0421
▁합격	-10.0434
▁싫어해	-10.0434
▁잘하고	-10.0434
▁갔던	-10.0438
암	-10.044
렌	-10.044
▁면	-10.0441
▁쌤	-10.0448
록	-10.0449
▁맛있게	-10.0454
▁주지	-10.046
▁치즈	-10.0463
짝	-10.0473
▁남는	-10.0473
▁모양	-10.0477
▁당근	-10.0477
▁코로나가	-10.0484
▁아방이	-10.0507
▁국수	-10.0509
▁모르지	-10.0514
▁재미있게	-10.0516
▁쇼핑	-10.0521
▁팀	-10.0522
▁피부	-10.0523
▁일요일	-10.053
등	-10.0536
▁후회	-10.0537
▁자식	-10.0538
▁놔서	-10.0538
▁하얀	-10.0538
▁말했어	-10.0545
▁먹게	-10.0545
▁실제로	-10.0547
오면	-10.0547
▁해녀	-10.0549
▁자는	-10.0549
버려서	-10.0551
▁메밀	-10.0555
▁군	-10.0558
종	-10.0561
▁먹으면서	-10.0562
▁읽어	-10.0568
▁맞아요	-10.057
▁통화	-10.057
하라고	-10.0574
투	-10.0576
▁문자	-10.0585
▁날에	-10.0585
▁차이가	-10.0586
넨	-10.0586
▁어른	-10.0588
▁괜찮은데	-10.0589
▁굴	-10.0593
▁뒤에서	-10.06
▁육지에서	-10.0602
▁빨간	-10.0606
▁낳고	-10.0607
▁가다가	-10.0607
▁성님	-10.0607
▁선생	-10.0608
▁관	-10.0614
▁아들은	-10.0618
오고	-10.0624
▁김밥	-10.0626
▁많을	-10.0627
▁토요일	-10.0628
해신디	-10.063
▁접	-10.0639
▁힘이	-10.0651
▁경찰	-10.0652
▁동아리	-10.0658
▁찍은	-10.0666
▁뽑아	-10.0666
▁나오는데	-10.0667
▁이모가	-10.0669
▁웃	-10.0672
▁시즌	-10.0681
▁빌려	-10.0683
▁된다는	-10.0685
맛	-10.0694
리고	-10.0694
▁역사	-10.0695
▁밀	-10.0695
▁몰란	-10.0698
기만	-10.0709
▁잘라	-10.071
▁닮다	-10.0719
▁주말에	-10.0729
나무	-10.0738
▁말랜	-10.0739
▁할아버지가	-10.0742
성이	-10.0749
▁삼촌	-10.0751
▁자랑	-10.0751
▁너희	-10.0752
▁아이폰	-10.0767
속	-10.078
▁역시	-10.0784
까진	-10.0785
빵	-10.0788
▁착	-10.0795
낸	-10.0796
▁바퀴	-10.0798
▁산에	-10.0799
▁리	-10.0803
▁베트남	-10.0804
▁것을	-10.0814
▁추가	-10.0819
▁맛인	-10.0821
▁같던데	-10.0823
▁했더니	-10.0824
▁지어	-10.0825
▁사이	-10.0826
수도	-10.0829
끼리	-10.0831
▁트	-10.0839
텐데	-10.0853
하긴	-10.0868
▁당신	-10.0869
▁은근	-10.0871
▁마을	-10.0873
▁없언	-10.0875
▁야채	-10.0877
▁모자	-10.0878
▁사니까	-10.088
▁아빠도	-10.0884
▁재밌는	-10.0884
▁샀어	-10.0884
▁것은	-10.0889
육	-10.0891
주만은	-10.0892
▁오면은	-10.0894
▁한림	-10.0899
너	-10.0911
▁요즘엔	-10.0923
▁살면	-10.0925
▁포장	-10.0925
▁않아요	-10.0936
▁엔	-10.0937
▁말하지	-10.0938
▁기대	-10.0944
▁몰라서	-10.0946
▁타서	-10.0947
▁맞네	-10.0953
▁나니까	-10.0954
길래	-10.0956
량	-10.0957
xxx	-10.0959
▁적어	-10.0962
▁사진을	-10.0966
▁행복	-10.0971
▁말씀	-10.0973
▁내려가	-10.0974
▁있었잖아	-10.0981
▁저희	-10.0991
▁어머니는	-10.1002
▁사건	-10.1018
▁틀어	-10.1019
▁넘게	-10.1022
▁오늘도	-10.1032
▁생각해서	-10.1032
▁이라고	-10.1035
버렸어	-10.1046
▁한창	-10.1052
▁마찬가지	-10.1061
▁갈려고	-10.1064
▁사장님	-10.1066
수게	-10.1066
▁누	-10.1073
▁마라	-10.1076
▁잡는	-10.108
▁솔	-10.1082
▁먹잖아	-10.1096
▁나간	-10.1097
기로	-10.1103
▁이걸로	-10.1104
▁보이고	-10.1106
▁막내	-10.1112
▁키우고	-10.1115
치고	-10.1123
▁주사	-10.1125
▁사과	-10.1136
▁애기가	-10.1138
녀	-10.1148
신고	-10.1149
▁찍	-10.1153
▁거기다가	-10.1154
▁세대	-10.1156
설	-10.1161
▁돌아가	-10.1165
▁길어	-10.117
▁아닙니까	-10.1175
보는	-10.1179
▁빙떡	-10.1181
▁거기다	-10.1185
류	-10.1188
▁이추룩	-10.1189
▁이디	-10.1199
부니까	-10.1201
▁이상하게	-10.1204
각	-10.1221
이냐	-10.1223
▁가이네	-10.1229
여가지고	-10.1232
▁포기	-10.1233
▁작아	-10.124
▁케이크	-10.1248
▁치는	-10.1248
▁빚	-10.1253
▁당시	-10.1253
▁이쪽	-10.1264
▁영행	-10.1273
나봐	-10.1273
▁전화를	-10.1275
▁표	-10.1286
▁나완	-10.1296
▁틀	-10.1297
▁목소리	-10.1301
▁신랑	-10.1303
▁부르는	-10.1306
▁가르쳐	-10.1313
▁번호	-10.1316
▁놓	-10.1319
케	-10.132
▁키우	-10.1321
▁백신	-10.1323
▁밭이	-10.1328
봉	-10.1333
▁한다는	-10.1335
만한	-10.1336
▁쥐	-10.1337
업	-10.1338
▁끌고	-10.1338
▁시키	-10.1353
▁배추	-10.1357
▁되서	-10.136
▁좋았어	-10.1362
▁운	-10.1363
▁음식이	-10.1366
▁아닐	-10.1367
▁집중	-10.1369
에게	-10.137
▁나중에는	-10.1374
▁분명	-10.1377
커	-10.1377
▁시간도	-10.1381
▁들었는데	-10.1383
이든	-10.1385
▁저도	-10.1391
▁입에	-10.1397
▁물건	-10.1398
▁먹으려고	-10.1398
▁손에	-10.1401
▁오라	-10.1401
▁여기도	-10.1404
▁직원	-10.1408
▁없는거	-10.1415
▁몰래	-10.1415
▁아니꽈	-10.1415
▁그자	-10.1419
▁똘	-10.1423
▁샀는데	-10.1423
법	-10.1423
▁놈이	-10.1423
▁맘에	-10.1426
값	-10.143
▁오픈	-10.143
향	-10.1432
▁원하는	-10.1432
▁나눠	-10.1437
▁발표	-10.1441
▁올해는	-10.1456
▁부르	-10.1457
하니깐	-10.1464
▁착한	-10.1478
▁빠	-10.1481
▁얘기할	-10.1482
션	-10.1484
▁좋아하거든	-10.1486
▁자전거	-10.1493
▁걸어서	-10.1495
▁행사	-10.1501
▁가을	-10.1501
추	-10.1501
▁좋아하는데	-10.1507
▁실습	-10.1519
▁넘어가	-10.1526
▁확인	-10.1526
으니깐	-10.1537
▁됐	-10.1537
▁근	-10.1538
▁경우에는	-10.1539
▁어디가	-10.1539
었잖아	-10.1542
하믄	-10.1543
▁치매	-10.1547
▁변	-10.1552
쿠다	-10.1553
▁좋댄	-10.1561
했네	-10.1562
▁사는데	-10.1564
▁해본	-10.1578
▁하나에	-10.1579
롱	-10.1582
▁모르는데	-10.1583
▁돼지고기	-10.1592
하니	-10.1598
▁하던	-10.1599
▁갔당	-10.1601
▁차에	-10.1605
▁버리니까	-10.1607
▁주말	-10.1607
▁말이지	-10.1609
▁아저씨가	-10.161
▁생각했는데	-10.1612
▁내내	-10.1626
▁써서	-10.1626
▁강의	-10.1628
▁음식을	-10.1628
▁가까이	-10.1628
봤어	-10.1629
절	-10.1631
이었거든	-10.1633
달라고	-10.1644
▁째	-10.1648
▁단어	-10.1656
쓰	-10.1656
라게	-10.1669
▁반대	-10.1669
▁종이	-10.1671
▁원짜리	-10.1682
▁갈치	-10.1682
▁설명	-10.1683
▁받아야	-10.1708
브	-10.1711
▁시부터	-10.1712
▁흙	-10.1713
▁확진자	-10.1715
▁누게	-10.1716
▁쉬고	-10.172
▁올리고	-10.1723
▁캐	-10.1724
▁우와	-10.1726
표	-10.1727
듯	-10.173
▁요기	-10.1736
▁하나님이	-10.1747
▁활동	-10.1755
▁헬스	-10.1756
▁유행	-10.1757
써	-10.1758
▁학교를	-10.176
▁많다	-10.1763
▁들어오는	-10.1768
▁인기	-10.1772
▁모두	-10.1777
자고	-10.1778
▁먹었지	-10.1782
▁있겠다	-10.1791
▁살다가	-10.1792
▁거구나	-10.1797
▁치료	-10.18
▁된거	-10.1809
▁놩	-10.1813
▁갔	-10.1816
▁자기네가	-10.1821
▁살지	-10.1823
▁세상이	-10.1825
▁뜨	-10.1832
▁걸릴	-10.1836
▁십년	-10.1844
▁꼴	-10.1845
▁물어보	-10.1854
▁여기까지	-10.186
▁만에	-10.186
▁버는	-10.1861
▁팍	-10.1863
▁내는	-10.1863
▁껴	-10.1865
▁생기고	-10.1875
▁느껴	-10.1877
였던	-10.1886
▁골프	-10.1887
▁잡아서	-10.1887
악	-10.1895
▁해난	-10.1896
▁보다는	-10.1897
▁클	-10.19
▁요거	-10.1903
▁전공	-10.1905
▁없대	-10.1905
▁넘	-10.1905
▁주세요	-10.1907
다니까	-10.1912
▁원인가	-10.1913
▁있는지	-10.1918
먹	-10.1919
▁부모님	-10.1921
▁모여	-10.1925
▁생각해보니까	-10.1927
▁끝날	-10.1933
▁싶을	-10.1936
▁냉장고	-10.1944
꽈	-10.1945
였지	-10.1947
▁피아노	-10.1952
▁한댄	-10.1954
들한테	-10.1954
▁편해	-10.1954
▁사람들을	-10.1988
이에요	-10.1989
▁천천히	-10.199
▁들언	-10.199
▁켜	-10.1993
▁권	-10.1997
▁와신디	-10.1999
▁거믄	-10.2
▁뭔데	-10.2008
▁거리	-10.2012
▁조카	-10.2013
▁맘	-10.2013
▁침대	-10.2015
▁웬만하면	-10.2029
▁용돈	-10.2031
던가	-10.2034
▁힘들고	-10.2052
▁상태에서	-10.2053
▁했언	-10.2054
립	-10.2054
▁기사	-10.2063
▁사람의	-10.2066
▁택배	-10.2066
퍼	-10.2067
거고	-10.2068
▁값	-10.2073
▁보니	-10.2073
▁너의	-10.2079
▁주식	-10.2079
▁매운	-10.2082
▁놓는	-10.2086
▁어디냐	-10.2088
았	-10.2089
▁나오잖아	-10.209
▁바다에	-10.2093
▁괜찮	-10.2096
▁아이스크림	-10.2096
▁근무	-10.2097
열	-10.2098
▁뭐든	-10.2101
▁일로	-10.2107
▁뉴스	-10.2117
▁가까운	-10.2118
▁모르겠지만	-10.212
정도	-10.2121
▁쪽이	-10.2124
▁싫어하는	-10.2127
▁사러	-10.2136
▁추천	-10.215
▁느끼	-10.2154
▁아프	-10.2154
▁우선	-10.2155
▁주인	-10.2155
▁이혼	-10.2157
▁중에서	-10.216
덕	-10.2162
신지	-10.2164
허여	-10.2169
염	-10.2171
▁주일	-10.2172
▁쉽지	-10.2172
▁있었	-10.2175
▁추억	-10.2181
▁먼	-10.2183
▁아는데	-10.2192
▁가그넹	-10.2193
새	-10.22
▁친구한테	-10.22
▁사실은	-10.2205
하거나	-10.2205
출	-10.2206
▁창	-10.2206
▁보라	-10.2207
▁역	-10.2209
▁낮에	-10.2211
▁먹으라고	-10.2213
▁뭐하고	-10.2214
▁학	-10.2214
▁가자고	-10.2217
▁도시	-10.2217
▁것들을	-10.222
▁엄	-10.2221
▁옷도	-10.223
▁체	-10.2235
▁달려	-10.2236
▁간장	-10.2239
▁못한	-10.2241
▁향	-10.2242
▁귀신	-10.2249
독	-10.2252
쪄	-10.2257
▁섬	-10.2267
잔	-10.2274
▁미친	-10.2284
▁땀	-10.2287
▁걔한테	-10.2293
▁어른들	-10.2295
▁했는지	-10.231
▁빈	-10.2324
▁이빨	-10.2325
▁논	-10.2331
짜리	-10.2333
소리	-10.2336
▁맞춰서	-10.2339
▁오일장	-10.234
▁흰	-10.2344
▁인데	-10.2361
▁시키고	-10.2364
▁고등어	-10.2367
▁지나가	-10.2377
▁호박	-10.2378
▁가격	-10.2383
▁해갖고	-10.2384
▁겅해부난	-10.2384
져가지고	-10.2388
▁보자	-10.239
▁오는데	-10.2393
▁설거지	-10.2401
▁카메라	-10.2401
13&	-10.2406
▁치면	-10.2406
▁직	-10.2406
▁조용히	-10.2406
▁얘기도	-10.2408
▁봉	-10.2413
▁전날	-10.2414
▁가라고	-10.2415
▁않게	-10.2416
▁그리	-10.2419
▁어시난	-10.2422
▁꿈이	-10.2428
▁만한	-10.243
기를	-10.2431
▁있겠지	-10.244
▁집안	-10.2445
▁손이	-10.2447
▁보낸	-10.2447
▁알앙	-10.2449
리는	-10.2451
▁얘기하면	-10.2463
▁색	-10.2469
▁있는게	-10.2472
▁그렇구나	-10.2478
▁하시는	-10.2485
▁하루종일	-10.2485
▁줬어	-10.2486
▁기다려	-10.2486
▁지난	-10.2494
▁짝	-10.2501
▁에프	-10.2507
▁심해	-10.2509
▁때려	-10.251
▁주니까	-10.2511
했잖아	-10.2512
▁찌	-10.2517
싸	-10.2517
▁모습	-10.2518
▁됐지	-10.2523
지니까	-10.2525
▁갈까	-10.2532
▁세금	-10.2533
중에	-10.2537
▁가졍	-10.2543
▁우리끼리	-10.2545
▁올라가는	-10.2557
▁돼가지고	-10.2558
시간	-10.256
▁않은데	-10.2564
▁가끔씩	-10.2571
마시	-10.2572
▁이래서	-10.2575
▁소름	-10.2578
▁않냐	-10.258
▁사다가	-10.2581
봔	-10.2582
▁옆으로	-10.2592
▁들어오	-10.2598
▁센	-10.26
▁괜찮을	-10.26
▁산책	-10.2601
▁사람인데	-10.2601
▁올리	-10.262
▁하겠지	-10.2621
▁살려고	-10.2622
▁하는거지	-10.2623
▁이년	-10.2626
▁하겠다고	-10.2631
▁맞은	-10.2633
▁허는디	-10.2635
▁고모	-10.2642
▁시대	-10.2642
▁때나	-10.2647
▁버리면	-10.2655
▁소개	-10.2657
▁악	-10.2657
▁하는거라	-10.2659
▁생각엔	-10.2664
▁모르크라	-10.2666
▁길게	-10.2667
▁몰랐는데	-10.2669
▁말인지	-10.2671
▁오빠도	-10.2677
거는	-10.2678
▁생각나는	-10.2682
▁졸	-10.2686
▁되긴	-10.2688
▁패	-10.269
시고	-10.2691
▁오빠한테	-10.2697
▁그런건	-10.2701
▁지방	-10.2703
탄	-10.2706
먹어	-10.2721
▁누워	-10.2729
▁배우는	-10.2734
▁상담	-10.2735
▁놀란	-10.2736
▁@	-10.2742
▁옛날부터	-10.2757
▁내야	-10.2758
▁아니까	-10.2759
▁어린이집	-10.2762
▁겅하난	-10.2762
▁의미	-10.2765
▁가네	-10.2767
▁롤	-10.2768
▁예전에는	-10.2768
▁간호사	-10.2769
▁노력	-10.277
였	-10.277
봐야	-10.2772
▁신기한	-10.278
▁허민	-10.2784
▁여기저기	-10.2796
▁안하면	-10.2797
▁취소	-10.2799
▁살기	-10.2807
아니	-10.2809
▁알겠어	-10.2813
▁세계	-10.2814
견	-10.2814
▁멸치	-10.2818
▁것들은	-10.2819
▁년도	-10.2823
▁받았어	-10.2825
▁족은	-10.2827
▁길을	-10.2827
▁아아	-10.2829
▁이랬는데	-10.2831
▁오토바이	-10.2839
링	-10.2844
▁왔	-10.2844
▁그렇	-10.2854
적이	-10.2855
수다게	-10.2857
▁경해	-10.2858
▁발라	-10.2873
▁유치원	-10.2876
▁옷이	-10.2879
▁낮	-10.288
▁좋았던	-10.2896
▁혼자만	-10.2902
라부난	-10.2908
▁어쩔수	-10.2917
▁들어올	-10.2923
▁황	-10.2925
▁게민	-10.2928
▁국물	-10.2931
▁왔지	-10.2938
▁널	-10.294
골	-10.2942
▁전복	-10.2948
▁허지	-10.2951
▁남자들	-10.2952
▁브랜드	-10.2953
▁성적	-10.2956
▁따뜻한	-10.296
▁싸고	-10.2964
▁얘기는	-10.2966
▁손님이	-10.2974
▁패딩	-10.2974
▁좋아요	-10.2974
▁얻어	-10.2976
에선	-10.298
▁붙	-10.2986
▁바당	-10.2987
▁그랬더니	-10.2995
▁빠진	-10.3009
▁먹는거	-10.3017
▁이시믄	-10.3027
볼까	-10.303
▁말아야	-10.3033
▁찾	-10.3033
▁이름을	-10.3035
▁석	-10.3042
잡	-10.3045
▁숙소	-10.3047
▁생각할	-10.3053
▁넣으면	-10.3055
하더라	-10.3058
▁문제는	-10.3059
▁야이는	-10.306
머	-10.3061
▁됐을	-10.3066
멘	-10.3067
거든요	-10.3071
▁주제	-10.3072
▁높아	-10.3075
▁프로그램	-10.3078
▁사람만	-10.3078
하는게	-10.3082
▁아직은	-10.3083
▁하젠	-10.3085
▁아니지만	-10.3087
▁들이	-10.3093
▁하다보면	-10.3101
▁처음으로	-10.3102
▁그쪽에	-10.3103
▁선배	-10.3103
▁화장품	-10.3103
▁왔다고	-10.3122
엄	-10.3124
▁거라서	-10.3127
짓	-10.3128
▁술집	-10.3134
▁우리집에	-10.3136
▁삼성	-10.3143
했	-10.3143
▁축제	-10.3144
▁십분	-10.3146
언니	-10.3148
▁사기	-10.3151
▁귀여워	-10.3153
려서	-10.3154
▁알바를	-10.3161
▁유지	-10.3163
을때	-10.3168
지만은	-10.3168
▁국어	-10.3171
▁먹다가	-10.3172
▁속으로	-10.3175
격	-10.3176
▁낸	-10.3176
▁대출	-10.3185
▁소문	-10.3187
▁컵	-10.319
리가	-10.3195
▁뭐였지	-10.3202
▁꾸준히	-10.3206
▁육지에	-10.3208
술	-10.3208
▁질문	-10.3211
▁노트북	-10.3215
▁봤	-10.3218
▁알아야	-10.3225
▁테레비	-10.3226
▁보낼	-10.3234
드라고	-10.324
▁아이도	-10.3243
버리	-10.3244
▁다른데	-10.3253
셔	-10.3262
▁퍼센트	-10.3262
▁버리는	-10.3264
▁영국	-10.3264
▁폰	-10.3269
▁들어오면	-10.3269
▁대학원	-10.3274
▁주에	-10.3277
든지	-10.3277
▁사장님이	-10.328
▁키가	-10.3288
슬	-10.3293
▁난다	-10.3293
▁어깨	-10.3294
▁예배	-10.3295
버린	-10.3303
▁느끼는	-10.3303
▁올라갈	-10.3308
쪽으로	-10.3309
▁밀어	-10.3321
플	-10.3321
장이	-10.3325
▁있었을	-10.3326
▁눌러	-10.3327
▁오케이	-10.3331
▁드	-10.3333
띠	-10.3336
▁이상해	-10.3336
▁나가지고	-10.3356
▁천원	-10.3356
▁유튜브	-10.3364
▁개씩	-10.3369
▁알았	-10.3375
▁해주면	-10.338
▁빨	-10.3383
후	-10.3384
▁차려	-10.3385
▁보민	-10.3386
▁걸리는	-10.3393
▁설탕	-10.3397
테	-10.34
▁해여	-10.3401
▁교복	-10.3401
▁사용	-10.3406
꼬	-10.3408
▁느낀	-10.3411
▁졸라	-10.3413
▁쑥	-10.3419
▁말앙	-10.3423
▁머리를	-10.3423
▁치마	-10.3425
▁걸리	-10.3425
▁어시	-10.3428
▁감정	-10.3429
▁휴학	-10.3434
▁물질	-10.3434
거에요	-10.3435
▁라	-10.3435
▁키울	-10.3436
▁세워	-10.3437
▁퇴근	-10.3438
▁계단	-10.3439
▁모양이라	-10.3439
▁도시락	-10.3442
▁편한	-10.3442
▁지하철	-10.3449
▁있던데	-10.3451
우다	-10.3457
▁안될	-10.3459
▁했었지	-10.346
▁뿌려	-10.3464
▁가시	-10.3466
▁올리는	-10.3467
▁밀가루	-10.3467
▁할머니들	-10.3473
▁남자는	-10.3474
▁먹자	-10.3475
▁만화	-10.3479
없이	-10.3482
▁그래갖고	-10.3484
▁관광지	-10.3486
▁조심	-10.3491
▁온다고	-10.3496
▁모양이야	-10.3496
▁회장	-10.3511
▁부탁	-10.3511
▁두고	-10.3513
▁돼야	-10.3514
▁공부하는	-10.3514
▁그러는데	-10.3516
▁댕겨	-10.3518
▁펴	-10.352
▁쪼	-10.352
▁준다고	-10.3521
▁방어	-10.3524
▁오랜	-10.3528
▁하길래	-10.3529
추룩	-10.3529
▁해그냉	-10.353
▁않아서	-10.353
▁싶긴	-10.3534
▁과목	-10.354
▁맞으면	-10.3544
▁기억에	-10.3547
▁대만	-10.3547
▁데려다	-10.3555
▁하든	-10.3561
▁당시에는	-10.3563
▁고추	-10.3564
▁잠을	-10.3567
▁검은	-10.3568
▁못하게	-10.357
▁않았는데	-10.3571
▁가본	-10.3572
▁강원도	-10.3577
▁되기	-10.3578
랭	-10.358
▁갔잖아	-10.358
▁부분이	-10.3583
▁좋아해서	-10.3586
▁나라에서	-10.3595
손	-10.3603
▁연락이	-10.3607
▁낫	-10.363
▁지나면	-10.3631
▁발전	-10.3637
▁해놓고	-10.3638
▁허당	-10.3643
▁충분히	-10.3644
▁다니면	-10.3646
▁짠	-10.3656
▁그렇긴	-10.3662
▁정상	-10.3664
▁하르방	-10.3668
▁평소에	-10.3672
밭	-10.3673
니다	-10.3675
▁놔두면	-10.3677
었다	-10.3683
▁사이즈	-10.3695
▁학교가	-10.3696
▁욕심	-10.37
▁되가지고	-10.3706
가난	-10.3713
▁살다	-10.3716
식으로	-10.3718
▁남자들은	-10.3719
오는	-10.3719
노난	-10.372
나면	-10.3721
▁어디로	-10.3735
▁일하고	-10.3735
▁결정	-10.3737
▁떨어진	-10.3739
허멍	-10.3742
▁살아서	-10.3742
▁뿌리	-10.3749
▁얘길	-10.3751
▁애월	-10.3752
▁생기는	-10.3754
▁하냐고	-10.3754
▁입은	-10.3758
▁아닌거	-10.377
▁됐다	-10.3772
지게	-10.3772
▁대면	-10.3772
▁적도	-10.3773
▁초반에	-10.3773
▁모르겠고	-10.3776
탈	-10.3778
▁재수	-10.3779
▁썰	-10.3782
▁없었는데	-10.3784
▁보말	-10.3786
▁태	-10.3786
▁원에	-10.3792
▁않으니까	-10.3793
▁내용이	-10.3793
쯤에	-10.3796
▁어딜	-10.38
▁밑으로	-10.3813
▁막걸리	-10.3814
▁본인	-10.3815
▁가는거	-10.382
▁자연스럽게	-10.3826
▁넣는	-10.3832
▁미안해	-10.3838
가면서	-10.3839
▁간식	-10.384
▁들어야	-10.3841
▁똑같애	-10.3847
▁그랬지	-10.3853
하자	-10.3857
햄	-10.3857
▁삼춘	-10.3858
▁학점	-10.3866
▁알잖아	-10.3871
▁멀	-10.3871
▁햇빛	-10.3874
▁좋아하지	-10.388
▁플러스	-10.3881
▁하라	-10.3881
▁아부지	-10.3884
▁부부	-10.3886
▁과학	-10.3886
▁못해서	-10.3889
치는	-10.3889
▁삶	-10.389
▁전부터	-10.3891
▁맞는데	-10.3892
▁비가	-10.3904
▁감귤	-10.3904
때문에	-10.3904
▁꾸	-10.3905
▁은행	-10.3907
▁훈련	-10.3908
▁하세요	-10.3908
나고	-10.3914
▁앉앙	-10.3915
▁첫째	-10.3916
▁행동	-10.3922
▁자신	-10.3927
▁아니네	-10.3932
▁어릴때	-10.3935
에요	-10.3935
▁시키는	-10.3938
▁몸을	-10.3939
찌	-10.394
야겠다	-10.394
▁던져	-10.394
습니까	-10.3941
▁있으면은	-10.3941
▁해결	-10.3949
▁공기	-10.395
▁년을	-10.3951
▁벌고	-10.3952
곳	-10.3955
▁뭘로	-10.3959
품	-10.3966
▁구멍	-10.3967
▁경우도	-10.3967
빠	-10.3975
▁궁금한	-10.3977
▁손가락	-10.3986
▁오죽	-10.3986
▁똑	-10.3988
▁성공	-10.3992
▁비대면	-10.3995
이어서	-10.3997
▁얘랑	-10.3998
더라고요	-10.3998
▁능력	-10.3999
▁삼일	-10.4
▁지는	-10.4003
있네	-10.4004
▁홍콩	-10.4007
▁정확히	-10.4007
▁명씩	-10.4009
▁찬	-10.4009
▁있냐고	-10.401
▁오기	-10.401
▁그쪽으로	-10.4012
▁죽고	-10.4014
▁공연	-10.4018
▁오줌	-10.4021
▁근처에	-10.4021
런	-10.4021
▁쌍	-10.4023
▁되난	-10.4023
허게	-10.4028
▁여자는	-10.4029
▁놀래	-10.4029
▁개발	-10.4033
쌤	-10.4036
▁인간	-10.4037
▁추운	-10.4038
▁스토리	-10.4041
▁와도	-10.4043
▁강으네	-10.4043
▁씻고	-10.4044
합	-10.4046
마심	-10.4048
던디	-10.4049
▁메뉴	-10.405
▁올라와	-10.405
▁없나	-10.405
▁어머님	-10.4051
▁다녀야	-10.4052
▁관련	-10.4054
주세요	-10.4054
▁무서워서	-10.4056
▁듣기	-10.4058
▁했주게	-10.4061
▁일만	-10.4063
▁두번째	-10.4066
▁코스	-10.407
▁나왔	-10.4071
▁빠지는	-10.4072
▁삼년	-10.4073
▁되겠어	-10.4074
▁썰어	-10.4074
했고	-10.4075
▁가이도	-10.4075
▁뭐해	-10.408
▁이쁜	-10.4085
▁넷플릭스	-10.4085
해주고	-10.4085
▁홀	-10.4086
▁튀김	-10.4086
▁속이	-10.4091
▁좋았	-10.4091
▁중국어	-10.4091
▁생각한	-10.4095
책	-10.4096
▁해준	-10.4097
▁위에서	-10.41
▁사투리를	-10.41
▁쪽은	-10.4104
도록	-10.4105
▁하나를	-10.411
▁멀어	-10.4113
▁투자	-10.4113
자마자	-10.4113
냥	-10.4122
▁춤	-10.4125
▁이성	-10.4125
▁연락을	-10.4126
▁아버지는	-10.4126
▁어른들이	-10.413
▁생겼어	-10.413
▁길에	-10.4133
▁보이지	-10.4151
철	-10.4156
▁할꺼	-10.4159
▁도새기	-10.416
▁이런데	-10.4161
나신디	-10.4162
▁공사	-10.4168
▁바빠	-10.4169
▁엉덩이	-10.4171
▁가슴	-10.4171
▁창문	-10.4173
▁광	-10.4175
▁가진	-10.4175
▁해야되나	-10.4177
▁자라	-10.4181
▁버리	-10.4184
▁얘네가	-10.4186
▁또래	-10.4188
▁다닌	-10.4191
▁터	-10.4195
할까	-10.42
▁어쩌고	-10.4204
▁되니깐	-10.4204
▁양말	-10.4209
집이	-10.4215
혀	-10.4216
▁녹	-10.4218
▁자기한테	-10.4228
든가	-10.4229
▁번만	-10.4232
집에	-10.4234
▁짧은	-10.4235
축	-10.4237
▁금요일	-10.4239
▁어찌	-10.4241
▁읽는	-10.4241
▁종교	-10.4243
▁교수	-10.4246
▁선생님은	-10.425
▁얘기하니까	-10.4254
▁고등학생	-10.4254
▁여긴	-10.4262
▁썩	-10.4263
▁친구네	-10.4268
십	-10.4271
▁놀랐어	-10.4271
▁독서실	-10.4274
▁집에만	-10.4275
▁상처	-10.4276
▁시내	-10.4282
▁그랬던	-10.4293
▁알려	-10.4297
▁올린	-10.4302
곤	-10.4304
▁이케	-10.4304
▁공부할	-10.4305
▁뜯어	-10.4306
▁목욕	-10.4309
▁합	-10.4311
▁운동도	-10.4313
▁대단한	-10.4317
▁저것도	-10.432
▁노형	-10.4325
▁데령	-10.4333
▁가지구	-10.4336
▁대학생	-10.4337
▁애를	-10.4337
▁않았	-10.4341
▁없댄	-10.4344
▁도저히	-10.4349
▁나와가지고	-10.4353
▁개인적으로	-10.4353
▁입장에서는	-10.4356
▁이런걸	-10.4356
▁전화가	-10.4357
▁그믄	-10.4357
▁있어신디	-10.4361
▁마흔	-10.4361
▁겨우	-10.4362
▁민	-10.4362
▁디자인	-10.4365
▁송	-10.4367
▁젖	-10.4368
▁근육	-10.4371
▁인도	-10.4371
▁야간	-10.4373
▁나빠	-10.4375
▁촬영	-10.4389
▁병원에서	-10.439
▁북	-10.4395
▁배울	-10.44
▁입원	-10.4403
되어	-10.4403
에다	-10.4408
▁걱정이	-10.441
▁시작한	-10.4412
풀	-10.4413
▁혼자서	-10.442
▁점수	-10.4425
▁맛있다고	-10.4426
끄	-10.4427
▁텐데	-10.4428
줬어	-10.4429
▁주로	-10.4435
느	-10.4435
▁두시간	-10.4435
▁삼십분	-10.4443
▁회의	-10.4444
▁걸리면	-10.4445
▁딱딱	-10.4447
▁도움	-10.4447
▁새우	-10.4458
▁손을	-10.4458
▁얼굴에	-10.4461
▁상상	-10.4464
▁필	-10.4466
▁동네에서	-10.4467
들끼리	-10.4467
▁넣어서	-10.4467
▁옮겨	-10.447
▁십팔	-10.447
▁남자들이	-10.4472
▁듣	-10.4475
▁마시	-10.4476
▁날씨가	-10.4477
▁어떡하지	-10.4477
▁대회	-10.4478
▁겐	-10.4481
하다고	-10.4486
▁허연	-10.4489
외	-10.4491
▁쓰니까	-10.4491
때도	-10.4491
있잖아	-10.4494
▁들어와서	-10.4496
▁관련된	-10.4501
▁눈썹	-10.4506
▁올라가서	-10.451
▁심어	-10.4511
▁집으로	-10.4513
겠어요	-10.4516
▁아니아니	-10.4517
▁재밌게	-10.4518
▁골라	-10.4521
있지	-10.4533
▁공부도	-10.4536
▁땐가	-10.4536
▁자동차	-10.4537
▁뿐	-10.4538
▁괜춘	-10.4543
▁풍	-10.4543
▁가젠	-10.455
▁생각에는	-10.455
▁꿈을	-10.455
▁찾아서	-10.4554
▁울어	-10.4554
▁커서	-10.4555
▁않잖아	-10.4556
머리	-10.4568
▁이번에는	-10.4569
▁읽고	-10.4572
▁결혼할	-10.4577
▁생기	-10.4589
▁뱀	-10.459
▁거기를	-10.4593
▁누구냐	-10.4594
▁호주	-10.4595
▁얘기한	-10.4597
▁했었잖아	-10.46
▁대답	-10.4603
▁모여서	-10.4613
▁안먹어	-10.4615
▁자리가	-10.4617
▁있으니깐	-10.4619
▁있었다	-10.462
▁국내	-10.4622
▁사가지고	-10.4622
▁귀찮아	-10.4625
이었나	-10.4631
▁믿	-10.4633
벌	-10.4635
▁우리랑	-10.4636
▁됀	-10.4639
▁적당히	-10.4641
▁벗	-10.4644
▁화자	-10.4646
▁거에요	-10.4646
▁하거나	-10.4649
▁그런걸	-10.465
▁애기를	-10.465
보라	-10.4651
▁그분이	-10.4652
▁실수	-10.4654
▁업	-10.4655
▁무신거	-10.4657
▁합니까	-10.4659
였고	-10.4664
▁전화해	-10.467
▁않으	-10.4675
▁낳	-10.4676
쿠	-10.4691
▁생길	-10.4693
베	-10.4693
족	-10.4695
숙	-10.47
▁방법이	-10.4704
▁나이에	-10.4709
▁물어보고	-10.4709
▁쉬어	-10.4712
▁해봤자	-10.4715
▁교	-10.472
▁차도	-10.4722
▁종일	-10.4723
▁쓰리	-10.4723
▁누구랑	-10.4724
▁효과	-10.4726
▁인턴	-10.4729
▁한마디	-10.473
▁보이	-10.4732
▁신제주	-10.4733
▁많네	-10.4735
로만	-10.4739
▁십이월	-10.4743
귀	-10.4744
▁폴	-10.4747
놓은	-10.4747
시민	-10.4749
전에	-10.4754
▁회사에서	-10.4754
▁표정	-10.4755
▁봉사	-10.4758
▁딸기	-10.4766
▁뭣	-10.4767
▁샀	-10.4768
▁보멍	-10.4771
▁일등	-10.4772
쪽에	-10.4773
▁아이패드	-10.4777
▁심한	-10.4783
▁표현	-10.4786
할거	-10.4786
처	-10.4792
▁비타민	-10.4792
아이	-10.4796
▁일상	-10.4796
었다고	-10.4796
▁많았어	-10.4798
▁먹을거	-10.4799
▁바꿀	-10.4803
▁공부하고	-10.4803
▁타임	-10.4803
▁최대한	-10.4808
▁분들이	-10.4809
▁십만원	-10.4811
▁아들도	-10.4813
또	-10.4814
▁시기	-10.4817
▁아기들	-10.4817
▁재료	-10.482
▁피티	-10.4823
▁하맨	-10.4827
▁사우나	-10.4828
▁짧게	-10.4832
▁해야돼	-10.4834
▁찍을	-10.4845
▁선수	-10.4849
캔	-10.4851
▁생기면	-10.4851
진거	-10.4852
▁필라테스	-10.4853
▁돈만	-10.4856
▁밑	-10.4858
렸어	-10.4863
▁둘이서	-10.4864
왔	-10.4864
▁가그네	-10.4871
시는	-10.4872
▁쯤에	-10.4875
▁검	-10.4876
▁쪽에서	-10.4877
▁닮고	-10.4877
▁약을	-10.4885
웠	-10.4888
▁환경	-10.4894
▁염색	-10.4899
뭐	-10.4904
▁타면	-10.4906
▁자유	-10.4906
▁이유	-10.4908
▁오후	-10.4909
딱	-10.4911
▁급식	-10.4911
▁일학년	-10.4912
봤자	-10.4913
▁출발	-10.4917
주지	-10.4922
▁부분	-10.4924
▁그러다	-10.4929
▁독감	-10.4934
▁누군지	-10.4938
▁괜찮다	-10.494
▁써도	-10.4942
▁애는	-10.4942
▁데려가	-10.4943
▁기가	-10.4947
▁눈을	-10.4948
▁나왔을	-10.4955
▁딸은	-10.4956
▁물도	-10.4961
▁해봐야	-10.4961
▁어이가	-10.4966
▁장가	-10.4969
료	-10.497
▁정신이	-10.4972
▁xxxxx	-10.4972
팀	-10.4976
▁현실	-10.4981
▁헌디	-10.499
▁대체	-10.4992
▁추천해	-10.5001
진다	-10.5005
▁친구들은	-10.5008
▁답	-10.5008
▁물어보면	-10.5008
사가	-10.5012
▁하민	-10.5013
▁그런지	-10.5014
▁출	-10.5018
▁제주도도	-10.5023
▁좋더라	-10.5023
▁찍어서	-10.5025
▁걷	-10.5026
▁분들	-10.5032
봤는데	-10.5036
▁말했지	-10.5036
▁겅해신디	-10.5037
▁안된다	-10.5039
▁성인	-10.5041
▁폭	-10.505
말고	-10.5055
▁여자들	-10.5056
▁친구들도	-10.5062
▁싶어가지고	-10.5068
거라고	-10.5076
▁산다	-10.5078
▁경기	-10.5085
었네	-10.5086
▁궁금해	-10.509
잘	-10.509
▁전쟁	-10.5093
스트	-10.5095
▁이주	-10.5097
▁케이스	-10.5101
할려고	-10.5103
놓	-10.5105
▁싸워	-10.5106
▁신랑이	-10.511
▁임신	-10.5111
▁마음대로	-10.5113
▁끝에	-10.5117
▁원을	-10.5122
아서	-10.5123
▁했구나	-10.5124
▁킬로	-10.5125
▁동기	-10.5125
▁상품	-10.5126
▁종류	-10.5127
▁줬는데	-10.5128
▁만들었	-10.5128
▁네가	-10.513
▁들었던	-10.513
▁헬스장	-10.5131
▁마라탕	-10.5135
척	-10.5139
갔어	-10.5139
▁초코	-10.514
▁이뻐	-10.5141
▁여자들이	-10.5142
▁소스	-10.5143
▁옥돔	-10.5147
▁취직	-10.515
▁도착	-10.5158
▁얘도	-10.5159
▁비슷해	-10.516
▁다니지	-10.516
▁자이	-10.5162
▁누나가	-10.5165
▁자취	-10.5165
▁어떨	-10.5166
▁결국은	-10.517
▁필기	-10.5175
▁언어	-10.5176
▁말에	-10.5177
▁말했잖아	-10.5177
▁맛도	-10.5177
▁프랑스	-10.5179
▁누구한테	-10.5183
▁뚜껑	-10.5189
까지만	-10.5192
▁성질	-10.5192
▁아이들한테	-10.5192
▁말하는거	-10.5193
▁푸	-10.5195
▁젊을	-10.5199
▁관계	-10.52
▁편지	-10.5201
▁원이	-10.5203
력이	-10.5205
▁쌤이	-10.5206
14&	-10.5212
▁테이블	-10.5213
을까	-10.522
▁좋으니까	-10.522
충	-10.5221
이었던	-10.5221
▁떠나	-10.523
▁놔두고	-10.5231
▁소리를	-10.5238
▁쉴	-10.5239
▁물어보는	-10.5244
이구나	-10.5246
▁경우	-10.5252
▁갑	-10.5253
▁맛은	-10.5253
▁찾는	-10.5255
▁달아	-10.5257
▁초반	-10.5258
보자	-10.5259
▁초밥	-10.5262
▁됩니다	-10.5264
▁생각하지	-10.5264
▁많거든	-10.5267
▁오징어	-10.5267
▁어머	-10.5271
▁턱	-10.5275
▁작업	-10.5277
▁근처	-10.528
▁아플	-10.5281
합니다	-10.5282
▁봐라	-10.5284
▁맛있고	-10.529
▁거기까지	-10.5295
한테도	-10.5301
▁와인	-10.5301
▁잖아	-10.5303
▁보려고	-10.5303
▁힘들게	-10.5305
▁틀린	-10.5309
▁욕을	-10.5311
▁않지	-10.5316
▁다음주	-10.5316
둘	-10.533
▁팔천	-10.5334
▁노래를	-10.5335
▁재민	-10.5337
▁미용실	-10.5345
▁받지	-10.5349
▁섞어	-10.5351
▁가격이	-10.5353
▁올라오	-10.5354
▁쓰는데	-10.5356
다리	-10.5356
▁형제	-10.5356
▁나왔던	-10.5357
▁지켜	-10.536
뜨	-10.536
쟁이	-10.536
▁아닐까	-10.5366
▁통해서	-10.5368
▁됬	-10.537
예요	-10.537
▁이르케	-10.537
▁유리	-10.537
▁그렇다	-10.5373
▁봐가지고	-10.5377
▁먹긴	-10.5379
환	-10.5382
좀	-10.5384
▁많아가지고	-10.5384
있으면	-10.5387
▁좋아할	-10.5388
▁좋대	-10.5391
▁지갑	-10.5391
▁들어오고	-10.5391
났	-10.5392
▁알았지	-10.5395
▁성당	-10.5396
▁어제도	-10.5396
▁피해	-10.5396
▁태풍	-10.5397
▁안들어	-10.5399
▁현	-10.5401
▁선생님한테	-10.5402
▁따고	-10.5404
▁다행히	-10.5405
▁셋이	-10.5405
▁비닐	-10.5406
▁캐릭터	-10.5407
▁좋아하니까	-10.5411
▁괜찮지	-10.5412
▁정보	-10.5412
▁대가리	-10.5418
▁색깔이	-10.5421
▁동영상	-10.5423
▁기본적으로	-10.5427
▁들어봐	-10.5427
희	-10.5428
▁연결	-10.5437
▁화나	-10.5444
▁떨어지는	-10.5447
▁에어팟	-10.545
시니	-10.5466
▁방금	-10.5469
▁바뀐	-10.5474
▁먹었거든	-10.5475
▁마셔	-10.5475
▁교사	-10.5483
▁혹시나	-10.549
▁억지로	-10.5492
▁있었으면	-10.5496
▁책상	-10.5496
▁가나	-10.5499
▁오일	-10.55
▁이마트	-10.55
▁태국	-10.5505
▁힘들지	-10.5506
가지	-10.552
하여	-10.5521
▁바닷가	-10.5521
▁북한	-10.5527
▁무리	-10.5527
▁않는데	-10.5529
▁임	-10.5529
▁자리에	-10.5532
▁겸	-10.5532
▁만족	-10.5537
▁주차	-10.5541
▁사무실	-10.5548
▁가스	-10.555
▁등록	-10.5556
꾸	-10.5556
▁어쩌다	-10.5556
▁안된다고	-10.5557
▁언니들	-10.556
▁끈	-10.5562
블	-10.5564
▁버린	-10.557
▁한꺼번에	-10.5571
▁이름은	-10.5574
▁들어가야	-10.5578
▁요샌	-10.5585
▁아닌디	-10.5586
▁파리	-10.56
해야지	-10.56
▁할지	-10.5601
▁적금	-10.5609
▁보내는	-10.5613
▁아방은	-10.5622
네요	-10.5622
▁요런	-10.5623
▁넷	-10.5625
▁한동안	-10.5625
▁마다	-10.5627
▁이해를	-10.5628
▁들렁	-10.5629
▁줘서	-10.5633
▁알겠지	-10.5647
▁맛있는데	-10.5649
▁저쪽	-10.565
▁광주	-10.565
▁없었던	-10.565
▁사지	-10.565
▁맞나	-10.5654
▁괜찮다고	-10.5667
▁났어	-10.5671
수록	-10.5673
▁땅이	-10.5677
▁농	-10.568
▁문을	-10.5684
▁잡을	-10.5686
오름	-10.5688
▁썸	-10.5688
▁영화를	-10.5689
▁선생님들	-10.5691
층	-10.5691
▁결제	-10.5691
겠냐	-10.5692
▁시골	-10.5695
▁허니까	-10.5697
▁파마	-10.5699
▁계약	-10.5703
▁이따	-10.5705
▁빨리빨리	-10.5708
▁조심해야	-10.571
address	-10.5712
▁저것	-10.5715
▁넣	-10.5717
▁체험	-10.5718
▁거랜	-10.572
▁건너	-10.5723
▁시계	-10.5725
▁채워	-10.5728
▁시작해	-10.5729
해요	-10.573
▁선생님도	-10.573
▁군인	-10.5732
▁떨	-10.5732
▁분위기가	-10.5732
줜	-10.5737
▁좋안	-10.5741
▁정해	-10.5744
▁낳아	-10.5745
▁온다	-10.5745
이난	-10.5746
▁오잖아	-10.575
▁보일러	-10.5751
▁할망이	-10.5753
▁허면	-10.5768
▁고르	-10.5768
▁김에	-10.5769
▁깔아	-10.5771
▁넘어서	-10.5772
것이	-10.5772
▁다른거	-10.5776
▁뇌	-10.5776
▁왔잖아	-10.5779
받고	-10.5779
▁해야겠다	-10.578
▁마무리	-10.5792
▁시키면	-10.5801
▁싸우	-10.5802
▁싸우는	-10.5807
▁먹었	-10.581
▁먹었을	-10.5812
▁닫아	-10.5812
▁독일	-10.5812
▁늙어	-10.5813
▁좋으면	-10.5819
▁마실	-10.582
▁갈거	-10.582
▁대구	-10.5832
렸	-10.5833
▁너넨	-10.5839
▁재산	-10.584
나네	-10.5844
왔어	-10.5845
▁푹	-10.5847
▁외국인	-10.5848
▁끝나는	-10.5852
▁안내	-10.5854
▁백만원	-10.5857
보지	-10.5861
▁미안한데	-10.5864
▁팬	-10.5865
▁지고	-10.5866
▁못하니까	-10.5871
▁나신디	-10.5872
▁계	-10.5872
▁있었네	-10.5878
▁들으면서	-10.5878
▁굿	-10.588
그내	-10.588
▁좋은디	-10.5881
▁사장	-10.5881
▁생겼	-10.5884
▁살았	-10.5887
▁아르바이트	-10.5887
▁좋잖아	-10.5891
▁떨어지면	-10.5892
▁싸움	-10.5894
▁냉동	-10.5896
▁엠	-10.5898
▁해볼까	-10.5901
▁웃어	-10.5904
▁유학	-10.5913
▁끝이	-10.5917
▁날짜	-10.5918
▁의자	-10.5923
▁연구	-10.5925
▁얼굴도	-10.5927
이연	-10.5928
▁사백	-10.5929
하라	-10.5929
▁트럭	-10.593
▁중학생	-10.593
쉬	-10.5932
▁그렇잖아	-10.5933
▁게도	-10.5937
침	-10.5938
▁밥은	-10.5943
▁같거든	-10.5945
▁처리	-10.5946
▁사람들이랑	-10.5947
▁사당	-10.5948
별로	-10.5953
▁힘들다	-10.596
▁되겠네	-10.5964
▁검색	-10.5966
▁일에	-10.5969
▁살았어	-10.5969
▁이녁	-10.5974
▁울고	-10.5977
▁부르고	-10.5978
허영	-10.5983
▁경주	-10.5984
졌	-10.5985
디가	-10.5986
▁머리에	-10.5988
▁경제	-10.599
▁기다리	-10.5999
▁먹거든	-10.5999
두고	-10.6
▁들으니까	-10.6
)(	-10.6002
▁설마	-10.6008
▁누군가	-10.6016
▁오래된	-10.6019
▁줘도	-10.602
▁있단	-10.6025
▁어떻게든	-10.6026
▁펜션	-10.6028
▁하기로	-10.603
▁이름으로	-10.6035
▁엄청나게	-10.6037
▁경우가	-10.6037
▁믿어	-10.6042
▁햄버거	-10.6042
▁몬딱	-10.6043
겠구나	-10.6043
▁내리	-10.6045
례	-10.6046
▁속에서	-10.6047
▁모르잖아	-10.6047
사주	-10.6048
▁싫다	-10.605
▁가려	-10.6052
풍	-10.6054
▁적응	-10.6063
▁생활을	-10.6065
▁피시방	-10.6067
▁전체	-10.6074
▁그래요	-10.6076
▁다음부터	-10.6077
▁왔거든	-10.6077
▁기술	-10.6078
거면	-10.6078
다보니까	-10.6079
▁싫고	-10.6085
▁노란	-10.6086
어가지고	-10.6095
스러운	-10.6101
▁취	-10.6101
▁나가지	-10.6103
▁바보	-10.6104
▁축	-10.6107
룩	-10.6109
▁느낌으로	-10.6114
▁등급	-10.6115
▁잡은	-10.6116
▁들어왔	-10.6118
▁했냐면	-10.6121
▁하우스	-10.6125
▁대화를	-10.6126
▁크림	-10.6129
▁말해도	-10.6132
▁생각만	-10.6133
▁들었	-10.6136
▁하다보니까	-10.6138
▁차는	-10.614
▁그랬거든	-10.614
▁땡	-10.6141
▁주라고	-10.6142
▁다니니까	-10.6146
▁놀라	-10.6152
▁하나하나	-10.6152
▁오빠네	-10.6153
▁사모님	-10.6155
학과	-10.6159
▁얘한테	-10.6161
▁수업을	-10.6162
▁부모님이	-10.617
▁몇개	-10.6171
하더라고	-10.6173
▁년이	-10.6176
▁시절	-10.6178
▁아홉시	-10.618
▁얘기하다가	-10.6182
다보면	-10.6187
▁내면	-10.6194
▁마당	-10.6196
▁체육	-10.6196
▁들어갔	-10.6197
▁이랑	-10.6202
▁살암	-10.6207
▁끝내	-10.6209
▁무료	-10.6214
▁끌어	-10.6215
▁식구들	-10.6215
▁싸울	-10.6219
▁시작하면	-10.6223
▁빠지고	-10.6227
▁들어가지고	-10.6228
▁어쩌고저쩌고	-10.6229
▁학교도	-10.6229
▁말까	-10.6229
▁맥	-10.6231
▁와중에	-10.6235
▁안했어	-10.6236
▁어머니도	-10.6238
▁살아도	-10.6241
▁우도	-10.6242
▁차로	-10.6243
는거지	-10.6245
▁체크	-10.6255
▁올라간	-10.6257
▁홍보	-10.6261
▁팥	-10.6263
▁의지	-10.6263
▁탓	-10.6264
나는	-10.6265
샤	-10.6266
▁줄게	-10.6269
옷	-10.6271
▁뽑는	-10.6272
▁있기	-10.6274
▁터져	-10.6274
▁카레	-10.6275
▁방법	-10.6276
▁먹어야지	-10.6276
▁코트	-10.6276
▁말했는데	-10.6285
들이랑	-10.6285
▁빌	-10.6286
▁재미가	-10.6292
▁보일	-10.6304
▁빠른	-10.6305
▁통장	-10.6319
▁묻어	-10.6321
▁영영	-10.6321
▁파티	-10.6323
▁단체	-10.6329
▁하여	-10.6331
▁뜨는	-10.6333
▁친척	-10.6343
하냐	-10.6344
▁소개시켜	-10.6346
▁말해야	-10.6346
는거라	-10.6347
▁아고	-10.6349
▁정확하게	-10.6351
대가	-10.6353
▁입으면	-10.6354
▁벽	-10.6355
▁죽어도	-10.6356
으면서	-10.6359
▁짱	-10.6363
▁잔소리	-10.6364
▁바꾸고	-10.6366
▁이따가	-10.6367
▁마씸	-10.6367
▁상태로	-10.6367
▁치과	-10.6369
▁나와야	-10.637
았어	-10.637
▁댓글	-10.6371
▁식구	-10.6378
▁내려와	-10.6378
▁어른들은	-10.6381
▁들어갔는데	-10.6382
▁홈	-10.6384
냉	-10.6384
▁이런식으로	-10.6398
▁참기름	-10.6404
▁진행	-10.6406
▁의식	-10.6406
▁전라도	-10.6407
▁성산	-10.6411
▁기다리고	-10.6411
▁사천	-10.6413
▁네이버	-10.6417
▁곡	-10.642
▁기간	-10.6422
▁가득	-10.6427
▁몰랐	-10.6428
▁이월	-10.6428
▁아프다	-10.6429
▁폐	-10.6432
▁천만	-10.6433
▁이거지	-10.6438
▁동쪽	-10.644
▁바람이	-10.6444
▁목표	-10.6445
▁온라인	-10.6451
▁말하는데	-10.6451
▁생각에	-10.6451
억	-10.6454
▁수학여행	-10.6463
▁심하게	-10.6465
▁첨	-10.6466
▁삶을	-10.6466
짜	-10.6469
▁부른	-10.6474
▁모아서	-10.6477
▁바꾸	-10.648
▁반은	-10.648
▁빨라	-10.6481
밀	-10.6481
▁눈도	-10.6489
▁면허	-10.6494
▁내려오	-10.65
▁다녔어	-10.65
하는디	-10.6502
▁말고는	-10.6503
되지	-10.6504
▁보단	-10.6506
▁월요일	-10.6506
하시는	-10.6507
▁않안	-10.6508
▁들어보면	-10.6512
▁수요일	-10.6519
▁따는	-10.652
▁콩나물	-10.6522
▁목욕탕	-10.6523
▁라인	-10.6532
얘기	-10.6537
▁목사님	-10.6539
▁할게	-10.654
▁준비를	-10.6541
▁어떵해	-10.6552
▁가사	-10.656
으넹	-10.6562
놨	-10.6567
▁왠지	-10.6567
▁봐야지	-10.6569
▁이것만	-10.657
▁숟가락	-10.657
▁여자들은	-10.657
▁거나	-10.6571
▁싶기도	-10.6572
▁삼양	-10.6574
▁쫓아	-10.658
▁아까도	-10.658
▁데려	-10.6581
▁샐러드	-10.6582
▁걸리고	-10.6583
▁다르게	-10.6583
▁체력	-10.6583
▁없어도	-10.6585
▁거기로	-10.6585
▁두세	-10.6588
▁엿	-10.6589
▁이랜	-10.659
▁하늘	-10.6593
▁많다고	-10.6594
프로	-10.6598
▁읽	-10.6603
▁일월	-10.6604
▁부엌	-10.6606
▁시간은	-10.6611
▁나머지는	-10.6615
▁정치	-10.6616
▁생각했어	-10.6618
▁넣을	-10.6624
겠지만	-10.6625
▁여섯시	-10.6625
▁개는	-10.6629
▁전화해서	-10.663
▁자식들	-10.663
▁뒤집어	-10.6635
가니까	-10.6639
▁별거	-10.6644
▁세개	-10.666
▁어플	-10.666
먹으면	-10.6663
▁삐	-10.6665
▁믿는	-10.6665
게끔	-10.6667
▁하는구나	-10.6667
▁시험을	-10.6672
▁담임	-10.6673
▁겁	-10.6675
▁안전	-10.6676
▁가족이	-10.6677
▁맞아야	-10.6686
졌다	-10.6687
셨	-10.6687
p	-10.6702
▁곱	-10.6703
째	-10.6705
▁깐	-10.6706
▁재미있어	-10.6707
▁뜬	-10.6709
▁스포츠	-10.671
▁과수원	-10.671
▁먹어본	-10.6712
▁삭	-10.6724
▁한거야	-10.6724
▁보잖아	-10.6732
▁가긴	-10.6734
▁죄	-10.6735
▁구해	-10.6741
▁잤	-10.6743
▁오전	-10.6745
▁핑계	-10.6745
해부난	-10.6746
▁되냐	-10.675
▁있습니다	-10.675
▁이실	-10.6756
▁연말	-10.6757
▁받앙	-10.6758
▁팔았	-10.6759
▁치워	-10.6761
▁아프면	-10.6762
▁화면	-10.6767
▁끄	-10.6768
▁버릴	-10.6771
▁나가야	-10.6773
▁그렇게까지	-10.6775
항	-10.6775
▁샤워	-10.6775
▁멍	-10.678
▁술도	-10.6782
▁손해	-10.6783
필	-10.6785
▁국가	-10.6789
▁생각하니까	-10.6791
렴	-10.6794
▁여성	-10.6802
▁소화	-10.6803
▁먹을까	-10.6805
▁주인이	-10.6808
▁똑바로	-10.6809
▁올라가면	-10.6811
랑은	-10.6812
▁줬	-10.6813
▁지나가는	-10.6813
▁한명	-10.6815
▁생각으로	-10.6819
▁일어난	-10.682
▁양파	-10.682
▁기업	-10.6821
놩	-10.6821
d	-10.6824
▁받으러	-10.6834
츠	-10.6837
▁썼어	-10.684
▁말하기	-10.6841
▁핸드폰으로	-10.6841
할수	-10.6845
▁서비스	-10.6847
▁매장	-10.6852
▁한국에서	-10.6853
했나	-10.6854
▁대기	-10.6855
▁들어가니까	-10.686
▁하랜	-10.6869
▁홍	-10.6872
▁잊어	-10.6873
하던	-10.6876
▁밀감	-10.6878
▁터진	-10.6878
▁할머니는	-10.6881
▁데리러	-10.6886
▁손톱	-10.6886
▁바닥에	-10.6888
▁뭔가를	-10.6893
▁댕기	-10.6893
인게	-10.6895
▁비슷하게	-10.6896
했어요	-10.6896
▁부난	-10.6898
▁받안	-10.69
▁도움이	-10.6901
▁놔두	-10.6903
▁도서관	-10.6913
▁특	-10.6913
▁뺄	-10.6916
▁해외여행	-10.6917
▁놀다가	-10.6919
▁가니깐	-10.692
▁공유	-10.6921
인줄	-10.6923
▁말했네	-10.6928
▁먹어신디	-10.6929
▁나하고	-10.6933
▁식게	-10.6934
▁할거야	-10.6934
▁봤다	-10.6935
꺼야	-10.6935
내고	-10.6938
▁없었고	-10.6938
▁아무거나	-10.6939
▁빡	-10.694
▁이러는데	-10.6941
▁갓	-10.6943
▁애들끼리	-10.6944
▁나온다	-10.6946
▁상당히	-10.6948
▁동남아	-10.6949
▁동창	-10.6953
▁편집	-10.6955
▁껍질	-10.6958
카부댄	-10.696
푸	-10.6961
이니	-10.6963
▁가루	-10.6965
삭	-10.6972
▁이후에	-10.6972
▁웬만한	-10.6972
▁햄신디	-10.6974
▁목요일	-10.6975
▁허젠	-10.6977
▁많으면	-10.698
▁과외	-10.6981
놔서	-10.6983
▁안되면	-10.6985
▁아프지	-10.6988
해라	-10.6996
▁일어나면	-10.6996
▁비교	-10.7003
가루	-10.7003
불믄	-10.7005
▁함부로	-10.701
수꽈	-10.7012
▁너무너무	-10.7017
▁이야기를	-10.7017
▁서방이	-10.7019
▁미쳐	-10.702
착	-10.7021
▁막아	-10.7023
였잖아	-10.7023
▁시아버지	-10.7027
▁마른	-10.7028
▁일할	-10.7028
▁최	-10.7029
어요	-10.703
▁기회가	-10.7032
▁묵	-10.7039
한게	-10.704
▁수준	-10.7041
lau	-10.7042
▁데이트	-10.7042
▁불편해	-10.7042
▁칸	-10.7043
▁받았	-10.7044
▁박아	-10.7045
▁닦아	-10.7047
▁어려	-10.7047
▁일본에서	-10.7048
▁하자고	-10.7051
▁오만원	-10.706
▁재미있는	-10.7066
못	-10.7066
▁아까워	-10.707
▁기준	-10.7071
▁붙은	-10.7073
▁미술	-10.7073
▁가족들	-10.7076
▁이쪽으로	-10.7079
▁위주로	-10.7079
▁줜	-10.7083
▁주인공	-10.7086
▁기지	-10.7086
▁음식도	-10.7087
▁오천원	-10.7087
▁위한	-10.7088
▁놨	-10.7089
▁돌고	-10.7092
▁자체를	-10.7093
▁다르고	-10.7093
▁신기하다	-10.7098
틀	-10.7099
북	-10.7103
▁들엉	-10.7103
▁받아가지고	-10.7103
▁에어컨	-10.7105
▁없었	-10.7105
이름	-10.7107
▁머리도	-10.7108
▁이야	-10.7109
▁맛있	-10.711
▁조사	-10.711
▁먹는다고	-10.7114
▁어멍은	-10.7117
▁상황에서	-10.7118
거니까	-10.7121
▁어른이	-10.7123
▁스님	-10.7125
▁경헌디	-10.7126
▁쌓아	-10.713
▁의미가	-10.713
▁하기는	-10.7131
▁전세	-10.7135
지않	-10.7136
▁틀리	-10.7143
▁멜	-10.7146
▁익	-10.7146
▁산다고	-10.7148
먼	-10.7151
▁가봐	-10.7151
▁영화가	-10.7155
▁삶이	-10.7157
▁일본어	-10.7158
▁최소	-10.716
▁알면	-10.7164
▁그것을	-10.7164
▁일억	-10.7165
▁크지	-10.7168
ap	-10.7168
▁남자친구가	-10.7171
▁들여	-10.7173
▁깔	-10.7177
▁부대	-10.7178
▁싫어서	-10.7183
▁이동	-10.7183
생각	-10.7185
▁준다	-10.7186
▁사위	-10.7186
▁기타	-10.7187
▁중요하	-10.7187
▁야구	-10.7188
월	-10.7188
람	-10.7196
▁나온다고	-10.7197
해주는	-10.7199
15&	-10.72
▁걸려서	-10.72
▁알았거든	-10.7202
▁올라온	-10.7203
▁짜장면	-10.7203
▁먹으	-10.7206
▁짤	-10.7208
▁소라	-10.7209
갑	-10.721
▁가입	-10.7211
▁했었던	-10.7212
▁올레길	-10.7217
▁그러나	-10.7217
▁형부	-10.7221
▁귀여운	-10.7226
▁인형	-10.7228
▁이런건	-10.7229
▁시킨	-10.7232
▁입장	-10.7234
▁콘서트	-10.7235
▁이상은	-10.7237
▁회식	-10.724
▁맞게	-10.7242
▁시킬	-10.7242
헐	-10.7245
▁배려	-10.7249
▁상대방	-10.7249
▁함께	-10.7249
▁아니냐고	-10.7249
느니	-10.7257
▁있는거야	-10.7258
▁담당	-10.7265
▁새끼들	-10.7266
▁갔다고	-10.7268
▁있었나	-10.7269
▁곳에	-10.7269
▁야이네	-10.7272
▁그전에	-10.7276
▁나오는거	-10.7278
봐서	-10.7279
▁볼까	-10.7279
더만	-10.7281
▁힘들어서	-10.7281
▁오전에	-10.7282
▁여행도	-10.73
했댄	-10.7301
▁격리	-10.7303
▁탑	-10.7304
▁어디에	-10.7305
▁지랄	-10.7306
▁자긴	-10.7307
▁요만큼	-10.7308
▁엄마네	-10.7309
▁다리가	-10.731
던지	-10.7311
허는	-10.7314
▁게임을	-10.7316
▁남겨	-10.7318
▁그사람	-10.7318
▁주는데	-10.7323
▁유명해	-10.7325
어야	-10.7328
▁했던거	-10.7332
▁대해	-10.7333
▁부모가	-10.7335
▁손지	-10.7336
▁이어	-10.734
동안	-10.7342
▁했었	-10.7345
디다	-10.7346
▁한달	-10.7347
▁이십만	-10.7348
▁보냈	-10.7348
▁능력이	-10.7349
▁받았는데	-10.7349
▁넓어	-10.735
었나	-10.7353
▁말해봐	-10.7353
▁환자	-10.7357
▁밖으로	-10.7357
▁동생은	-10.736
겠	-10.7361
▁맞았	-10.7361
▁먹다	-10.7362
▁한국인	-10.7363
▁월세	-10.7365
▁난리가	-10.7367
▁사오	-10.7368
▁보름	-10.7371
하기도	-10.7371
▁뜻	-10.7374
▁들어본	-10.7381
▁숫자	-10.7382
▁고쳐	-10.7383
▁누워서	-10.7384
▁블로그	-10.7393
▁먹어보고	-10.7394
▁넓은	-10.74
▁보라고	-10.74
▁가겠다고	-10.7403
▁때니까	-10.7404
▁공장	-10.7404
▁도망가	-10.7404
▁모슬포	-10.7413
▁불고	-10.7413
▁학생들	-10.7418
비가	-10.7418
▁버렸어	-10.7419
버리는	-10.742
▁됐다고	-10.742
녜	-10.7422
굴	-10.7422
▁음료	-10.7423
▁결혼하고	-10.7425
▁뜨거운	-10.7427
▁부러워	-10.7431
수광	-10.7433
▁아이를	-10.7434
액	-10.744
▁달래	-10.7442
▁가는게	-10.7443
▁빛	-10.7447
▁놈의	-10.7447
▁기차	-10.7449
▁아니거든	-10.7449
▁대정	-10.7452
▁제라	-10.7453
▁없다는	-10.7457
▁쪄	-10.7458
▁물어보니까	-10.7458
▁수밖에	-10.7458
▁현재	-10.7459
▁의심	-10.7459
▁시누이	-10.7463
▁사람마다	-10.7472
▁골목	-10.7474
▁초등학생	-10.7477
▁손주	-10.7477
▁하더라고요	-10.7478
없	-10.748
▁노래방	-10.7483
▁운영	-10.7484
▁친해	-10.7487
▁가기로	-10.7489
별	-10.749
했으면	-10.7491
▁할래	-10.7494
▁밑에서	-10.7497
가믄	-10.7502
▁짬뽕	-10.7502
▁이리	-10.7509
▁보는거	-10.751
▁배웠	-10.7512
▁재밌	-10.7516
▁남들	-10.7532
▁관리를	-10.7533
▁위해	-10.7535
였으면	-10.7537
잉	-10.7539
▁간거	-10.754
▁창고	-10.754
▁말했던	-10.754
▁앉	-10.7541
▁고마워	-10.7542
▁갔었는데	-10.7544
▁피가	-10.7548
▁보거든	-10.7548
▁데로	-10.7552
▁검사를	-10.7554
▁썬	-10.7554
▁덕	-10.7555
▁다같이	-10.7557
▁파스타	-10.7558
▁히	-10.756
▁반지	-10.7561
▁예쁘다	-10.7561
▁후반	-10.7561
▁정해져	-10.7563
▁자살	-10.7564
▁없어져	-10.7569
▁중요해	-10.7574
학교	-10.7578
▁함덕	-10.758
▁고양이가	-10.7581
▁부담	-10.7582
▁어떻	-10.7583
▁아니었어	-10.7583
▁편이	-10.7588
▁방이	-10.7595
▁들어도	-10.7596
▁마음으로	-10.7597
▁선생이	-10.7601
▁먹여	-10.7603
▁기억도	-10.7605
▁촌에서	-10.7608
▁마침	-10.7609
▁묶어	-10.761
▁될까	-10.7613
▁한잔	-10.7614
▁앞머리	-10.7624
▁물어봤	-10.7627
▁않았나	-10.7628
▁사투리가	-10.7629
▁선생님들이	-10.763
▁먹던	-10.7632
▁보호	-10.7632
▁늙은	-10.7635
▁사돈	-10.7636
치기	-10.7636
▁정도만	-10.7639
▁고민을	-10.764
▁아니여	-10.7643
▁학생회	-10.7643
▁이시	-10.7644
▁맞추	-10.7646
▁세게	-10.7649
▁경허	-10.765
▁셋째	-10.7657
▁존	-10.7658
힐	-10.7659
▁배고파	-10.7659
▁먹으라	-10.766
▁대신에	-10.7661
▁교양	-10.7662
▁내려온	-10.7663
▁않아도	-10.7664
▁조절	-10.7665
▁사주고	-10.7666
▁공감	-10.7668
▁잠이	-10.7671
▁어성	-10.7674
▁가봤어	-10.7674
▁관광객들	-10.768
▁당연한	-10.7683
댕	-10.7684
▁설명을	-10.7689
▁부동산	-10.769
▁쿠키	-10.769
▁이십오	-10.7703
▁경핸	-10.7703
▁안좋아	-10.7708
결	-10.7708
▁힘을	-10.7709
▁세일	-10.7712
▁게매	-10.7713
▁올렸	-10.7714
▁너를	-10.7716
변	-10.7717
▁첫번째	-10.7723
▁하지마	-10.7725
▁좋더라고	-10.7726
▁서울대	-10.7729
▁바당에	-10.773
먹는	-10.7733
봐봐	-10.7735
▁주워	-10.7736
▁그러네	-10.7737
▁뺀	-10.7741
▁현금	-10.7743
▁시어머니가	-10.7746
▁포인트	-10.7747
▁빠지	-10.7748
▁잘못된	-10.7748
는건	-10.7748
▁전역	-10.7749
▁남편은	-10.7756
▁오난	-10.776
▁고기를	-10.7762
▁주차장	-10.7763
▁위험한	-10.7765
▁삶아	-10.7768
▁따른	-10.7769
▁육백	-10.7769
▁후배	-10.7775
▁이십일	-10.7782
▁좋아가지고	-10.7785
▁없긴	-10.779
▁일년에	-10.7791
▁현대	-10.7797
승	-10.7798
▁연장	-10.7799
▁충전	-10.78
▁바쁜	-10.7802
한댄	-10.781
▁잡앙	-10.7818
▁마스크를	-10.7824
▁영어로	-10.7825
▁앤	-10.7827
▁대통령	-10.7832
▁걔네들	-10.7833
▁했다는	-10.7834
한티	-10.7836
▁모르지만	-10.7836
▁부러	-10.784
▁년은	-10.7841
▁끊	-10.7848
내는	-10.7848
▁나물	-10.7855
▁이만한	-10.7856
▁발로	-10.7856
▁뭐뭐	-10.7857
▁했단	-10.7858
▁이렇게해서	-10.7859
▁올라오는	-10.7862
▁동생들	-10.7862
솔	-10.7862
▁욕심이	-10.7862
▁몸국	-10.7867
▁만들어야	-10.7872
▁온거	-10.7873
▁빠졌	-10.7874
엄마	-10.7875
▁말핸	-10.7877
▁물어본	-10.7877
▁그저께	-10.7878
▁미터	-10.7882
▁나오네	-10.7888
▁발견	-10.7888
▁기억은	-10.7889
▁마당에	-10.789
▁먹는다	-10.7894
▁두부	-10.7897
▁놔야	-10.7898
▁의사가	-10.7898
▁아까운	-10.79
▁갈라	-10.7903
▁사진이	-10.7907
▁잡았	-10.7907
▁극	-10.7908
▁떨어질	-10.7911
봤	-10.7914
▁둘이가	-10.7914
▁경험이	-10.7915
▁안핸	-10.7915
▁주면서	-10.7919
▁가이드	-10.7922
▁씻어	-10.7925
▁안하는	-10.7926
▁먹젠	-10.7926
▁팩	-10.7927
▁나중엔	-10.7927
▁팔만	-10.7935
해영	-10.7936
▁사는거	-10.7937
▁해보	-10.7939
▁할때는	-10.7944
으니	-10.7945
▁검질	-10.795
받는	-10.7952
▁세탁기	-10.7955
▁마시는	-10.7958
보게	-10.7962
▁존재	-10.7962
간다	-10.7966
▁핫	-10.7968
▁남동생	-10.7971
▁봥	-10.7974
▁다니다가	-10.7975
▁안해서	-10.7977
었고	-10.7978
▁참고	-10.7978
이었고	-10.7979
▁가민	-10.7981
▁오리	-10.7985
▁가질	-10.7987
▁되냐고	-10.7988
▁믿고	-10.799
▁쉽	-10.7991
▁일날	-10.7992
▁번을	-10.7993
▁쟤는	-10.7994
▁년도에	-10.7994
▁우울증	-10.7996
▁주위에	-10.7998
▁갔네	-10.7999
▁싫다고	-10.8004
companyname	-10.8005
▁털어	-10.8005
▁입양	-10.8007
▁하는건	-10.801
▁다니는데	-10.8011
▁자가격리	-10.8013
▁이어폰	-10.8013
▁해사	-10.8016
갔	-10.8016
▁해야될	-10.8018
▁꺾	-10.8023
▁벨	-10.8024
▁죽여	-10.8027
▁테	-10.8028
▁언니야	-10.8029
▁오면서	-10.803
▁감사	-10.8031
▁나오거든	-10.8032
야되	-10.8033
▁지나고	-10.8036
▁고수	-10.8039
▁생각해봐	-10.8047
▁뽑	-10.8047
▁쏘	-10.805
▁만났는데	-10.8052
▁가멍	-10.8055
▁있을거	-10.8056
▁움직이는	-10.8057
▁올릴	-10.8061
▁원이면	-10.8065
▁오라방	-10.8065
▁마음은	-10.8068
▁사장이	-10.807
▁되더라고	-10.8071
▁남자를	-10.8072
▁고삼	-10.8073
맞	-10.8073
▁그러잖아	-10.8077
▁갔으면	-10.8077
▁말로는	-10.8081
▁자리에서	-10.8081
▁다르지	-10.8086
▁결국에는	-10.8088
▁양이	-10.8088
득	-10.809
▁귀찮	-10.809
▁엉	-10.8092
났어	-10.8097
▁뭐고	-10.8099
▁블랙	-10.81
▁연극	-10.8101
▁가인	-10.8102
▁따지면	-10.8104
▁싸우고	-10.8109
졌는데	-10.8111
(	-10.8111
▁품	-10.8111
▁치우	-10.8111
참	-10.8115
르고	-10.8119
▁몰랐지	-10.8122
▁생견	-10.8136
▁비싸지	-10.8147
▁살았는데	-10.8147
▁피부가	-10.815
한다는	-10.8152
▁잘생긴	-10.8152
▁어머니네	-10.8159
▁큰거	-10.8161
▁장소	-10.8163
불면	-10.8165
▁넣은	-10.8167
▁하시	-10.8168
▁대전	-10.8171
생이	-10.8172
었을	-10.8172
▁걸렸	-10.8173
▁않다	-10.8175
주니까	-10.8177
▁낳을	-10.8184
▁저쩌고	-10.8187
▁국민학교	-10.8187
▁결과	-10.8188
▁불어	-10.8188
▁달고	-10.8188
▁입술	-10.819
▁자신이	-10.8202
▁항	-10.8202
▁빵집	-10.8202
▁시리즈	-10.8205
라든지	-10.8206
▁애들을	-10.8206
럽	-10.8209
▁시댁	-10.8211
▁모래	-10.8212
▁쓰잖아	-10.8213
▁표준어	-10.8215
▁잡으면	-10.8216
하겠다	-10.8217
▁도와주	-10.8218
님이	-10.8227
들만	-10.8227
▁뜨고	-10.8227
▁쉰	-10.8228
▁불편한	-10.823
▁빼면	-10.8232
▁재미없	-10.8236
▁말투	-10.8238
▁육천	-10.8238
▁행이네	-10.824
▁거주게	-10.824
▁숲	-10.824
▁원피스	-10.8243
▁귀찮아서	-10.8243
겅	-10.8246
자리	-10.8246
▁받으	-10.8247
▁토요일날	-10.8248
▁아무나	-10.8249
▁레	-10.8252
▁벗고	-10.8253
▁집안에	-10.8254
▁허곡	-10.8254
네가	-10.8254
▁어렵	-10.8256
▁젓갈	-10.8258
▁기억나는	-10.8258
▁돌아가셨	-10.8259
▁똑같	-10.8261
▁연애를	-10.8261
▁기냥	-10.8262
▁전까지	-10.8263
▁중문	-10.8263
▁음료수	-10.8265
▁일요일날	-10.8266
들고	-10.8268
▁손자	-10.827
▁우리나라는	-10.8275
▁동문시장	-10.8276
교육	-10.8279
▁몸도	-10.8279
▁개념	-10.8281
▁십칠	-10.8281
▁내려오는	-10.8283
▁언제까지	-10.8284
▁되켜	-10.8286
했다가	-10.8287
▁게다가	-10.8288
▁인스타에	-10.829
▁이런것도	-10.8292
▁초에	-10.8292
▁거울	-10.8293
▁혹	-10.8294
▁모른	-10.8295
▁아이돌	-10.8295
▁긴장	-10.8295
▁마세요	-10.8299
▁감성	-10.8301
▁수술을	-10.8303
▁울면서	-10.8304
▁학교는	-10.8304
▁없었거든	-10.8308
▁조교	-10.831
거같아	-10.8311
▁사는게	-10.8314
▁그런것도	-10.8315
▁저장	-10.8316
▁땅을	-10.8317
▁사람이라	-10.8317
킹	-10.8318
▁들러	-10.832
▁같은디	-10.8323
▁조그만	-10.8323
▁도망	-10.8324
▁만나지	-10.8326
▁봄에	-10.8327
짐	-10.8328
▁아니구나	-10.8328
▁위치	-10.8331
▁간단하게	-10.8331
▁분은	-10.8334
▁고장	-10.8339
▁쉬워	-10.8345
겠습니다	-10.8346
▁맛을	-10.8347
▁곱창	-10.8347
였네	-10.8348
▁세트	-10.8349
슨	-10.835
▁다음에는	-10.8356
▁벌레	-10.8357
▁굽	-10.8359
▁기도를	-10.8359
▁빼야	-10.836
▁부를	-10.8361
택	-10.8362
으내	-10.8365
누	-10.8366
▁노래가	-10.8366
▁좀더	-10.8368
▁하잖아요	-10.837
▁테니까	-10.8371
였다	-10.8372
▁요만한	-10.8376
▁서류	-10.8379
▁깨끗하게	-10.8379
▁그축	-10.8381
▁거냐고	-10.8382
▁글을	-10.8383
▁마디	-10.8383
▁작가	-10.8384
▁공원	-10.8384
▁생명	-10.8395
▁중국인	-10.8397
▁뽀	-10.8398
▁답장	-10.8406
이라부난	-10.8407
했었어	-10.8408
▁탁구	-10.8411
▁그정도	-10.8412
▁오십만	-10.8413
▁추룩	-10.8415
▁쓰는거	-10.8418
취	-10.8419
얼	-10.842
▁살았던	-10.8421
▁아직까지	-10.8425
봐도	-10.8427
▁참아	-10.8432
▁십일월	-10.8435
▁때랑	-10.8435
▁입학	-10.8439
▁나라가	-10.844
▁얼굴을	-10.8443
▁꼬리	-10.8452
▁살던	-10.8453
▁김장	-10.8455
▁살림	-10.8458
▁반이	-10.846
▁담아서	-10.8463
▁신부	-10.8467
▁뭐하는	-10.8468
▁경하난	-10.8474
▁좋겐	-10.8475
▁결혼한	-10.8479
▁많더라	-10.848
이한테	-10.848
▁똑같아	-10.8481
드레	-10.8481
▁살에	-10.8483
▁사람하고	-10.8489
▁보내주	-10.8491
으난	-10.8492
▁친구를	-10.8496
▁쓰기	-10.8497
▁한복	-10.8499
가멍	-10.8501
▁먹었다	-10.8501
▁수영장	-10.8502
▁애도	-10.8505
▁버섯	-10.8507
▁내려와서	-10.8511
▁은근히	-10.8511
▁핸드폰을	-10.8512
▁특별한	-10.8512
▁불러서	-10.8513
▁인상	-10.8513
▁놓을	-10.8516
▁먼지	-10.8517
▁연금	-10.8518
▁값이	-10.8518
거냐	-10.8521
▁구천	-10.8524
▁캠핑	-10.8526
▁허락	-10.8526
▁그려	-10.8528
▁잘못한	-10.853
▁최근	-10.8531
▁조그마한	-10.8534
▁외모	-10.8535
▁그랬	-10.854
▁만났을	-10.8541
▁서서	-10.8542
▁않습니까	-10.8548
▁하여간	-10.8549
▁원룸	-10.855
▁했었네	-10.8559
▁기자	-10.8564
▁찰	-10.8565
▁실제	-10.8575
▁걷고	-10.8575
▁반복	-10.8576
▁사이트	-10.8578
아빠	-10.8589
▁만두	-10.8596
▁당황	-10.8597
▁손님들	-10.8597
하세요	-10.8598
▁살게	-10.8598
▁삼겹살	-10.86
▁추억이	-10.8601
▁싶은디	-10.8603
▁연어	-10.8605
▁그동안	-10.8606
▁기능	-10.8607
▁꼽	-10.8611
▁시작할	-10.8611
▁미래	-10.8612
▁갤럭시	-10.8619
▁언닌	-10.8619
▁제품	-10.8619
라니까	-10.8622
▁유명	-10.8628
▁있주게	-10.8629
센	-10.8631
▁내꺼	-10.8634
▁하겠어	-10.8634
우면	-10.8635
▁영화관	-10.8636
▁글로	-10.8637
▁남자애	-10.8638
분이	-10.8643
▁예전	-10.8649
▁걔를	-10.8651
▁밴드	-10.8651
▁사만	-10.8653
▁참여	-10.8653
▁놀랜	-10.8654
▁빠질	-10.8658
앤	-10.8665
에만	-10.8666
▁볶아	-10.8667
▁구백	-10.867
▁리모델링	-10.8674
▁말해줘	-10.8674
▁아침부터	-10.8675
▁시작하는	-10.8679
하맨	-10.8679
▁시작해서	-10.868
▁명품	-10.8682
▁데를	-10.8685
▁나온거	-10.8691
▁태어난	-10.8692
16&	-10.8692
▁내일은	-10.8694
리면	-10.8696
▁아라동	-10.8697
▁빨아	-10.87
▁배송	-10.8703
▁같더라고	-10.8705
않	-10.8708
▁미니	-10.8708
▁플라스틱	-10.8711
▁실패	-10.8712
▁설날	-10.8712
▁거죠	-10.8713
▁씻	-10.8719
뻔	-10.872
▁못살	-10.8722
▁왔다가	-10.8727
장을	-10.8727
▁생각해도	-10.873
▁바꾼	-10.873
▁안좋	-10.8731
▁벌어서	-10.8731
▁냉장고에	-10.8732
▁단지	-10.8732
▁여유	-10.8733
▁가거든	-10.8733
▁어휴	-10.8734
▁초딩	-10.8735
▁많더라고	-10.8735
▁한라대	-10.8736
▁맛있지	-10.8738
▁웃고	-10.874
▁인강	-10.8741
지잖아	-10.8743
▁삼학년	-10.875
▁싶었어	-10.8752
없어	-10.8754
팅	-10.8755
▁싸서	-10.8758
▁보이는데	-10.8758
▁수건	-10.8762
▁건축	-10.8764
▁살까	-10.8766
▁사라봉	-10.8767
▁교육을	-10.8771
대는	-10.8772
라가지고	-10.8773
▁증	-10.8774
▁필수	-10.878
▁좋네	-10.8782
▁여자애	-10.8784
다녀	-10.8784
▁가보면	-10.8784
▁인천	-10.8788
▁됐잖아	-10.8789
▁중앙	-10.8791
압	-10.8794
▁공간	-10.8795
으려고	-10.8797
행으네	-10.8797
▁상관이	-10.8801
지않아	-10.8802
▁한국사	-10.8805
▁여러가지	-10.8806
▁콜라	-10.8806
▁학과	-10.8807
▁스페인	-10.8807
▁반응	-10.8809
하당	-10.8812
▁생이라	-10.8813
▁편안하게	-10.8816
▁크기	-10.8816
▁하기도	-10.8816
▁같더라	-10.8817
▁생겨서	-10.8818
▁입장에서	-10.8822
▁찾고	-10.8823
▁김치찌개	-10.8823
▁얘기하는데	-10.8823
▁시켜서	-10.8824
▁끝나서	-10.8826
▁맛있다	-10.8827
그래	-10.8827
애들	-10.8829
찬	-10.883
▁갔었어	-10.8833
지기	-10.8833
방에	-10.8833
▁해보자	-10.8834
꽝	-10.884
끔	-10.8844
▁해봤어	-10.8847
한테는	-10.8848
▁촘	-10.8849
▁한국에	-10.8849
힌	-10.885
서는	-10.8857
▁사투리로	-10.8862
옌	-10.8863
▁먹으랜	-10.8872
▁일본에	-10.8873
▁알아요	-10.8876
▁뭣도	-10.8876
▁걸엉	-10.8877
▁남이	-10.8878
▁모델	-10.8879
▁마감	-10.888
▁낙	-10.888
▁막둥이	-10.8881
▁나오기	-10.8882
이렇게	-10.8884
▁보조	-10.8886
▁햄수다	-10.8889
▁서쪽	-10.8894
▁머리카락	-10.8898
▁걷기	-10.89
▁크니까	-10.8901
▁키웠	-10.8901
시키	-10.8905
었어요	-10.8906
▁중의	-10.8906
다니	-10.8906
▁맵	-10.891
▁누구지	-10.8913
▁미국에서	-10.8917
▁신경을	-10.892
▁보세요	-10.8922
▁결국엔	-10.8924
▁입구	-10.8926
웡	-10.8927
▁갈래	-10.8927
▁삼십만	-10.8928
▁알아신디	-10.8933
▁줌	-10.8937
▁가든	-10.8937
해그넹	-10.8939
에스	-10.894
▁못가	-10.8941
▁식당에	-10.8941
▁교장	-10.8943
▁건강한	-10.8945
▁페	-10.8947
▁왔어요	-10.8949
▁감동	-10.8949
▁건강하게	-10.8949
▁떨어지	-10.895
논	-10.895
▁백오십	-10.895
키로	-10.8952
둥	-10.8953
▁드리	-10.8954
▁생각하거든	-10.8959
▁케이	-10.896
▁이모네	-10.896
▁만나야	-10.896
▁되는지	-10.8967
▁높이	-10.8974
▁식사	-10.8975
▁웃으면서	-10.8977
감이	-10.898
▁생각하는데	-10.8984
▁노래도	-10.8986
▁공짜로	-10.8986
▁안쓰	-10.8987
▁해버리니까	-10.8988
▁책이	-10.8989
▁햄서	-10.899
시키고	-10.8992
▁해보니까	-10.8993
▁달마	-10.8994
▁승	-10.8998
▁마사지	-10.8999
▁준비하는	-10.9001
▁놀았	-10.9001
▁비해서	-10.9004
허믄	-10.9005
▁모습을	-10.9005
▁생각핸	-10.9007
▁흑	-10.9009
▁아니요	-10.9011
▁예쁘고	-10.9012
▁신기	-10.9013
▁쓰던	-10.9014
려가지고	-10.9014
▁겅허	-10.9017
▁튀	-10.9021
▁껍데기	-10.9022
▁바뀌었	-10.9022
▁돈까스	-10.9023
학원	-10.9026
▁허랜	-10.9027
▁효과가	-10.9027
▁주변에서	-10.9028
▁뜻이	-10.9028
▁강남	-10.9028
▁쌓여	-10.9029
▁밖	-10.9029
실거라	-10.903
줘서	-10.9031
▁입이	-10.9033
▁나름대로	-10.9035
사는	-10.9035
있다	-10.9037
▁나왔다	-10.9037
▁보긴	-10.904
▁서울은	-10.9044
▁이층	-10.9044
▁맛있었어	-10.9045
▁넓	-10.9046
▁들어보니까	-10.9048
▁건강검진	-10.905
▁좁쌀	-10.905
▁요렇게	-10.9051
▁지은	-10.9053
▁서로가	-10.9055
이제	-10.9057
▁진심	-10.9059
▁들리는	-10.9061
럭	-10.9067
▁고를	-10.9068
▁심장	-10.9068
▁섞	-10.9068
▁빙	-10.9069
▁떨어졌	-10.9069
▁휴대폰	-10.9069
▁바꿔야	-10.9073
▁거든	-10.9073
▁쫄	-10.9077
▁이십사	-10.9078
▁와이프	-10.9081
▁가능	-10.9081
▁만들면	-10.9084
▁몇년	-10.9088
▁맞는거	-10.9091
▁떨어지고	-10.9091
▁토끼	-10.9092
▁없지만	-10.9096
▁거절	-10.9096
▁운전을	-10.9098
▁거기서도	-10.9099
▁가수	-10.9103
▁주라	-10.9103
▁어머니한테	-10.9104
▁엇	-10.9106
▁미역	-10.9109
▁찾아가	-10.9111
▁먹이	-10.9112
▁웃는	-10.9116
▁많았	-10.9116
▁화요일	-10.9124
▁여행지	-10.9128
▁맻	-10.9128
▁것들도	-10.9129
▁들어가지	-10.913
이였어	-10.9135
▁경쟁	-10.9137
▁꿔	-10.914
섬	-10.9141
▁장면	-10.9142
▁행정	-10.9143
▁고급	-10.9144
▁늙	-10.9145
▁했겠지	-10.9148
▁정말로	-10.9149
▁오후에	-10.9156
▁움직여	-10.9158
▁판단	-10.9161
보니	-10.9163
▁키도	-10.9163
▁평균	-10.9164
▁고춧가루	-10.9166
같은거	-10.917
▁떴	-10.917
▁해신가	-10.9172
▁들지	-10.9177
▁이십대	-10.9177
▁주제가	-10.9178
▁곳도	-10.9179
▁노인	-10.9182
던거	-10.9185
▁하나로	-10.9186
▁표선	-10.919
▁분에	-10.919
▁타지	-10.919
▁시청에	-10.919
▁얘네는	-10.9191
▁답답해	-10.9193
▁너네도	-10.9193
▁없었지	-10.9194
▁이름도	-10.9194
▁지나서	-10.9194
거아니	-10.9197
▁돌아가신	-10.9197
리지	-10.9199
▁안되겠다	-10.9199
▁우리보다	-10.9201
▁그거야	-10.9202
▁개만	-10.9204
▁이학년	-10.9205
▁오르	-10.9205
▁교정	-10.921
▁좁아	-10.921
▁실기	-10.9211
▁있을때	-10.9213
▁다음부터는	-10.9213
▁아니라서	-10.9214
▁서귀포에	-10.9215
▁남았어	-10.9215
한대	-10.9217
▁이것이	-10.9217
▁느껴져	-10.9218
▁카톡으로	-10.9222
낼	-10.9224
▁미역국	-10.9226
▁났	-10.923
▁음식점	-10.9234
▁사진도	-10.9236
▁지난번에	-10.9236
▁한다음에	-10.9237
준다고	-10.924
▁그만두	-10.9244
▁일본은	-10.9245
▁리더	-10.9245
▁고집	-10.9245
▁않앤	-10.9246
▁해주세요	-10.9246
친구	-10.9249
놘	-10.925
▁먹어라	-10.9253
▁벗어	-10.9253
그냥	-10.9261
▁도전	-10.9264
▁독립	-10.9265
▁하필	-10.9266
▁끊고	-10.9268
▁안되지	-10.9271
▁마지막으로	-10.9272
▁적게	-10.9274
▁안먹	-10.9276
▁방에서	-10.9278
▁자면	-10.9282
▁비싸고	-10.9284
▁자식이	-10.9285
다며	-10.9286
▁이미지	-10.9287
▁영업	-10.929
▁답이	-10.9294
주마는	-10.9294
한디	-10.9296
▁겨울에는	-10.9299
▁싸운	-10.9304
▁영어를	-10.9308
▁목소리가	-10.931
▁겅헌디	-10.931
하젠	-10.9311
▁뭐든지	-10.9313
▁사귀	-10.9315
▁삽	-10.9316
▁강사	-10.9318
▁먹어봤어	-10.9318
▁잡혀	-10.932
쳔	-10.9321
▁남았	-10.9322
▁슬슬	-10.9323
▁차단	-10.9324
▁것보다는	-10.9328
▁이시면	-10.9331
▁년대	-10.9333
▁했주	-10.9333
▁인분	-10.9335
▁소설	-10.9337
▁습관	-10.9337
▁아프다고	-10.9339
▁센치	-10.934
▁고추장	-10.934
거예요	-10.9341
▁해볼	-10.9344
▁벌초	-10.9348
▁해봤는데	-10.9349
▁물려	-10.9349
들에	-10.935
▁농협	-10.9351
시험	-10.9351
▁뛰는	-10.9356
▁얼굴은	-10.9356
▁뭐랄까	-10.9358
만원	-10.9366
▁사귄	-10.9366
용으로	-10.9369
▁육지는	-10.9369
▁태워	-10.9371
▁마냥	-10.9371
▁시간만	-10.9371
더라구	-10.9375
줬	-10.9377
지는거	-10.9378
▁가져와	-10.9378
▁좋아해가지고	-10.938
▁어디지	-10.9381
▁행복한	-10.9382
▁충	-10.9385
드는	-10.9386
▁보통은	-10.9387
▁음식은	-10.9389
▁냄비	-10.9389
▁옷은	-10.9394
▁스트레스를	-10.9394
▁가다	-10.9395
▁몰르	-10.9395
▁놀이	-10.9396
▁어서부난	-10.9399
▁후기	-10.9402
▁고만히	-10.9403
했는지	-10.9407
▁살려	-10.9407
▁갈때	-10.9409
▁줄을	-10.941
▁부서	-10.9412
받	-10.9417
▁장기	-10.9419
해여	-10.942
▁들리	-10.942
▁아이들을	-10.9422
▁추울	-10.9423
▁맹	-10.9424
▁낳았	-10.9428
▁이자	-10.9428
익	-10.9429
▁못한다	-10.9432
▁위험	-10.9434
▁줄도	-10.9435
▁운동하는	-10.944
놈	-10.944
하지만	-10.9442
▁방언	-10.9442
▁윤	-10.9444
▁할망들	-10.9449
▁짓는	-10.9449
▁문화가	-10.945
▁사람인	-10.945
▁대표	-10.9452
▁빠지면	-10.9454
▁가는디	-10.9456
▁넣었	-10.9456
▁보관	-10.9457
원이	-10.9458
되니까	-10.9458
▁삶아서	-10.9459
▁먹엄	-10.9462
▁단풍	-10.9463
▁말하면서	-10.9464
▁해야되	-10.9465
촌	-10.9467
▁풀고	-10.9468
▁삼월	-10.9472
▁본거	-10.9472
▁빡세	-10.9473
▁몸무게	-10.9474
▁직원들	-10.9475
▁있으	-10.9476
▁깊은	-10.9481
▁전문	-10.9481
▁말하	-10.9483
주기	-10.9483
▁해석	-10.9485
해져	-10.9486
▁열고	-10.9486
▁사삼	-10.9489
▁어렵게	-10.9491
▁도장	-10.9491
▁생각난	-10.9491
▁챙기	-10.9493
▁슬	-10.9502
▁시어멍	-10.9503
놨어	-10.9503
대요	-10.9504
▁똑똑한	-10.9507
▁바닥	-10.9508
▁눈으로	-10.9524
▁애플	-10.9526
▁되겠지	-10.9534
더라구요	-10.9537
▁겅핸	-10.9538
닝	-10.9539
▁시월	-10.954
게만은	-10.9541
▁매달	-10.9541
▁쌍둥이	-10.9542
▁캐나다	-10.9544
들의	-10.9548
맥	-10.9548
▁않거든	-10.9548
▁음성	-10.9549
▁받기	-10.9549
▁겨	-10.955
돼서	-10.9551
▁얘를	-10.9552
▁형은	-10.9552
▁맛있더라	-10.9552
▁제주말	-10.9555
▁버려서	-10.956
▁갈비	-10.9567
▁기회	-10.9571
▁나왕	-10.9572
▁봤잖아	-10.9573
▁십육	-10.9573
▁농구	-10.9575
▁찾아보	-10.9576
▁소독	-10.9577
쳥	-10.9578
▁공주	-10.9578
오빠	-10.9579
▁띠	-10.9579
▁안보	-10.9581
극	-10.9584
▁상대	-10.9588
다음에	-10.9588
▁기억을	-10.959
▁공간이	-10.9594
▁근육이	-10.9597
▁집어	-10.9599
▁제이	-10.9603
병원	-10.9603
▁시대가	-10.9605
▁중독	-10.9607
▁찔	-10.9608
▁포함	-10.9609
▁백화점	-10.9609
▁좋았는데	-10.961
▁삼촌이	-10.961
▁생활비	-10.9611
▁앱	-10.9612
▁엄청난	-10.9619
▁말려	-10.9624
▁얼음	-10.9625
▁될건디	-10.9627
▁읽을	-10.9639
범	-10.964
▁돌아가는	-10.9641
사람이	-10.9642
▁다녔는데	-10.9643
▁필리핀	-10.9643
▁못해도	-10.9645
▁수입	-10.9646
▁관광객	-10.9646
▁그러더라고	-10.9647
▁발이	-10.9647
▁되믄	-10.9649
말이	-10.9654
▁대장	-10.9654
자는	-10.9657
둔	-10.9658
할꺼	-10.9663
▁일정	-10.9664
▁성장	-10.9665
▁푼	-10.9667
▁환불	-10.9667
▁낳으면	-10.9669
▁없더라고	-10.9676
▁부어	-10.9683
▁껄	-10.9683
▁해리포터	-10.9683
▁그러니	-10.9685
▁사람들의	-10.9686
▁취향	-10.9688
▁이쁘게	-10.9689
패	-10.9691
▁결	-10.9692
깔	-10.9693
▁검색해	-10.9693
으믄	-10.9694
▁못하면	-10.9695
▁명만	-10.97
▁느낄	-10.9704
사람들	-10.9706
▁날라	-10.9707
▁힘드니까	-10.9707
▁좋겠는데	-10.9708
▁센터	-10.9712
딸	-10.9714
▁되는게	-10.9715
▁회사에	-10.9716
빨	-10.9716
것들	-10.9716
▁종류가	-10.9717
▁도와	-10.972
▁차에서	-10.972
▁산거	-10.9721
더라도	-10.9721
놓으면	-10.9721
▁딸도	-10.9721
라이	-10.973
▁보기엔	-10.9731
▁까지는	-10.9731
▁남자애들	-10.9733
▁수박	-10.9738
꽃	-10.9739
▁살멍	-10.9739
▁고모가	-10.974
껏	-10.9743
▁가구	-10.9748
몰	-10.9752
▁이제부터	-10.9752
▁이신거	-10.9754
▁급하게	-10.9758
▁웃음	-10.9759
▁칠천	-10.9764
▁하는것도	-10.9764
▁들으	-10.9765
지긴	-10.9766
▁상해	-10.9767
▁쏙	-10.9767
▁누구나	-10.9767
▁거여	-10.9768
▁이용	-10.9768
▁책임	-10.9769
▁우산	-10.9774
거래	-10.9777
▁외도	-10.9779
▁곧는	-10.9779
▁어찌됐든	-10.9786
▁가봔	-10.9787
▁해달라고	-10.9791
▁가져가서	-10.9792
갔는데	-10.9792
▁좋으	-10.9795
▁돌리	-10.9799
▁보상	-10.98
▁담에	-10.98
▁좁은	-10.9801
▁걷어	-10.9802
▁초대	-10.9802
▁들었을	-10.9804
었으면	-10.9807
▁인문계	-10.9807
▁체육대회	-10.9807
▁물어볼	-10.9808
▁하나의	-10.9809
▁맡겨	-10.981
▁여유가	-10.981
찍	-10.9811
▁몰려	-10.9812
▁족	-10.9812
▁아팡	-10.9813
하민	-10.9813
▁건강에	-10.9814
▁동생도	-10.9816
▁길로	-10.9817
▁없애	-10.9817
▁주소	-10.982
▁하셨	-10.9823
갔다	-10.9823
▁중국에서	-10.9824
▁설치	-10.9825
달라	-10.9825
치가	-10.9826
▁있겠지만	-10.9827
▁배드민턴	-10.9827
▁토마토	-10.9827
▁작품	-10.9828
부는	-10.9832
그러	-10.9835
▁시켜야	-10.9836
▁어울리는	-10.9836
▁끝났	-10.9837
▁바뀌	-10.9841
▁허는거	-10.9841
▁빡세게	-10.9841
▁그렇지만	-10.9844
▁먹이고	-10.9845
▁듣지	-10.9846
▁교대	-10.9848
▁슬픈	-10.9848
▁안녕하세요	-10.9848
▁나지	-10.9849
▁필요해	-10.9852
▁하드라	-10.9854
▁내려올	-10.9855
▁일일	-10.9856
▁여고	-10.9861
▁몰아	-10.9861
장에	-10.9861
▁놔둬	-10.9862
우꽈	-10.9864
▁구분	-10.9866
▁썽	-10.9867
▁피고	-10.9867
▁아쉬운	-10.9869
▁운동장	-10.9872
스러워	-10.9874
▁왔네	-10.9874
▁묻	-10.9875
▁보내면	-10.9878
▁씹	-10.9878
▁였는데	-10.9883
▁사와	-10.9883
▁바뀌어	-10.9883
▁엘	-10.9884
▁볶음밥	-10.989
▁스케줄	-10.989
▁전화번호	-10.9891
▁웃기	-10.9892
버릴	-10.9893
▁가죽	-10.9897
▁나한테는	-10.9897
▁오믄	-10.99
▁준비하고	-10.9901
▁받으니까	-10.9903
▁궁금	-10.9903
했대	-10.9903
▁차고	-10.9909
답	-10.9909
총	-10.9909
▁자체	-10.9914
▁말자	-10.9915
▁늘어나	-10.9916
▁이번주	-10.9923
▁이기	-10.9924
▁신문	-10.9925
▁거였는데	-10.9925
▁나왔다고	-10.9927
밤	-10.9931
▁장학금	-10.9932
▁리뷰	-10.9932
▁열흘	-10.9934
▁팔백	-10.9936
▁먹거리	-10.9937
▁거니	-10.9937
▁짓고	-10.9942
▁하루는	-10.9942
▁불교	-10.9948
▁몽골	-10.9953
▁낳은	-10.9953
▁모습이	-10.9955
▁우에	-10.9956
▁주잖아	-10.9957
▁빼는	-10.9958
▁채소	-10.9958
▁저건	-10.9962
움	-10.9963
▁땅에	-10.9963
▁예쁘	-10.9965
▁칭찬	-10.9965
줄게	-10.9967
▁들었거든	-10.9968
▁됨	-10.9968
▁앞이	-10.9972
▁러시아	-10.9974
▁되는구나	-10.9974
▁흑돼지	-10.9974
▁바퀴벌레	-10.9974
▁슈퍼	-10.9974
튼	-10.9977
▁볼려고	-10.9979
▁예전엔	-10.9979
▁영양제	-10.998
▁올리면	-10.998
▁아니연	-10.9982
▁사람이니까	-10.9985
▁되더라	-10.9985
▁아가씨	-10.9987
▁방문	-10.999
▁마인드	-10.9994
▁문어	-10.9994
▁걸어가	-10.9994
▁엘리베이터	-10.9995
▁과정	-10.9996
▁몇십	-10.9997
▁따야	-10.9997
▁다섯시	-10.9998
▁닭발	-10.9998
▁직원이	-10.9998
▁전국	-11.0001
▁퇴직	-11.0003
▁확진	-11.0004
▁놀러가	-11.0005
▁피곤해	-11.0007
것만	-11.0011
▁착해	-11.0014
살이	-11.0015
▁최대	-11.0016
▁튀어	-11.0016
▁졸업식	-11.0028
▁빌려서	-11.0031
더래	-11.0034
▁작게	-11.0035
▁재밌을	-11.004
▁핀	-11.0041
해그네	-11.0043
▁아시	-11.0044
▁먹지도	-11.0046
▁좋아한다	-11.0046
▁먹었잖아	-11.0048
▁우는	-11.0048
▁다니기	-11.0049
▁걔네들은	-11.0051
▁편입	-11.0051
▁가위	-11.0054
▁전에도	-11.0054
선생님	-11.0056
▁였어	-11.0057
▁단백질	-11.0058
▁거꾸로	-11.0058
▁습	-11.0061
▁두시	-11.0063
▁합디다	-11.0068
▁제출	-11.0071
▁한자	-11.0073
▁서너	-11.0084
▁스타	-11.0086
▁있당	-11.0087
▁깎아	-11.0087
▁다양한	-11.0089
▁갔었거든	-11.009
▁생각하	-11.0094
▁드라이브	-11.0101
▁괴물	-11.0102
▁보리밥	-11.0103
으로만	-11.0103
▁어신거	-11.0105
▁감독	-11.0106
▁나영	-11.0108
▁하신	-11.0109
점이	-11.0116
▁싶다는	-11.0118
▁않는다	-11.012
뒁	-11.0121
▁태권도	-11.0122
▁수면	-11.013
▁하잰	-11.0131
▁점이	-11.0131
▁커플	-11.0133
았는데	-11.0135
▁애교	-11.0135
싶	-11.0136
▁인터넷으로	-11.0136
▁써가지고	-11.0138
▁키운	-11.0139
▁이유는	-11.0139
▁책도	-11.0145
▁태어나	-11.0146
간에	-11.0147
로구나	-11.0149
▁친구들한테	-11.015
▁그분	-11.015
▁귀에	-11.0152
▁간호	-11.0152
탁	-11.0154
▁못하지	-11.0154
▁연예인들	-11.0157
▁휴	-11.0157
겠니	-11.0158
▁왔던	-11.0163
깨	-11.0164
▁얇은	-11.0165
▁가켄	-11.0166
▁속도	-11.0166
▁클럽	-11.0168
▁아껴	-11.0169
▁멀미	-11.0172
▁스무살	-11.0174
▁경허멍	-11.0175
▁어제는	-11.0177
▁환	-11.018
▁절에	-11.0182
▁난다고	-11.0183
▁선거	-11.0183
▁본다	-11.0185
▁대한민국	-11.0186
▁요양원	-11.019
▁안먹고	-11.0191
▁한번에	-11.0192
▁낮은	-11.0194
▁힘든데	-11.0195
▁올라갔	-11.0195
딩	-11.0197
▁구두	-11.0201
껀데	-11.0204
▁쌍꺼풀	-11.0208
▁필요는	-11.0208
▁하고싶은	-11.021
▁빵빵	-11.0211
▁올케	-11.0211
새끼	-11.0212
▁어디가서	-11.0214
▁저번에도	-11.0215
▁며느리가	-11.0217
▁보이니까	-11.0219
시녜	-11.0219
까지도	-11.0221
한텐	-11.0221
커라	-11.0221
▁공부만	-11.0224
눈	-11.0226
▁마이너스	-11.0229
▁로또	-11.0229
▁지내고	-11.023
린다	-11.0234
▁선물을	-11.0235
▁명도	-11.0238
▁물어봤어	-11.0244
▁죽기	-11.0248
우니까	-11.0249
똥	-11.0249
▁겅해가지고	-11.0253
▁좋은게	-11.0254
▁느끼고	-11.0255
▁캔	-11.0256
▁감저	-11.0258
일이	-11.0258
▁응원	-11.0259
▁싶었던	-11.0263
▁멀리서	-11.0268
▁돌아다니	-11.0273
▁안주	-11.0275
▁해가지구	-11.0275
▁촐	-11.0276
▁기침	-11.0276
▁주위	-11.0281
▁여자를	-11.0284
▁마신	-11.0285
▁선물로	-11.0288
▁아프니까	-11.0291
▁썼는데	-11.0294
▁계획을	-11.0295
▁탑동	-11.0295
▁넘었	-11.0296
꺼라	-11.0298
▁십구	-11.03
▁없더라	-11.03
거랜	-11.0303
▁해가	-11.0305
▁사줘	-11.0305
▁맞긴	-11.0309
▁쇼	-11.0309
▁예민	-11.0309
▁열매	-11.0309
▁조각	-11.0311
▁외할머니	-11.0312
▁춥	-11.0313
기고	-11.0315
▁어쨋든	-11.0316
▁얼른	-11.0317
▁이빠이	-11.0317
▁남자랑	-11.0318
▁더이상	-11.0318
▁됐네	-11.0318
▁이과	-11.0319
치면	-11.032
▁터지	-11.0324
▁했져	-11.0327
폰	-11.0331
니께	-11.0333
▁가보니까	-11.0337
겟	-11.0338
▁가지도	-11.0341
▁괜찮고	-11.0342
▁검은색	-11.0346
▁거였어	-11.0346
▁저게	-11.0349
▁꺾어	-11.0349
▁과연	-11.0352
▁파는데	-11.0356
없는	-11.0357
▁훔쳐	-11.0359
▁데이터	-11.036
시장	-11.0362
▁뜨면	-11.0363
▁툭	-11.0363
▁취미가	-11.0363
▁때쯤	-11.0363
▁열두시	-11.0366
▁제목	-11.0367
▁다행이다	-11.0368
▁영해	-11.0369
▁생각하면서	-11.0369
▁닫	-11.0369
▁몰라가지고	-11.0369
▁아오	-11.0371
송	-11.0373
하기가	-11.0374
이지만	-11.0375
녠	-11.0377
▁층에	-11.0378
쳐서	-11.0382
▁못먹	-11.0384
▁곤	-11.0387
▁발음	-11.0388
▁싸웠	-11.0392
▁갈꺼	-11.0394
▁가봤	-11.0395
▁나왔지	-11.0396
▁팔자	-11.0397
나게	-11.0397
▁한글	-11.0398
▁아버님	-11.0404
▁요리를	-11.0404
▁할라고	-11.0407
▁들어강	-11.0407
▁말래	-11.0408
▁가잰	-11.0408
부니깐	-11.0408
▁와그넹	-11.0408
▁나타나	-11.041
이서	-11.041
▁렌즈	-11.0411
▁왕따	-11.0411
▁발달	-11.0415
▁쓰게	-11.0416
▁샀거든	-11.0417
▁본다고	-11.0418
▁멋있	-11.0421
▁올레	-11.0425
▁마음도	-11.0426
▁틈	-11.0428
▁아들한테	-11.0428
스타	-11.0429
▁청년	-11.0429
럼	-11.0431
▁맞아서	-11.0433
▁공부해야	-11.0437
▁잡아야	-11.0438
▁기준이	-11.0438
▁죽었	-11.0439
▁불법	-11.0441
기에	-11.0441
부터는	-11.0444
▁나이도	-11.0445
▁비싸게	-11.045
▁부인	-11.0453
▁바뀌는	-11.0454
검	-11.0454
▁기록	-11.0454
▁칠백	-11.0455
▁구조	-11.0463
▁싶거든	-11.0465
▁신어	-11.0465
▁전학	-11.0466
▁걷지	-11.0469
▁잡으러	-11.0471
▁갈수록	-11.0471
▁카페에	-11.0476
▁십사	-11.0476
▁습관이	-11.0477
▁격	-11.0478
▁밤새	-11.048
▁되크라	-11.048
▁경해부난	-11.0483
▁자야	-11.0484
거잖아	-11.0487
진다고	-11.049
▁바르고	-11.049
▁당뇨	-11.0492
▁돈가스	-11.0493
▁떠나서	-11.0497
▁즉	-11.0501
▁학번	-11.0503
▁기어	-11.0505
▁되여	-11.0505
▁숙	-11.0509
▁쏠	-11.0512
▁국민	-11.0516
▁짧아	-11.0517
▁조천	-11.0522
▁가만	-11.0523
▁냉	-11.0523
마리	-11.0527
▁나나	-11.0527
▁여동생	-11.0527
▁보이면	-11.0528
▁새해	-11.0532
▁먹으난	-11.0533
▁닭가슴살	-11.0536
▁스마트폰	-11.0536
▁오해	-11.0536
▁슬퍼	-11.0536
▁않네	-11.0538
▁임용	-11.0538
▁야자	-11.0541
▁해보면	-11.0541
▁예수님	-11.0541
▁주랜	-11.0544
▁알바생	-11.0545
▁기간이	-11.0548
▁반장	-11.055
▁그것보다	-11.0555
▁돌멩이	-11.0558
▁바뀔	-11.0558
▁모르켜	-11.0559
▁루	-11.0559
▁고마운	-11.0561
센터	-11.0562
▁살아가는	-11.0562
▁백프로	-11.0563
나라	-11.0564
었구나	-11.0569
▁화를	-11.0569
▁곰	-11.0569
같	-11.0572
털	-11.0573
▁의료	-11.0574
▁노동	-11.0577
▁초가집	-11.0581
▁자기를	-11.0584
▁건강을	-11.0584
▁아이디	-11.0586
▁실력	-11.0586
▁누구야	-11.0587
▁여자랑	-11.0589
▁만져	-11.0594
▁역할	-11.0594
큰	-11.0595
▁뛰고	-11.0603
▁어울려	-11.0603
▁닮았	-11.0606
▁그만두고	-11.0606
▁마음의	-11.0611
▁밀려	-11.0613
▁뭐라도	-11.0613
▁많아요	-11.0619
▁월달	-11.0619
▁활	-11.0621
▁여름에는	-11.0625
▁뷔페	-11.0625
▁덕분에	-11.0625
▁경상도	-11.0626
▁에휴	-11.0627
우다게	-11.063
▁누구네	-11.0631
▁아줌마가	-11.0638
▁종강	-11.0639
▁벌금	-11.0644
▁학부모	-11.0646
싹	-11.0648
땡	-11.0651
보려고	-11.0652
▁겅허고	-11.0657
▁지금부터	-11.0657
▁알겐	-11.0658
▁바쁘	-11.0663
▁채로	-11.0664
선게	-11.0664
▁이렇	-11.0667
▁한쪽	-11.0669
▁젊었을	-11.0669
▁보여주	-11.0672
▁윗	-11.0673
▁엑스	-11.0673
▁시급	-11.0676
▁시험이	-11.0676
▁얘기만	-11.0676
▁안된	-11.0677
말로	-11.0677
▁팀이	-11.0678
▁카페에서	-11.0678
▁져	-11.0681
▁풀려	-11.0681
▁해버리면	-11.0683
▁남원	-11.0685
▁맛좋	-11.0686
▁했냐	-11.0687
▁고깃집	-11.0693
▁죄송합니다	-11.0693
▁고향	-11.0695
▁찢어	-11.0695
▁아니래	-11.0697
▁피는	-11.0698
▁오분	-11.0701
▁내리고	-11.0701
▁소비	-11.0705
랐	-11.0706
▁잠도	-11.0708
▁슈	-11.0709
▁학생이	-11.071
겠는데	-11.0711
▁바꿨	-11.0714
우리	-11.0715
▁부잣집	-11.0715
▁아프리카	-11.0715
▁챙기고	-11.0717
▁부주	-11.0717
▁소리도	-11.0717
▁몇백	-11.0718
▁모른다	-11.0721
보세요	-11.0724
▁해연	-11.0726
▁멋있는	-11.0727
신데	-11.073
▁냉동실에	-11.073
▁나갔다	-11.0731
문화	-11.0733
▁깻잎	-11.0738
▁말해주	-11.0738
왔는데	-11.0738
이우다	-11.0739
▁보내야	-11.0739
끈	-11.074
▁허리가	-11.0742
인거야	-11.0743
▁깎	-11.0748
껀	-11.0753
▁바이러스	-11.0759
▁에스엔에스	-11.0761
▁티켓	-11.0761
졈	-11.0766
혔	-11.0767
▁통과	-11.0767
▁방향	-11.0768
▁지워	-11.0769
▁칼국수	-11.077
▁있니	-11.0773
▁대학을	-11.0775
으멍	-11.0775
▁돌아서	-11.0775
접	-11.0777
▁됐고	-11.0779
▁쓴다고	-11.078
▁향이	-11.0782
▁참치	-11.0783
▁알아보고	-11.0783
▁다음주에	-11.0784
▁들어갔어	-11.0785
▁빨간색	-11.0787
▁장난감	-11.0788
▁견디	-11.0791
▁외국에서	-11.0791
▁깔고	-11.0791
▁졸업하고	-11.0792
▁몽	-11.0793
▁힘들었	-11.0799
▁흔들	-11.08
▁해놨	-11.0806
하던데	-11.0806
▁그랬잖아	-11.0808
▁않았을까	-11.0809
싱	-11.0809
허연	-11.081
▁너희들	-11.0813
▁주의	-11.0816
▁저디	-11.082
졌다고	-11.0821
▁누구는	-11.0821
▁갔나	-11.0822
▁호나	-11.0822
▁평가	-11.0825
▁찌는	-11.0829
▁대놓고	-11.083
▁어딘지	-11.083
▁사귀고	-11.0831
▁죽으면	-11.0831
▁있었어요	-11.0832
▁붙이고	-11.0832
지난	-11.0833
▁운동화	-11.0839
▁친하게	-11.0842
▁쓰면서	-11.085
s	-11.0852
▁사람이야	-11.0854
▁보기에는	-11.0857
놔야	-11.086
었는지	-11.0861
▁놓으니까	-11.0861
▁보네	-11.0862
▁따라가	-11.0863
이면은	-11.0865
▁늘어	-11.0865
찰	-11.0866
▁계시	-11.0867
을걸	-11.0867
▁이차	-11.087
▁해수욕장	-11.0876
▁싶었	-11.0877
▁터지고	-11.0877
▁귀한	-11.0879
▁밥이	-11.088
▁약이	-11.088
▁마시면	-11.0881
▁몸은	-11.0883
▁화난	-11.0884
▁국시	-11.0886
▁글자	-11.0889
싶어	-11.0892
▁일곱시	-11.0893
▁노랑	-11.0894
▁따러	-11.0895
▁주는거	-11.0896
▁조기	-11.0896
합니까	-11.0897
▁사이가	-11.0897
카부덴	-11.0898
쌀	-11.0898
▁많대	-11.0899
안에	-11.09
▁댕기는	-11.0904
▁넘겨	-11.0905
▁보이잖아	-11.0909
▁닦	-11.0912
▁아니랜	-11.0914
▁주먹	-11.0914
▁백팔십	-11.0916
▁전통	-11.092
허민	-11.092
▁배워야	-11.0923
했으니까	-11.0924
▁확진자가	-11.0925
시니까	-11.0927
▁모르겠어요	-11.0928
▁케어	-11.0928
▁병이	-11.0929
가민	-11.093
▁일차	-11.093
▁밥만	-11.0931
▁우리의	-11.0932
▁가슴이	-11.0932
▁실험	-11.0934
▁주택	-11.0935
▁먹을래	-11.0935
었대	-11.0935
▁대단하다	-11.0937
▁과거	-11.0938
▁숨겨	-11.0939
함이	-11.0941
▁샘	-11.0942
▁전주	-11.0944
▁썼던	-11.0945
▁엠비티아이	-11.0945
▁사춘기	-11.0945
▁이번에도	-11.0945
▁까페	-11.0945
▁농약	-11.0946
▁될꺼	-11.0949
▁동생이랑	-11.095
▁쓴다	-11.0951
▁입엉	-11.0952
▁동시에	-11.0952
▁놨어	-11.0957
▁팔면	-11.0966
▁운동하고	-11.0967
▁제주시에	-11.0967
▁타야	-11.0967
▁판매	-11.0967
▁쌩	-11.0967
▁두꺼운	-11.0968
▁어떤거	-11.0969
▁작고	-11.097
겼	-11.0973
▁알려주	-11.0975
▁양식	-11.0975
▁벗겨	-11.0977
▁것에	-11.098
▁두명	-11.0981
▁현장	-11.0982
▁팔아서	-11.0982
▁인식	-11.0984
▁움직이	-11.0986
▁올라가고	-11.0986
▁안좋은	-11.0986
▁마취	-11.0993
▁할머니랑	-11.0997
▁성경	-11.0998
▁가까워	-11.1
▁봤다고	-11.1002
▁이상형	-11.1002
▁있거나	-11.1004
▁남한테	-11.1008
▁벌었	-11.1009
▁플	-11.1011
▁분들은	-11.1013
▁맛없	-11.1014
▁조개	-11.1014
▁살인	-11.1016
▁운동은	-11.1016
훈	-11.102
이었지	-11.102
▁언제부터	-11.102
▁입으로	-11.1024
▁만났	-11.1026
▁먹었다고	-11.1026
▁곱게	-11.1027
여신디	-11.103
▁밭을	-11.1031
▁문제지	-11.1034
▁멋	-11.1034
옥	-11.1037
▁알바도	-11.1037
거니	-11.1038
▁자리를	-11.1038
▁바나나	-11.1038
▁공기업	-11.1039
▁쓰라고	-11.104
▁알람	-11.1041
▁불쌍한	-11.1042
▁염	-11.1045
▁예능	-11.1046
▁지식	-11.1046
▁되는거야	-11.1046
▁목이	-11.1046
▁이정도	-11.1049
▁찾을	-11.105
▁아버지도	-11.105
운동	-11.105
▁분야	-11.1052
▁따서	-11.1052
지마	-11.1053
되서	-11.1054
▁게임이	-11.1059
▁끓이	-11.1059
▁해산물	-11.1061
땅	-11.1065
겠대	-11.1067
▁여행은	-11.1068
▁생리	-11.1068
식이	-11.1074
▁먹어봐	-11.1074
▁휴지	-11.1074
▁먹어가지고	-11.1075
▁그아이	-11.1076
▁지지	-11.1077
읍	-11.108
▁있수다	-11.1081
▁내려가는	-11.1084
▁이벤트	-11.1085
▁유일하게	-11.1085
▁인생이	-11.1085
▁공격	-11.1088
▁글씨	-11.1089
▁때리고	-11.109
▁유명하	-11.1091
▁형님이	-11.1093
▁많긴	-11.1094
▁특이한	-11.1097
▁시간씩	-11.1097
▁없어진	-11.1098
▁반말	-11.1098
▁몬	-11.1102
▁하래	-11.1103
▁그랬다	-11.1105
▁족발	-11.1109
▁얘기하면서	-11.1109
▁왕으네	-11.111
▁식초	-11.1112
▁분만	-11.1113
▁모르겠네	-11.1113
▁겉	-11.1114
▁상관없	-11.1115
▁자르	-11.1115
▁삭제	-11.1115
▁매년	-11.1116
▁좋아하잖아	-11.1117
▁짚	-11.1118
▁뜯	-11.112
▁전엔	-11.112
▁했수다	-11.1121
▁자기의	-11.1128
▁따뜻하게	-11.1128
▁천만원	-11.1131
거난	-11.1133
보여	-11.1134
▁했었고	-11.1135
▁살때	-11.1137
▁마이	-11.1143
▁걸고	-11.1144
▁없구나	-11.1146
▁하지도	-11.1149
▁박물관	-11.1149
▁접시	-11.115
▁신청을	-11.1152
▁동안은	-11.1153
물이	-11.1154
▁예술	-11.1156
▁패션	-11.1156
▁흘러	-11.1157
▁물로	-11.1158
랄	-11.1158
▁대해서는	-11.1159
몽	-11.1159
▁도민	-11.1159
먹을	-11.1161
▁나두	-11.1161
▁말고도	-11.1163
▁올랐	-11.1164
▁면세점	-11.1166
▁거기서는	-11.1168
▁머릿속에	-11.1173
▁있어야지	-11.1173
▁세번	-11.1174
껴	-11.1175
있으니까	-11.1179
▁오랫동안	-11.1179
▁초록색	-11.118
▁네시	-11.1182
▁에이아이	-11.1182
▁분리	-11.1186
▁왔었	-11.1186
▁금지	-11.1187
▁수시	-11.1187
▁만들기	-11.1194
▁아니였어	-11.1196
▁하켄	-11.1197
▁행복해	-11.1197
▁운이	-11.1199
▁맞으	-11.1199
▁알겠다	-11.1201
▁커피숍	-11.1203
▁사탕	-11.1205
됐	-11.1205
▁줘야지	-11.1206
▁경기도	-11.1208
▁약국	-11.1209
▁주인공이	-11.1209
보기	-11.121
▁희	-11.121
주라	-11.1211
▁할려면	-11.1212
▁나눠서	-11.1216
▁서방은	-11.1217
▁미안하다	-11.1218
▁무섭	-11.1219
▁써져	-11.122
▁향수	-11.1222
▁직업이	-11.1223
▁해먹	-11.1224
▁것까지	-11.1225
▁붙어서	-11.1226
▁버터	-11.123
보험	-11.1234
▁가그냉	-11.1235
▁샤	-11.1235
▁프사	-11.1237
▁화장실에	-11.1238
▁영혼	-11.1238
했구나	-11.1242
xxxx	-11.1244
▁가요	-11.1245
▁오바	-11.1247
▁신경쓰	-11.1248
▁갈색	-11.1249
▁정이	-11.1249
▁느껴지는	-11.1249
▁동네가	-11.1251
존	-11.1251
빙	-11.1254
▁하드라고	-11.1255
▁운동이	-11.1258
▁분도	-11.1259
▁공항에서	-11.1259
하냐고	-11.126
▁못하겠어	-11.1261
▁입어야	-11.1263
▁항아리	-11.1264
다면	-11.1268
▁겨울이	-11.1269
▁수업이	-11.127
▁지치	-11.1272
▁이놈의	-11.1273
긋	-11.1274
▁닮은데	-11.1274
▁등산	-11.1275
▁대상	-11.1276
▁일어날	-11.1276
▁숙제	-11.1277
▁바짝	-11.1277
▁겅하고	-11.1279
▁티가	-11.128
▁가랜	-11.1282
▁쓰다가	-11.1283
▁오는거	-11.1285
/(	-11.1285
▁끼워	-11.1287
▁어실	-11.1288
▁공개	-11.1289
▁갔고	-11.129
혼	-11.1293
릿	-11.1295
▁내려서	-11.1297
▁흉	-11.1301
벽	-11.1303
▁의외로	-11.1304
▁성게	-11.1305
▁사람들만	-11.1306
하신	-11.1307
▁업무	-11.1309
▁커버	-11.131
▁허라	-11.1311
▁넘는	-11.1313
▁할머니네	-11.1315
▁뽕	-11.1315
▁하냐면	-11.1315
▁너네한테	-11.1317
▁중고	-11.1317
사고	-11.1318
오라	-11.1318
하겠다고	-11.132
▁애니메이션	-11.1322
▁해안도로	-11.1322
▁취급	-11.1323
▁덮어	-11.1332
▁펜	-11.1333
▁날도	-11.1334
▁구름	-11.1334
▁짧	-11.1335
▁전달	-11.1341
▁와그네	-11.1342
▁대화가	-11.1347
▁맡아	-11.1347
할때도	-11.1351
▁아무렇지도	-11.1353
▁한단	-11.1354
▁댕기고	-11.1355
▁가져간	-11.1358
▁집착	-11.1362
▁우리나라에서	-11.1362
▁이길	-11.1368
▁나왔잖아	-11.1368
▁이천이십	-11.1368
▁갔다오	-11.1369
▁놈삐	-11.1371
▁가봤는데	-11.1371
▁자세히	-11.1372
웠어	-11.1372
납	-11.1373
▁버릇	-11.1373
▁울었	-11.1374
▁경허고	-11.1375
▁베개	-11.1377
▁마구	-11.1379
습	-11.1381
▁안했는데	-11.1382
▁당연하지	-11.1382
▁봤고	-11.1383
▁비싼거	-11.1385
▁흥	-11.1385
집에서	-11.1385
▁동갑	-11.1388
▁진상	-11.139
▁말대로	-11.1393
▁비용	-11.1393
▁할건데	-11.1393
▁순대	-11.1395
▁멈춰	-11.1395
▁원장	-11.1397
▁용담	-11.1399
▁이서부난	-11.14
▁발목	-11.1401
▁금요일날	-11.1402
▁화분	-11.1403
엘	-11.1403
▁낳는	-11.1403
▁따지	-11.1405
▁못했어	-11.1407
▁뿌	-11.1411
▁모양이	-11.1412
▁듯이	-11.1412
▁힐링	-11.1419
▁팔로우	-11.142
▁삼다수	-11.1421
▁입맛	-11.1422
▁소풍	-11.1422
▁다르	-11.1426
엠	-11.1427
▁바르	-11.1431
▁박사	-11.1432
▁아니니	-11.1433
▁버스를	-11.1436
▁미안한	-11.1438
▁당일	-11.1439
▁그쪽에서	-11.144
▁남자친구랑	-11.1441
▁주방	-11.1442
▁꼰대	-11.1443
▁잠옷	-11.1446
▁친척들	-11.1448
▁일자리	-11.145
▁애한테	-11.1452
▁당신이	-11.1454
▁잇	-11.1457
▁붙이	-11.1461
▁걔네도	-11.1464
18&	-11.1468
어멍	-11.1468
▁그렇게하니까	-11.1468
▁땅콩	-11.1469
은거	-11.1472
▁거면은	-11.1474
▁국제	-11.1476
▁눈물이	-11.1476
▁뉴스에	-11.1479
▁와라	-11.148
▁십삼	-11.1481
▁나네	-11.1483
▁전이	-11.1483
▁넘어가면	-11.1483
▁이쪽에	-11.1486
▁크면	-11.1491
야되는데	-11.1492
▁팬티	-11.1494
▁장갑	-11.1495
▁유채	-11.1497
▁피씨방	-11.1497
▁월요일날	-11.1499
▁애기도	-11.15
준다	-11.1501
▁약한	-11.1503
▁설정	-11.1504
▁연동	-11.1505
▁거주	-11.1506
▁복지	-11.1508
▁알아봐	-11.1508
▁역할을	-11.1508
▁뜰	-11.1512
▁허벅지	-11.1514
▁구라	-11.1514
▁모의고사	-11.1517
▁시작하겠습니다	-11.1517
▁돌아가시	-11.1518
▁활용	-11.1518
▁낀	-11.1519
▁분의	-11.1519
▁연락해	-11.1521
▁아이유	-11.1523
썩	-11.1527
▁반죽	-11.1528
▁때까지는	-11.1529
▁주제를	-11.153
▁예방	-11.1532
대기	-11.1533
▁서귀포에서	-11.1534
쓰고	-11.1536
▁정도가	-11.1536
▁눌	-11.1537
▁물고기	-11.1538
▁다녔던	-11.1541
▁쳐다	-11.1542
▁있습니까	-11.1543
▁개나	-11.1544
▁정도의	-11.1544
▁왐	-11.1548
▁보여줘	-11.156
▁예상	-11.1562
놀이	-11.1563
효	-11.1564
▁닫고	-11.1564
▁말하더라	-11.1565
▁라디오	-11.1566
▁이래가지고	-11.1567
▁김녕	-11.1567
▁생각했거든	-11.157
▁꽂아	-11.1571
▁식물	-11.1579
랭이	-11.1583
불민	-11.1585
는것도	-11.1589
▁걱정하지	-11.1589
여행	-11.1589
자로	-11.1589
명이	-11.1595
▁문과	-11.1598
▁줄은	-11.16
▁케익	-11.1601
보믄	-11.1602
▁어렵지	-11.1607
▁어선	-11.1612
▁뭐랑	-11.1613
▁바깥에	-11.1613
▁그랬나	-11.1615
▁끌	-11.1617
▁대기업	-11.1617
▁정식	-11.1619
▁느껴지	-11.162
▁조건	-11.162
▁반반	-11.1622
▁필요할	-11.1623
빈	-11.1626
▁버스가	-11.1626
▁할머니한테	-11.1627
▁사라	-11.1627
▁그때까지	-11.1632
▁고민이	-11.1635
▁기다리는	-11.1635
▁되는거지	-11.1635
▁너네랑	-11.1637
주마씨	-11.1639
▁글쎄	-11.164
▁랩	-11.1641
▁헉	-11.1641
▁봐요	-11.1642
▁불쌍해	-11.1643
▁뚫	-11.1644
▁행동을	-11.1645
▁뽑고	-11.1646
▁결혼하면	-11.1649
▁달리기	-11.165
▁맞수다	-11.1661
▁여수	-11.1663
▁감사합니다	-11.1666
▁해나신디	-11.1671
그렇게	-11.1674
▁살당	-11.1676
▁병원을	-11.1678
잖아예	-11.1682
자를	-11.1683
▁세우	-11.1683
▁찍으면	-11.1684
▁썩어	-11.1686
▁인지	-11.1686
게요	-11.1689
▁서울로	-11.169
바지	-11.169
▁텐트	-11.1691
▁해주지	-11.1692
▁인디	-11.1692
▁맛있긴	-11.1693
▁불만	-11.1696
했었는데	-11.1699
사를	-11.1699
▁정해진	-11.17
▁빌라	-11.1706
▁있잖아예	-11.1707
▁장비	-11.1709
▁디저트	-11.1715
▁느꼈	-11.172
▁농사를	-11.1723
▁저리	-11.1729
▁까먹	-11.1733
▁실내	-11.1735
▁얼어	-11.1735
▁엎어	-11.1738
▁스터디	-11.174
▁이상하다	-11.1741
▁쌀밥	-11.1743
▁만드	-11.1745
▁싶어도	-11.1746
페	-11.1747
▁생활이	-11.1747
▁됐어요	-11.1749
▁경험을	-11.1749
잇	-11.175
▁공짜	-11.1751
▁영화는	-11.1752
▁땡겨	-11.1752
▁아니더라도	-11.1754
▁왜냐	-11.1754
▁결혼해서	-11.1754
▁고려	-11.1754
▁아주망	-11.1756
▁들어가기	-11.1761
▁전화로	-11.1761
▁끝났어	-11.1762
▁할머니도	-11.1765
▁유산균	-11.1765
▁콜	-11.1766
나난	-11.1768
▁학생들이	-11.1768
▁다이소	-11.1774
봅서	-11.1779
▁느낌을	-11.178
▁닮안	-11.1783
▁좋을거	-11.1783
▁주거든	-11.1786
▁한시	-11.179
▁티브이	-11.1791
▁공익	-11.1792
▁늦어	-11.1796
▁돌리고	-11.1796
▁하겠지만	-11.1797
▁다르잖아	-11.1798
▁전과	-11.1798
▁다음엔	-11.1799
주라고	-11.1799
▁전까지는	-11.1802
거리는	-11.1802
▁들더라고	-11.1803
▁험	-11.1803
▁맛좋아	-11.1805
▁열시	-11.1808
▁잃어	-11.1809
▁푸는	-11.1809
▁교통	-11.181
▁게난이	-11.1814
▁소문이	-11.1814
▁컴활	-11.1816
▁으응	-11.1816
▁자존심	-11.1817
▁세수	-11.1817
▁걱정되	-11.182
▁찍었	-11.1821
▁있음	-11.1822
▁등록금	-11.1822
▁인물	-11.1823
▁살아온	-11.1826
▁낮아	-11.183
으라고	-11.1832
▁피부과	-11.1832
▁부족	-11.1833
▁많아부난	-11.1837
▁선배들	-11.184
▁나왔거든	-11.1845
▁내려왔	-11.1845
▁많은거	-11.1846
▁변화	-11.1847
이언	-11.1851
▁몰랑	-11.1853
▁명을	-11.1853
▁중에서도	-11.1853
▁확인해	-11.1856
▁드시	-11.1857
▁정리를	-11.1859
▁여기로	-11.1862
이니깐	-11.1862
▁나처럼	-11.1863
▁앨범	-11.1866
▁아메리카노	-11.1866
▁사라져	-11.1867
▁영상을	-11.1868
▁헛	-11.1871
▁단발	-11.1872
▁감염	-11.1876
빌	-11.1879
▁고기도	-11.1886
하진	-11.1887
▁터치	-11.1888
3	-11.1888
▁삶은	-11.1891
▁지어서	-11.1891
▁좋아했던	-11.1893
▁섞어서	-11.1894
▁가르켜	-11.1895
▁빗	-11.1898
▁방울	-11.1908
▁영양	-11.1911
▁경력	-11.1915
했주게	-11.1916
▁내려갈	-11.1917
▁카카오	-11.1917
▁중앙여고	-11.1917
▁와이파이	-11.1917
▁쿠폰	-11.1917
▁여덟시	-11.1918
▁시청에서	-11.1919
▁부르면	-11.1919
렸는데	-11.1919
▁실망	-11.1921
▁하라는	-11.1921
▁팁	-11.1923
▁일어나는	-11.1924
▁빼고는	-11.1924
▁녹차	-11.1924
▁말씀을	-11.1924
보라고	-11.1926
▁빌어	-11.1927
▁데꼬	-11.1932
▁안됐	-11.1935
▁남을	-11.1935
▁않니	-11.1937
▁돌리는	-11.1941
▁몽땅	-11.1943
▁달린	-11.1944
▁지점	-11.1945
▁없으니깐	-11.1946
▁헌거	-11.1946
헌디	-11.1946
▁언젠가	-11.1947
▁추워서	-11.1947
▁어쩌	-11.1948
▁상대방이	-11.195
▁옆집	-11.195
▁주려고	-11.1951
▁무대	-11.1953
▁경허믄	-11.1954
▁내리는	-11.1954
▁돼여	-11.1955
▁미용	-11.1955
칼	-11.1955
▁장에	-11.1955
▁싶은거	-11.1957
▁일층	-11.1958
▁안되는데	-11.1958
쟁	-11.1958
당으네	-11.1959
보면서	-11.196
▁고운	-11.1961
▁보인다	-11.1962
리스	-11.1964
▁왔댄	-11.1967
▁의무	-11.1968
▁얘들아	-11.1971
▁나갔어	-11.1973
▁놓아	-11.1975
▁맞다고	-11.1975
▁싫은데	-11.1975
▁시대에	-11.1975
▁기본적인	-11.1975
▁방역	-11.1976
▁뼈가	-11.1977
▁스테이크	-11.1977
▁이러다가	-11.1977
▁있죠	-11.1978
▁하던디	-11.198
▁도남	-11.1981
있을	-11.1981
▁먹으멍	-11.1983
▁봉지	-11.1983
▁편하고	-11.1984
▁됐거든	-11.1985
▁오세요	-11.1985
▁여러개	-11.1987
정이	-11.1987
▁애기들이	-11.1987
▁만나러	-11.1988
▁중반	-11.1989
▁요만	-11.199
17&	-11.1994
▁예의	-11.1995
▁약속을	-11.1996
카드	-11.1997
▁무게	-11.1997
▁널어	-11.1999
시키는	-11.1999
▁하튼	-11.2
▁먹으래	-11.2001
▁아파가지고	-11.2004
▁긁어	-11.2006
▁모레	-11.2007
▁그렇게하면	-11.2009
▁잠만	-11.2009
▁자매	-11.201
안해	-11.2011
▁헤어지고	-11.2012
났주게	-11.2012
▁넘으면	-11.2012
궈	-11.2018
▁우리집이	-11.2021
▁연탄	-11.2021
▁군대에서	-11.2022
▁나쁘게	-11.2023
져야	-11.2026
▁많안	-11.2027
▁좋아했어	-11.2027
▁옆이	-11.203
▁가능한	-11.2033
▁따면	-11.2033
▁보호자	-11.2035
▁나와신디	-11.2035
▁희망	-11.2036
▁이쁘	-11.2037
▁엄만	-11.204
▁멋진	-11.2041
▁곰팡이	-11.2046
▁오메기떡	-11.2046
▁물리	-11.2046
생활	-11.205
▁같으니까	-11.2054
넹	-11.2066
입고	-11.2068
▁저래	-11.207
▁회사가	-11.207
▁배경	-11.2071
▁어디야	-11.2074
▁화북	-11.2074
▁누르면	-11.2077
▁수준이	-11.2078
받아	-11.2079
▁형님은	-11.208
1	-11.2082
▁큰아들	-11.2083
▁더러워	-11.2084
▁지각	-11.2089
▁필요도	-11.2098
▁화학	-11.21
▁보냈어	-11.2101
▁고산	-11.2103
▁불안	-11.2104
▁다운	-11.2105
▁육지로	-11.2105
▁힘들다고	-11.2106
질거	-11.2106
▁너만	-11.2107
▁부럽다	-11.2109
▁담앙	-11.211
▁꽂	-11.2111
▁가거나	-11.2111
▁굳	-11.2113
▁돌아오는	-11.2113
▁다녀서	-11.2115
▁남자애가	-11.2115
난예	-11.2118
황	-11.2121
▁심리	-11.2123
▁터질	-11.2123
▁다녔지	-11.2124
▁사신디	-11.2127
▁알았다	-11.2128
▁도와주고	-11.213
하는거야	-11.2131
▁오게	-11.2131
해지고	-11.2133
▁준거	-11.2133
▁했습니다	-11.2133
▁만났어	-11.2138
▁둘러	-11.2145
▁스님이	-11.2145
맹	-11.2147
▁좋거든	-11.2149
량이	-11.2149
▁흐	-11.2151
▁터졌	-11.2154
받은	-11.2154
▁사랑을	-11.2156
▁보내줘	-11.2161
▁이겨	-11.2162
▁안행	-11.2168
▁비밀	-11.217
▁사거리	-11.2171
놀	-11.2172
▁인테리어	-11.2176
▁팡팡	-11.2176
▁사람네	-11.2177
▁저기서	-11.2179
▁부부가	-11.2181
▁짜고	-11.2182
▁환경이	-11.2182
▁한식	-11.2184
▁끓여서	-11.2185
▁붙는	-11.2186
▁제작	-11.2186
▁준비해	-11.2189
▁경영	-11.2192
▁기초	-11.2192
▁자기만	-11.2196
▁가당	-11.2197
▁어떵행	-11.2198
▁이랬	-11.2198
▁힘들었어	-11.2199
▁주기	-11.22
▁알바가	-11.22
▁여자친구가	-11.2202
▁부지런	-11.2205
▁순간에	-11.2213
▁사랑하는	-11.2214
▁위험해	-11.2224
▁거리가	-11.2224
▁자다가	-11.2231
▁에어	-11.2231
▁하나밖에	-11.2233
▁그중에	-11.2233
▁파일	-11.2235
▁멤버	-11.2238
상이	-11.2238
▁나갔	-11.224
▁접종	-11.2242
▁프리	-11.2242
가봐	-11.2244
▁용기	-11.2249
▁상황을	-11.2249
▁된거지	-11.225
▁넘은	-11.2251
▁밤이	-11.2251
▁가세요	-11.2253
▁타로	-11.2255
▁이탈리아	-11.2255
▁애매한	-11.2255
▁기억해	-11.2258
▁지나가면	-11.2261
화가	-11.2264
▁내서	-11.2266
캐	-11.2269
느라	-11.2273
▁절대로	-11.2276
▁아주머니	-11.2276
▁덥	-11.2276
▁허잰	-11.2277
▁해줬	-11.228
▁운전면허	-11.2281
라든가	-11.2281
▁해장국	-11.2282
▁형부가	-11.2282
▁적고	-11.2282
▁통에	-11.2282
▁그것까지	-11.2284
▁잤어	-11.2284
▁스키	-11.2285
▁어리	-11.2287
▁그랬을	-11.2287
▁동선	-11.2287
▁사일	-11.2289
▁여기다	-11.2289
▁떡국	-11.2291
▁없는거야	-11.2292
▁고랐	-11.2294
씨가	-11.2294
▁매력	-11.2296
끝	-11.2296
▁올라오고	-11.2299
▁컨	-11.2301
▁회장님	-11.2302
▁기구나	-11.2302
▁마트에	-11.2304
▁걔네들이	-11.2307
▁돌아다녀	-11.231
된다	-11.231
▁생겼는데	-11.2317
▁매니저	-11.2318
구만	-11.232
▁브이	-11.2321
▁명상	-11.2322
▁비벼	-11.2323
▁당한	-11.2328
▁이십분	-11.2331
된거	-11.2332
▁입니다	-11.2334
▁막혀	-11.2334
▁딸내미	-11.2335
▁포도	-11.2335
▁쌀국수	-11.2335
▁쏴	-11.2336
▁남편도	-11.2339
▁나강	-11.2347
▁버거	-11.2347
▁거실	-11.2348
폭	-11.2348
▁됐나	-11.235
▁입맛이	-11.2351
▁덴	-11.2351
보니깐	-11.2352
▁가르치	-11.2356
▁들어신디	-11.2356
▁육수	-11.2358
▁나에게	-11.2358
▁이라	-11.2358
▁억양	-11.236
▁휘	-11.236
▁금액	-11.2361
▁아쉬워	-11.2361
▁바뀌고	-11.2362
허면	-11.2362
▁먹네	-11.2363
▁나라에	-11.2363
▁논문	-11.2365
▁이십년	-11.2365
▁더워	-11.2366
▁껌	-11.237
▁마이크	-11.2371
해주	-11.2371
▁공부해	-11.2371
▁쓰거든	-11.2376
▁시작했	-11.2377
▁나잖아	-11.2379
김	-11.238
▁했었나	-11.2382
▁하지만은	-11.2382
가꼬	-11.2382
▁허게	-11.2385
▁떄	-11.2385
▁좋지만	-11.2385
▁그렇게해도	-11.2386
▁벚꽃	-11.2388
▁샌드위치	-11.2388
▁샴푸	-11.2388
▁스피커	-11.2388
▁개념이	-11.2388
방이	-11.2389
으면은	-11.239
▁영향을	-11.239
▁오년	-11.2391
▁엠티	-11.2392
▁모르겠	-11.2392
▁사준	-11.2393
▁했어야	-11.2393
▁생산	-11.2398
쌤이	-11.2403
삐	-11.2404
▁찌개	-11.2405
▁동네는	-11.241
▁쟤가	-11.2412
▁간댄	-11.2414
▁양배추	-11.2416
▁여자애들	-11.2416
사진	-11.2417
▁생전	-11.2419
▁투어	-11.2419
▁앉아가지고	-11.242
▁있으면서	-11.242
▁식단	-11.242
▁아이한테	-11.2421
▁비료	-11.2422
▁비슷하	-11.2423
▁삼십대	-11.2425
▁감정이	-11.2425
▁엄마들	-11.2429
▁컨셉	-11.243
▁갖	-11.2431
이라든지	-11.2433
▁교회에서	-11.2433
▁멋있어	-11.2434
▁들었지	-11.2435
▁고정	-11.2436
▁연습을	-11.2437
▁계절	-11.2439
▁느꼈어	-11.244
▁아내	-11.244
▁길러	-11.2441
▁컷	-11.2441
▁한라봉	-11.2442
▁고무줄	-11.2444
▁애랑	-11.2444
▁빠르게	-11.2444
▁학원을	-11.2446
르는	-11.2447
▁년생	-11.2447
▁불고기	-11.2447
▁커피를	-11.2448
래요	-11.2449
▁동산	-11.2453
▁벗어나	-11.2453
나니까	-11.2453
▁흑인	-11.2455
▁들었다	-11.2457
▁시켜먹	-11.2458
▁대고	-11.2458
▁만나가지고	-11.246
▁투표	-11.2462
▁고통	-11.2464
▁요번	-11.2465
둬	-11.2468
▁늦은	-11.2469
▁여드름	-11.2469
▁탐	-11.2469
▁집안이	-11.2469
▁전문가	-11.2471
▁기절	-11.2476
▁뺐	-11.2476
났져	-11.2478
겠다는	-11.2478
▁그랜	-11.2479
▁싶언	-11.248
▁만들엉	-11.2481
▁앉아있	-11.2481
▁어디까지	-11.2481
었으니까	-11.2482
▁쓱	-11.2483
▁마셨	-11.2484
▁구석	-11.2484
▁자료	-11.2489
르륵	-11.2491
▁재미있	-11.2491
▁바껴	-11.2492
언니가	-11.2492
▁피피티	-11.2496
▁안그래도	-11.2497
▁부지런히	-11.2497
▁하더니	-11.2497
▁물회	-11.2499
▁하더라도	-11.2499
▁사람이고	-11.25
▁인구	-11.2501
▁많았는데	-11.2503
▁외워	-11.2503
▁저쪽에	-11.2504
▁마약	-11.2505
▁드신	-11.2505
▁방법을	-11.251
▁파악	-11.251
▁혈압	-11.2511
▁조용	-11.2512
▁짓을	-11.2516
▁괜찮아요	-11.2516
▁식품	-11.252
▁세시	-11.252
▁깔끔하게	-11.2523
▁뉴질랜드	-11.2523
수를	-11.253
▁아닌게	-11.2531
▁잘라서	-11.2533
거랑	-11.2534
▁돌아다니는	-11.2535
▁착하	-11.2536
타고	-11.2536
▁브	-11.2539
▁안되니까	-11.254
▁쌈	-11.2541
나요	-11.2541
▁조금이라도	-11.2542
▁죽이	-11.2542
▁뭔말	-11.2542
인데도	-11.2543
▁하느냐	-11.2547
▁손흥민	-11.255
▁레전드	-11.255
▁페이스북	-11.255
실건디	-11.2553
▁헤어진	-11.2553
▁넘어가는	-11.2554
▁대접	-11.2555
했언	-11.2556
▁쓰려고	-11.2563
▁아이디어	-11.2565
▁생각난다	-11.2572
▁말하려고	-11.2572
▁오다가	-11.2576
▁불편하	-11.2577
▁기저귀	-11.2577
▁느낌은	-11.2579
▁코딩	-11.2579
▁꾸며	-11.2579
▁같습니다	-11.2579
▁뭉	-11.2581
▁둔	-11.2581
▁치우고	-11.2584
하시	-11.2585
▁시작을	-11.2588
▁갔다오고	-11.259
▁하려면	-11.2595
거를	-11.2598
▁상황에	-11.26
으러	-11.2601
▁원장님	-11.2605
드리	-11.2605
▁받아도	-11.2606
▁지붕	-11.2606
않아	-11.2608
▁있을걸	-11.2608
▁놓지	-11.261
▁사회생활	-11.2615
▁모셔	-11.2617
▁이십만원	-11.2618
▁엄마들이	-11.2619
▁맞았어	-11.262
▁가부난	-11.2621
▁드는데	-11.2623
▁해봤	-11.2624
▁뭐하러	-11.2624
▁첫날	-11.2625
붙	-11.2625
▁않지만	-11.2627
▁인터뷰	-11.2632
▁팍팍	-11.2632
▁대문	-11.2634
▁하지는	-11.2637
녕	-11.2642
▁알암	-11.2643
▁가져오	-11.2644
▁쿠팡	-11.2645
▁갔어요	-11.2647
▁남친	-11.2647
▁니트	-11.2651
▁구나	-11.2652
▁고무	-11.2652
▁오른쪽	-11.2654
▁사료	-11.2655
▁털이	-11.2658
▁우리나라가	-11.2658
▁비슷	-11.2663
보다도	-11.2665
▁앉은	-11.2665
▁범인	-11.2666
▁우주	-11.2666
▁겨난	-11.2671
여도	-11.2673
▁먹어봔	-11.2675
▁답답한	-11.2676
▁취미로	-11.2677
▁제주에	-11.2677
▁동서	-11.2678
▁네개	-11.2679
▁믿을	-11.268
▁나오긴	-11.2681
▁평상시에	-11.2681
▁올려야	-11.2683
▁만들었어	-11.2685
▁낳아서	-11.2688
▁내버려	-11.2688
▁어려울	-11.2688
▁잘하면	-11.2691
▁더러운	-11.2691
▁풍경	-11.2693
▁끊었	-11.2694
▁인터넷에	-11.2696
▁공부는	-11.27
▁노력을	-11.2704
▁말린	-11.2705
헤	-11.2706
▁낫다	-11.2707
게임	-11.2707
▁올라왔	-11.2709
▁되지만	-11.2711
난거	-11.2711
몇	-11.2712
어신디	-11.2712
▁무엇	-11.2713
▁펜트하우스	-11.2715
▁목숨	-11.2715
▁빼떼기	-11.2715
▁기다려야	-11.2715
▁적어도	-11.2717
▁아부지가	-11.2719
▁뿐이지	-11.272
▁상추	-11.2721
해지는	-11.2721
▁없던	-11.2722
▁지키	-11.2725
▁지네가	-11.2727
▁저걸	-11.2728
▁죽으	-11.2731
▁놀랐	-11.2734
▁깨끗한	-11.2737
관이	-11.2737
돌아	-11.2739
▁한국말	-11.274
▁건강해	-11.274
▁잘했어	-11.2742
▁이호	-11.2742
▁떨어져서	-11.2743
▁있는디	-11.2743
▁바꼈	-11.2745
▁좌	-11.2747
▁웃기다	-11.2748
▁꽁	-11.2749
▁모기	-11.2749
▁진로	-11.275
▁겅하	-11.2751
잖	-11.2755
▁닮지	-11.2759
▁내신	-11.2759
▁되주게	-11.2761
▁돌아가면서	-11.2762
초등학교	-11.2762
▁없게	-11.2764
였구나	-11.2765
다게	-11.2768
내서	-11.2769
▁들어오니까	-11.2769
▁메세지	-11.277
▁좋다는	-11.277
▁했을때	-11.2772
▁비해	-11.2773
▁빼빼로	-11.2774
▁재미로	-11.2774
▁아방도	-11.2774
▁죽지	-11.2776
▁응급실	-11.2777
▁잠자	-11.2779
▁혀	-11.2781
▁정성	-11.2781
▁뻥	-11.2782
▁났는데	-11.2782
▁고개	-11.2784
▁식당에서	-11.2787
▁세명	-11.2788
하든	-11.2788
▁집안일	-11.2791
▁한국어	-11.2795
▁내려가면	-11.2799
▁키우면	-11.2799
▁목걸이	-11.2799
있는거	-11.28
▁타러	-11.2804
▁돌아오	-11.2806
▁건조기	-11.2807
▁솥	-11.2807
▁물어봤는데	-11.2807
▁비염	-11.2807
▁지쳐	-11.2808
▁하르방이	-11.2809
▁예예	-11.281
▁약해	-11.2813
▁있기는	-11.2813
▁말아야지	-11.2816
진짜	-11.2817
리기	-11.2822
▁옥수수	-11.2826
▁고기가	-11.2826
▁백이십	-11.2827
▁더운	-11.2828
▁오른	-11.2828
▁자체도	-11.2828
▁체력이	-11.283
▁시기가	-11.2831
▁닮수다	-11.2831
난게	-11.2831
▁찍어야	-11.2833
▁신호	-11.2833
▁일인	-11.2836
▁두어	-11.2836
▁있다면	-11.2837
▁하며	-11.2837
영화	-11.2837
▁맛있을	-11.2837
▁걸을	-11.284
▁왔으면	-11.284
형이	-11.2841
▁살안	-11.2846
▁도둑	-11.2846
▁사람들끼리	-11.2847
▁아씨	-11.2848
▁먹어요	-11.2849
▁검정	-11.2849
▁할머니들이	-11.285
▁살거	-11.2853
▁공항에	-11.2853
▁생각했던	-11.2855
▁상자	-11.2863
▁제주어로	-11.2864
▁반대로	-11.2864
▁드니까	-11.2869
▁사려고	-11.2873
▁의견	-11.2877
▁내부	-11.2882
▁학원에서	-11.2882
▁매일매일	-11.2882
▁신혼여행	-11.2882
▁학습	-11.2882
▁먹자고	-11.2883
▁빵을	-11.2883
▁간대	-11.2884
▁교수가	-11.2884
▁찔러	-11.2885
엉으네	-11.2887
▁겁니다	-11.2887
▁맹질	-11.2888
▁고른	-11.2888
▁놘	-11.2889
▁좀비	-11.2897
려는	-11.2898
였을	-11.2898
널	-11.2902
▁근력	-11.2903
▁대나무	-11.2906
▁베란다	-11.2907
▁여자도	-11.2907
▁없었잖아	-11.2907
구요	-11.2909
▁삶의	-11.291
▁뺏어	-11.291
▁레슨	-11.291
▁해줬어	-11.2911
▁진지하게	-11.2912
▁차별	-11.2913
▁시도	-11.2915
쳤어	-11.2917
▁재밌었	-11.2919
▁공포	-11.2919
▁지하	-11.292
▁떨어	-11.2922
▁죽이고	-11.2923
▁양심	-11.2923
▁고모네	-11.2924
▁달리	-11.2924
▁일어낭	-11.2927
대를	-11.2927
▁부산에	-11.2928
▁살아야지	-11.2928
칙	-11.2929
▁아니예요	-11.2932
관리	-11.2934
▁재미있을	-11.2935
▁바라	-11.2936
▁재테크	-11.2938
▁존댓말	-11.2938
▁페북	-11.2939
▁찾으러	-11.294
▁주면은	-11.2941
▁불편	-11.2942
▁밥먹고	-11.2949
▁살아남	-11.2949
▁재밌었어	-11.2953
▁담배를	-11.2953
하며	-11.2959
▁샀지	-11.2959
▁앙	-11.2967
▁표시	-11.2969
▁매주	-11.297
▁이후	-11.2971
▁잠시	-11.2971
장님	-11.2974
▁원인	-11.2978
▁거잖아요	-11.2982
▁내장	-11.2984
▁사업을	-11.2985
▁못하는데	-11.2987
▁했더라	-11.2987
▁옮기	-11.2987
▁자기네는	-11.2988
▁지구	-11.2991
▁애기는	-11.2992
▁교시	-11.2992
▁가겠다	-11.2993
▁하는건데	-11.2994
▁열다섯	-11.2996
▁보존	-11.2997
▁놈들	-11.2998
해진	-11.2998
▁겅허믄	-11.301
▁아마도	-11.301
▁말지	-11.3011
▁줬거든	-11.3012
르르	-11.3013
▁소식	-11.3014
▁골았	-11.3014
함을	-11.3018
▁잉	-11.3019
▁꿈에	-11.302
땜에	-11.3022
▁무거운	-11.3024
▁쌍수	-11.3026
▁지인	-11.3028
▁카페가	-11.3029
▁밭에서	-11.303
▁헤어	-11.3031
▁해야되는	-11.3032
▁건물이	-11.3035
▁여보	-11.3036
▁여자애가	-11.3041
▁원만	-11.3042
▁억양이	-11.3043
▁내용을	-11.3044
▁위가	-11.3044
▁해봔	-11.3045
▁xxxxxx	-11.3046
했었거든	-11.3046
▁깨끗해	-11.3047
▁바꾸는	-11.3051
▁오사카	-11.3052
깐	-11.3053
▁미안하다고	-11.3054
▁훅	-11.3054
▁아이고야	-11.3055
▁어떡할	-11.3056
▁것이다	-11.3058
▁계정	-11.3061
▁핸드폰이	-11.3066
▁일어	-11.307
▁담고	-11.3071
▁만나기로	-11.3071
▁안봐	-11.3072
▁사인	-11.3072
뼈	-11.3073
▁시국에	-11.3075
▁사건이	-11.3076
▁여자친구랑	-11.3077
▁닦고	-11.3078
▁육만	-11.3079
▁갠가	-11.3082
▁먹었네	-11.3082
▁세우고	-11.3082
▁상태가	-11.3082
▁내려오면	-11.3087
▁손도	-11.3089
▁문제를	-11.309
▁때문이	-11.3093
▁그디서	-11.3093
간다고	-11.3094
▁고양이는	-11.3095
하랜	-11.3096
자나	-11.3097
서도	-11.3097
▁남안	-11.3099
▁끓이면	-11.3099
▁가짜	-11.3102
▁부산에서	-11.3102
만의	-11.3103
▁겅하면	-11.3103
▁우리집에서	-11.3109
▁살았지	-11.311
▁선과장	-11.311
▁불구하고	-11.311
줬는데	-11.311
▁하는것	-11.3112
수업	-11.3113
▁한거지	-11.3113
▁제주어를	-11.3114
린다고	-11.3115
▁바빠서	-11.3115
▁데려오	-11.3118
▁마치	-11.3119
▁살살	-11.3121
▁보는게	-11.3127
딘	-11.313
▁빼서	-11.3131
있어요	-11.3131
▁이라는	-11.3134
▁미안하	-11.3134
하래	-11.3135
▁웃긴게	-11.3135
▁우연히	-11.3139
▁있을지	-11.314
▁때문	-11.314
▁맛있언	-11.3143
▁버리지	-11.3143
▁여행이	-11.3144
▁봤어요	-11.3145
▁기구	-11.3145
▁회계	-11.3147
▁맛있겠다	-11.3148
▁성격도	-11.3149
오니까	-11.3151
▁보젠	-11.3151
▁확실하게	-11.3151
▁그러는거	-11.3153
▁넣어야	-11.3154
▁비싸서	-11.3157
집니까	-11.3158
됬	-11.3158
▁질질	-11.3158
▁미워	-11.3159
▁가봐야	-11.3161
▁씹어	-11.3163
▁부족한	-11.3164
입니까	-11.3167
▁여기를	-11.3167
▁젊어	-11.3167
▁때에	-11.3168
▁출신	-11.3168
▁가족끼리	-11.317
▁라이브	-11.317
▁조명	-11.3171
▁토론	-11.3171
▁누게가	-11.3172
/	-11.3172
▁바다가	-11.3172
신거	-11.3177
▁하기가	-11.3179
▁싸가지	-11.3182
▁될건데	-11.3188
▁하주게	-11.3189
▁다닌다고	-11.3191
19&	-11.3196
▁비워	-11.3197
▁바싹	-11.3198
▁억새	-11.3198
▁동생한테	-11.3199
▁입금	-11.32
▁이파리	-11.32
▁동백	-11.3201
▁맛에	-11.3202
동네	-11.3203
▁봤었	-11.3204
▁정부	-11.3204
▁형님네	-11.3205
심이	-11.3205
념	-11.3208
▁접수	-11.3211
▁칠만	-11.3213
▁무서웠	-11.3214
푼	-11.3219
▁똑똑	-11.3219
▁만원씩	-11.3221
▁안나오	-11.3223
▁앉았	-11.3225
▁초콜릿	-11.3225
▁교환	-11.3226
▁쪼금	-11.3227
▁혈관	-11.3228
▁국밥	-11.3229
때부터	-11.3229
할때는	-11.3232
▁때에는	-11.3234
▁노루	-11.3234
▁누님	-11.3236
▁왕복	-11.3236
▁순수	-11.3236
▁왼쪽	-11.3244
▁열이	-11.3245
▁태어나서	-11.3246
▁월달에	-11.3248
▁명인가	-11.3251
▁매점	-11.3251
▁그날은	-11.3253
▁높게	-11.3254
▁집집마다	-11.3255
와가지고	-11.3255
차가	-11.3255
▁보지도	-11.3257
▁같아가지고	-11.3257
▁기계가	-11.3258
▁사학년	-11.3259
▁걸음	-11.3264
▁문제인	-11.3266
▁망고	-11.3267
▁뚝	-11.3269
▁발생	-11.327
였으니까	-11.3271
▁제주시에서	-11.3273
▁귀신이	-11.3273
쭈	-11.3274
▁붙으면	-11.3276
▁바위	-11.3276
▁복학	-11.3276
▁해야되는데	-11.3277
▁샀다	-11.3278
핀	-11.3278
일날	-11.3279
▁생일날	-11.3282
▁살라고	-11.3283
▁에버랜드	-11.3284
거닮아	-11.3284
▁특별히	-11.3285
▁놀이터	-11.3285
▁팡	-11.3288
으론	-11.3288
▁탈색	-11.3289
▁몇시간	-11.3292
렵	-11.3293
▁받으면서	-11.3293
▁다르니까	-11.3294
▁차례	-11.3295
▁살아나	-11.3296
▁해야되고	-11.3297
농	-11.3297
해줘	-11.3299
▁않았냐	-11.3303
▁낯	-11.3305
▁전기차	-11.3306
▁타가지고	-11.3306
▁앉으면	-11.3311
▁먹어난	-11.3312
▁깊게	-11.3313
▁밟아	-11.3313
▁레알	-11.3314
▁먹는게	-11.3314
▁어디든	-11.3316
▁마주	-11.3319
▁계획이	-11.332
는다고	-11.3324
▁남매	-11.3326
▁생각했지	-11.3326
뿐만	-11.3326
▁곳에서	-11.3327
▁세화	-11.3327
▁나갔는데	-11.3328
▁해당	-11.333
▁시설	-11.3331
겠는	-11.3331
▁마루	-11.3332
▁혜택	-11.3332
▁가져온	-11.3332
▁잘한다	-11.3334
▁전날에	-11.3336
▁걸렸어	-11.3338
▁방을	-11.3342
▁뮤지컬	-11.3342
▁양쪽	-11.3344
▁못하잖아	-11.3345
▁바가지	-11.3346
▁지내는	-11.3346
▁셋이서	-11.3347
▁해먹고	-11.3348
▁삼사	-11.3349
▁당해	-11.335
▁초기	-11.3353
첩	-11.3354
▁맡	-11.3355
▁되면서	-11.3357
▁이왕	-11.3359
허곡	-11.3361
▁결과가	-11.3363
▁되신디	-11.3368
▁표현을	-11.337
▁좋겠	-11.3372
▁후로	-11.3372
▁착각	-11.3373
▁무료로	-11.3377
▁알았다고	-11.3378
▁눕	-11.3379
▁솜	-11.3379
▁몇천	-11.3383
▁큰데	-11.3383
▁나쁘	-11.3389
▁가야되	-11.3389
있나	-11.3395
▁돌담	-11.3396
▁않았어요	-11.3398
▁특유의	-11.3402
▁웨딩	-11.3402
기네	-11.3404
▁하얀색	-11.3405
다는게	-11.3406
▁바깥	-11.3409
껀가	-11.341
▁수정	-11.3413
팡	-11.3415
거여	-11.3415
▁우리집은	-11.3415
▁보여주고	-11.3416
▁하던가	-11.3417
▁집에서는	-11.3419
▁주겠다고	-11.3422
▁범죄	-11.3422
▁잡지	-11.3425
▁주일에	-11.343
▁춥고	-11.343
▁우리엄마	-11.343
▁속옷	-11.3433
▁이모는	-11.3434
▁대박이다	-11.3436
▁하시고	-11.3437
쿠과	-11.3439
▁샛	-11.3441
▁알겠다고	-11.3444
▁유명한데	-11.3444
▁받았던	-11.3447
▁사년	-11.3447
▁패스	-11.345
▁신랑은	-11.3451
비를	-11.3455
▁할거라	-11.3458
▁먹으면은	-11.3459
▁하나라도	-11.346
▁됩니까	-11.3461
▁시켰는데	-11.3461
▁베이스	-11.3461
▁안녕	-11.3462
리면서	-11.3463
▁탈출	-11.3463
▁비쌀	-11.3465
▁닮긴	-11.3467
▁아니우꽈	-11.3468
▁기부	-11.3469
▁가야돼	-11.3469
▁사나	-11.347
▁얘기하지	-11.3471
구리	-11.3473
▁하귀	-11.3473
▁음식물	-11.3474
하잰	-11.3475
▁겅해서	-11.3475
▁다행인	-11.3477
▁대기고	-11.3478
▁듣는데	-11.3481
▁다르다	-11.3482
▁싫어가지고	-11.3483
잠	-11.3485
▁체질	-11.3485
콘	-11.3486
겸	-11.3487
▁고와	-11.3488
▁불을	-11.3488
▁안되서	-11.3489
▁견	-11.3489
해그냉	-11.3492
▁카드를	-11.3495
났잖아	-11.3495
▁그랬었는데	-11.3496
휴	-11.3498
▁찾아보고	-11.3503
▁바다에서	-11.3503
▁이랬어	-11.3504
▁좋아한다고	-11.3505
뭇	-11.3508
객	-11.3509
▁인해서	-11.351
▁쿨	-11.3512
▁착하다	-11.3514
스럽게	-11.3515
▁먹기도	-11.3515
▁인터넷에서	-11.3516
▁차지	-11.3518
▁성향	-11.3518
▁통제	-11.3519
려나	-11.352
▁젓가락	-11.3521
▁놀이기구	-11.3521
▁제주도로	-11.3521
셔서	-11.3521
▁식빵	-11.3523
▁질투	-11.3524
▁호떡	-11.3525
분거라	-11.3526
▁썰어서	-11.3529
▁버려야	-11.3529
▁개구리	-11.3531
▁놀지	-11.3533
▁사귀는	-11.3534
▁젤리	-11.3534
▁하겠습니다	-11.3534
했다는	-11.3535
▁모집	-11.3536
거네	-11.3537
▁배고프	-11.3541
▁그랬었어	-11.3542
▁버렸	-11.3543
욕	-11.3543
데요	-11.3544
▁갔었	-11.3545
▁짱구	-11.3546
▁상에	-11.3547
▁물은	-11.3547
댕이	-11.3549
▁법이	-11.355
▁얇게	-11.3551
주랜	-11.3553
▁나가니까	-11.3556
▁문신	-11.3557
▁사먹	-11.3559
▁놔도	-11.3559
▁읽었	-11.3562
▁친구들끼리	-11.3564
▁되야	-11.3564
▁번인가	-11.3569
▁정도밖에	-11.357
▁궁	-11.3573
▁의도	-11.3574
팩	-11.3577
샘	-11.3577
끌	-11.3577
▁리가	-11.3577
▁거처럼	-11.3578
▁괜찮았	-11.3579
▁결혼해	-11.3579
▁인생을	-11.358
봤거든	-11.3581
▁탔는데	-11.3581
▁그러니까요	-11.3582
▁호수	-11.3583
줘도	-11.3584
▁톤	-11.3584
▁주민	-11.3585
▁있었다고	-11.3586
▁매번	-11.3587
▁어이구	-11.359
▁급한	-11.3591
▁무당	-11.3593
▁어딘가	-11.3594
▁중순	-11.3594
앙으네	-11.3595
▁민원	-11.3595
▁특수	-11.3596
▁절간	-11.3596
겠더라	-11.3597
▁뻘	-11.3598
▁녹아	-11.3601
일까	-11.3601
주의	-11.3601
▁있어부난	-11.3604
▁여권	-11.3607
할머니	-11.361
▁가을에	-11.3611
▁끼는	-11.3611
▁불안해	-11.3612
▁벽에	-11.3615
▁체인	-11.3615
▁가리	-11.3618
했져	-11.362
▁시절에	-11.3621
▁들어오지	-11.3621
▁맞추는	-11.3621
▁쪽파	-11.3622
▁내릴	-11.3623
▁배터리	-11.3624
덩	-11.3627
▁생겨가지고	-11.3629
▁빠져서	-11.3632
▁된장국	-11.3633
▁하듯이	-11.3635
깡	-11.3635
▁백일	-11.3637
칸	-11.3638
이신디	-11.3638
▁배를	-11.3639
▁수치	-11.364
▁태어났	-11.364
▁미국은	-11.3641
겠냐고	-11.3641
▁밝은	-11.3641
▁몰랐던	-11.3642
▁점심시간	-11.3645
▁오븐	-11.3645
▁움직이지	-11.3647
시가	-11.3647
▁방탄	-11.3647
▁좋아라	-11.3647
짱	-11.3649
▁사정	-11.365
▁둘만	-11.3651
▁아침마다	-11.3654
▁임대	-11.3657
▁기관	-11.3657
▁아줌마들	-11.3659
▁과정이	-11.366
▁만낭	-11.366
▁악기	-11.366
▁제주에서	-11.3663
동이	-11.3665
혈	-11.3666
▁내려가서	-11.3667
먹었어	-11.367
▁왓	-11.367
▁삼십일	-11.367
▁유투버	-11.3672
▁끊을	-11.3672
▁병아리	-11.3673
▁정지	-11.3677
▁설레	-11.3678
▁다니잖아	-11.3679
걸랑	-11.368
▁가볍게	-11.3681
쥬게	-11.3686
▁사십분	-11.3686
▁입었	-11.3687
▁줭	-11.3688
▁받는데	-11.3691
▁했는	-11.3695
▁말이냐	-11.3695
성을	-11.3697
콩	-11.3698
▁해가멍	-11.3699
▁쟤네	-11.37
▁넘어갈	-11.37
▁레시피	-11.3702
▁붕어빵	-11.3702
▁펑펑	-11.3702
▁약도	-11.3704
▁먹는디	-11.3706
▁상가	-11.3707
▁성향이	-11.371
▁차이나	-11.371
▁영하	-11.3711
리를	-11.3711
▁아니었으면	-11.3712
▁끼면	-11.3712
▁메인	-11.3717
▁얼마씩	-11.3718
▁어쩌다가	-11.3721
▁몰라신디	-11.3724
▁시쯤	-11.3726
▁자세	-11.3727
▁아들을	-11.3728
젓	-11.3728
▁몇시에	-11.3729
▁가자마자	-11.373
꼼	-11.3732
▁쉰다리	-11.3733
▁보리쌀	-11.3734
▁그만둔	-11.3734
▁노가다	-11.3736
▁비린내	-11.3736
▁표정이	-11.3743
▁이때까지	-11.3744
▁질문을	-11.3746
▁앉을	-11.3746
▁가야겠다	-11.3747
▁그러한	-11.3747
시네	-11.375
▁호랑이	-11.3751
▁알아들어	-11.3752
▁맛있는거	-11.3754
▁강한	-11.3755
▁대리	-11.3756
▁하트	-11.3757
▁졸업할	-11.3762
컬	-11.3762
▁없어지는	-11.3764
▁깊이	-11.3764
▁취해	-11.3764
랜드	-11.3765
▁깨우	-11.3767
▁회복	-11.3769
▁갈수	-11.3769
▁빠르	-11.377
하기로	-11.3773
▁사도	-11.3775
▁눈은	-11.3775
▁원은	-11.3779
식을	-11.3779
▁못핸	-11.378
라구	-11.3781
▁자가	-11.3781
▁퇴	-11.3781
▁왔었어	-11.3783
▁운동회	-11.3788
▁불쌍하	-11.3788
▁집들이	-11.3788
▁결말	-11.3788
▁성님은	-11.3789
분거	-11.3789
▁이선	-11.3791
집니다	-11.3793
▁스티커	-11.3794
당보난	-11.3795
었다가	-11.3798
네는	-11.3798
▁스타일은	-11.3801
▁붙었	-11.3803
▁물통	-11.3805
▁먹방	-11.3807
버린거야	-11.3814
▁드러	-11.3815
▁이해할	-11.3816
▁나무가	-11.3819
아들	-11.382
▁시누	-11.3824
▁전화도	-11.3824
▁몇명	-11.3825
▁생일이	-11.3825
▁스위스	-11.3825
▁홍삼	-11.3826
▁과장	-11.3827
▁필름	-11.3827
▁썰매	-11.3829
▁그룹	-11.3831
▁항공	-11.3832
▁뱀이	-11.3836
▁평일	-11.3836
▁남고	-11.384
▁반팔	-11.3841
▁기본이	-11.3849
졌지	-11.3852
▁다섯개	-11.3852
능	-11.3853
▁해줄게	-11.3853
묘	-11.3854
▁아이라	-11.3857
▁해져	-11.3859
▁뭐여	-11.3863
쓸	-11.3864
▁손목	-11.3867
▁사줄	-11.3869
▁가능하	-11.387
▁분양	-11.3872
춘	-11.3872
▁범벅	-11.3873
▁느네	-11.3874
▁바람에	-11.3875
▁온도	-11.3876
▁입시	-11.3877
기엔	-11.3878
▁애인	-11.3882
▁요번에도	-11.3883
부리	-11.3883
▁어딨어	-11.3887
▁돌아다니고	-11.3887
▁메주	-11.3888
▁좌우명	-11.3888
▁가지는	-11.389
▁보자마자	-11.3892
▁스포	-11.3892
▁간병인	-11.3893
▁깜	-11.3895
▁다니멍	-11.3896
▁입어서	-11.3897
▁알바할	-11.3898
▁부리	-11.3899
▁틀고	-11.39
▁소속	-11.3901
▁동안에	-11.3902
났거든	-11.3905
▁쏟아	-11.3906
▁해변	-11.3908
▁안맞	-11.3909
▁밥에	-11.3909
지는데	-11.3911
▁봉투	-11.3915
▁닮았어	-11.3915
▁천주교	-11.3918
▁자리젓	-11.3919
▁탁탁	-11.392
엔가	-11.3921
▁진료	-11.3921
▁거겠지	-11.3922
▁군대를	-11.3923
▁고람	-11.3925
▁아무런	-11.3925
▁않다고	-11.3926
▁이마	-11.3927
▁비누	-11.3933
▁구역	-11.3933
▁남자도	-11.3934
▁대가	-11.3934
주마씸	-11.3935
▁자극	-11.3936
▁사발	-11.394
▁할게요	-11.3942
▁놀랬	-11.3943
▁간지	-11.3946
물을	-11.3947
▁내시경	-11.395
▁가져서	-11.3951
▁나와도	-11.3951
▁구월	-11.3956
▁남녀	-11.3956
▁투자를	-11.3957
▁보드	-11.3957
▁중요하지	-11.396
▁나야	-11.3961
▁가져갈	-11.3963
▁내리면	-11.3965
▁교수님들	-11.3967
▁계열	-11.3968
▁계신	-11.3968
▁된다니까	-11.397
았던	-11.3972
▁모시고	-11.3974
▁드리고	-11.3975
▁양반	-11.3975
▁보래	-11.3976
보러	-11.3977
▁꺼내서	-11.3977
▁톡톡	-11.3981
▁영화도	-11.3984
▁없습니다	-11.3984
▁결혼은	-11.3984
▁단체로	-11.3986
▁돌아다니면서	-11.3989
▁설사	-11.399
▁중국에	-11.3991
▁변해	-11.3993
▁인기가	-11.3993
▁몸매	-11.3996
▁발령	-11.3996
▁따뜻해	-11.3999
▁곳은	-11.3999
▁산소	-11.4
▁사냥	-11.4
▁도와주는	-11.4002
▁병원비	-11.4002
공원	-11.4003
▁코가	-11.4004
잡아	-11.4008
▁쳐도	-11.401
▁어린이	-11.4012
▁만나게	-11.4012
활	-11.4013
▁키워야	-11.4014
▁뚫어	-11.4015
▁올때	-11.4016
▁소못	-11.4016
▁전체적으로	-11.4016
▁오자마자	-11.4018
▁경계	-11.402
▁서양	-11.402
▁남아서	-11.4021
▁농장	-11.4026
▁오늘부터	-11.4026
▁생각해야	-11.4028
▁접촉	-11.4029
▁몰라요	-11.4029
며는	-11.403
▁최소한	-11.403
▁채우	-11.4035
▁순위	-11.4035
리에	-11.4036
▁사난	-11.4038
▁행복하게	-11.4042
▁확률이	-11.4042
▁대답을	-11.4043
▁줄넘기	-11.4044
▁설명해	-11.4044
▁인생에	-11.4047
근데	-11.4047
▁재밌언	-11.4048
▁지나갈	-11.4048
▁그렇죠	-11.4048
봐신디	-11.4051
▁한치	-11.4051
▁중앙로	-11.4051
▁해지	-11.4052
가야	-11.4052
▁수확	-11.4052
▁시원한	-11.4053
▁내년에는	-11.4054
▁고백	-11.4055
▁태양	-11.4055
지나	-11.4057
▁주스	-11.4058
▁돌앙	-11.4059
▁거니깐	-11.406
▁은혜	-11.406
▁봤자	-11.4062
▁리터	-11.4062
▁처방	-11.4063
▁그만뒀	-11.4064
▁말이에요	-11.4066
▁야야	-11.4067
▁물어봐야	-11.4073
▁도쿄	-11.4076
▁장애	-11.4079
▁지나가다가	-11.4081
▁숨어	-11.4081
텐	-11.4082
▁다녀도	-11.4082
시간에	-11.4086
▁자동으로	-11.4086
▁표준말	-11.4086
▁맞아맞아	-11.4087
▁거란	-11.4087
▁얘기했는데	-11.4089
▁차리	-11.4093
▁내린	-11.4095
▁중심	-11.4096
자들	-11.4097
하듯이	-11.41
봤지	-11.4103
이어가지고	-11.4103
▁봤네	-11.4106
▁활동을	-11.4106
맛이	-11.4108
▁못한다고	-11.4109
▁도는	-11.4114
▁파트	-11.4114
▁거름	-11.4115
▁가지가	-11.4119
▁찾아봐	-11.412
▁위험하	-11.4123
▁알려줘	-11.4124
▁알았어요	-11.4126
식당	-11.4126
▁떡을	-11.4127
▁귀찮은	-11.4127
▁번역	-11.4128
▁시작하	-11.4129
▁하든가	-11.4131
▁지켜야	-11.4134
▁고객	-11.4135
▁같지는	-11.4137
▁불이	-11.4139
▁흡수	-11.4139
▁안정	-11.414
▁있거든요	-11.4142
▁오로지	-11.4142
▁번이나	-11.4143
▁좋아해요	-11.4144
▁쎈	-11.4146
하대	-11.4156
▁이백만	-11.416
▁조림	-11.4162
▁묘	-11.4165
▁정답	-11.4174
▁겉에	-11.4174
▁그기	-11.4175
▁어멍도	-11.4182
▁아래로	-11.4186
▁파란	-11.4189
거다	-11.4189
▁하진	-11.4189
▁슬프	-11.4189
▁다행	-11.4191
▁담가	-11.4192
▁안되잖아	-11.4195
▁한번은	-11.4196
▁괜찮은거	-11.4197
▁우동	-11.4197
▁떠서	-11.4198
▁입장이	-11.4198
▁워낙에	-11.4199
미가	-11.42
▁시에서	-11.4201
▁슬리퍼	-11.4203
▁횟집	-11.4203
▁요로케	-11.4203
▁정돈	-11.4205
▁조용한	-11.4205
▁한의원	-11.4206
▁가져다	-11.4206
▁사이에서	-11.4206
▁물건을	-11.4207
▁오뎅	-11.421
▁펄	-11.4212
▁드라마를	-11.4212
▁학원도	-11.4213
▁있다니까	-11.4215
▁박혀	-11.4216
▁비싼데	-11.4218
▁얘기했어	-11.4219
검사	-11.422
밭에	-11.4223
불라	-11.4227
▁된데	-11.4228
▁군대에	-11.4229
▁칼로리	-11.4229
워서	-11.423
▁아끼	-11.4232
▁바구니	-11.4233
▁아들만	-11.4234
▁브레이크	-11.4235
▁터미널	-11.4235
▁조상	-11.4236
▁뭐냐하면	-11.4238
▁인간이	-11.4239
있어서	-11.4241
▁수다	-11.4241
한거야	-11.4248
좋	-11.4248
▁얘기하	-11.4248
▁요금	-11.4248
▁바쁘게	-11.4251
버리지	-11.4255
랬	-11.4255
▁만나기	-11.4256
▁제사를	-11.4256
▁가지를	-11.4256
▁그분은	-11.4256
▁냉면	-11.4257
▁흘	-11.4258
▁컴	-11.4259
▁끝나니까	-11.4261
▁안나와	-11.4261
▁줄여	-11.4261
▁물만	-11.4263
▁일일이	-11.4264
▁육지서	-11.4265
졸	-11.4265
▁반에서	-11.4265
렉	-11.4268
▁좋았지	-11.4268
▁아니어도	-11.4269
됐다	-11.4269
▁잠잘	-11.4271
됐어	-11.4273
▁최악	-11.4274
보랜	-11.4274
▁목표가	-11.4274
▁답답	-11.4278
▁아직까지는	-11.4278
▁이억	-11.4281
▁이랬거든	-11.4281
▁바른	-11.4282
▁했어신디	-11.4284
▁둬	-11.4285
▁거였거든	-11.4288
▁생각해신디	-11.429
▁결론은	-11.429
▁물고	-11.4293
지믄	-11.4295
▁목에	-11.4296
▁아들들	-11.43
▁깜빡	-11.43
▁말했거든	-11.4304
▁다양하게	-11.4305
▁제주도만	-11.4307
▁갔댄	-11.4307
▁맞춰야	-11.4309
▁코로나때문에	-11.4313
라인	-11.4314
▁돋	-11.4321
적이고	-11.4321
▁나왔네	-11.4323
▁평일에	-11.4325
▁가져갔	-11.4326
▁간판	-11.4326
▁주머니에	-11.4326
보젠	-11.4328
쪽이	-11.4331
린거	-11.4332
스가	-11.4332
▁디즈니	-11.4332
▁소세지	-11.4333
▁출석	-11.4334
▁먹잰	-11.4337
▁같기는	-11.4338
▁개꿀	-11.4338
▁꼭대기	-11.4339
▁마씨	-11.4341
▁취미생활	-11.4345
▁올려서	-11.4352
▁언니들이	-11.4354
▁한숨	-11.4356
았다	-11.4358
▁요구	-11.436
▁강아지들	-11.436
▁집의	-11.4362
▁집에서도	-11.4364
▁드럼	-11.4366
▁리얼	-11.4366
▁십오만	-11.4368
▁사고가	-11.4368
▁단기	-11.4369
▁바꾸면	-11.437
▁있었으니까	-11.437
▁안하	-11.437
온거	-11.4378
▁받았지	-11.4379
▁재미난	-11.4384
▁안되는거	-11.4391
▁세상을	-11.4391
▁됐던	-11.4396
▁모이는	-11.4397
▁웨이팅	-11.4398
▁조직	-11.4398
▁파란색	-11.4399
▁이루	-11.4401
▁줄까	-11.4403
▁교실	-11.4404
▁돌아와	-11.4405
▁문이	-11.4405
▁맺	-11.4405
▁보여서	-11.4406
▁목장	-11.441
▁해보는	-11.4413
▁흰색	-11.4413
▁강아지가	-11.4414
▁오민	-11.4414
▁해가난	-11.4418
▁분노	-11.4418
마을	-11.4418
▁쓰러져	-11.4422
교회	-11.4423
▁안와	-11.4428
▁모시	-11.4429
▁세네	-11.4429
▁찹쌀	-11.443
▁외부	-11.443
아방	-11.4431
라는게	-11.4432
▁식탁	-11.4432
▁놨는데	-11.4435
▁오네	-11.4436
▁좋아하	-11.4437
▁주어	-11.4437
까요	-11.4438
▁있었대	-11.4439
▁뭐더라	-11.444
▁옷장	-11.4441
▁상관없어	-11.4441
▁순간부터	-11.4441
▁한다면	-11.4443
▁다르긴	-11.4444
▁잘한	-11.4444
▁수분	-11.4445
감을	-11.4448
▁살아가	-11.4448
▁돌아가고	-11.4453
▁콩국	-11.4454
실에	-11.4455
▁옛	-11.4457
칭	-11.4458
▁쓸데없는	-11.4458
▁법원	-11.4459
▁비하면	-11.4462
▁코드	-11.4463
▁냈어	-11.4463
▁가방에	-11.4463
▁목적이	-11.4467
상을	-11.4471
▁쉬지	-11.4471
쁘진	-11.4476
▁까먹어	-11.4477
▁둘다	-11.4478
▁평소	-11.4479
▁댕기멍	-11.4481
▁옥	-11.4482
▁어저께도	-11.4483
지민	-11.4486
▁햇	-11.4486
▁맞잖아	-11.4487
헌거	-11.4487
▁했잖아요	-11.4489
▁지을	-11.4495
▁사왔	-11.4495
릉	-11.4496
▁이런저런	-11.4496
▁기획	-11.4498
▁오키	-11.4499
▁쭈	-11.4502
▁데나	-11.4503
▁않해	-11.4503
▁상관없는데	-11.4504
▁아웃	-11.4505
▁조리	-11.4506
▁걸리지	-11.4509
▁확실한	-11.4509
▁봐야겠다	-11.4511
▁몸으로	-11.4511
▁소통	-11.4511
▁괴기	-11.4513
▁덩어리	-11.4515
▁걸려가지고	-11.4516
▁튀겨	-11.4516
▁분석	-11.4516
▁들어가도	-11.4517
▁갔을때	-11.4518
쩌	-11.4518
▁공동	-11.452
장은	-11.4521
주가	-11.4521
▁손님들이	-11.4524
▁사망	-11.4524
▁중국은	-11.4524
▁오려고	-11.4527
샵	-11.4532
▁받았을	-11.4532
▁이면	-11.4533
▁정시	-11.4535
▁나한텐	-11.4536
▁소나무	-11.4537
▁돌려서	-11.4537
▁자기들	-11.4539
▁택	-11.454
▁뭐영	-11.4543
▁어시믄	-11.4547
▁뭐래	-11.4548
▁말하다	-11.455
▁출장	-11.455
케이	-11.4554
▁진단	-11.4557
▁되어서	-11.4557
▁붙을	-11.456
2	-11.4561
▁합의	-11.4562
▁허면은	-11.4562
집은	-11.4563
▁콘테나	-11.4563
▁놓으	-11.4563
▁어렵다	-11.4564
▁잔뜩	-11.4564
▁물어봔	-11.4566
▁댕길	-11.4567
▁죽었어	-11.4567
▁여친	-11.4568
▁미련	-11.4569
▁가게에	-11.457
으로써	-11.4571
▁막창	-11.4571
▁있었단	-11.4571
▁예쁘지	-11.4573
▁남들이	-11.4573
▁들어가가지고	-11.4574
▁썼다	-11.4575
▁칼로	-11.4577
▁구글	-11.4577
해줄	-11.4579
▁생각없이	-11.458
▁잘난	-11.4581
난이	-11.4582
▁코코	-11.4585
▁케	-11.4585
▁가치	-11.4591
▁있으니	-11.4596
▁빡빡	-11.4596
▁레벨	-11.4596
▁테스트	-11.4597
▁블루	-11.4597
▁텔레비전	-11.4599
▁일어나고	-11.4602
▁벌어야	-11.4602
▁끝낭	-11.4604
듬	-11.4606
▁밭도	-11.4606
▁예약을	-11.4606
▁노릇	-11.4608
▁부정	-11.4608
▁왔대	-11.4608
▁겅허멍	-11.4611
▁예민해	-11.4612
▁얜	-11.4612
▁부위	-11.4612
▁놀랬어	-11.4613
▁양치	-11.4613
▁앉아있는	-11.4614
▁괴	-11.4615
▁제주도에서는	-11.4616
▁자는데	-11.4616
▁인식이	-11.4617
▁애기들은	-11.4618
▁보내준	-11.4621
▁빌리	-11.4621
▁자막	-11.4621
▁호텔에서	-11.4622
▁가져와서	-11.4624
▁여행사	-11.4625
▁헤어지	-11.4628
▁각시가	-11.4629
▁귀엽	-11.4632
벨	-11.4633
▁고맙	-11.4633
▁형제들	-11.4633
▁할거면	-11.4634
▁자체는	-11.4639
▁고딩	-11.4642
르면	-11.4644
▁먹어봤	-11.4647
▁할아버지는	-11.4648
▁가족들이	-11.465
▁꿈은	-11.4653
▁닥	-11.4653
▁믿음	-11.4655
▁심심하	-11.4655
▁냄새나	-11.4655
▁장사가	-11.4655
▁놔뒀	-11.4655
빛	-11.4656
졌을	-11.4657
▁몰랐거든	-11.4657
▁전도	-11.4662
▁책은	-11.4663
▁중산간	-11.4663
▁솔잎	-11.4663
▁쇼핑몰	-11.4664
늘	-11.4666
▁합쳐	-11.4667
▁청소년	-11.4668
▁장면이	-11.467
▁교감	-11.4674
▁어색해	-11.4675
▁회원	-11.4676
▁제주도를	-11.4677
▁걸러	-11.4684
▁여기서는	-11.4684
▁흘려	-11.4685
▁시스템	-11.4686
얘	-11.4686
▁당신은	-11.4687
큰게	-11.4687
▁시기에	-11.4688
▁새끼가	-11.469
▁말했	-11.4691
▁봤나	-11.4692
▁워	-11.4693
▁팀장님	-11.4694
▁열려	-11.4696
▁곶자왈	-11.4697
▁골고루	-11.4697
▁어르신들	-11.4697
▁건강이	-11.4697
회사	-11.4697
▁어울리	-11.4698
돌이	-11.4698
▁뭐예요	-11.47
먹언	-11.47
대학	-11.4701
▁앉고	-11.4706
▁이분	-11.4706
▁귀엽다	-11.471
▁하실	-11.4711
▁상점	-11.4711
▁일들이	-11.4712
▁모르겠는	-11.4712
▁공부가	-11.4713
▁유투브에	-11.4714
▁끌려	-11.4716
▁카드로	-11.4717
▁날려	-11.4717
▁해주니까	-11.4719
▁찾기	-11.4721
테니까	-11.4723
꾼	-11.4724
▁할텐데	-11.4725
▁줍	-11.4727
▁진정	-11.4728
▁아픈데	-11.4728
뜩	-11.4729
▁몇살	-11.4729
떠	-11.473
▁심부름	-11.4731
▁프로젝트	-11.4731
▁옛날은	-11.4731
▁인스타그램	-11.4731
▁간호학과	-11.4731
▁짤라	-11.4732
▁창업	-11.4732
냄새	-11.4732
▁엄마아빠	-11.4736
▁기름이	-11.4736
▁겅한	-11.474
▁들리고	-11.474
▁초반에는	-11.4741
▁딸들	-11.4743
▁명의	-11.4744
▁보건소	-11.4744
▁빨개	-11.4746
▁다닐때	-11.4747
▁아저씨들	-11.4747
있게	-11.4747
▁어르신	-11.4748
받을	-11.4749
줍서	-11.475
껀디	-11.475
쩍	-11.4753
▁바늘	-11.4753
▁지문	-11.4755
▁일고	-11.4758
혜	-11.4761
▁너무나	-11.4763
▁해병대	-11.4765
▁구워서	-11.4766
▁동문	-11.4767
▁오빤	-11.4768
▁헤어졌	-11.4769
▁답답하	-11.4769
떄	-11.4772
▁녹음을	-11.4773
▁구매	-11.4774
▁보냈는데	-11.4774
▁알아져	-11.4776
▁고맙다	-11.4779
▁교회를	-11.4781
▁패키지	-11.4782
▁어쩌면	-11.4783
▁날아	-11.4785
▁인연	-11.4787
시다	-11.4789
▁허난에	-11.4793
▁타이밍	-11.4793
▁해보라	-11.4794
▁준비해야	-11.4795
▁형이랑	-11.4797
▁친정에	-11.4798
▁벌면	-11.4798
▁썩은	-11.4798
▁순두부	-11.4798
▁동그란	-11.4798
▁붙어있	-11.4802
▁남주	-11.4803
▁지키는	-11.4803
▁분들도	-11.4804
▁죽게	-11.4806
▁사온	-11.4806
▁사람으로	-11.4808
었댄	-11.4808
듣	-11.4808
▁입에서	-11.4809
▁해놔	-11.4809
지면서	-11.481
▁났다	-11.4811
▁터지는	-11.4812
▁뒷날	-11.4812
해봐	-11.4813
▁지금처럼	-11.4814
▁부분은	-11.4815
▁추운데	-11.4816
▁달만	-11.4817
하겠지	-11.4818
▁이만원	-11.4819
▁나오더라	-11.482
▁굽는	-11.482
▁길거리	-11.4821
▁만들어진	-11.4823
▁쌌	-11.4824
▁매직	-11.4826
들어서	-11.4826
▁일해	-11.4826
▁안남	-11.4826
▁인증	-11.4827
▁라떼	-11.4828
▁됐으면	-11.4829
▁나오면은	-11.483
속에	-11.4831
▁그런것	-11.4831
▁야이도	-11.4831
▁마르	-11.4832
▁최고의	-11.4833
▁감당	-11.4837
▁모르쿠다	-11.4838
▁반까지	-11.4838
▁세월	-11.4838
▁내기	-11.4839
▁이론	-11.4842
▁그러더라	-11.4843
▁열면	-11.4845
▁시작하고	-11.4845
▁왔나	-11.4845
어도	-11.4845
▁얼굴만	-11.4846
▁싶었거든	-11.4846
▁키고	-11.4847
▁준대	-11.4848
▁쌓	-11.4849
▁실력이	-11.4849
▁영향	-11.4851
▁관계가	-11.4855
▁소원	-11.4855
▁방해	-11.4857
줬거든	-11.4857
▁되부난	-11.486
▁걸으면	-11.4864
깃	-11.4866
▁산부인과	-11.4867
▁어느순간	-11.4867
▁오디오	-11.4867
▁자소서	-11.4867
▁잇몸	-11.4867
▁바쁠	-11.4867
▁농담	-11.4868
▁현관	-11.4869
▁신앙	-11.487
보이	-11.4876
▁챙겨주	-11.4876
▁끊기	-11.4877
▁띄	-11.488
▁쫓아가	-11.4882
▁거라예	-11.4883
▁애들만	-11.4884
알아	-11.4886
▁밥상	-11.489
▁오거든	-11.4891
▁일당	-11.4891
▁넘기	-11.4895
▁범	-11.4896
▁떼고	-11.49
▁얘기해야	-11.49
시대	-11.4901
▁갖다가	-11.4903
▁인연이	-11.4903
▁바로바로	-11.4904
▁유독	-11.4906
히고	-11.4907
▁장사를	-11.4908
해난	-11.4911
▁궁금해서	-11.4912
▁생각나고	-11.4915
▁해보려고	-11.4916
▁합쳐서	-11.4916
▁둥	-11.4916
▁미치	-11.4918
▁남녕고	-11.4919
그넨	-11.4921
▁부럽	-11.4924
▁뭐냐고	-11.4925
▁했는디	-11.4926
온다	-11.4926
▁보여주는	-11.4927
▁심각한	-11.4928
렸다	-11.493
▁연차	-11.4932
▁저녁을	-11.4932
▁제주도말	-11.4934
▁아닙니다	-11.4936
▁탔어	-11.4936
▁하느님	-11.4936
▁채널	-11.4936
▁안가고	-11.4937
▁투명	-11.4937
▁퇴원	-11.4938
▁완성	-11.4938
쇼	-11.4941
▁잡초	-11.4941
장에서	-11.4941
▁지리	-11.4948
▁내창	-11.4949
▁의대	-11.495
져게	-11.4951
갔지	-11.4952
▁살았을	-11.4954
▁이득	-11.4956
▁깨어	-11.4957
응	-11.4957
▁외국어	-11.4958
▁오월	-11.4959
▁음식들	-11.4959
▁비비	-11.4959
▁이천원	-11.496
▁결혼하기	-11.4961
▁특별	-11.4962
▁온천	-11.4963
▁줘가지고	-11.4963
▁연세	-11.4964
▁갸이	-11.4965
▁미신	-11.4966
▁셔	-11.4967
▁쓰러지	-11.4967
▁그린	-11.4968
▁있겠어	-11.4969
▁보장	-11.497
▁도깨비	-11.497
▁하룻밤	-11.497
▁말라는	-11.4973
▁먹었어요	-11.4974
오지	-11.4974
놨는데	-11.4975
넷	-11.4976
턴	-11.4977
▁어렵고	-11.4977
▁없었을	-11.4978
▁짬	-11.4978
▁가르치는	-11.4979
▁그렇기	-11.498
▁주겠다	-11.4981
▁세울	-11.4981
▁김치를	-11.4982
▁해야되지	-11.4984
▁꽝	-11.4984
▁뽑을	-11.4987
▁주름	-11.4987
▁이웃	-11.4989
사님	-11.499
▁가격도	-11.4992
▁귀가	-11.4994
▁해나서	-11.4995
나지	-11.4997
많이	-11.4998
▁그런거지	-11.4999
▁가냐	-11.5001
으민	-11.5002
▁우리반	-11.5002
겠습니까	-11.5002
뒀	-11.5003
균	-11.5003
▁한거라	-11.5003
서부터	-11.5003
곱	-11.5003
▁섭섭	-11.5004
▁형도	-11.5004
▁렌트	-11.5004
▁망한	-11.5004
▁뜨개질	-11.5005
▁롱패딩	-11.5005
▁열아홉	-11.5005
▁재고	-11.5005
▁당첨	-11.5006
▁부엌에	-11.5006
잎	-11.5009
▁권사님	-11.501
▁문제라	-11.5013
▁생강	-11.5013
▁맞추고	-11.5014
▁하얗게	-11.5015
▁맛없는	-11.5018
▁내일부터	-11.5022
▁부두	-11.5022
▁가이네는	-11.5023
▁패드	-11.5023
▁쑤	-11.5025
▁아니었는데	-11.5025
▁얘긴	-11.5027
▁텃밭	-11.5029
▁봠	-11.5031
▁추웠	-11.5031
겠죠	-11.5031
▁자갈	-11.5032
▁기준으로	-11.5033
▁닮아예	-11.5033
▁미국에	-11.5035
▁서울말	-11.5036
한지	-11.5036
▁환상	-11.5036
▁봤으면	-11.5037
▁확확	-11.5038
▁같다는	-11.5038
▁아깝	-11.5039
▁옷들	-11.5039
▁재작년	-11.504
▁배에	-11.504
▁갑니다	-11.5041
기간	-11.5047
▁부추	-11.5047
세가	-11.5048
▁주켄	-11.5048
▁결혼하는	-11.5049
탱이	-11.5054
▁연수	-11.5057
▁열한시	-11.5057
▁다시는	-11.5057
▁문자가	-11.5059
▁수익	-11.5063
▁한때	-11.5063
하는건	-11.5063
▁속상해	-11.5064
박스	-11.5067
▁없냐	-11.507
▁오빠들	-11.5074
▁기프티콘	-11.5075
▁중간고사	-11.5075
▁뉴욕	-11.5075
▁이러지	-11.5077
▁소득	-11.5077
▁치아	-11.5079
▁퇴직금	-11.508
때까지	-11.5081
▁지혜	-11.5081
즙	-11.5081
▁오래되	-11.5081
▁경하	-11.5084
▁갈게	-11.5085
▁갈아서	-11.5087
▁맛으로	-11.5088
▁아네	-11.5092
▁유전	-11.5094
▁제한	-11.5094
▁파이브	-11.5094
▁놔가지고	-11.5094
▁입지	-11.5097
▁많댄	-11.5097
▁모르면	-11.5098
▁힘들잖아	-11.5099
▁받았거든	-11.5102
여게	-11.5103
▁하셔	-11.5105
▁여자한테	-11.5105
릅	-11.5106
▁된거야	-11.5107
▁안돼요	-11.5108
▁어울릴	-11.511
▁비디오	-11.511
▁앉는	-11.511
이여서	-11.5113
▁정리하고	-11.5113
▁집세	-11.5117
▁바에는	-11.5119
▁때리는	-11.512
▁챙겨야	-11.5121
▁독한	-11.5122
▁제주대학교	-11.5123
▁사랑해	-11.5125
▁한마리	-11.5125
▁엄마를	-11.513
▁살앙	-11.5131
▁봤었는데	-11.5132
욱	-11.5133
▁야인	-11.5133
▁사월	-11.5134
▁한다니까	-11.5134
▁뉴	-11.5135
▁빵이	-11.5137
▁편할	-11.5137
▁얘네들	-11.5137
▁덤	-11.5139
▁사랑이	-11.514
▁올라오면	-11.5142
▁샵	-11.5142
▁봐주고	-11.5144
▁피곤한	-11.5144
▁아랫	-11.5145
혁	-11.5145
▁스타벅스	-11.5145
▁따로따로	-11.5145
▁너미	-11.5146
▁자동	-11.5147
지방	-11.5148
▁단골	-11.5149
▁다리를	-11.5149
▁총무	-11.5152
턱	-11.5152
▁누나는	-11.5152
▁말했다	-11.5153
▁모르네	-11.5155
▁테이프	-11.5157
▁있드라고	-11.5158
▁뱅	-11.5159
▁백수	-11.516
▁선을	-11.516
▁띵	-11.5161
▁먹어봤는데	-11.5165
▁여름이	-11.5165
▁파도	-11.5166
▁일어났	-11.5167
▁있네이	-11.5171
▁되요	-11.5172
▁시쯤에	-11.5177
▁안써	-11.5177
▁심심	-11.5179
▁전자기기	-11.518
▁않읍니까	-11.5181
▁잘생겼	-11.5186
▁선배님	-11.5188
▁입구에	-11.5191
▁쳐야	-11.5194
▁들어가게	-11.5195
▁프	-11.5196
▁냄새도	-11.5197
▁시키지	-11.5197
하켄	-11.5198
▁없어지고	-11.5198
▁살잖아	-11.52
▁마켓	-11.5202
▁통장에	-11.5206
▁일구	-11.5206
▁사이드	-11.5208
▁업체	-11.5209
▁안허고	-11.521
났지	-11.5211
▁간단	-11.5211
▁대사	-11.5212
허지	-11.5214
▁망해	-11.5215
▁꼼짝	-11.5216
▁룸메	-11.5216
▁혼내	-11.5217
▁그전에는	-11.5217
율	-11.5218
▁보라색	-11.522
▁마블	-11.5221
▁아이템	-11.5221
▁일종	-11.5222
그런	-11.5223
삘	-11.5223
애가	-11.5228
▁돌아가셔	-11.523
▁조합	-11.5231
▁달달	-11.5231
▁웃기지	-11.5233
▁바라는	-11.5235
▁겨울엔	-11.5237
▁나면은	-11.5241
▁골드	-11.5244
▁갇	-11.5246
▁반응이	-11.5246
▁조용하	-11.5246
▁열정	-11.5246
▁야외	-11.525
▁변호사	-11.5251
▁안할	-11.5251
▁어두워	-11.5252
▁보여줄	-11.5252
이었잖아	-11.5254
규	-11.5255
▁동그랗게	-11.5256
▁남기	-11.5257
윤	-11.5259
▁조선	-11.526
▁민망	-11.5261
▁살아난	-11.5262
▁싶어요	-11.5262
▁사람이라고	-11.5263
▁환장	-11.5264
▁댄	-11.5264
▁떨어졌어	-11.5264
질을	-11.5266
▁남편한테	-11.5267
▁얘기하다	-11.5268
말을	-11.5269
▁하여튼간	-11.5273
십디다	-11.5275
▁말투가	-11.5276
▁얻어먹	-11.528
음식	-11.5282
둑	-11.5287
▁시켰어	-11.5287
▁메이플	-11.5287
▁만화책	-11.5288
▁온갖	-11.5289
▁걸어야	-11.5292
▁날라가	-11.5295
▁찾아야	-11.5295
▁놀면	-11.5297
되게	-11.5298
▁사는디	-11.5299
▁둘은	-11.53
▁붙이는	-11.53
많	-11.5301
▁가지러	-11.5301
개월	-11.5302
▁혜	-11.5304
▁시끄러워	-11.5309
▁잡으	-11.5311
▁사모님이	-11.5312
▁시절이	-11.5314
▁아닌지	-11.5317
▁못가고	-11.5317
▁배워서	-11.5321
이라든가	-11.5321
셨어	-11.5322
버리니깐	-11.5323
▁났을	-11.5323
▁다니다	-11.5324
▁캐리어	-11.5325
▁들어있는	-11.5326
▁들면은	-11.5326
버렸지	-11.5327
▁맘대로	-11.5328
갠	-11.5331
하기는	-11.5332
▁불르	-11.5334
▁한마디로	-11.5335
▁먹진	-11.5336
▁페이	-11.534
▁인성	-11.5341
▁방향으로	-11.5345
으세요	-11.5345
▁일인가	-11.5347
▁오긴	-11.5348
▁애매해	-11.5348
▁오일장에	-11.5352
▁그리는	-11.5352
▁지나가면서	-11.5352
▁술은	-11.5353
▁년째	-11.5354
▁이상이	-11.5358
▁돈벌	-11.5358
▁문제야	-11.5358
▁롯데	-11.5359
▁기독교	-11.5359
▁신천지	-11.5359
▁운동할	-11.536
만큼은	-11.5361
▁이유를	-11.5361
▁처녀	-11.5361
▁외국에	-11.5362
▁체육관	-11.5363
▁사전	-11.5365
봥	-11.5366
▁이사를	-11.5367
▁즐겁게	-11.5369
부턴	-11.5371
먹은	-11.5372
▁씨발	-11.5372
▁큰언니	-11.5373
다니고	-11.5375
일걸	-11.5376
따라	-11.5378
▁갔다와	-11.5383
줘야지	-11.5384
▁편안	-11.5384
▁매트	-11.5385
셨어요	-11.5389
▁뒤집	-11.5392
▁갱년기	-11.5395
▁툭툭	-11.5395
▁종아리	-11.5396
▁먹을게	-11.5396
▁까만	-11.5397
▁자기네끼리	-11.54
몬	-11.5401
시녠	-11.5401
사켜	-11.5404
▁빽	-11.5405
▁템	-11.5406
▁차리고	-11.5406
▁대우	-11.5407
▁노란색	-11.541
▁카톡을	-11.5413
▁먹은거	-11.5414
▁정확한	-11.5415
▁받잖아	-11.5415
배기	-11.5415
▁쓰면은	-11.5415
▁맡기	-11.5416
▁다신	-11.5417
▁올거	-11.5417
▁할때도	-11.5422
▁안하는데	-11.5425
릭	-11.5429
▁보건	-11.543
그래서	-11.543
아가	-11.5431
▁인종차별	-11.5431
▁초콜렛	-11.5431
▁컸어	-11.5431
▁독새기	-11.5432
크냐	-11.5433
▁경해신디	-11.5434
▁자궁	-11.5434
▁서빙	-11.5434
▁예산	-11.5434
▁동의	-11.5434
▁열어서	-11.5436
▁이서야	-11.5436
물에	-11.5437
▁과가	-11.5437
▁준비할	-11.5438
▁수요일날	-11.5439
▁비자	-11.544
▁땀이	-11.5441
▁상사	-11.5441
▁남았는데	-11.5443
▁다행이	-11.5445
▁밭디	-11.5446
▁죽어서	-11.5446
▁부조	-11.5447
▁보던	-11.5447
▁감아	-11.5449
▁과대	-11.5449
▁날아가	-11.545
▁사라진	-11.545
▁영해신디	-11.5454
▁회사를	-11.5455
▁시체	-11.5457
▁화상	-11.5457
▁땅값	-11.5459
▁집들	-11.546
▁기술이	-11.5461
이라는게	-11.5462
▁만은	-11.5462
▁마을에	-11.5462
치를	-11.5462
▁거연	-11.5462
▁미드	-11.5463
▁저거는	-11.5465
▁명밖에	-11.5466
▁그거지	-11.5468
▁깜깜	-11.5468
▁채팅	-11.5469
▁구운	-11.5469
▁핑크	-11.5469
▁자란	-11.5471
닭	-11.5473
▁절약	-11.5474
▁된다면	-11.5475
▁깨끗	-11.5478
▁나이는	-11.5478
▁저축	-11.548
▁알았으면	-11.5482
▁어디를	-11.5482
▁귤이	-11.5483
부난이	-11.5484
▁질러	-11.5484
▁아이스	-11.5485
▁면이	-11.5488
▁바꿔서	-11.5488
▁서귀포는	-11.5488
▁걸련	-11.549
▁물어보지	-11.5491
▁달력	-11.5492
▁다년	-11.5493
조차	-11.5493
▁결혼도	-11.5494
▁작은거	-11.5495
▁만들지	-11.5498
▁고소	-11.55
▁붙이면	-11.5501
▁직장을	-11.5504
▁싱크대	-11.5504
렬	-11.5504
▁육개장	-11.5504
▁할걸	-11.5505
▁소개팅	-11.5505
▁쭉쭉	-11.5505
▁민족	-11.5505
▁관절	-11.5506
▁알아듣	-11.5506
▁부처님	-11.5507
▁같대	-11.5508
▁울었어	-11.5511
▁대단해	-11.5511
때마다	-11.5515
▁뛰었	-11.5523
▁장애인	-11.5524
하셔	-11.5526
▁손바닥	-11.5526
▁버전	-11.5526
▁노트	-11.5526
▁하든지	-11.553
▁찍었어	-11.5534
▁점심을	-11.554
▁좋아하면	-11.554
나와	-11.5541
▁쌓이	-11.5542
▁낮에는	-11.5543
▁폭발	-11.5544
▁이니까	-11.5544
▁하와이	-11.5546
왔던	-11.5547
▁드라마는	-11.5551
▁왔구나	-11.5551
▁예전부터	-11.5552
▁닦으	-11.5554
▁세상에서	-11.5555
▁옛날에도	-11.5555
▁많은디	-11.5556
슈	-11.5559
▁붙인	-11.556
▁시집가	-11.5562
▁핏	-11.5562
▁타입	-11.5565
주면서	-11.5572
▁헤어질	-11.5572
▁뿌리고	-11.5574
▁정보를	-11.5575
▁어어어	-11.5576
▁또라이	-11.5577
▁무서울	-11.5578
▁물리치료	-11.5578
▁아까워서	-11.5578
▁넷플	-11.5578
▁면허증	-11.5579
▁월급이	-11.558
▁가보	-11.5582
▁겅하니까	-11.5584
▁들긴	-11.5584
▁맛좋은	-11.5585
▁이전	-11.5585
▁와우	-11.5585
▁등교	-11.5586
▁사면은	-11.5586
▁쳐서	-11.5587
▁예쁜데	-11.5588
▁극장	-11.559
▁반찬이	-11.559
치지	-11.559
▁알기	-11.5592
그거	-11.5592
▁알겠	-11.5594
지네	-11.5594
우고	-11.5596
▁남편이랑	-11.5597
▁뭐냐면은	-11.5597
▁모자라	-11.5597
▁왔으니까	-11.56
▁일까지	-11.56
▁사막	-11.5602
▁작성	-11.5602
좋아	-11.5603
▁피곤하	-11.5604
▁비싸다	-11.5604
▁고맙다고	-11.5605
보민	-11.5605
▁취한	-11.5606
▁줄어들	-11.5606
▁재밌다	-11.5607
▁흔들리	-11.5607
▁월부터	-11.561
▁궁금하	-11.5611
▁영화관에서	-11.5611
▁깨워	-11.5612
었습니다	-11.5614
밍	-11.5614
▁싫을	-11.5614
▁남들은	-11.5615
▁화내	-11.5616
▁알려주고	-11.5616
▁블	-11.5616
▁유전자	-11.5618
▁세번째	-11.5618
쭉	-11.5622
▁순서	-11.5622
▁되겠구나	-11.5624
▁클래스	-11.5626
▁틀리고	-11.5628
▁네명	-11.5629
▁골라서	-11.5629
▁원인데	-11.563
빼	-11.563
▁산업	-11.5631
▁이쁘다	-11.5632
▁임시	-11.5632
▁특히나	-11.5633
▁유도	-11.5634
▁감고	-11.5634
▁아따	-11.5636
▁여름엔	-11.5636
▁서방도	-11.5636
보지도	-11.5636
▁먹어부난	-11.5637
▁하고있어	-11.5639
▁금액이	-11.564
▁죽인	-11.5641
▁수시로	-11.5643
줬으면	-11.5644
▁공대	-11.5646
▁책에	-11.5646
허다	-11.5648
▁싸지	-11.5649
▁알아가지고	-11.565
▁여자아이	-11.565
▁굶어	-11.5652
▁스트레칭	-11.5652
▁교통사고	-11.5652
룸	-11.5652
▁시아버지가	-11.5652
▁유산소	-11.5653
▁컵라면	-11.5653
▁폭포	-11.5654
▁다듬	-11.5654
▁접어	-11.5655
흥	-11.5656
▁화면이	-11.5659
슴	-11.5666
▁주시	-11.5671
사리	-11.5672
다그네	-11.5672
▁치면은	-11.5672
타임	-11.5673
▁내려간	-11.5674
▁사십오	-11.5678
▁놀다	-11.568
▁말해줬	-11.568
부가	-11.568
▁그러거든	-11.5681
▁챙기는	-11.5685
▁계셔	-11.5686
▁받았다	-11.5686
▁로션	-11.5689
▁어멍아방	-11.569
▁비대면으로	-11.5691
▁오나	-11.5693
▁사립	-11.5694
▁마랑	-11.5694
▁팔지	-11.5694
▁일본말	-11.5694
▁날에는	-11.5696
▁제주도에는	-11.5696
▁느낌인	-11.5696
▁일기	-11.5696
▁코로나로	-11.5697
▁않았던	-11.5697
▁위기	-11.5698
▁고랑	-11.5701
▁좋아했는데	-11.5703
▁올라올	-11.5705
▁갈라고	-11.5705
햄서	-11.5707
▁입맛에	-11.5707
▁터지기	-11.5708
졌잖아	-11.5709
▁먹거나	-11.5711
▁진심으로	-11.5712
하고는	-11.5712
▁때까지만	-11.5715
께서	-11.5715
▁숨을	-11.572
▁덩치	-11.572
▁할망은	-11.572
▁좋앙	-11.5721
▁모은	-11.5722
▁다녔을	-11.5726
▁일본인	-11.5726
▁청바지	-11.5727
▁뭐였더라	-11.5728
▁종합	-11.5728
▁아니우다	-11.573
▁이삼	-11.5732
싸움	-11.5733
▁맛있었는데	-11.5734
▁야경	-11.5734
▁배로	-11.5734
▁태우	-11.5734
▁수제비	-11.5735
▁조심해	-11.5735
봅써	-11.5737
▁걔넨	-11.5742
▁아버지한테	-11.5744
▁주난	-11.5745
▁명이랑	-11.5746
다니는	-11.5748
▁뭐였냐면	-11.5749
▁읽으면	-11.5751
▁모았	-11.5752
▁않더라고	-11.5752
▁현금으로	-11.5753
▁볼일	-11.5753
▁오멍	-11.5753
▁작년에는	-11.5754
▁온대	-11.5754
▁차려서	-11.5755
▁크다	-11.5756
▁나가기	-11.5756
▁가더라고	-11.5756
▁비어	-11.5761
롬	-11.5762
▁이러는거	-11.5762
가는데	-11.5762
▁오래됐	-11.5762
▁푸대	-11.5763
▁닮아마씨	-11.5763
▁불렀어	-11.5763
▁마누라	-11.5763
▁봉사활동	-11.5764
▁키는	-11.5764
▁오지게	-11.5766
쭈게	-11.5769
▁먹으믄	-11.5769
▁기계로	-11.577
궁	-11.577
▁축하	-11.5771
▁모인	-11.5772
▁큰일나	-11.5772
▁볼게	-11.5778
▁명인데	-11.5778
▁노래는	-11.5779
▁거우다	-11.5779
시킬	-11.5782
▁자식들이	-11.5783
▁이뤄	-11.5785
▁잡아가지고	-11.5791
다음	-11.5793
▁점심에	-11.5793
▁만들려고	-11.5795
▁졸리	-11.5796
▁바쁘고	-11.5799
▁갔다온	-11.58
▁이천십	-11.58
▁불면	-11.5801
▁탄수화물	-11.5801
▁트로트	-11.5801
▁씨씨티비	-11.5801
▁알기로는	-11.5801
▁인건비	-11.5801
▁사촌동생	-11.5801
내가	-11.5802
▁지역에	-11.5802
▁능	-11.5802
▁차가운	-11.5804
▁연봉	-11.5805
▁됐으니까	-11.5806
▁모른다고	-11.5807
▁입력	-11.5808
▁말씀이	-11.5808
갈때	-11.5809
▁많던데	-11.5809
▁반을	-11.5811
▁깔려	-11.5812
▁동물들	-11.5813
▁있었구나	-11.5814
색깔	-11.5815
▁따지고	-11.5815
▁구경하고	-11.5817
▁되는거라	-11.5819
▁년인가	-11.582
▁될걸	-11.582
▁편의점에서	-11.5821
▁일이야	-11.5821
▁있주	-11.5823
▁쳐다보고	-11.5824
놓는	-11.5826
▁학년이	-11.5827
▁내면서	-11.5827
▁작가가	-11.5827
▁한번만	-11.5827
▁받는다고	-11.5828
▁아쉽	-11.5829
주려고	-11.5829
국수	-11.5829
▁환자들	-11.5831
▁아무렇지	-11.5831
▁사진은	-11.5832
왕으네	-11.5833
▁외국인들	-11.5835
▁챙겨주고	-11.5835
▁짖	-11.5836
값이	-11.5836
룬	-11.5839
▁마트에서	-11.5839
▁간단한	-11.584
▁여튼	-11.5841
▁다음은	-11.5842
▁얘기하는거	-11.5842
▁뵈	-11.5843
▁콘	-11.5844
▁절반	-11.5851
▁준댄	-11.5852
▁키워서	-11.5853
▁틀렸	-11.5853
▁받게	-11.5855
▁멈추	-11.5855
▁연말에	-11.5856
▁시집을	-11.5858
▁거길	-11.5859
▁됬어	-11.5862
▁먹겠다고	-11.5863
▁모여가지고	-11.5864
▁병원도	-11.5867
▁뭐꽈	-11.5868
▁장수	-11.5869
▁일하다가	-11.5869
하자고	-11.587
▁그럴때	-11.5873
▁터지면	-11.5873
▁해녀들	-11.5874
▁좋아진	-11.5875
▁관광객들이	-11.5876
▁보였	-11.5876
대회	-11.5876
20&	-11.5877
▁헷갈려	-11.5877
▁양아치	-11.5877
▁자켓	-11.5879
▁동창회	-11.5883
▁땡기	-11.5883
내려	-11.5885
▁기말	-11.5886
▁사자	-11.5889
▁뒀	-11.5889
▁찬양	-11.589
▁호텔에	-11.5891
▁나오게	-11.5893
▁쩌	-11.5897
▁이루어	-11.5898
▁이사람	-11.5899
▁어수다	-11.59
▁말아라	-11.59
▁올라가야	-11.59
▁독서	-11.5904
▁트라우마	-11.5905
▁않았고	-11.5905
통에	-11.5906
쿠가	-11.5908
▁풀리	-11.5908
▁갔다왔	-11.5909
▁읽으	-11.5911
▁아빤	-11.5912
▁이날	-11.5913
▁에피소드	-11.5915
산디	-11.5915
▁롱	-11.5916
▁디엠	-11.5916
▁쇼파	-11.5916
때가	-11.5918
처리	-11.5918
▁사십대	-11.592
▁싶댄	-11.5922
▁몫	-11.5923
먹지	-11.5925
▁응응	-11.5927
▁귤을	-11.5927
▁집값	-11.5928
기에는	-11.5928
▁살아신디	-11.5929
▁맞안	-11.5929
▁줬지	-11.593
▁이러면은	-11.5931
▁삼만원	-11.5932
▁갈고	-11.5933
▁지꺼	-11.5934
▁장난이	-11.5936
▁섞여	-11.5936
▁많았거든	-11.5939
여자	-11.594
거주게	-11.594
▁부모님한테	-11.5945
▁친구의	-11.5945
▁춥지	-11.5947
▁편하지	-11.5947
▁모으	-11.5949
흘	-11.5949
▁이십육	-11.5951
▁로맨스	-11.5953
▁마케팅	-11.5953
▁브로콜리	-11.5953
▁아름다운	-11.5953
▁영수증	-11.5953
▁비빔밥	-11.5953
▁드레스	-11.5953
▁지나간	-11.5955
▁어디다	-11.5955
▁있는거지	-11.5955
▁자르고	-11.5956
▁설계	-11.5957
니가	-11.596
고라	-11.5962
▁없었으면	-11.5964
▁혼번	-11.5965
▁억울하	-11.5968
▁수산	-11.5969
▁내놓	-11.597
▁백육십	-11.5972
▁밀고	-11.5974
▁살만	-11.5975
▁너처럼	-11.5975
▁천오백	-11.5978
▁와플	-11.5978
보내	-11.5981
집을	-11.5985
▁나올때	-11.5985
▁청소를	-11.5987
▁기여	-11.5987
▁되도	-11.5987
▁마리가	-11.5988
▁온라인으로	-11.5989
▁엊그제	-11.5991
▁조카가	-11.5991
▁팥죽	-11.5992
▁나빴	-11.5993
▁온거야	-11.5993
▁한계가	-11.5993
▁입으	-11.5993
▁무서워가지고	-11.5995
▁내지	-11.5995
▁주신	-11.5998
협	-11.6
몸	-11.6
▁사랑니	-11.6001
▁대단하	-11.6001
▁손질	-11.6002
▁갔단	-11.6006
▁검정색	-11.6007
마트	-11.6007
▁전시	-11.6007
▁연기를	-11.6012
▁청주	-11.6013
▁수원	-11.6014
▁못행	-11.6015
▁생기니까	-11.6017
▁헤어져	-11.6017
대에	-11.6018
▁어디강	-11.6019
▁조용해	-11.6021
▁어떡하	-11.6021
▁생각했	-11.6023
▁붙여서	-11.6023
부를	-11.6025
▁쳐다보	-11.6027
▁까먹고	-11.6027
▁만나도	-11.6029
▁꼬박꼬박	-11.603
▁썼거든	-11.603
▁텔레비젼	-11.603
▁이력서	-11.603
▁생각했을	-11.603
▁잘되는	-11.6031
▁자기네들	-11.6032
▁보람	-11.6034
▁버즈	-11.6034
▁고만	-11.6035
▁연관	-11.6035
▁정책	-11.6036
씨는	-11.6037
▁장아찌	-11.6038
▁그거잖아	-11.604
특	-11.604
▁잠바	-11.6045
병이	-11.6047
디다게	-11.6051
▁알리	-11.6053
▁형들	-11.6056
▁놈은	-11.6056
▁고래	-11.6057
▁우물	-11.6057
▁들어왔어	-11.6057
▁어떠	-11.606
▁도와줄	-11.606
▁술만	-11.6063
▁티비에	-11.6063
▁힘들긴	-11.6065
▁시작했어	-11.6066
▁알거든	-11.6067
▁일하면	-11.6067
▁허기	-11.6067
▁혈	-11.6068
▁불러야	-11.6071
▁비만	-11.6073
▁핸드폰에	-11.6074
▁자지	-11.6074
▁영어는	-11.6079
▁믿음이	-11.6081
▁그러냐	-11.6082
하영	-11.6082
▁침대에	-11.6083
▁선수들	-11.6084
▁어깨가	-11.6084
오라고	-11.6086
▁동기들	-11.6086
▁장점	-11.6087
▁가지만	-11.6088
▁다니던	-11.609
▁이해해	-11.6091
문이	-11.6091
▁보태	-11.6092
했지만	-11.6093
▁수리	-11.6095
▁신랑도	-11.6096
▁웬	-11.6097
▁이거야	-11.6097
▁수도권	-11.6097
▁다친	-11.6097
▁찾으면	-11.6098
▁다음날에	-11.6099
버스	-11.6099
▁기운이	-11.61
▁점장님	-11.6101
▁맛있대	-11.6101
▁옷에	-11.6104
▁나오난	-11.6104
▁비행기가	-11.6106
▁했을까	-11.6106
▁프라	-11.6107
▁화이트	-11.6107
▁말들	-11.6107
▁신뢰	-11.6107
▁동사무소	-11.6108
▁버튼	-11.6108
▁살찌	-11.611
▁메모	-11.611
▁시작이	-11.6113
▁갔대	-11.6115
▁카페를	-11.6116
▁못하	-11.6117
▁구만	-11.6118
▁인당	-11.6118
▁조그만한	-11.612
▁누워있	-11.6121
▁화나가지고	-11.6121
▁엘지	-11.6122
▁나와요	-11.6125
▁어이없	-11.6127
▁씨가	-11.6127
▁경찰이	-11.613
▁질려	-11.613
▁생겼다	-11.613
눌	-11.613
▁사람인지	-11.6131
났주	-11.6131
▁청소기	-11.6132
▁아이씨	-11.6135
▁최저	-11.6139
먹었	-11.614
것처럼	-11.6141
▁부분을	-11.6142
▁고구마를	-11.6142
선생	-11.6143
였던거	-11.6145
▁얇아	-11.6146
▁통째로	-11.6146
▁올라갔다	-11.6147
▁외출	-11.6149
▁잘해주	-11.6149
▁염증	-11.6149
▁갔으니까	-11.6151
▁잃어버렸	-11.6151
▁변한	-11.6151
▁편하	-11.6152
▁고기는	-11.6153
▁가능성이	-11.6156
▁사람처럼	-11.616
꼴	-11.616
대고	-11.616
▁끼리	-11.6162
▁겪어	-11.6164
▁봤더니	-11.6167
▁저희가	-11.6168
▁맞으니까	-11.6168
▁중요하다고	-11.617
▁닫았	-11.6174
▁하루를	-11.6174
▁이놈	-11.6175
▁육지사람들	-11.6176
▁그놈의	-11.6178
▁아판	-11.6179
▁불려	-11.6182
▁깨지	-11.6182
▁쓰긴	-11.6183
▁바글바글	-11.6185
▁즐기	-11.6185
▁스킨	-11.6185
▁예민한	-11.6187
▁서핑	-11.6187
▁자퇴	-11.6188
▁보내지	-11.6189
볼게	-11.6192
▁사진으로	-11.6192
▁흠	-11.6192
▁목포	-11.6193
핑	-11.6195
▁걱정을	-11.6196
탑	-11.6199
▁억울한	-11.6199
▁와야지	-11.6199
▁오를	-11.6199
▁도청	-11.6201
▁비트	-11.6204
▁일본이	-11.6204
▁게난예	-11.6206
▁잠시만	-11.6208
▁쓸어	-11.621
▁모이	-11.6211
▁지원을	-11.6212
▁안하지	-11.6212
▁룸	-11.6213
맞아	-11.6214
▁미루	-11.6215
▁주문을	-11.622
▁정문	-11.6221
▁일어나가지고	-11.6222
▁겅하믄	-11.6223
▁깡	-11.6224
듭	-11.6224
▁펼쳐	-11.6224
▁느껸	-11.6224
▁통해	-11.6225
보이는	-11.6231
▁실은	-11.6231
이었으면	-11.6232
▁이거랑	-11.6234
▁드라마가	-11.6236
▁많았던	-11.6237
▁돌아가실	-11.6238
▁믿지	-11.6239
▁욕하는	-11.6241
▁이후로는	-11.6241
▁배우면	-11.6244
▁어묵	-11.6245
▁속상	-11.6245
▁해줘야지	-11.6245
▁사라지	-11.6247
▁힘들었던	-11.6247
▁구석에	-11.6248
▁잘해야	-11.625
▁일하러	-11.6252
하려면	-11.6252
▁말든	-11.6252
▁단점	-11.6252
▁음식에	-11.6254
넘	-11.6256
▁태워다	-11.6259
▁뿌리는	-11.626
▁돌아가시고	-11.626
▁평대	-11.6262
▁별의별	-11.6264
▁브이로그	-11.6264
▁향신료	-11.6264
▁주짓수	-11.6264
▁스펙	-11.6264
▁보쌈	-11.6264
▁샀다고	-11.6265
▁다념	-11.6265
▁어쨌거나	-11.6265
▁혈액형	-11.6266
▁사라고	-11.6266
문제	-11.6267
▁소방	-11.6268
▁협	-11.6268
▁던지	-11.6268
▁사이다	-11.6271
▁암만	-11.6271
▁댕겼	-11.6273
▁힘들면	-11.6274
▁마자	-11.6274
홍	-11.6275
▁났었	-11.6275
▁장만	-11.6276
▁강생이	-11.6277
▁줌으로	-11.6277
했었지	-11.6279
▁들어봤어	-11.628
리는데	-11.6285
▁때야	-11.6286
▁불쌍	-11.6287
▁오이	-11.6289
▁오신	-11.629
▁뽑아서	-11.6291
▁누구도	-11.6291
▁컴퓨터로	-11.6294
▁만든거	-11.6294
하자마자	-11.6295
▁발을	-11.6296
▁될텐데	-11.6296
▁이름만	-11.63
▁티비에서	-11.6301
▁끓인	-11.6303
▁엊그저께	-11.6303
▁보내줄	-11.6303
▁달걀	-11.6303
▁따져	-11.6307
▁배송비	-11.6307
▁이수다	-11.6307
▁돌리면	-11.6308
▁찍엉	-11.6311
▁가깝	-11.6312
▁맛있더라고	-11.6312
▁사야지	-11.6313
콜	-11.6316
▁나누	-11.6316
▁싫으면	-11.6317
▁사뭇	-11.6317
▁자격증을	-11.6317
▁얘네들이	-11.6319
▁카트	-11.632
▁폼	-11.6322
분들이	-11.6322
▁에이치	-11.6325
▁이신가	-11.6325
▁하려	-11.6326
▁해보게	-11.6328
▁채우고	-11.633
▁커피도	-11.633
▁가이한테	-11.6333
▁그자락	-11.6333
네도	-11.6333
▁했지만은	-11.6335
▁친해졌	-11.6335
▁숭	-11.6338
하댄	-11.6338
방에서	-11.6339
▁골프장	-11.6341
줬지	-11.6341
▁얼마에	-11.6342
▁느낌인지	-11.6342
▁동백꽃	-11.6343
▁셔츠	-11.6343
▁호쏠	-11.6343
▁좋겠다고	-11.6344
▁벌려	-11.6344
▁것인가	-11.6344
▁육학년	-11.6345
▁베스트	-11.6345
▁겹쳐	-11.6346
▁하루만	-11.6346
▁차량	-11.6346
▁게임은	-11.635
▁짐을	-11.6352
▁자유롭게	-11.6353
▁고생을	-11.6354
▁입어도	-11.6354
▁넘어오	-11.6355
▁아주버님	-11.6355
▁익숙해	-11.6356
▁거품	-11.6358
▁올라와서	-11.6359
▁벼	-11.636
▁심각	-11.636
▁늦었	-11.6363
▁씻는	-11.6363
▁도배	-11.6364
▁잠수	-11.6365
된다고	-11.6367
▁없으면은	-11.6368
▁알아듣는	-11.6371
▁야근	-11.6371
▁예수	-11.6372
▁안보여	-11.6373
▁경헌	-11.6374
바리	-11.6377
했던거	-11.6378
사주게	-11.6382
▁찾았	-11.6382
펀	-11.6383
▁보따리	-11.6383
▁누굴	-11.6384
제가	-11.6384
▁일회용	-11.6387
▁액	-11.6388
▁무한	-11.6389
렸지	-11.6389
공부	-11.6391
우는	-11.6394
▁제원	-11.6394
▁데만	-11.6396
▁식개	-11.6398
겠더라고	-11.6399
▁살을	-11.6399
▁제공	-11.64
▁까는	-11.6401
▁시외	-11.6401
▁못살아	-11.6405
▁얘들	-11.6408
▁느려	-11.6409
▁유형	-11.641
선이	-11.641
▁억울	-11.6413
▁산이	-11.6415
드리고	-11.6419
▁완벽하게	-11.6422
렛	-11.6423
▁속눈썹	-11.6423
▁여름방학	-11.6423
▁츄리닝	-11.6423
▁레몬	-11.6423
▁나오더라고	-11.6424
▁보증금	-11.6424
에서부터	-11.6425
▁셀	-11.6425
▁접근	-11.6426
▁자서	-11.6426
▁우리과	-11.6427
▁방식	-11.643
▁오십대	-11.6431
▁박박	-11.6432
▁목요일날	-11.6433
▁식구가	-11.6433
▁죽일	-11.6436
펜	-11.6436
줬잖아	-11.6438
▁끄고	-11.6438
▁정작	-11.6439
톤	-11.6439
▁부분에	-11.6441
▁않으냐	-11.6442
▁생기지	-11.6443
▁욕하고	-11.6443
▁친해지고	-11.6444
▁적용	-11.6445
▁목사님이	-11.6446
▁확인하고	-11.6448
▁돌아갈	-11.6448
▁매실	-11.6448
받았	-11.6449
▁직장생활	-11.6449
▁개그	-11.6451
▁비행기표	-11.6454
▁눈만	-11.6455
하는거라	-11.6455
허는디	-11.6457
▁다르다고	-11.6458
▁화투	-11.6458
▁때라	-11.6458
▁온댄	-11.6459
▁차들	-11.646
▁잘못하면	-11.6461
▁계좌	-11.6463
▁질리	-11.6463
▁잘할	-11.6463
▁움직일	-11.6464
왔다	-11.6464
▁대본	-11.6465
▁줘신디	-11.6465
▁감사한	-11.6465
▁만나니까	-11.6466
▁신부님	-11.6466
▁때보다	-11.6467
▁초록	-11.6468
▁해노난	-11.6469
▁하면서도	-11.647
▁부에	-11.6472
▁사람이면	-11.6473
▁앞으로는	-11.6473
▁죽음	-11.6474
▁생으로	-11.6475
두면	-11.6477
▁되주	-11.648
아이들	-11.648
▁간거야	-11.6481
느라고	-11.6483
▁가볼	-11.6483
▁넘어간	-11.6484
▁약대	-11.6485
거우다	-11.6486
▁들어가는데	-11.6487
▁밤에는	-11.6488
지더라고	-11.6488
▁개도	-11.6489
했었	-11.649
▁사주는	-11.6491
▁들어갔다	-11.6493
▁주제로	-11.6495
▁살아있는	-11.6497
▁인원	-11.6499
▁닮앙	-11.65
줄까	-11.6503
▁끓일	-11.6503
▁물티슈	-11.6503
▁알레르기	-11.6503
▁충청도	-11.6503
▁일하면서	-11.6503
▁닫는	-11.6503
▁스물다섯	-11.6503
▁옵션	-11.6503
▁무너지	-11.6503
▁햄신가	-11.6503
▁관리하는	-11.6504
▁큰소리	-11.6504
▁강요	-11.6504
▁이렇게까지	-11.6504
▁교류	-11.6504
▁종종	-11.6506
▁단톡	-11.6508
농사	-11.6508
▁살찐	-11.6509
▁강릉	-11.6509
▁못나가	-11.651
▁숙모	-11.6511
▁없었다	-11.6511
▁돌아간	-11.6512
▁지들	-11.6513
▁복수	-11.6513
▁선물이	-11.6513
▁사귀었	-11.6513
▁개인적인	-11.6514
▁헌댄	-11.6514
▁않더라	-11.6515
▁잡아먹	-11.6515
▁허주	-11.6515
▁구할	-11.6516
지말라	-11.6517
▁일부터	-11.6519
▁이러잖아	-11.6519
▁에바	-11.6523
▁할거냐	-11.6523
▁장례식	-11.6524
▁전기세	-11.6524
같아	-11.6524
▁달라진	-11.6524
▁잃어버린	-11.6525
▁없기	-11.6526
▁머리는	-11.6527
▁안심	-11.6527
▁지적	-11.6531
▁이미지가	-11.6533
뎅	-11.6535
▁씨디	-11.6535
김치	-11.654
▁조끼	-11.6541
▁자녀	-11.6542
버련	-11.6542
▁개웃겨	-11.6544
▁답사	-11.6544
▁무덤	-11.6544
▁너보다	-11.6545
▁봐바	-11.6546
▁모밀	-11.6547
▁술이	-11.6549
▁섰	-11.6551
▁여상	-11.6552
꺼는	-11.6553
▁가문	-11.6554
▁지나니까	-11.6556
▁외식	-11.6557
▁가져가고	-11.6557
▁카페도	-11.6558
▁약속이	-11.6558
▁가고싶	-11.6558
▁개의	-11.6559
▁있덴	-11.6559
▁우리처럼	-11.6564
쓰는	-11.6566
▁메고	-11.6567
▁않았을	-11.6569
▁육회	-11.657
▁만원짜리	-11.6571
인거라	-11.6573
▁햄져	-11.6581
▁자락	-11.6581
▁반전	-11.6583
엽	-11.6583
▁굵은	-11.6584
▁하루하루	-11.6584
▁살자	-11.6585
▁사소한	-11.6585
▁익은	-11.6588
▁남쪽	-11.6589
▁팔월	-11.6593
▁익어	-11.6593
▁세월이	-11.6593
▁감이	-11.6594
▁하체	-11.6597
▁명이나	-11.6598
▁날개	-11.6599
▁자라고	-11.66
딜	-11.6605
▁리그	-11.6605
▁끝내고	-11.6606
▁해마다	-11.6606
▁풀리면	-11.6608
▁엄마의	-11.6614
▁웃었	-11.6615
▁커가지고	-11.6616
▁달은	-11.6617
▁양보	-11.6617
▁택시비	-11.6621
▁흥미	-11.6622
▁재미있고	-11.6622
▁좋았을	-11.6623
▁느낌도	-11.6624
▁밭일	-11.6625
▁싣고	-11.6625
▁밭은	-11.6626
겼어	-11.6626
▁친해진	-11.6626
▁신혼	-11.6627
▁말랐	-11.6628
▁단어가	-11.663
▁기도하고	-11.6636
▁현지	-11.6638
제를	-11.6639
되는거	-11.6641
▁아파도	-11.6643
▁허벅	-11.6645
주기게	-11.6646
▁돌아가면	-11.6647
▁눈치를	-11.6653
▁알바는	-11.6654
▁화장을	-11.6654
▁큰아이	-11.6659
▁캡쳐	-11.6661
▁성적이	-11.6662
▁해가면	-11.6665
왁	-11.6666
▁모바일	-11.6666
▁잊을	-11.6666
▁트레이너	-11.6666
▁오렌지	-11.6666
▁오메가	-11.6666
▁뚝딱	-11.6666
▁변기	-11.6667
▁내용은	-11.6667
생이라	-11.6667
▁자랐	-11.6668
▁바르는	-11.6668
▁개에	-11.6669
▁하주	-11.6669
▁없어졌어	-11.6672
▁변비	-11.6672
야되고	-11.6673
▁국장	-11.6673
있었어	-11.6674
이기도	-11.6674
▁공부한	-11.6676
봐라	-11.6677
▁회색	-11.6678
▁모으는	-11.668
▁미운	-11.6681
▁있져	-11.6682
▁돌릴	-11.6682
▁자를	-11.6682
▁퇴사	-11.6683
▁중에는	-11.6687
▁먹을꺼	-11.6688
▁성형	-11.6689
▁배는	-11.6691
▁요소	-11.6692
▁위생	-11.6693
할거야	-11.6693
▁싶대	-11.6694
분들	-11.6695
하지는	-11.67
▁오니깐	-11.67
▁알아보	-11.6701
▁재밌지	-11.6702
▁무섭고	-11.6703
▁현타	-11.6703
▁하고싶어	-11.6704
▁친구들하고	-11.6706
▁중요	-11.6706
▁겨울방학	-11.6707
▁싶어신디	-11.6708
▁아맹해도	-11.6708
▁튼	-11.6709
관계	-11.6709
▁있지만은	-11.6709
▁것보단	-11.6709
▁각각	-11.671
▁전인가	-11.671
▁지네끼리	-11.671
▁있길래	-11.6712
▁드려	-11.6713
▁먹겠	-11.6714
▁편안한	-11.6715
▁거기가서	-11.6717
▁좋던데	-11.6718
▁나거든	-11.6721
▁가지면	-11.6722
금을	-11.6722
▁떼어	-11.6725
있거든	-11.6725
▁배그	-11.6725
▁먹당	-11.6726
▁징	-11.6727
▁단톡에	-11.6731
▁갔는지	-11.6735
▁담요	-11.6736
▁구멍이	-11.6738
해야돼	-11.6739
▁정신을	-11.6739
▁그거라도	-11.674
물어	-11.6741
▁양을	-11.6741
햄수다	-11.6742
▁법을	-11.6747
▁까마귀	-11.6749
▁썼지	-11.6749
▁임플란트	-11.6749
▁이태원	-11.6749
▁선흘	-11.675
▁성인이	-11.6751
▁젓	-11.6751
▁모닝	-11.6751
▁달랜	-11.6753
▁여기다가	-11.6753
▁무섭다	-11.6754
▁타자	-11.6756
▁어저께는	-11.6757
▁가니	-11.6758
▁당하는	-11.6758
▁거실에	-11.6758
▁된단	-11.6762
▁터져가지고	-11.6763
▁뱃	-11.6764
부터가	-11.6765
▁화산	-11.6766
어가	-11.6767
▁마찬가지고	-11.6767
▁흔한	-11.6767
▁모르겠다고	-11.6767
▁떡이	-11.6769
▁노후	-11.6769
▁딸을	-11.677
▁굳어	-11.677
▁지슬	-11.6771
▁친하	-11.6772
▁먹더라	-11.6773
▁남아있	-11.6773
▁나온대	-11.6778
▁외우	-11.6781
▁생겼다고	-11.6782
▁깔끔한	-11.6786
진데	-11.6786
▁화장실이	-11.6787
과는	-11.6789
▁알바하는	-11.6789
▁집이랑	-11.6789
▁쪼꼼	-11.679
▁같았어	-11.6791
▁웃기는	-11.6792
▁소뭇	-11.6793
▁놔뒀다가	-11.6794
▁출산	-11.6794
▁남자아이	-11.6797
▁용어	-11.6799
▁학원에	-11.68
롭	-11.6803
▁발효	-11.6808
▁싶으니까	-11.6808
▁하나님의	-11.6811
▁참석	-11.6815
▁듯한	-11.682
▁경해난	-11.6821
▁낭비	-11.6821
▁목표를	-11.6821
▁본인은	-11.6822
▁영역	-11.6822
▁인생의	-11.6827
▁목적	-11.6827
▁싸니까	-11.6827
▁신청해	-11.683
▁닮은거	-11.6831
▁얘기했	-11.6831
▁나오면서	-11.6831
▁렌터카	-11.6832
▁마카롱	-11.6832
▁맨투맨	-11.6832
▁반려동물	-11.6832
엣	-11.6832
웜	-11.6832
▁핫도그	-11.6832
수는	-11.6833
▁갈지	-11.6834
▁시험기간	-11.6835
▁연필	-11.6835
▁산타	-11.6835
▁힘들어가지고	-11.6836
▁졸업하면	-11.6836
▁터키	-11.6837
▁남아있는	-11.6838
▁봐줄	-11.6838
▁할아버지들	-11.684
살아	-11.684
▁페이지	-11.6841
▁그래야지	-11.6843
▁대단	-11.6843
▁이시민	-11.6845
▁된덴	-11.6846
▁원밖에	-11.6846
▁전투	-11.6846
실거	-11.6847
▁요금제	-11.6848
징	-11.6849
죄	-11.685
하는것도	-11.685
셋	-11.685
▁이십칠	-11.6852
▁특징	-11.6853
드래	-11.6853
▁쉬어야	-11.6854
▁연도	-11.6854
봤다	-11.6854
▁정자	-11.6858
▁시원	-11.6858
▁증상이	-11.686
▁기운	-11.6863
▁지원해	-11.6864
▁앉으	-11.6865
▁간다는	-11.6867
했단	-11.6867
벅	-11.687
▁분을	-11.687
▁떨리	-11.6871
모양	-11.6872
▁보더니	-11.6872
▁마스크도	-11.6873
▁찾지	-11.6873
▁붉은	-11.6873
▁버텨	-11.6874
▁무섭지	-11.6874
▁버스에서	-11.6878
▁밥먹	-11.6878
▁사람보다	-11.6878
▁장난으로	-11.688
▁조카들	-11.6881
▁청소하고	-11.6883
줌	-11.6885
▁그랬으면	-11.6886
▁조들	-11.6886
▁점수가	-11.6887
▁보고싶	-11.6888
▁주더라고	-11.6889
뚝	-11.6889
▁그것은	-11.6893
팍	-11.6893
간거	-11.6896
▁연락도	-11.6898
▁백칠십	-11.6899
▁두드리	-11.6901
▁백원	-11.6901
▁안에는	-11.6903
▁없주게	-11.6906
▁대여	-11.6907
▁다가오	-11.6907
▁해부니까	-11.6909
▁촉	-11.6909
▁안먹는	-11.6909
▁앵	-11.691
▁압	-11.691
▁버티	-11.691
▁망할	-11.691
▁고씨	-11.691
▁열리	-11.6911
▁있데	-11.6911
▁프로그램이	-11.6912
스러	-11.6912
▁피해를	-11.6913
▁도박	-11.6913
▁것부터	-11.6914
▁쉽지가	-11.6914
▁못했는데	-11.6915
▁애플워치	-11.6916
▁외숙모	-11.6916
▁시금치	-11.6916
▁섭취	-11.6916
▁붙으	-11.6916
▁든다	-11.6916
▁발톱	-11.6916
▁부회장	-11.6918
▁우승	-11.6918
▁입었던	-11.6919
▁일하는데	-11.6919
▁세븐	-11.692
▁다쳐	-11.6921
▁쿠	-11.6922
▁시리	-11.6924
▁해네	-11.6924
▁얘기해도	-11.6925
▁장어	-11.6925
▁내부러	-11.6927
▁쌉	-11.6929
▁멀지	-11.693
▁상식	-11.6933
▁우리나라에	-11.6934
새기	-11.6935
컵	-11.6936
▁원장이	-11.6936
▁계산해	-11.6937
▁좋아야	-11.6938
▁거기에는	-11.6939
▁나무에	-11.6943
오랜	-11.6944
▁길고	-11.6944
▁놔둔	-11.6945
▁이모부	-11.6951
▁픽	-11.6954
▁심각해	-11.6955
즘	-11.6956
▁정리가	-11.6956
▁다녔거든	-11.6958
▁수돗물	-11.6958
▁유튜버	-11.6958
▁사십만	-11.6958
21&	-11.6958
▁정부에서	-11.6958
▁어머닌	-11.6958
▁꺾으러	-11.696
▁사람에	-11.6962
게마는	-11.6964
▁봉개	-11.6966
▁귀찮고	-11.6966
▁할건디	-11.6968
▁배에서	-11.6969
▁분이면	-11.697
리아	-11.6971
▁날씨도	-11.6972
▁년만	-11.6972
▁감정을	-11.6973
▁그람	-11.6974
▁거기에다가	-11.6976
▁똑같지	-11.6976
▁열받	-11.6977
▁허다	-11.6978
▁봤었거든	-11.6978
▁돌이	-11.6978
만원짜리	-11.6979
▁누르고	-11.698
럴	-11.6981
▁할까봐	-11.6983
▁미뤄	-11.6983
였다고	-11.6986
자들이	-11.6988
▁증거	-11.699
▁마당에서	-11.699
▁챙겨서	-11.6991
▁시작하니까	-11.6991
▁취향이	-11.6992
▁식이	-11.6993
▁아니겠지	-11.6993
▁제도	-11.6994
▁정장	-11.6997
륜	-11.6997
틴	-11.6998
▁주서	-11.7
▁멕시코	-11.7
▁엽떡	-11.7
▁전기장판	-11.7
▁고냉이	-11.7
▁어두운	-11.7001
▁존경	-11.7002
▁의문	-11.7003
▁햄시	-11.7004
▁통통	-11.7004
불어	-11.7004
▁비행기를	-11.7004
▁쯧	-11.7004
▁옷가게	-11.7005
▁스트레스가	-11.7006
▁책으로	-11.7007
▁감시	-11.7007
▁자제	-11.701
로서	-11.701
▁씨유	-11.701
▁실어	-11.701
이었다	-11.7011
험	-11.7012
당한	-11.7013
▁팔잖아	-11.7013
퇴	-11.7014
보잰	-11.7015
▁꾸미고	-11.7015
▁하기에는	-11.7015
▁상관없이	-11.7017
▁싫어하고	-11.7018
▁됐는지	-11.7019
▁선배가	-11.7021
▁얘기했지	-11.7022
▁오르고	-11.7024
끼고	-11.7024
▁팔아야	-11.7024
▁자른	-11.7024
▁오십만원	-11.7028
해주면	-11.7031
▁이서난	-11.7032
▁기르	-11.7032
▁하죠	-11.7033
▁말하잖아	-11.7034
▁나가가지고	-11.7036
▁그런디	-11.704
▁봤었어	-11.704
▁머랜	-11.704
▁잡았어	-11.7042
▁생각행	-11.7042
▁얌전	-11.7043
▁수목원	-11.7043
뿐	-11.7045
원에	-11.7045
십시오	-11.7046
▁부담스럽	-11.7048
드만	-11.7052
▁들어갔을	-11.7053
▁끊는	-11.7054
▁크잖아	-11.7055
▁나한테도	-11.7057
안하고	-11.7057
▁궂은	-11.7058
▁바쁘니까	-11.7058
▁배도	-11.7058
쇠	-11.7059
▁붙어있는	-11.7062
▁똑똑해	-11.7064
▁절로	-11.7065
▁키위	-11.7067
▁고등학교때	-11.7067
▁해버려	-11.7069
▁심고	-11.7071
▁겅해그넹	-11.7073
▁누르	-11.7076
▁달라져	-11.7078
▁행으넹	-11.7078
▁보내주고	-11.7079
▁잘랐	-11.7079
▁와그냉	-11.708
으라	-11.708
▁성이	-11.7082
▁허주게	-11.7083
▁나이트	-11.7085
스크	-11.7085
▁썼을	-11.7085
▁아팠어	-11.7085
▁출퇴근	-11.7085
▁픽업	-11.7086
▁전자	-11.7086
▁끝나자마자	-11.7088
▁확인을	-11.7089
▁스토리가	-11.7089
해야되	-11.7089
사람들이	-11.709
▁꺼져	-11.709
▁기능이	-11.709
나부난	-11.7091
▁쪽에는	-11.7091
▁작곡	-11.7093
▁최애	-11.7094
▁핵	-11.7095
▁송당	-11.7096
▁기본으로	-11.7096
▁쌔	-11.7099
▁책임감	-11.71
종이	-11.71
이런	-11.7101
▁개로	-11.7101
▁시선	-11.7103
▁축구를	-11.7103
▁혼나	-11.7104
톡	-11.7105
수로	-11.7106
▁내려오고	-11.7108
▁가이네가	-11.711
▁유치	-11.711
▁죽었다	-11.7112
났댄	-11.7113
▁닮아서	-11.7113
▁까진	-11.7115
공장	-11.7115
하시고	-11.7116
▁올해도	-11.7116
▁즐겨	-11.712
▁해준다고	-11.7121
▁길도	-11.7122
▁상한	-11.7129
▁콧물	-11.7131
▁홍대	-11.7131
▁넓고	-11.7133
였어요	-11.7133
졌네	-11.7134
▁모이면	-11.7134
▁박수	-11.7135
거리가	-11.7135
▁시비	-11.7136
단에	-11.7138
제로	-11.7138
▁튼튼	-11.7141
▁해질	-11.7143
▁볼수	-11.7146
경이	-11.7146
▁조작	-11.7147
▁찍히	-11.7147
와도	-11.7147
▁경우에	-11.7148
▁먹었나	-11.7148
▁없던데	-11.7149
▁껴서	-11.7149
▁고망	-11.715
폴	-11.715
▁좋아하네	-11.7151
▁여우	-11.7151
여야	-11.7153
▁회비	-11.7154
여부난	-11.7155
▁형제가	-11.7156
▁라면을	-11.7158
▁읽어야	-11.7158
▁식당이	-11.7161
▁영어도	-11.7164
▁바이	-11.7165
해준	-11.7165
▁씻어서	-11.7165
▁좋아하긴	-11.7167
▁신고를	-11.7167
▁그럴까	-11.7169
▁교회가	-11.717
▁들엄	-11.717
▁교무실	-11.7171
▁펀드	-11.7171
▁기말고사	-11.7171
▁폐쇄	-11.7172
▁미나리	-11.7172
▁생크림	-11.7172
▁곤밥	-11.7172
주켄	-11.7173
▁콜라겐	-11.7173
▁데뷔	-11.7174
▁돌았	-11.7175
▁읽은	-11.7178
▁만지	-11.7179
▁남자애들이	-11.7181
▁어느날	-11.7182
▁복숭아	-11.7183
▁여는	-11.7185
▁창고에	-11.7186
▁후라이	-11.7188
▁길에서	-11.7192
▁낚	-11.7192
▁틀면	-11.7193
▁먹더라고	-11.7194
▁충전기	-11.7196
주는데	-11.7202
▁재미나	-11.7202
▁대비	-11.7203
▁부니까	-11.7205
▁알거	-11.7205
▁애정	-11.7205
▁가기가	-11.7208
▁나서는	-11.7208
▁교수님한테	-11.7208
▁서고	-11.7211
▁장난아니	-11.7212
▁자격증이	-11.7212
▁등에	-11.7213
▁정리해	-11.7214
▁얹어	-11.7215
▁대파	-11.7215
▁어지럽	-11.7215
▁상상이	-11.7216
▁다녔었	-11.7216
▁개봉	-11.7217
▁그랬다고	-11.7219
▁경허영	-11.722
▁발음이	-11.7222
▁목사	-11.7227
▁받으려고	-11.7228
▁잘되고	-11.7228
으냉	-11.7229
▁힘도	-11.7229
▁자기랑	-11.7229
▁부장	-11.723
하다는	-11.723
전이	-11.7231
와신디	-11.7231
애기	-11.7231
댁	-11.7232
▁굴러	-11.7232
▁되어있는	-11.7233
▁않았거든	-11.7237
▁시발	-11.7239
▁많으	-11.7239
▁오빠를	-11.7239
▁해준다	-11.7241
▁싸우지	-11.7241
둥이	-11.7241
▁홈트	-11.7242
▁저런거	-11.7243
▁개밖에	-11.7244
이었을	-11.7248
▁신경질	-11.7248
▁잡히	-11.7248
▁깔끔	-11.7249
▁되가면	-11.7251
▁전화하면	-11.7253
▁들어와가지고	-11.7254
▁농부	-11.7254
▁들어요	-11.7254
▁경치	-11.7254
▁햄댄	-11.7254
인거지	-11.7256
▁최종	-11.7257
▁외롭	-11.7257
▁여기에서	-11.7258
▁누구누구	-11.7258
▁누룽지	-11.7258
▁콤플렉스	-11.7258
▁트러블	-11.7258
▁호르몬	-11.7258
▁아토피	-11.7258
▁뭐시기	-11.7258
▁코로나도	-11.7259
▁했었어요	-11.726
▁보험료	-11.726
▁따뜻하	-11.7261
▁나라도	-11.7262
▁안한다	-11.7264
▁가져왔	-11.7264
▁찾은	-11.7265
아파	-11.7266
▁사겼	-11.7267
▁깍	-11.7268
방을	-11.7268
어시	-11.727
▁내에서	-11.7271
▁팔찌	-11.7272
허당	-11.7272
▁사람들하고	-11.7273
와야	-11.7275
▁공식	-11.7275
하려	-11.7276
▁국물이	-11.7276
있다고	-11.7277
▁관련해서	-11.7277
▁공을	-11.7278
벼	-11.7278
▁팔았어	-11.7282
▁계기가	-11.7282
▁말이여	-11.7282
▁안보고	-11.7283
할게	-11.7284
▁삼십오	-11.7285
▁말았	-11.7285
▁부러운	-11.7286
▁화장실을	-11.7288
▁예정	-11.7289
▁돌아올	-11.729
▁인거	-11.7293
▁코로	-11.7299
▁넣어가지고	-11.7301
▁옛날처럼	-11.7301
▁고스톱	-11.7302
▁타기	-11.7304
▁넣어도	-11.7304
▁괜	-11.7306
▁고모부	-11.7309
▁이모도	-11.7311
▁뽑은	-11.7311
▁맨들	-11.7312
▁선배들이	-11.7314
▁이빨이	-11.7317
▁오는디	-11.7317
▁홈쇼핑	-11.7319
댕기	-11.7322
▁구하는	-11.7322
팬	-11.7325
▁좋수다	-11.7327
▁다르네	-11.7327
▁만나자고	-11.7328
▁꿈에서	-11.7328
▁귀엽게	-11.7329
▁쌓인	-11.7339
▁애매하	-11.734
▁장을	-11.7344
▁고혈압	-11.7346
▁사대부고	-11.7346
▁롯데리아	-11.7346
▁신용카드	-11.7346
▁가성비	-11.7346
▁정수기	-11.7346
▁화해	-11.7346
▁데려와	-11.7347
▁올리브영	-11.7347
▁복싱	-11.7347
▁고기국수	-11.7347
▁미팅	-11.7348
부렁	-11.735
▁추우니까	-11.7351
▁이중	-11.7354
▁기름값	-11.7355
떼	-11.7355
▁그러던데	-11.7356
▁통계	-11.7356
▁언론	-11.7358
▁댕	-11.7358
▁가방을	-11.7363
▁그쪽이	-11.7364
▁시간이면	-11.7365
▁기다려봐	-11.7366
잡고	-11.7367
▁들어왔는데	-11.7368
▁저추룩	-11.7369
▁돋아	-11.7372
▁허가	-11.7374
▁다닌다	-11.7375
▁뿔	-11.7376
▁겉으로	-11.7378
▁부모님들	-11.7379
▁누군	-11.738
다그넹	-11.738
▁시장에	-11.7381
▁땅은	-11.7382
▁강의를	-11.7384
▁해안	-11.7385
▁걸까	-11.7385
▁센스	-11.7387
▁당하고	-11.7389
▁옥상	-11.7389
▁조언	-11.739
▁생각하면은	-11.7392
▁배꼽	-11.7392
▁은행에	-11.7393
▁선생님들도	-11.7393
▁외에는	-11.7395
▁끊으면	-11.7395
▁통화를	-11.7396
▁사진만	-11.7397
▁갔언	-11.7399
▁건조	-11.7399
▁당시엔	-11.74
▁그말	-11.74
▁가이랑	-11.74
▁도민들	-11.74
▁했덴	-11.7403
▁줬던	-11.7403
▁좋아지고	-11.7404
▁냉국	-11.7404
색이	-11.7405
쌍	-11.7407
▁벌엉	-11.7408
▁일부	-11.7409
▁학기에	-11.741
▁공기가	-11.7412
▁좋을까	-11.7413
▁후보	-11.7414
▁원으로	-11.7416
▁상담을	-11.7416
▁않은거	-11.7418
왕이	-11.7421
▁가져가면	-11.7426
▁시점	-11.7427
▁어멍네	-11.7428
▁근로	-11.7428
▁학비	-11.7429
▁했다니까	-11.7431
▁주식을	-11.7433
▁김치가	-11.7434
거거든	-11.7434
▁기쁨	-11.7434
▁어뜨케	-11.7434
▁된장찌개	-11.7434
▁영하난	-11.7435
▁애기들도	-11.7435
▁민증	-11.7436
▁어머니랑	-11.7437
▁해부러	-11.7438
▁초등	-11.7441
▁울멍	-11.7442
장님이	-11.7442
▁않았다	-11.7443
▁뚱뚱한	-11.7443
▁오르는	-11.7444
▁사이즈가	-11.7444
▁타투	-11.7445
▁인맥	-11.7445
▁소리는	-11.7446
닌	-11.7446
▁비와	-11.7448
▁쩜	-11.745
라기보다는	-11.7452
▁체중	-11.7452
▁해봐도	-11.7453
▁고양이들	-11.7454
뜻	-11.7455
▁대형	-11.7455
▁과에	-11.7455
▁친해져	-11.7456
▁만점	-11.7457
▁보시	-11.7457
▁만났던	-11.7458
▁양도	-11.7458
▁팔팔	-11.7459
▁이일	-11.7459
▁시원해	-11.746
▁컨디션	-11.7461
▁어서져	-11.7462
▁시내에	-11.7462
▁싶으	-11.7463
▁평범한	-11.7463
▁괜찮았어	-11.7464
▁아깝다	-11.7466
▁잠들	-11.7467
▁이백오십	-11.7468
데도	-11.747
▁드릴	-11.7473
▁똑똑하	-11.7474
▁심하지	-11.7474
▁비싸잖아	-11.7474
▁이런걸로	-11.7475
셨는데	-11.7475
▁교회에	-11.7475
▁빠져가지고	-11.7476
▁외삼촌	-11.7476
▁안하니까	-11.7476
뮤	-11.7478
▁언젠간	-11.7478
▁새각시	-11.7479
▁연결되	-11.748
▁게임도	-11.7481
▁확률	-11.7483
▁모두가	-11.7484
했주	-11.7486
▁성질이	-11.7486
▁현상	-11.7488
▁초등학교때	-11.7488
하주게	-11.749
▁당면	-11.7491
다보니	-11.7495
▁봤을때	-11.7495
▁로망	-11.7497
▁생각밖에	-11.75
▁조정	-11.75
▁사람이다	-11.7502
▁반성	-11.7502
쥐	-11.7503
▁그림을	-11.7503
▁자식을	-11.7505
보카	-11.7505
▁까고	-11.7506
▁신나	-11.7507
▁그건데	-11.7508
으래	-11.7508
▁얘기했던	-11.7509
▁말들이	-11.751
▁더럽	-11.7512
▁사장님한테	-11.7512
▁전화하고	-11.7513
▁해사주	-11.7513
▁프로가	-11.7514
▁좋았고	-11.7514
▁사단	-11.7515
누나	-11.7515
▁증상	-11.7515
▁일어나지	-11.7516
▁똘이	-11.7516
받아서	-11.7517
얼마	-11.7519
픈	-11.7519
▁그거밖에	-11.7523
▁소중	-11.7523
▁요양보호사	-11.7523
▁태어날	-11.7523
▁스타트업	-11.7523
▁울타리	-11.7524
▁기뻐	-11.7524
▁논술	-11.7525
▁입었어	-11.7526
남자	-11.7526
▁찍으러	-11.7526
▁프로필	-11.7526
▁상상도	-11.7526
년도	-11.7527
▁망치	-11.7529
▁뽑았	-11.753
▁신디	-11.7531
▁천장	-11.7531
▁눈빛	-11.7532
거주	-11.7532
▁볶	-11.7534
▁소송	-11.7535
▁힘으로	-11.7535
▁가기도	-11.7537
▁보이네	-11.7539
▁에너지	-11.7539
▁햇빛이	-11.754
▁이십이	-11.754
▁거라는	-11.754
▁제주도에도	-11.7543
▁하루가	-11.7544
▁외가	-11.7544
▁빌딩	-11.7544
▁살았다	-11.7545
▁도중에	-11.7545
▁경비	-11.7548
▁코스가	-11.7549
▁시동	-11.7551
▁먹나	-11.7553
▁핸게	-11.7553
▁이브	-11.7554
▁간호사가	-11.7554
▁연하	-11.7557
▁마시면서	-11.7558
▁어려웠	-11.7559
상으로	-11.7562
치료	-11.7562
4	-11.7564
▁싫었	-11.7567
▁옆집에	-11.7567
▁피곤	-11.7568
▁맞춘	-11.7569
▁집단	-11.7569
▁상하이	-11.7569
▁맞출	-11.7571
▁뱃살	-11.7573
▁안간	-11.7573
▁갔더니	-11.7574
▁책상에	-11.7574
▁가져다가	-11.7575
▁보랜	-11.7575
▁이러한	-11.7576
▁두드려	-11.7578
나보다	-11.7579
▁결론	-11.7579
괴	-11.758
▁바디	-11.7582
난에	-11.7584
▁먹었었	-11.7585
▁싫었어	-11.7586
▁철학	-11.7587
▁저녁은	-11.7589
▁맛없어	-11.759
▁뛰어가	-11.759
▁특징이	-11.7591
▁담당자	-11.7591
썰	-11.7593
자면	-11.7594
{	-11.7594
마니	-11.7595
▁확정	-11.7596
▁아니었고	-11.7599
아가지고	-11.7603
켓	-11.7605
▁이쁘고	-11.7605
▁지져	-11.7605
▁곳을	-11.7607
▁싱	-11.7607
아야	-11.761
▁갈려면	-11.761
둰	-11.7612
▁굼벵이	-11.7613
▁거리두기	-11.7613
▁수수료	-11.7613
▁첫사랑	-11.7613
▁그러려니	-11.7613
▁렌트카	-11.7614
▁부애	-11.7615
▁줬다	-11.7615
▁드론	-11.7615
▁모르클	-11.7616
낳	-11.7618
▁소변	-11.7618
▁느낌인데	-11.7618
상품	-11.7618
법이	-11.7619
▁일어났는데	-11.7619
▁오염	-11.762
▁시아방	-11.7621
▁밀리	-11.7621
▁질이	-11.7621
거려	-11.7622
▁맥이	-11.7622
▁네일	-11.7623
▁부분에서	-11.7623
되는데	-11.7626
보는데	-11.7627
▁이러니깐	-11.7628
▁그때그때	-11.7629
▁시어머니는	-11.7629
▁다음달	-11.763
▁샀잖아	-11.7631
▁쥐어	-11.7632
엇	-11.7633
▁취업을	-11.7635
준거	-11.7635
▁넘어가고	-11.7635
▁모양으로	-11.7637
리스트	-11.7637
▁낄	-11.7637
▁피우	-11.7638
▁마농	-11.7643
▁깨끗하	-11.7644
▁착하게	-11.7645
▁몰아서	-11.7645
▁괜찮네	-11.7646
▁꾸미는	-11.7646
▁잘한다고	-11.7647
▁집어넣	-11.7647
▁였거든	-11.7648
▁말이라도	-11.765
▁자신감	-11.765
하는지	-11.765
▁그떄	-11.7653
▁신중	-11.7656
▁책가방	-11.7659
▁놀면서	-11.7659
▁헙디다	-11.7661
▁솔직하게	-11.7661
▁중간중간	-11.7661
▁가더라	-11.7661
▁골암	-11.7661
적이지	-11.7663
▁찌고	-11.7664
▁나쁠	-11.7666
▁직전에	-11.7668
▁반갑	-11.7668
▁대중	-11.767
▁유명하지	-11.767
▁살아보	-11.767
▁그래신디	-11.7671
▁사라졌	-11.7671
한건	-11.7672
▁흐름	-11.7672
▁할머니들은	-11.7675
▁살았거든	-11.7675
▁납	-11.7677
주를	-11.7677
▁성격을	-11.7679
▁맛있댄	-11.7683
▁이해는	-11.7685
▁그때쯤	-11.7686
킬	-11.7687
주잖아	-11.7688
▁살인가	-11.7691
▁사이로	-11.7693
▁것이고	-11.7693
▁있겠	-11.7694
▁앗	-11.7694
▁건져	-11.7695
▁받았다고	-11.7696
▁잘해서	-11.7697
▁사람이나	-11.7697
▁따뜻	-11.7698
▁치킨집	-11.7703
▁면도	-11.7703
▁빠졌어	-11.7703
▁두꺼워	-11.7704
▁스마트	-11.7704
▁러브	-11.7704
▁어머님이	-11.7705
▁런던	-11.7705
▁그래부난	-11.7708
▁색깔도	-11.7709
▁교과서	-11.7709
▁코너	-11.771
▁떠들	-11.771
▁꽃이	-11.7711
▁편지를	-11.7711
다시피	-11.7713
줬다	-11.7713
한거지	-11.7715
▁화나서	-11.7716
▁살수	-11.7716
▁늘려	-11.7717
교육과	-11.7718
▁받는다	-11.772
▁작년에도	-11.772
▁어시면	-11.7721
▁집까지	-11.7721
▁힘들언	-11.7722
▁담는	-11.7724
▁바빴	-11.7725
▁한약	-11.7726
됐다고	-11.7727
▁호흡	-11.7727
▁병원이	-11.7727
▁선전	-11.7727
▁없잖아요	-11.7729
▁겁이	-11.7729
하다보면	-11.773
먹엉	-11.7733
▁평화로	-11.7734
▁거리는	-11.7735
▁왔고	-11.7737
시키면	-11.7741
▁화났	-11.7742
내면	-11.7743
▁재밌는데	-11.7744
▁꼼꼼	-11.7745
▁잠자는	-11.7747
▁환자가	-11.7747
▁자르는	-11.7747
▁자본	-11.7749
▁뜬금없이	-11.775
▁얘기들	-11.7751
앞에	-11.7752
보면은	-11.7752
▁동굴	-11.7753
▁표준어로	-11.7754
▁언덕	-11.7759
▁만남	-11.7759
▁고지	-11.7759
▁바닷물	-11.776
▁특이하	-11.7761
▁철이	-11.7763
▁지정	-11.7764
▁신방	-11.7768
▁니는	-11.7772
▁한사람	-11.7774
▁태우고	-11.7776
▁그런거는	-11.7776
▁되었	-11.7777
▁마주치	-11.7781
▁과정을	-11.7784
십니까	-11.7786
▁빌엉	-11.7787
▁되겠	-11.779
▁길거리에	-11.7792
다기보다는	-11.7794
▁원작	-11.7794
▁높고	-11.7795
▁백록담	-11.7795
▁햄스터	-11.7795
▁구루마	-11.7795
▁로봇	-11.7795
▁비밀번호	-11.7795
▁터져서	-11.7795
▁스카이	-11.7795
▁빙빙	-11.7796
▁환승	-11.7796
▁멍석	-11.7797
▁남자한테	-11.7799
▁경유	-11.78
▁신라	-11.78
▁웅	-11.78
▁같았는데	-11.78
▁찍으	-11.7801
▁훈련소	-11.7802
▁제철	-11.7802
▁나였으면	-11.7803
▁마시러	-11.7803
▁계획은	-11.7803
거리고	-11.7806
▁뒤져	-11.7806
▁작정	-11.7807
▁정원	-11.7808
▁로마	-11.7809
▁일이라	-11.7809
▁배민	-11.7809
▁나랑은	-11.781
▁가보자	-11.781
▁둘이만	-11.781
▁마는	-11.7814
보이고	-11.7816
달랜	-11.7816
▁남동생이	-11.7816
▁흘리	-11.7817
▁모으고	-11.7821
▁크는	-11.7822
뚱	-11.7823
젤	-11.7824
에프	-11.7827
▁멘탈	-11.7831
▁가이드가	-11.7831
▁가고싶어	-11.7833
먹으니까	-11.7835
▁없냐고	-11.7835
▁말려서	-11.7835
▁가족들이랑	-11.7838
▁어른들도	-11.7838
▁찜	-11.7838
올라	-11.7838
▁특성	-11.7841
▁동그라미	-11.7841
▁뭡니까	-11.7841
▁꽉꽉	-11.7841
▁어쩐지	-11.7841
▁의논	-11.7841
▁납읍	-11.7842
▁다이빙	-11.7843
▁목도리	-11.7843
란게	-11.7845
▁마련	-11.7846
▁깬	-11.7849
▁괜찮게	-11.785
▁약간의	-11.7851
▁말해주는	-11.7851
▁튀긴	-11.7852
▁애니	-11.7852
▁마라도	-11.7858
리잖아	-11.7858
놨다가	-11.7859
▁잔디	-11.7862
과가	-11.7863
나물	-11.7863
▁베어	-11.7864
▁입혀	-11.7864
▁년이면	-11.7865
▁있나요	-11.7868
▁동화	-11.7869
공사	-11.787
▁당했	-11.7871
읽	-11.7871
▁담을	-11.7872
▁욕해	-11.7872
▁욱	-11.7879
이옌	-11.788
▁생긴거	-11.788
▁하대	-11.7881
▁백종원	-11.7888
▁우체국	-11.7888
▁고구려	-11.7888
▁제주여고	-11.7888
▁신시가지	-11.7888
▁뚜	-11.7889
▁신세계	-11.7889
▁열일곱	-11.7889
▁히터	-11.789
▁받아들여	-11.789
▁심하	-11.7891
▁육개월	-11.7891
▁사긴	-11.7891
▁받는거	-11.7893
할지	-11.7894
▁반바지	-11.7895
▁쌀이	-11.7896
▁원두	-11.7897
▁김치도	-11.7898
▁거기만	-11.79
▁주멍	-11.7901
▁붙였	-11.7901
▁올렸어	-11.7902
▁울언	-11.7906
▁말하다가	-11.7907
갔고	-11.7908
▁비싸긴	-11.7908
▁너나	-11.7909
▁부작용	-11.791
보긴	-11.7911
▁장이	-11.7912
▁못하네	-11.7912
▁데에서	-11.7913
▁해먹어	-11.7914
▁먹었고	-11.7915
▁보이긴	-11.7915
부분	-11.7918
▁도랑	-11.7918
▁십원	-11.7918
▁끝도	-11.7919
아이가	-11.792
▁담보	-11.792
▁전화와서	-11.7923
▁타니까	-11.7924
▁단어를	-11.7925
▁나올거	-11.7926
▁어떵할	-11.7926
▁와부난	-11.7928
주택	-11.793
주겠다고	-11.7931
▁시험도	-11.7932
▁인력	-11.7932
▁쳐다보는	-11.7932
▁공무원이	-11.7933
▁말했듯이	-11.7935
▁하천	-11.7936
▁적혀	-11.7937
▁불러가지고	-11.7938
▁읽기	-11.7939
밭이	-11.794
해연	-11.794
▁다섯명	-11.794
▁노형에	-11.7941
▁딸만	-11.7941
▁심장이	-11.7942
▁아시아	-11.7948
▁폈	-11.7948
▁떠가지고	-11.7949
▁아니믄	-11.795
▁하는데도	-11.795
▁늦게까지	-11.7951
▁왔더라고	-11.7951
▁드는거	-11.7953
▁아이들이랑	-11.7955
▁가르	-11.7955
▁겅헌	-11.7957
동에	-11.7957
뱅이	-11.7957
▁갖는	-11.7959
▁갠	-11.796
▁그랬었	-11.796
▁먹어져	-11.7961
▁통일	-11.7963
▁작아서	-11.7963
▁엄마들은	-11.7963
줭	-11.7963
▁군인들	-11.7964
▁얘기해서	-11.7964
날은	-11.7968
▁정의	-11.7969
했었잖아	-11.7975
▁넘엉	-11.7976
▁거같아	-11.7977
▁있나봐	-11.7979
▁티셔츠	-11.7981
▁스위트홈	-11.7981
▁집주인	-11.7981
▁주장	-11.7982
▁낳았어	-11.7983
▁싹싹	-11.7983
▁장사하는	-11.7984
▁사회적	-11.7984
▁기름떡	-11.7985
야되켜	-11.7985
▁미친년	-11.7986
▁끊으	-11.7986
▁주제에	-11.7987
▁치약	-11.7989
▁않느냐	-11.7992
▁조건이	-11.7992
▁편인데	-11.7992
▁이십삼	-11.7995
▁데다가	-11.7995
고기	-11.7998
날에	-11.7999
▁댄스	-11.8
▁며느리는	-11.8001
▁늘리	-11.8002
▁장판	-11.8003
▁어떠한	-11.8005
▁직업을	-11.8006
▁줄려고	-11.8007
어머니	-11.8008
▁한국은	-11.8008
▁써야지	-11.8009
▁탐라	-11.801
▁있겠네	-11.8011
▁붕	-11.8012
▁고칠	-11.8014
▁부려	-11.8015
▁해버려서	-11.8015
▁완벽	-11.8017
▁씻을	-11.8017
▁데려왔	-11.8018
▁사람인디	-11.802
▁비상	-11.802
▁반만	-11.8021
배우	-11.8021
▁실장님	-11.8022
▁잘했다	-11.8023
▁졸려	-11.8023
▁회장이	-11.8023
▁갔었잖아	-11.8023
▁오더라	-11.8025
▁관계를	-11.8026
군요	-11.8027
▁잡힌	-11.8029
▁부치	-11.803
▁운전하는	-11.803
▁좋았다	-11.8031
▁많았지	-11.8031
▁있도록	-11.8031
▁이시냐	-11.8036
▁살까지	-11.8036
▁데려갔	-11.8037
▁숙박	-11.8038
▁한달에	-11.8038
▁만나자	-11.8044
폐	-11.8047
▁에다가	-11.8049
▁안됐어	-11.8049
▁공중	-11.8052
▁본인도	-11.8054
▁줬잖아	-11.8055
▁우울	-11.8056
▁매출	-11.8058
▁있느냐	-11.8058
었던거	-11.806
▁못먹고	-11.806
▁반찬도	-11.8061
▁백신이	-11.8062
▁학대	-11.8065
▁재능	-11.8067
▁웃겨가지고	-11.8069
▁요양원에	-11.8069
▁배고픈	-11.807
▁그분들	-11.807
▁가래	-11.8071
▁줬다고	-11.8073
▁고르면	-11.8073
▁다녔잖아	-11.8075
▁테니스	-11.8075
▁불안한	-11.8075
▁나난	-11.8077
▁듣다	-11.8078
▁웃을	-11.8078
▁기사님	-11.8078
▁장르	-11.8079
▁빨강	-11.808
▁갔다오면	-11.8081
▁빨래도	-11.8082
▁짜증나는	-11.8083
▁실천	-11.8083
▁화요일날	-11.8083
▁사기꾼	-11.8083
▁삼십년	-11.8084
▁건드려	-11.8086
▁불안하	-11.8087
▁매력이	-11.8088
▁찍었는데	-11.8089
▁벌려고	-11.8089
▁재미없어	-11.809
▁잘하지	-11.809
▁안된댄	-11.8091
▁모물	-11.8094
▁들었어요	-11.8094
▁못자	-11.8095
▁소재	-11.8098
▁자식들한테	-11.8099
들락	-11.81
그릇	-11.81
되기	-11.8101
▁재미있긴	-11.8101
시킨	-11.8105
엥	-11.8106
조사	-11.8106
▁포기하고	-11.8107
▁허단	-11.8107
▁영핸	-11.8109
채로	-11.8112
지역	-11.8114
▁배고파서	-11.8115
▁멍청한	-11.8116
▁발언	-11.8116
기사	-11.8116
▁키로에	-11.8118
▁나오나	-11.8121
▁열여덟	-11.8124
▁하는걸	-11.8124
▁조금은	-11.8124
▁면회	-11.8128
▁가볼까	-11.8128
▁해줬는데	-11.8129
▁갔다왔어	-11.813
▁먹을만	-11.8131
▁평상시	-11.8134
▁편하긴	-11.8134
▁반품	-11.8137
▁살아부난	-11.8139
xxxxx	-11.814
▁무릎이	-11.8141
▁볼래	-11.8141
▁서리	-11.8141
▁미래를	-11.8141
▁먹든	-11.8142
▁서운한	-11.8143
▁미쳤	-11.8145
▁요일	-11.8146
▁없을거	-11.8146
▁여러분	-11.8147
▁증명	-11.8147
▁우리나라도	-11.8148
▁어릴때는	-11.8148
▁방은	-11.8148
권이	-11.8149
봤던	-11.8149
▁오버	-11.8149
▁억울해	-11.815
▁똑같은데	-11.8151
▁갔어야	-11.8153
▁무슨거	-11.8154
순이	-11.8155
▁가격을	-11.8156
갔다가	-11.8157
▁들어완	-11.8157
▁제주어가	-11.8158
▁뒤돌아	-11.8158
▁챙겨주는	-11.8158
▁수제	-11.8161
근에	-11.8165
비는	-11.8166
▁부르지	-11.8166
▁더덕	-11.8166
▁김선호	-11.817
▁라오스	-11.817
▁밝아	-11.817
▁엑셀	-11.817
▁유기농	-11.817
▁카운터	-11.817
▁어짜피	-11.817
▁카지노	-11.817
▁마카오	-11.817
▁뽀뽀	-11.817
셔야	-11.8171
▁축복	-11.8172
▁즐길	-11.8174
▁사람과	-11.8175
▁있더라고요	-11.8175
▁신입	-11.8176
▁돌아댕기	-11.8177
▁가가	-11.8178
▁들어보	-11.8179
▁한테도	-11.818
▁말한거	-11.818
▁늙어서	-11.8181
▁직장인	-11.8182
▁주점	-11.8182
린데	-11.8184
▁촥	-11.8184
▁곧지	-11.8185
▁밀면	-11.8187
만이라도	-11.8189
▁여기만	-11.8191
▁가불	-11.8192
▁돌아다녔	-11.8192
언니는	-11.8193
▁재배	-11.8194
드려	-11.8194
▁치러	-11.8197
▁무겁	-11.8198
▁구덕	-11.8199
▁놀았어	-11.8199
왐	-11.82
▁걱정은	-11.8201
멀	-11.8201
맘	-11.8202
아리	-11.8207
▁짜르	-11.8207
▁누구를	-11.8211
▁멋있다	-11.8211
▁자국	-11.8212
▁번호를	-11.8213
▁기억력	-11.8214
▁나가라고	-11.8215
▁줬으면	-11.8215
▁싸웠어	-11.8215
▁다섯살	-11.8216
▁붙고	-11.8217
▁젖어	-11.8218
▁배부르	-11.822
▁치면서	-11.822
▁일박	-11.822
▁본능	-11.8224
▁들면서	-11.8224
▁베란다에	-11.8224
▁남자들도	-11.8226
▁들여서	-11.8227
▁자신을	-11.8227
▁보기만	-11.8228
▁소가	-11.8228
▁밥값	-11.8229
▁산지	-11.8231
▁가져가는	-11.8232
▁출근할	-11.8233
▁하거든요	-11.8236
▁말리고	-11.8243
▁닿	-11.8244
탱	-11.8245
▁고르는	-11.8246
▁먹고싶어	-11.8248
▁졸업한	-11.8248
▁제사도	-11.8248
님은	-11.8249
인지는	-11.825
왜	-11.825
▁해시믄	-11.8251
▁저금	-11.8251
▁편안해	-11.8253
▁집이서	-11.8254
▁술자리	-11.8254
딴	-11.8258
▁곱다	-11.8258
챙	-11.826
▁시민	-11.8261
▁자기네도	-11.8261
▁된장에	-11.8261
▁키우기	-11.8263
▁이천이십년	-11.8264
▁관리비	-11.8265
▁이모티콘	-11.8266
▁일으키	-11.8266
▁남주혁	-11.8266
▁카카오톡	-11.8266
권을	-11.8266
▁퀴즈	-11.8266
▁초보	-11.8268
▁유리창	-11.8268
▁허나	-11.8268
▁내밀	-11.8269
▁쪼개	-11.8271
▁하고싶	-11.8271
▁레드	-11.8271
▁보충	-11.8272
허라	-11.8272
▁반납	-11.8273
▁일상생활	-11.8275
테주	-11.8275
▁신발을	-11.8275
▁아까부터	-11.8275
통이	-11.8276
▁쓰라	-11.8276
▁좋아지는	-11.8276
▁여중	-11.8276
▁스킬	-11.8277
▁무엇을	-11.8282
▁이모한테	-11.8284
▁겹	-11.8284
▁회를	-11.8285
▁시켜가지고	-11.8285
▁튀기	-11.8285
▁공지	-11.829
▁대통령이	-11.8292
▁끓이는	-11.8293
▁파는거	-11.8293
▁잘되	-11.8293
▁장례식장	-11.8293
이었으니까	-11.8295
▁힘드	-11.8296
▁가까운데	-11.8296
▁초장	-11.8296
라며	-11.8296
▁지점장	-11.8296
▁학년때	-11.8297
▁없으	-11.8298
겡	-11.8299
▁수입이	-11.8301
▁살도	-11.8304
▁재밌다고	-11.8305
▁아쉽다	-11.8305
생들	-11.8305
▁아기가	-11.8305
▁다행이지	-11.8307
▁뭘까	-11.8308
▁방법도	-11.8309
▁싶진	-11.8311
▁우려	-11.8311
▁세대가	-11.8314
▁면역	-11.8314
▁부끄럽	-11.8314
▁샤브샤브	-11.8314
▁씌우	-11.8314
▁갬성	-11.8314
▁먹어사	-11.8315
▁부족하	-11.8318
▁일반인	-11.8318
▁있게끔	-11.8319
▁몇일	-11.8319
▁맞습니다	-11.8319
나믄	-11.8319
▁네모	-11.8319
▁맞아가지고	-11.832
아니야	-11.832
▁모아야	-11.8321
▁가치가	-11.8321
듣고	-11.8322
▁친해지	-11.8325
▁알겠는데	-11.8325
▁하겠	-11.8326
▁쌓였	-11.8328
▁어이없어	-11.8328
▁어리고	-11.8328
점을	-11.8329
회장	-11.8329
나수다	-11.8332
▁넣지	-11.8332
▁까지만	-11.8336
지않고	-11.8336
▁도에서	-11.8337
▁우울해	-11.8339
▁꿈도	-11.8339
▁해그내	-11.834
▁던지고	-11.8342
다운	-11.8344
▁겅해그네	-11.8345
▁비위	-11.8345
▁맞췄	-11.8347
▁신이	-11.8348
▁입사	-11.8348
위에	-11.8352
상에	-11.8352
긴데	-11.8352
▁파치	-11.8353
▁줄어	-11.8354
▁담은	-11.8356
▁니네가	-11.8357
▁동갑이	-11.8357
▁놀기	-11.8358
▁사무실에	-11.8359
▁청국장	-11.8363
▁타이핑	-11.8363
▁생일선물	-11.8363
말이야	-11.8364
마냥	-11.8365
이라가지고	-11.8365
▁미싱	-11.8365
▁메뉴가	-11.8367
▁황금	-11.8367
▁누나도	-11.8369
▁들어가잖아	-11.837
▁찾아보면	-11.8373
▁도둑질	-11.8374
▁틀어놓고	-11.8374
게시리	-11.8377
▁후문	-11.8379
▁거여서	-11.8381
많은	-11.8383
이라니까	-11.8383
▁요령	-11.8384
▁울리	-11.8385
▁천지	-11.8386
▁보난이	-11.8386
▁즐기는	-11.8387
데가	-11.8389
▁모을	-11.839
▁허는데	-11.8392
▁나왔댄	-11.8393
다라는	-11.8393
▁없는게	-11.8395
바람	-11.8396
▁효	-11.8396
느낌	-11.8397
▁친구들을	-11.8397
쑤	-11.8397
▁정기	-11.8398
▁비쌌	-11.8399
▁돌아온	-11.8399
▁지키고	-11.84
▁입도	-11.8403
▁원격	-11.8403
넣고	-11.8404
▁멀쩡한	-11.8408
▁어유	-11.8409
▁내불	-11.841
▁공부해서	-11.8412
▁하이튼	-11.8412
▁의자에	-11.8413
▁보험이	-11.8413
▁옹	-11.8415
▁쓰네	-11.8415
▁고무신	-11.8415
▁낫다고	-11.8417
▁변경	-11.8417
▁일이고	-11.8418
▁무섭게	-11.8418
▁재워	-11.8419
▁위에는	-11.8419
▁데려가서	-11.842
▁아프게	-11.842
▁말했지만	-11.8421
▁재질	-11.8423
번호	-11.8425
▁여신디	-11.8425
▁시스템이	-11.8427
▁찾아오	-11.843
▁붐	-11.8431
▁장작	-11.8431
없고	-11.8432
▁짜증이	-11.8432
▁걔네랑	-11.8435
▁주제는	-11.8436
▁일본도	-11.8438
▁브라	-11.8442
▁인권	-11.8443
▁물어봤지	-11.8443
▁걸쳐	-11.8445
▁그것들	-11.8446
▁빠르고	-11.8446
▁볼링	-11.8451
▁신경써	-11.8451
▁놀아야	-11.8451
▁주믄	-11.8452
▁문장	-11.8453
▁보인다고	-11.8455
▁해봐서	-11.8455
▁허켄	-11.8457
▁시멘트	-11.8461
▁컨트롤	-11.8461
원들	-11.8462
해보고	-11.8462
▁품절	-11.8462
▁중고등학교	-11.8462
▁맹심	-11.8463
▁두달	-11.8464
졌으면	-11.8464
▁잡채	-11.8465
▁어치	-11.8465
▁밉	-11.8465
▁아프댄	-11.8466
▁걸령	-11.8467
▁그곳	-11.8467
▁참을	-11.8467
▁가보지	-11.8467
▁안돼서	-11.8468
옆에	-11.847
륵	-11.8474
▁해군	-11.8474
▁알려줄	-11.8475
▁나오던데	-11.8475
▁넓게	-11.8475
▁말해주면	-11.8475
▁검진	-11.8477
▁여주	-11.8478
▁햄쪄	-11.8479
▁일한	-11.8485
▁영하니까	-11.8486
▁보기에	-11.8486
템	-11.8488
해갖고	-11.8489
▁그것에	-11.8489
▁옴	-11.849
▁섭섭하	-11.8491
▁병에	-11.8493
▁연락하는	-11.8494
▁됭	-11.8496
▁동생네	-11.8497
▁트리	-11.8497
▁그런거에	-11.8498
▁중국인들	-11.8499
▁인사를	-11.8499
들엉	-11.8499
▁많지는	-11.8503
▁없수다	-11.8504
불지	-11.8506
▁거짓말을	-11.8509
▁정류장	-11.851
▁챙피	-11.851
▁값도	-11.8511
▁취하	-11.8511
▁장례	-11.8512
▁구좌	-11.8513
▁달라서	-11.8513
▁모영	-11.8515
▁튀어나오	-11.8515
▁핸드폰도	-11.8517
웃	-11.8517
▁도두	-11.8517
▁심정	-11.8521
▁전환	-11.8521
▁물가가	-11.8521
▁거북이	-11.8521
지말랜	-11.8522
리멍	-11.8522
▁소리야	-11.8522
▁이수과	-11.8523
▁의지가	-11.8524
▁미래에	-11.8524
구가	-11.8524
▁역할이	-11.8525
▁밭담	-11.8526
▁보자고	-11.8527
▁약은	-11.8527
▁문학	-11.8527
▁줘라	-11.8528
▁성격은	-11.8528
▁바람도	-11.8528
▁올렸는데	-11.8529
▁가는거야	-11.8532
▁됐든	-11.8533
▁연락하고	-11.8533
▁가버리면	-11.8534
▁몸에서	-11.8536
번에	-11.8536
▁착하고	-11.8536
▁싶어하는	-11.8537
▁뿐만	-11.8537
▁좋아져	-11.8538
▁세탁	-11.8543
▁줄이고	-11.8545
▁광장	-11.8545
▁볼때	-11.8545
▁나가게	-11.8545
▁자취방	-11.8548
▁뿌린	-11.8548
▁육아	-11.8548
▁건들	-11.8549
▁경찰서	-11.8549
▁찾으	-11.855
▁사고싶	-11.8552
▁월까지	-11.8552
▁허잖아	-11.8552
▁굴리	-11.8553
▁마리를	-11.8554
▁사줬	-11.8556
▁연대	-11.8556
▁빠지지	-11.8558
▁붙엉	-11.8558
▁했거든요	-11.8559
▁맙서	-11.8559
▁미숫가루	-11.8559
▁탕수육	-11.8559
▁인바디	-11.8559
▁보드게임	-11.856
▁가파도	-11.8561
▁잔잔한	-11.8561
▁연휴	-11.8561
꼬지	-11.8562
▁복귀	-11.8562
▁미친듯이	-11.8562
▁선호	-11.8562
▁봤으니까	-11.8563
▁안해여	-11.8563
▁어멍한테	-11.8564
▁아픔	-11.8566
▁생각나는데	-11.8566
▁통시	-11.8569
▁맛있어서	-11.8569
▁타격	-11.8569
▁쓴거	-11.8571
▁몰리	-11.8573
▁스물세	-11.8573
▁됐구나	-11.8575
▁사달라고	-11.8577
▁강제로	-11.8577
▁끊겨	-11.8578
▁귀엽지	-11.8579
▁부셔	-11.8579
▁여자애들이	-11.858
버거	-11.8581
▁죽이는	-11.8582
▁천재	-11.8583
▁갚아	-11.8585
▁나이대	-11.8586
▁지우	-11.8587
▁심해지	-11.8588
▁나쁘다	-11.8588
▁심각하게	-11.8589
추륵	-11.8589
▁없어부난	-11.8591
▁거밖에	-11.8591
▁하늘이	-11.8591
꼽	-11.8592
▁떡도	-11.8596
▁되느냐	-11.8596
▁된거라	-11.8597
▁쉬면	-11.8597
▁만들어가지고	-11.8598
렸다고	-11.8601
▁수염	-11.8604
▁친하지	-11.8604
▁당할	-11.8607
▁누나랑	-11.8607
났다	-11.8609
▁숯불	-11.8609
▁농사짓는	-11.8609
▁싸는	-11.8611
▁코치	-11.8614
▁많으니깐	-11.8614
▁소파	-11.8615
▁배달비	-11.8615
▁사젠	-11.8617
▁잼	-11.8617
▁신용	-11.8618
진댄	-11.8619
▁생이	-11.8622
▁살젠	-11.8622
▁이잖아	-11.8623
▁놀라서	-11.8623
▁그추륵	-11.8624
▁갔다와서	-11.8624
▁커져	-11.8624
▁넣었는데	-11.8624
▁갔구나	-11.8625
▁그만둬	-11.8625
▁유투브로	-11.8626
▁갔었지	-11.8627
▁삶에	-11.8628
▁귤은	-11.8629
▁바꿨어	-11.8629
▁할아버지도	-11.863
▁했당	-11.863
▁반짝	-11.8631
▁천막	-11.8632
▁벤	-11.8632
▁병동	-11.8632
▁세워서	-11.8633
▁알고보니까	-11.8633
▁감수	-11.8634
▁단위로	-11.8635
이예요	-11.8636
찔	-11.8637
군데	-11.8637
▁선생들	-11.8639
▁보여준	-11.8639
▁가버리고	-11.864
▁나온댄	-11.8643
▁하양	-11.8643
▁남지	-11.8644
▁예언	-11.8644
▁자기대로	-11.8645
▁드셔	-11.8646
▁중요한거	-11.8648
▁동거	-11.865
▁제거	-11.865
▁짜장	-11.8653
▁했었다	-11.8655
▁아직까지도	-11.8655
▁공고	-11.8656
▁미끄러	-11.8657
▁그렇네	-11.8657
▁블루투스	-11.8659
▁잊지	-11.8659
▁페인트	-11.8659
▁동호회	-11.8659
▁엑스레이	-11.8659
▁기생충	-11.8659
▁실컷	-11.866
▁너네집	-11.866
▁흔히	-11.866
았지	-11.8661
▁살았었	-11.8663
▁맡은	-11.8664
▁주말마다	-11.8665
르지	-11.8667
▁학교에서도	-11.8668
▁먹었었는데	-11.8668
▁택시를	-11.8669
▁깨져	-11.867
▁와랑와랑	-11.867
▁꼬치	-11.867
▁오냐	-11.8671
▁밥통	-11.8671
▁놀당	-11.8671
▁다니거든	-11.8672
▁달러	-11.8672
▁곡식	-11.8673
▁나가잖아	-11.8673
▁주게	-11.8675
▁할려	-11.8676
▁방송에	-11.8678
▁어색하	-11.8678
▁원망	-11.8678
▁그러기	-11.8679
▁신발도	-11.8679
▁장점이	-11.868
▁맛있었	-11.8681
▁났지	-11.8682
▁고대	-11.8682
▁빅	-11.8686
▁사극	-11.8686
▁안해요	-11.8686
▁해주는데	-11.8687
▁그렇게해	-11.8687
▁겅허니까	-11.8687
했었던	-11.8687
▁골으	-11.8687
▁캐릭터가	-11.8688
▁복사	-11.8689
▁볼만	-11.8689
▁미쳤다	-11.8691
귤	-11.8694
▁위치가	-11.8695
▁돌린	-11.8695
▁비싸니까	-11.8697
카페	-11.8697
과목	-11.87
▁깨끗하고	-11.8702
란다	-11.8703
▁시원하게	-11.8705
▁단순	-11.8706
▁좋았거든	-11.8706
▁세트로	-11.8706
▁시누이가	-11.8707
▁불렀는데	-11.8709
▁묵은	-11.8709
▁천국	-11.871
▁입장에선	-11.871
▁가마	-11.8711
▁사람이라서	-11.8713
▁사는지	-11.8716
할래	-11.8717
▁하얘	-11.8717
▁복잡하	-11.8718
▁카페는	-11.8719
한번	-11.8719
▁당일날	-11.872
▁먹을려고	-11.872
▁하당보난	-11.8721
▁강아지를	-11.8722
▁소망	-11.8724
▁떨어지지	-11.8725
오리	-11.8725
▁사먹고	-11.8727
▁당연	-11.8728
▁할말	-11.873
▁나무로	-11.8734
▁접촉자	-11.8734
▁생물	-11.8735
▁넷이	-11.8736
꿀	-11.8736
▁강아지는	-11.8736
▁살았잖아	-11.8737
▁들릴	-11.8738
▁유명하잖아	-11.8739
▁돌렸	-11.8739
▁중국이	-11.874
▁요양	-11.8742
▁보수	-11.8744
▁비형	-11.8748
▁부스	-11.8751
▁이야기가	-11.8753
▁건물에	-11.8756
갈까	-11.8757
했습니다	-11.8757
▁냅두	-11.8758
쓰면	-11.8759
▁파인애플	-11.876
짼	-11.876
▁드디어	-11.876
▁다이어리	-11.876
▁미리미리	-11.876
▁조만간	-11.876
▁오일육	-11.8761
▁극복	-11.8762
▁총각	-11.8764
▁건물을	-11.8764
▁희생	-11.8765
▁신입생	-11.8765
지거든	-11.8766
▁꽁짜로	-11.8767
▁보당	-11.8768
▁가불고	-11.8768
▁권리	-11.8769
▁상품권	-11.8769
▁짐이	-11.8771
▁오티	-11.8772
▁지옥	-11.8773
사람들은	-11.8774
▁뜨거워	-11.8774
났네	-11.8774
▁않은디	-11.8776
▁위미	-11.8777
▁형성	-11.8779
▁어디니	-11.8779
▁될건가	-11.8779
▁인대	-11.8779
▁불렁	-11.878
▁정신적으로	-11.8781
▁들어봤	-11.8782
▁예쁘다고	-11.8783
▁먹었었어	-11.8783
▁동창들	-11.8784
▁부는	-11.8784
▁오지도	-11.8785
▁고향이	-11.8785
▁출연	-11.8785
▁감독이	-11.8786
▁질병	-11.8787
▁도와줘	-11.8788
▁파서	-11.8789
▁들어가면은	-11.8791
▁넘어갔	-11.8792
닮	-11.8793
▁다니게	-11.8793
▁꽃을	-11.8794
▁얼만	-11.8796
내야	-11.8796
▁레이	-11.8797
▁부분도	-11.8798
▁가신	-11.8798
▁샷	-11.88
▁해불	-11.88
비로	-11.8801
▁신의	-11.8802
▁드라이	-11.8804
▁드렸	-11.8806
▁못할거	-11.8807
▁수행	-11.8808
▁치지	-11.8808
지원	-11.881
▁색이	-11.881
▁호루	-11.881
▁선생님이랑	-11.881
▁퍽퍽	-11.8811
듸	-11.8811
▁버틸	-11.8811
▁은퇴	-11.8811
▁말해야지	-11.8813
▁출입	-11.8813
▁빠젼	-11.8814
▁화장실에서	-11.8814
오난	-11.8814
줍	-11.8815
▁디가	-11.8815
▁갈거야	-11.8815
▁아이야	-11.8816
▁공책	-11.8817
▁올까	-11.8817
▁알겠습니다	-11.8818
▁담배피	-11.8819
놔가지고	-11.8819
▁해놓	-11.882
▁나한테만	-11.8821
▁건설	-11.8821
▁대화하는	-11.8823
▁적당	-11.8823
▁화장실도	-11.8823
▁좋덴	-11.8824
거닮	-11.8824
▁층에서	-11.8824
▁가끔가다	-11.8825
▁잤는데	-11.8826
▁고란	-11.8826
시카	-11.8827
▁끊은	-11.8828
▁식구들이	-11.8828
▁꺾으	-11.8828
▁익혀	-11.883
▁한덴	-11.8832
▁누리	-11.8832
1&	-11.8833
▁다이어트를	-11.8837
▁이사가	-11.8837
▁단맛	-11.8838
▁아깝지	-11.8838
▁소리만	-11.884
▁뻐	-11.884
▁먹을때	-11.8841
▁끝나야	-11.8842
▁해수다	-11.8843
▁듬	-11.8843
▁자세가	-11.8843
으랜	-11.8844
시지	-11.8845
▁번밖에	-11.8846
▁존중	-11.8847
▁대부분이	-11.8848
▁건들지	-11.885
▁아라동에	-11.885
▁꺼지	-11.8851
▁연애할	-11.8853
▁신장	-11.8855
▁삼촌네	-11.8855
▁봅서	-11.8855
리라고	-11.8856
▁개미	-11.8858
▁선생님을	-11.8859
께요	-11.8861
▁끓영	-11.8862
▁메이크업	-11.8862
▁반짝반짝	-11.8862
▁싫지	-11.8862
▁소매치기	-11.8862
▁자신의	-11.8862
▁방콕	-11.8862
▁비용이	-11.8862
▁아저씨한테	-11.8863
방울	-11.8863
▁육이오	-11.8864
▁춘	-11.8864
▁대여섯	-11.8864
웠는데	-11.8864
▁해외에서	-11.8865
▁후배들	-11.8866
▁자니까	-11.8866
▁걱정되는	-11.8866
▁돼지가	-11.8869
▁알바생들	-11.8869
▁죽어지	-11.8869
▁느꼈던	-11.887
▁그랬구나	-11.887
▁덧	-11.8871
▁빌려주	-11.8871
▁드러나	-11.8872
▁비는	-11.8873
▁월급을	-11.8873
▁불런	-11.8873
바다	-11.8876
▁말했나	-11.8876
▁사진찍	-11.8879
▁팔려고	-11.8879
▁속상한	-11.8881
▁거난이	-11.8881
▁지원금	-11.8883
▁느낌이야	-11.8884
▁울지	-11.8885
▁삼천원	-11.8885
▁바래	-11.8885
봐야지	-11.8887
탐	-11.8888
▁흐르	-11.8889
▁문법	-11.8889
▁이러다	-11.8894
솥	-11.8895
▁켜져	-11.8896
▁이모랑	-11.8897
좌	-11.8897
▁갔주게	-11.8897
▁동전	-11.8897
▁부담이	-11.8898
▁였	-11.8899
▁비율	-11.8901
주는거	-11.8901
▁탈락	-11.8902
뿐이	-11.8903
▁안경을	-11.8904
▁달달한	-11.8904
이었네	-11.8905
▁이런거에	-11.8905
▁점프	-11.8907
▁한살	-11.8907
▁추세	-11.891
▁메일	-11.8911
▁가수들	-11.8912
▁선풍기	-11.8913
줄께	-11.8913
▁풀이	-11.8914
▁족보	-11.8915
겠고	-11.8915
버린다	-11.8916
▁마셔야	-11.8918
졌댄	-11.8918
▁고치고	-11.8919
▁네이버에	-11.8919
▁묻는	-11.8921
▁토종	-11.8922
▁섭섭해	-11.8923
▁그러더니	-11.8924
▁새거	-11.8924
▁않았지만	-11.8925
▁나왔었	-11.8926
▁타이어	-11.8926
놈이	-11.8927
▁기회를	-11.8927
들어가	-11.8927
▁재밌고	-11.8928
▁내놔	-11.8929
▁바라보	-11.893
▁퇴근하고	-11.893
▁많아야	-11.8931
▁거제도	-11.8931
▁더블	-11.8931
▁신체	-11.8933
▁대추	-11.8935
▁때릴	-11.8935
▁춥다	-11.8935
▁날부터	-11.8936
▁소중한	-11.8937
▁남성	-11.8939
▁이삼십	-11.8941
▁정해서	-11.8942
▁제주대	-11.8942
년도에	-11.8943
▁있는건	-11.8946
▁떨려	-11.8948
▁허물	-11.8949
▁말이라	-11.895
▁무거워	-11.8951
▁만드는데	-11.8951
▁가슴에	-11.8953
▁십대	-11.8954
▁아끼는	-11.8958
▁사나이	-11.8958
▁하더라구요	-11.8959
▁눌렀	-11.896
▁놔그네	-11.896
▁만났다	-11.896
말은	-11.8961
▁움직이고	-11.8961
기전에	-11.8962
▁알바비	-11.8962
▁상을	-11.8963
▁냈는데	-11.8964
▁호불호	-11.8964
▁챙길	-11.8965
▁친정어머니	-11.8965
▁했냐고	-11.8965
▁폐렴	-11.8965
▁낚아	-11.8966
▁저한테	-11.8966
▁꼴등	-11.8967
▁인네	-11.8967
▁말로만	-11.8968
▁채울	-11.8969
▁로제	-11.897
▁푸른	-11.8971
▁노물	-11.8972
▁야식	-11.8972
▁현미	-11.8976
대매	-11.8977
▁중삼	-11.898
▁없을때	-11.898
▁되니	-11.8981
▁어리니까	-11.8982
▁힘든거	-11.8984
했냐	-11.8984
▁해물	-11.8984
▁퍼져	-11.8984
같애	-11.8986
▁보기는	-11.8987
▁시켜주	-11.8987
▁아빠네	-11.8988
▁걸레	-11.899
▁제목이	-11.899
▁복이	-11.8991
▁그때부터는	-11.8991
▁더욱	-11.8992
▁시술	-11.8992
▁곽지	-11.8992
▁아침에는	-11.8992
대학교	-11.8994
▁견적	-11.8995
▁같았	-11.8996
▁고민하고	-11.8996
▁인사하고	-11.8996
▁부인이	-11.8997
▁야생	-11.8998
▁추우면	-11.8999
▁육지사람	-11.9003
▁테레비에	-11.9004
▁혹은	-11.9004
▁누웠	-11.9006
▁이층에	-11.9007
▁내일도	-11.9007
▁가봤지	-11.9008
▁넘쳐	-11.9009
▁재주	-11.9009
▁내가지고	-11.9012
▁어마어마	-11.9012
간장	-11.9013
▁날씬	-11.9013
▁쓰는게	-11.9014
▁넘을	-11.9015
▁어딨냐	-11.9016
▁외할아버지	-11.9017
▁고아	-11.9017
▁담그	-11.9018
▁저렴한	-11.9018
▁어딘	-11.9018
▁않에	-11.9018
▁언니네는	-11.9018
아버지	-11.9019
▁깼	-11.9019
▁커튼	-11.9019
▁칠성통	-11.902
▁해주라	-11.9022
▁신기했어	-11.9025
▁고생한	-11.9026
▁대는	-11.9027
▁갈아타	-11.9028
▁채워야	-11.9029
▁고사	-11.903
▁없어질	-11.9031
▁줍서	-11.9031
▁보살	-11.9032
▁농사도	-11.9032
율이	-11.9035
▁나오라고	-11.9036
▁봐주는	-11.9037
▁연결해	-11.9037
▁말인	-11.9038
▁멋있게	-11.9042
▁직원들이	-11.9042
▁누나한테	-11.9042
▁하멍으네	-11.9042
▁남으면	-11.9045
▁하지말고	-11.9046
려면은	-11.9047
▁만들었는데	-11.9049
▁자이는	-11.9051
▁성공한	-11.9052
▁정도까지	-11.9055
깍	-11.9056
▁집안에서	-11.9056
였는지	-11.9059
▁몇시	-11.906
▁잘될	-11.9062
거구나	-11.9064
▁제왕	-11.9064
▁보였어	-11.9066
▁이전에	-11.9066
▁후진	-11.9068
▁유니폼	-11.9068
▁뺏기	-11.9068
▁싱가폴	-11.9068
▁컨텐츠	-11.9068
▁활성화	-11.9068
▁판타지	-11.9068
▁가리는	-11.9069
▁만만치	-11.9069
▁구별	-11.907
▁솔솔	-11.907
▁셀카	-11.907
▁알긴	-11.907
▁들려서	-11.907
▁기다린	-11.9071
▁불리	-11.9072
▁북경	-11.9072
▁불빛	-11.9073
▁종목	-11.9073
하는거지	-11.9074
▁중딩	-11.9074
일때	-11.9074
왔다고	-11.9074
▁코끼리	-11.9075
▁끊었어	-11.9075
▁일인데	-11.9077
시설	-11.9077
▁해보라고	-11.9077
조가	-11.9078
▁폴아	-11.9079
그리	-11.908
▁재밌었는데	-11.908
▁걷다가	-11.908
▁그런식으로	-11.9082
▁들어왕	-11.9082
▁중학교때	-11.9086
▁산다는	-11.9089
▁스키장	-11.9089
▁해다가	-11.9089
있냐	-11.909
▁해줘서	-11.9091
▁제주도민	-11.9091
▁생각하기	-11.9093
▁욕할	-11.9096
▁멋지게	-11.9097
읍디다	-11.9097
▁싸인	-11.9099
▁담았	-11.91
▁때린	-11.91
내로	-11.9102
▁싯	-11.9102
▁싸움이	-11.9102
▁익숙	-11.9103
▁순한	-11.9104
▁다듬어	-11.9105
▁였나	-11.9106
▁추워가지고	-11.9107
바퀴	-11.9109
헨	-11.9109
▁논란	-11.9109
▁오백원	-11.9111
▁기다렸	-11.9114
지말고	-11.9114
▁소장	-11.9115
▁보이게	-11.9119
▁오십분	-11.912
▁가벼운	-11.9121
▁면역력	-11.9123
▁후딱	-11.9124
▁이틀에	-11.9124
▁그만둘	-11.9124
▁그때서야	-11.9125
▁단독	-11.9127
▁콱	-11.9127
▁적혀있	-11.9127
▁신상	-11.9128
버린거	-11.9128
▁떨면서	-11.9129
▁주가	-11.913
▁하니까요	-11.9131
줬다고	-11.9133
▁싫어하거든	-11.9135
▁많기	-11.9136
▁코피	-11.9136
▁빛이	-11.9136
▁말든가	-11.9139
▁말하더라고	-11.9139
▁마비	-11.914
▁해시난	-11.9141
▁카드가	-11.9146
▁최근에는	-11.9147
▁뭐하지	-11.9148
했을때	-11.9148
▁있으라고	-11.9149
▁언니를	-11.915
큐	-11.9155
▁보나	-11.9155
▁재활	-11.9159
퍼센트	-11.9159
은행	-11.9161
▁나라의	-11.9162
)/	-11.9163
▁신나게	-11.9165
▁선물도	-11.9167
▁시끄럽	-11.9168
▁집만	-11.9169
▁부족해	-11.9169
▁시국이	-11.9169
텔	-11.917
▁포대	-11.9171
▁던	-11.9171
놨거든	-11.9172
▁부지	-11.9173
▁오피스텔	-11.9173
▁콜레스테롤	-11.9173
▁유모차	-11.9173
▁월드컵	-11.9173
▁무한도전	-11.9173
▁꿩엿	-11.9174
▁삼사십	-11.9174
▁좌석	-11.9174
▁통닭	-11.9175
▁구경도	-11.9175
▁와닿	-11.9175
▁생존	-11.9175
▁정도에	-11.9176
모가	-11.9176
▁차선	-11.9177
▁고데기	-11.9177
▁불닭	-11.9177
▁계곡	-11.9178
▁죽겠는데	-11.9179
▁학회장	-11.918
▁형태	-11.9181
▁방법은	-11.9182
▁씨름	-11.9183
▁이십팔	-11.9184
▁비치	-11.9184
▁샀던	-11.9184
▁시골에	-11.9185
▁목표는	-11.9185
▁쪽을	-11.9186
▁연계	-11.9186
▁한국이	-11.919
▁맞은편	-11.9191
▁타면서	-11.9192
▁있었던거	-11.9194
▁아프기	-11.9194
▁보내서	-11.9196
겠나	-11.9196
▁한국사람	-11.9197
▁매워	-11.9198
▁플레이	-11.9198
▁쇼핑을	-11.9199
▁밑에는	-11.9203
▁댓	-11.9204
▁아깝고	-11.9205
행이네	-11.9207
▁않으꽈	-11.9207
▁아니었던	-11.9207
▁올라가지	-11.9209
▁전신	-11.921
▁아시는	-11.9211
▁아싸	-11.9211
▁겅행으네	-11.9212
▁자도	-11.9212
▁심하고	-11.9212
주난	-11.9215
▁아파트에	-11.9221
▁맞기	-11.9224
▁해가면서	-11.9225
▁소금을	-11.9225
▁주구장창	-11.9226
▁민폐	-11.9227
▁둘레길	-11.9228
▁주기적으로	-11.9229
▁교재	-11.923
주는게	-11.9231
▁삼춘이	-11.9231
▁트럼프	-11.9232
▁지역이	-11.9232
▁사람인가	-11.9232
모르	-11.9233
▁딸들이	-11.9233
▁어색한	-11.9234
▁보기도	-11.9235
▁이라서	-11.9237
▁왔당	-11.9238
▁자격	-11.9238
▁쌤한테	-11.924
▁유행이	-11.9244
▁가라앉	-11.9247
▁없단	-11.9249
▁올라강	-11.925
로운	-11.9254
▁안맞아	-11.9256
들이나	-11.9258
▁낫겠다	-11.9262
▁모아가지고	-11.9263
▁중단	-11.9265
▁알려줬	-11.9266
▁지진	-11.9269
▁그리워	-11.927
▁수당	-11.927
▁잎	-11.9271
▁연상	-11.9271
▁따라오	-11.9273
▁그늘	-11.9275
보리	-11.9275
▁그때야	-11.9275
▁계시고	-11.9277
▁귤도	-11.9279
T	-11.9279
▁밑반찬	-11.9279
▁알고리즘	-11.9279
▁에밀리	-11.9279
▁맞췅	-11.928
▁메이커	-11.928
▁끝나면은	-11.928
▁닭갈비	-11.928
▁낮잠	-11.928
▁적을	-11.928
▁서운해	-11.928
▁나타난	-11.9282
▁보거나	-11.9282
▁흥분	-11.9282
▁바이러스가	-11.9284
▁놀리	-11.9286
▁부츠	-11.9286
▁현실적으로	-11.9287
▁사먹는	-11.9287
▁자율	-11.9287
▁합서	-11.9288
▁사니깐	-11.9289
▁치유	-11.9289
▁씹는	-11.9289
▁궤	-11.9292
▁배웠어	-11.9292
놔신디	-11.9293
▁고런	-11.9294
▁봤냐	-11.9294
화를	-11.9296
▁주관	-11.9296
▁배우러	-11.9296
▁시가	-11.9297
▁티나	-11.9298
▁여동생이	-11.9302
▁워치	-11.9302
▁쉬었	-11.9306
▁소음	-11.9309
조차도	-11.9311
일을	-11.9311
▁고장나	-11.9313
▁끼어	-11.9313
▁말인데	-11.9313
▁통으로	-11.9314
돼지	-11.9314
▁윙	-11.9314
▁냄	-11.9316
▁한테는	-11.9317
▁지낸	-11.9317
다닐	-11.9319
▁하이고	-11.932
났는데	-11.9322
벙	-11.9322
▁살쪄	-11.9324
▁가겠지	-11.9325
▁쪄서	-11.9326
활동	-11.9327
▁바르면	-11.9327
▁물건이	-11.933
▁멘	-11.933
▁막판에	-11.9332
▁반드시	-11.9333
▁교도소	-11.9333
▁땅도	-11.9333
뒤	-11.9334
▁그랬대	-11.9334
▁냅둬	-11.9334
▁든다고	-11.9335
▁감옥	-11.9335
▁셀프	-11.9335
▁되잖아요	-11.9336
▁많았고	-11.9337
▁신을	-11.9338
▁방구	-11.9338
▁그랬언	-11.9338
▁분인가	-11.9339
▁물가	-11.9341
▁고프	-11.9341
▁공공	-11.9344
▁남은거	-11.9344
▁갈아입	-11.9345
▁그거네	-11.9345
▁뻔한	-11.9345
▁몰고	-11.9345
▁뭐하나	-11.9347
▁딸려	-11.9347
코스	-11.9347
▁류	-11.9348
▁불편할	-11.9348
▁이익	-11.9348
▁연결이	-11.9349
사항	-11.9352
▁규	-11.9352
▁사실상	-11.9352
▁젖은	-11.9353
▁찬물	-11.9353
▁이민	-11.9355
▁재정	-11.9355
▁강해	-11.9356
▁하크라	-11.9357
▁짜서	-11.9357
▁왔는지	-11.9358
▁톨	-11.9359
려고하면	-11.936
▁사투리도	-11.9361
▁가져오면	-11.9361
▁닮았다고	-11.9364
▁준비가	-11.9364
▁적당한	-11.9364
빡	-11.9367
려다가	-11.9367
▁주긴	-11.9367
▁전용	-11.9368
▁교수님도	-11.9369
▁안하는거	-11.9369
냥으로	-11.9369
▁중요하고	-11.937
▁피로	-11.937
▁천사	-11.9371
▁입만	-11.9371
▁드립	-11.9373
르멍	-11.9375
동생	-11.9377
▁시간표	-11.9379
▁화장도	-11.9379
▁인구가	-11.938
▁변화가	-11.938
▁돌아왔	-11.9381
▁세운	-11.9381
▁맞추면	-11.9382
▁테이블에	-11.9382
▁볶음	-11.9382
▁흔들어	-11.9384
▁컬러	-11.9386
▁무뚝뚝	-11.9387
▁어찌어찌	-11.9387
▁트렌드	-11.9387
▁불가능	-11.9387
22&	-11.9387
▁수세미	-11.9387
닉	-11.9387
▁이슬	-11.9387
▁송편	-11.9389
▁서서히	-11.939
▁빡쳐가지고	-11.939
▁옮긴	-11.9392
▁아들네	-11.9392
▁연출	-11.9392
▁들어보고	-11.9394
▁끄성	-11.9394
▁곱하기	-11.9394
▁거라도	-11.9394
▁대게	-11.9395
▁바이든	-11.9395
▁괜찮았는데	-11.9396
▁매고	-11.9396
▁동양인	-11.9396
다든지	-11.9397
▁놓은거	-11.9397
▁지인들	-11.9398
▁쓰레기통	-11.9398
▁삼개월	-11.9399
▁오름이	-11.9399
건고	-11.9402
▁있겠냐	-11.9403
▁겁나서	-11.9403
▁숙성	-11.9403
▁생각해가지고	-11.9404
세대	-11.9404
▁흐르는	-11.9405
▁휴식	-11.9406
볼려고	-11.9406
▁해봐봐	-11.9407
▁얘기하더라고	-11.9407
았다고	-11.9407
▁안타깝	-11.941
▁도와줬	-11.941
▁무서웠어	-11.941
▁와이프가	-11.9412
▁도로가	-11.9412
▁뭔지도	-11.9413
▁어째	-11.9413
▁공방	-11.9415
▁얘기로	-11.9416
▁싼거	-11.9418
▁층이	-11.9418
▁로망이	-11.9419
▁쳐다봐	-11.942
▁멀쩡	-11.9421
▁모일	-11.9421
오는거	-11.9424
▁죄를	-11.9424
같은데	-11.9424
▁호미	-11.9426
▁아니었나	-11.9427
▁많이들	-11.9427
▁흔하	-11.9428
▁지금이야	-11.943
힘	-11.9431
▁닮았다	-11.9431
▁줬을	-11.9432
▁노난	-11.9432
▁언젠가는	-11.9433
▁배구	-11.9434
▁이러는거야	-11.9435
▁깨진	-11.9436
▁햄수과	-11.9436
▁혈액	-11.9438
뇨	-11.944
▁감독님	-11.9441
▁갖춰	-11.9441
▁다리도	-11.9441
▁평화	-11.9441
▁새내기	-11.9442
▁이랬다	-11.9443
▁전화기	-11.9443
▁상징	-11.9444
▁휙	-11.9444
▁맛집이	-11.9444
▁과정에서	-11.9445
▁알바하고	-11.9449
▁가격은	-11.945
▁짜게	-11.9451
▁하켜	-11.9453
들면	-11.9453
▁속상하	-11.9454
▁듣다가	-11.9455
▁마을이	-11.9456
▁오거나	-11.9457
거죠	-11.9457
봐요	-11.9457
▁나는거	-11.9458
▁보험을	-11.946
▁이십구	-11.946
▁되민	-11.9461
▁개역	-11.9462
▁코에	-11.9462
▁끝나지	-11.9464
▁습기	-11.9465
▁비석	-11.9467
▁먹기로	-11.9467
▁올게	-11.9468
▁행동이	-11.9468
리라	-11.9471
와그네	-11.9473
▁귀엽고	-11.9475
▁골랐	-11.9475
▁발바닥	-11.9476
▁크기가	-11.9477
▁괴롭히	-11.9478
▁무늬	-11.9479
▁하다고	-11.9481
▁키우지	-11.9481
▁효도	-11.9483
▁욕도	-11.9485
▁오빠들이	-11.9486
▁이유도	-11.9486
▁못해요	-11.9488
▁다양하	-11.9489
▁가다보면	-11.9489
▁낙지	-11.9489
▁섬이	-11.949
판에	-11.949
▁않는다고	-11.9491
섰	-11.9491
▁교직	-11.9492
만원씩	-11.9494
▁업그레이드	-11.9495
▁인스턴트	-11.9495
▁시커멍	-11.9495
▁촉촉	-11.9495
▁딸래미	-11.9495
▁하수구	-11.9495
▁썬크림	-11.9495
▁인간관계	-11.9495
▁밀크티	-11.9496
▁뷰티	-11.9496
▁양꼬치	-11.9496
▁세탁소	-11.9497
▁그닥	-11.9497
▁정월	-11.9501
▁나왔으면	-11.9502
▁체인점	-11.9502
수강	-11.9503
▁연인	-11.9504
라곤	-11.9504
▁실화	-11.9506
▁액정	-11.9507
▁살인데	-11.9507
▁넉	-11.9509
▁죄송	-11.951
▁불편하고	-11.951
▁지나가다	-11.951
넣	-11.9511
▁직접적으로	-11.9513
▁놨다가	-11.9513
주겠다	-11.9514
▁길은	-11.9514
한거라	-11.9515
▁모든게	-11.9515
▁잣	-11.9515
▁그렇게하면서	-11.9517
▁저번에는	-11.9517
▁게스트	-11.9518
▁띄워	-11.9523
▁데려서	-11.9524
▁관심도	-11.9525
▁볼때는	-11.9527
▁만들언	-11.9527
▁진작	-11.9528
▁알아봐야	-11.9529
▁오젠	-11.953
냐면은	-11.953
▁문자로	-11.9531
▁치킨을	-11.9531
▁포장해	-11.9531
▁준다는	-11.9532
▁고양이를	-11.9532
▁모임이	-11.9533
▁이래야	-11.9534
▁정도면은	-11.9536
냬	-11.9537
지안	-11.9539
▁그런걸로	-11.954
▁가졌	-11.9542
▁가끔은	-11.9543
▁분인데	-11.9545
개가	-11.9546
▁거지만	-11.9547
▁사귀어	-11.9548
▁개강	-11.9548
▁식당도	-11.9549
▁걸어오	-11.9549
▁의욕	-11.955
▁부딪치	-11.955
▁기다릴	-11.955
▁떨어젼	-11.9551
엑스	-11.9551
▁달라지는	-11.9553
▁드세요	-11.9553
▁끊어야	-11.9553
▁그램	-11.9554
▁학원이	-11.9555
▁원장님이	-11.9556
▁눈사람	-11.9558
▁아래에	-11.9559
▁실프	-11.956
▁잔디밭	-11.9561
▁영향이	-11.9561
▁음식으로	-11.9563
▁지나가고	-11.9564
▁등치	-11.9566
하켜	-11.9566
▁같지도	-11.9568
두리	-11.9568
▁주네	-11.9571
왔지	-11.9571
▁먹겠다	-11.9572
▁부모들이	-11.9573
▁도리	-11.9574
▁웃겼	-11.9574
▁들어봔	-11.9575
▁점도	-11.9578
▁대학생들	-11.9578
▁허문	-11.9578
▁해보지	-11.9582
▁이것은	-11.9583
인지도	-11.9583
▁쉬면서	-11.9583
웅	-11.9584
▁말하는게	-11.9584
▁쌓이고	-11.9584
▁잘생겼어	-11.9585
방으로	-11.9587
▁옵	-11.9587
▁이어서	-11.9588
잔아	-11.959
▁강이네	-11.959
▁규칙	-11.959
▁좋겠고	-11.959
▁멕	-11.9591
▁저기요	-11.9594
룰	-11.9594
▁장인	-11.9594
▁차들이	-11.9595
▁수록	-11.9596
쪼	-11.9596
줍써	-11.9596
▁미어	-11.9597
▁데려온	-11.9597
▁껀	-11.9599
▁숫자가	-11.9601
▁탄산	-11.9603
▁브이아이피	-11.9605
▁캄캄	-11.9605
▁삼계탕	-11.9605
▁스크린	-11.9605
▁비속어	-11.9605
▁킹덤	-11.9605
▁초코파이	-11.9605
▁청춘	-11.9605
▁친정엄마	-11.9606
▁간단히	-11.9607
▁봤대	-11.9607
▁십오분	-11.9607
▁삼십만원	-11.9608
▁예뻐서	-11.9608
▁그림이	-11.9609
렸잖아	-11.961
▁보는디	-11.961
▁어쨌	-11.961
돼가지고	-11.9611
▁태그	-11.9612
▁수육	-11.9612
▁아니어서	-11.9613
▁숱	-11.9613
▁오름도	-11.9614
▁나라를	-11.9617
▁제부	-11.9618
▁짜는	-11.9618
▁지낼	-11.9622
▁나가는데	-11.9622
하겠습니다	-11.9622
▁강화	-11.9622
▁선물해	-11.9624
▁구하기	-11.9624
▁아닌가요	-11.9625
▁대학교를	-11.9625
▁싶지도	-11.9628
▁악마	-11.9629
바닥	-11.9629
▁놈들이	-11.9631
▁점장	-11.9634
단지	-11.9635
▁나왐	-11.9635
▁반부터	-11.9636
▁퍼지	-11.9636
▁허래	-11.9636
▁단계가	-11.9638
▁사름	-11.9639
▁경력이	-11.9642
▁불쌍하다	-11.9643
▁하기엔	-11.9645
▁불러주	-11.9646
▁전파	-11.9646
▁키우면서	-11.9647
잼	-11.965
▁묶어서	-11.9651
벗	-11.9651
겁니다	-11.9652
▁썰엉	-11.9653
▁갖다주	-11.9653
▁잠잠해	-11.9655
▁말하라고	-11.9656
▁시집갈	-11.9659
▁병을	-11.966
▁밟고	-11.966
▁전자레인지	-11.966
▁발가락	-11.966
▁받은거	-11.966
▁옮길	-11.966
▁한바퀴	-11.9661
▁자금	-11.9661
▁헛소리	-11.9661
▁흉터	-11.9662
▁싫으니까	-11.9664
▁사이비	-11.9664
백구십	-11.9664
닮아	-11.9665
▁찍기	-11.9666
▁빌려줘	-11.9667
▁허긴	-11.9672
▁찍언	-11.9672
▁파고	-11.9672
▁낳으니까	-11.9673
▁재밌었던	-11.9674
▁좋은지	-11.9675
▁사투리는	-11.9676
르기	-11.9676
▁지성	-11.9677
▁잤다	-11.9677
▁누군가가	-11.968
▁건조해	-11.9684
▁흐린	-11.9687
▁월정	-11.9687
▁드라마도	-11.9688
▁보잰	-11.9688
▁달라붙	-11.9689
▁나왔고	-11.969
▁타는데	-11.969
▁미쳤어	-11.9691
▁재미있었	-11.9692
▁익히	-11.9692
▁같진	-11.9696
▁고르난	-11.9697
▁사람네가	-11.9698
▁옮기는	-11.9699
▁예비	-11.9701
▁먹고싶	-11.9701
▁일진	-11.9702
▁그러냐고	-11.9702
▁선물은	-11.9702
▁불만이	-11.9703
▁개월을	-11.9703
▁면에서	-11.9704
▁들어가신디	-11.9704
▁사람한테는	-11.9704
▁딸한테	-11.9705
▁놔둬야	-11.9707
▁파랑	-11.9708
▁씨씨	-11.9708
▁비리	-11.9709
▁그쪽은	-11.9709
▁복잡해	-11.9712
▁솔로	-11.9712
▁과에서	-11.9714
▁묻고	-11.9715
▁그제서야	-11.9715
▁이만저만	-11.9715
▁졸바로	-11.9716
▁숙취	-11.9716
▁대한항공	-11.9716
▁부리는	-11.9716
▁죄송한데	-11.9716
▁하다못해	-11.9717
▁설득	-11.9717
▁가게가	-11.9717
▁전세계	-11.9718
▁중요하다	-11.9719
▁좋아졌	-11.9719
▁앞으로도	-11.9719
▁교수님들이	-11.972
▁남자분	-11.972
▁풍선	-11.9722
▁민트	-11.9722
▁최신	-11.9723
▁관종	-11.9724
▁병실	-11.9725
▁재능이	-11.9727
▁안타	-11.9728
▁할아버지한테	-11.9728
러스	-11.9729
▁끝났는데	-11.9729
▁받아신디	-11.9729
▁이기는	-11.973
▁딱딱한	-11.9732
▁아이구야	-11.9733
▁참외	-11.9734
▁실명	-11.9735
▁향기	-11.9737
▁그런거야	-11.9737
▁단톡방	-11.974
▁준비한	-11.9742
▁장마	-11.9744
▁의리	-11.9746
▁채점	-11.9747
▁골을	-11.9748
▁먹겠어	-11.9749
▁삼층	-11.975
▁내려갔	-11.975
▁운명	-11.975
▁시각	-11.9751
렇게	-11.9751
▁맛있잖아	-11.9752
▁했죠	-11.9754
▁셈	-11.9756
▁있었지만	-11.9758
▁안에서도	-11.9758
나가는	-11.9758
▁학교로	-11.9759
미터	-11.9759
▁씻기	-11.976
▁넘어야	-11.9761
▁조별	-11.9762
▁고양이도	-11.9763
▁잊어버렸	-11.9763
▁오셨	-11.9763
▁춤추	-11.9763
셀	-11.9763
▁그것밖에	-11.9764
▁그중에서	-11.9767
▁스타일로	-11.9767
▁중간중간에	-11.9768
▁겅허면	-11.9769
▁문젠	-11.977
젱	-11.9771
▁꾸준하게	-11.9771
▁여전히	-11.9771
▁그나저나	-11.9771
▁쌍욕	-11.9772
▁들기름	-11.9773
▁귀걸이	-11.9773
▁빵도	-11.9773
▁쪽도	-11.9774
▁생각나서	-11.9774
▁전화와	-11.9774
▁반대편	-11.9774
▁화질	-11.9777
▁하다보니	-11.9779
거라서	-11.978
▁줬었	-11.9781
▁작으니까	-11.9781
▁돗	-11.9781
▁고민하다가	-11.9782
▁가능해	-11.9782
▁두명이	-11.9783
▁취미는	-11.9783
▁꺼야	-11.9786
▁절여	-11.9791
▁세우는	-11.9793
▁먹냐	-11.9796
▁당분간	-11.9796
▁리스트	-11.9797
이라면	-11.9797
허젠	-11.9799
어부난	-11.9799
▁먹었댄	-11.98
▁후원	-11.9801
▁좋아하는거	-11.9802
▁정보가	-11.9803
옵	-11.9804
▁사와서	-11.9804
▁에이고	-11.9804
▁동료	-11.9805
▁학사	-11.9806
▁나갔을	-11.9809
▁역사가	-11.9812
▁오겠다고	-11.9814
▁점심은	-11.9816
싼	-11.9817
싶다	-11.9817
▁고마	-11.9818
춤	-11.9819
▁그러긴	-11.9819
▁했었을	-11.982
▁심은	-11.982
꿈	-11.982
▁사회에	-11.982
▁언제나	-11.9821
▁때문인	-11.9821
▁끓이고	-11.9822
▁용서	-11.9823
▁가리고	-11.9826
▁아버지네	-11.9826
▁레스토랑	-11.9827
▁블루베리	-11.9827
▁에스앤에스	-11.9827
▁잔칫집	-11.9827
▁내후년	-11.9828
▁클래식	-11.9828
▁아이언맨	-11.9828
▁사대보험	-11.9828
▁씨앗	-11.9828
▁사줘야	-11.983
길이	-11.9831
하겠어	-11.9831
▁좋아해부난	-11.9832
▁때쯤에	-11.9834
▁연락처	-11.9835
읍니다	-11.9835
▁타이밍이	-11.9836
▁하필이면	-11.9838
▁요망진	-11.9839
▁같네	-11.984
▁나간다고	-11.9841
▁풀어야	-11.9841
다라고	-11.9842
▁폭력	-11.9843
▁서면	-11.9845
▁독해	-11.9845
▁있수과	-11.9846
▁반으로	-11.9847
▁빌렸	-11.9847
▁밴	-11.9853
▁항공사	-11.9853
▁친하고	-11.9854
▁비우	-11.9854
▁바에	-11.9859
▁바닷가에	-11.986
쓴	-11.986
▁왔더라	-11.9862
싶은데	-11.9862
▁일위	-11.9862
▁언제쯤	-11.9863
▁잘하는데	-11.9863
▁안허여	-11.9863
▁복권	-11.9864
버려야	-11.9864
▁한건데	-11.9864
긴한데	-11.9865
▁보다도	-11.9867
▁원이야	-11.9867
할까봐	-11.9868
▁할꺼야	-11.9868
▁중고로	-11.9868
▁나라는	-11.9872
▁아픈거	-11.9873
보래	-11.9874
▁뚫고	-11.9875
거꽈	-11.9876
송이	-11.9876
▁됐었	-11.9877
▁어우야	-11.9878
평가	-11.9878
클럽	-11.9879
▁연속	-11.9879
온다고	-11.988
사람은	-11.988
▁바다도	-11.9881
▁게메이	-11.9882
줏	-11.9884
▁무용	-11.9884
▁열받아	-11.9884
▁말레이시아	-11.9884
▁오리지널	-11.9884
▁긍까	-11.9884
▁비니루	-11.9884
▁극혐	-11.9884
▁재작년에	-11.9884
하느라	-11.9884
▁호기심	-11.9886
▁복도	-11.9887
크매	-11.9888
▁변했	-11.9889
▁인생은	-11.9891
▁채용	-11.9891
▁먹으민	-11.9892
분의	-11.9892
▁야무지게	-11.9893
▁관점	-11.9894
▁피해자	-11.9895
▁큐	-11.9895
줬던	-11.9896
▁네살	-11.9898
▁심해서	-11.9898
▁바티	-11.9898
▁님	-11.9899
▁추위	-11.9899
▁우선은	-11.9899
▁비교해	-11.9901
▁재활용	-11.9902
▁선이	-11.9903
▁여섯시에	-11.9904
▁표현이	-11.9905
▁붓기	-11.9908
▁나간다	-11.9909
▁펑	-11.9909
▁궁금하다	-11.991
▁못하겠는	-11.991
▁모자란	-11.9911
▁훈	-11.9912
▁신청한	-11.9914
▁야무지	-11.9915
▁됐댄	-11.9918
▁발랐	-11.9919
▁내려가고	-11.9922
▁열세	-11.9923
▁매미	-11.9924
▁부모님들이	-11.9924
오민	-11.9924
차를	-11.9926
▁죽었다고	-11.9926
▁인식을	-11.9927
▁재미있었어	-11.9932
흐	-11.9934
▁싫은거	-11.9934
▁토할	-11.9937
▁칭	-11.9938
▁먹이는	-11.9938
▁국립	-11.9941
▁스쿼트	-11.9941
▁태블릿	-11.9941
▁현수막	-11.9941
▁후유증	-11.9941
▁아주버니	-11.9941
▁힙합	-11.9941
▁아무데나	-11.9941
▁장로님	-11.9941
▁종류별로	-11.9942
▁누룩	-11.9942
▁뒷자리	-11.9942
▁파괴	-11.9943
▁좋으크라	-11.9943
▁훨	-11.9944
지겠지	-11.9944
▁전문적으로	-11.9945
▁좆	-11.9945
▁나왔대	-11.9946
▁꿈꾸	-11.9947
싶은	-11.9947
▁노출	-11.9947
▁갱신	-11.9948
▁알코올	-11.9949
▁군산	-11.995
▁않을건가	-11.9951
▁피를	-11.9951
▁스물두	-11.9952
▁가맨	-11.9953
▁앉혀	-11.9953
▁나왔어요	-11.9953
▁보증	-11.9954
▁올림픽	-11.9954
▁넘었어	-11.9954
▁먹으니깐	-11.9956
▁재발	-11.9956
▁외에	-11.9956
▁해보세요	-11.9956
▁동작	-11.9957
▁선교	-11.9958
▁모르니깐	-11.9958
▁막힌	-11.9961
▁저녁에는	-11.9961
▁욕실	-11.9963
먹어서	-11.9963
▁성님이	-11.9964
▁가게에서	-11.9966
▁취미를	-11.9967
▁똥을	-11.9967
▁흘리고	-11.9968
▁올려놓고	-11.997
▁쏘는	-11.9971
▁왔냐	-11.9972
볼게요	-11.9973
실에서	-11.9974
테지	-11.9976
난다	-11.9976
었주게	-11.9976
▁사진들	-11.9976
▁내보내	-11.9977
▁부쳐	-11.9977
▁빨래를	-11.9979
▁목소리도	-11.9979
▁남자애들은	-11.998
▁반지의	-11.9982
천원짜리	-11.9984
▁이땅	-11.9986
표를	-11.9986
▁간거라	-11.9986
▁맞앙	-11.9986
준대	-11.9987
▁녹화	-11.9988
했더니	-11.9988
▁생각하게	-11.9989
▁값을	-11.9991
숲	-11.9991
▁자리도	-11.9992
버렸어요	-11.9992
▁청소도	-11.9993
길로	-11.9996
▁한국인들	-11.9996
끗	-11.9997
▁런닝	-11.9997
▁말하자면	-11.9998
▁스물여섯	-11.9998
▁흥미가	-12
▁드림	-12.0001
▁막막	-12.0001
▁위에다가	-12.0004
▁기대를	-12.0005
▁오직	-12.0005
▁해지고	-12.0007
▁올려주	-12.0008
▁어떻게해서	-12.0008
쳐가지고	-12.0009
▁상위	-12.001
들었어	-12.001
▁숨이	-12.0011
▁졸업을	-12.0011
▁여기선	-12.0011
▁얘네들은	-12.0014
▁싸면	-12.0014
▁식당을	-12.0015
▁가르쳐주	-12.0016
▁찍혀	-12.0016
▁얼마든지	-12.0017
▁친했	-12.0018
▁광양	-12.0018
▁직장이	-12.0018
▁년제	-12.0018
▁가지로	-12.002
▁올래	-12.0022
▁버스도	-12.0022
글락	-12.0023
▁놈들은	-12.0023
▁매날	-12.0024
▁겅해야	-12.0025
▁시작했는데	-12.0026
라던지	-12.0028
▁누웡	-12.0028
▁했나봐	-12.0029
▁모였	-12.0029
▁영어가	-12.003
▁애기한테	-12.0031
▁필요없	-12.0031
률	-12.0031
▁빠져나가	-12.0033
▁육지가	-12.0035
▁부런	-12.0036
▁해놓은	-12.0036
▁체스	-12.0039
▁의사들	-12.004
펴	-12.004
▁요망지	-12.0041
▁낳으	-12.0041
▁뛰면	-12.0042
섭	-12.0042
▁책임을	-12.0042
▁이모님	-12.0042
▁지루	-12.0043
력을	-12.0044
▁성님네	-12.0048
▁세대는	-12.0049
▁않냐고	-12.0052
트가	-12.0054
▁마요네즈	-12.0055
▁바이올린	-12.0055
▁에펠탑	-12.0055
▁전남친	-12.0055
▁도로주행	-12.0055
▁영상통화	-12.0055
▁튜브	-12.0055
▁엑소	-12.0055
▁유기견	-12.0055
▁주유소	-12.0055
▁레이저	-12.0057
▁쌀을	-12.0057
▁겅해난	-12.0057
▁아저씨는	-12.0058
하지마	-12.0058
▁괜찮애	-12.006
▁요거트	-12.0063
▁제로	-12.0064
▁어쩌구	-12.0064
조리	-12.0066
▁여기서도	-12.0067
▁구하고	-12.0067
▁튀어나와	-12.0067
▁서브	-12.0068
하느냐	-12.0068
갔당	-12.0068
▁뚱뚱	-12.0069
▁저번주	-12.0071
▁이래도	-12.0071
▁골반	-12.0072
▁법적으로	-12.0073
▁안오고	-12.0074
▁그랬었거든	-12.0076
시에	-12.0076
▁최선을	-12.0077
▁중심으로	-12.0077
▁헐거	-12.0078
▁많구나	-12.0078
▁텀	-12.008
▁모이지	-12.0081
버렸다	-12.0081
▁잘사는	-12.0082
▁나눠주고	-12.0084
▁핑	-12.0085
▁해달라	-12.0087
▁여섯살	-12.0088
▁사연	-12.009
▁나오는디	-12.009
렸거든	-12.0091
▁사먹어	-12.0091
▁진통	-12.0091
▁최고로	-12.0093
▁말해주고	-12.0093
▁때면	-12.0093
▁벌써부터	-12.0096
▁개월에	-12.0098
▁피부에	-12.0098
▁깨고	-12.0101
졌어요	-12.0102
▁보진	-12.0102
▁갚을	-12.0103
찜	-12.0105
▁주민들	-12.0105
▁익숙한	-12.0106
▁물건들	-12.0106
▁패턴	-12.0106
▁반찬을	-12.0107
▁아들이랑	-12.0107
굽	-12.0107
▁이신게	-12.0107
▁일자로	-12.0108
▁필요하면	-12.011
▁걸어다니	-12.011
수술	-12.0111
▁밝혀	-12.0113
▁빡센	-12.0114
▁오육	-12.0115
▁시작합니다	-12.0117
▁야이네가	-12.0118
▁학부모들	-12.0119
▁구사	-12.012
▁특별하게	-12.012
▁팀장	-12.0121
▁발에	-12.0121
허랜	-12.0121
▁꾀	-12.0122
▁소모	-12.0123
▁땐데	-12.0123
▁뺑	-12.0124
봤어요	-12.0124
▁주젠	-12.0125
▁틀리지	-12.0127
▁재산이	-12.0127
▁붙잡고	-12.0129
▁살라	-12.013
▁상처받	-12.0131
▁먹곡	-12.0133
감시믄	-12.0133
▁끊어서	-12.0135
▁혈압이	-12.0137
▁썼었	-12.0138
▁주더라	-12.0141
쁠	-12.0141
▁인수	-12.0141
▁왔었거든	-12.0143
▁노니까	-12.0143
지말라고	-12.0145
▁들었고	-12.0146
▁않나요	-12.0146
▁해볼게	-12.0146
▁고쳐야	-12.0147
하잖아요	-12.0148
▁일어났어	-12.015
▁사대	-12.0152
▁지르고	-12.0153
수께	-12.0153
▁아동	-12.0154
▁선생님들은	-12.0154
낀	-12.0154
▁연주	-12.0155
정도로	-12.0158
▁찾았어	-12.0158
갔던	-12.0164
▁삼촌들	-12.0164
▁심해가지고	-12.0164
▁보고서	-12.0167
▁반응을	-12.0169
하는것	-12.0169
▁두려움	-12.0171
▁엎드려	-12.0171
▁자부심	-12.0171
▁잘생겨	-12.0172
▁땡땡	-12.0172
▁링크	-12.0172
▁탈퇴	-12.0172
▁스벅	-12.0172
▁단순히	-12.0173
▁라멘	-12.0174
▁가는지	-12.0174
▁겠다	-12.0174
▁쓸거	-12.0175
었언	-12.0175
▁오겠지	-12.0175
▁오학년	-12.0179
▁간병	-12.0179
스티	-12.018
▁외로워	-12.0181
▁해봤지	-12.0181
▁중고차	-12.0182
▁있는거라	-12.0182
▁손절	-12.0186
▁뭐에요	-12.0186
▁만큼은	-12.0186
▁마인드가	-12.0186
지더라	-12.0187
▁한강	-12.019
▁외지	-12.0191
▁갔었네	-12.0192
▁맥날	-12.0192
▁부모님은	-12.0192
▁세팅	-12.0193
▁선임	-12.0194
▁비건	-12.0195
년동안	-12.0196
▁육군	-12.0197
▁영하면	-12.0197
▁분류	-12.0198
▁세계에서	-12.0199
▁누구니	-12.02
▁영허난	-12.02
▁닮기도	-12.0201
▁안된대	-12.0201
▁받쳐	-12.0202
▁공부하면서	-12.0202
▁등이	-12.0202
▁필요하고	-12.0209
이어도	-12.021
▁만큼만	-12.0211
▁갈려	-12.0214
▁어려서	-12.0215
▁수습	-12.0215
▁백인	-12.0216
▁묻혀	-12.0216
났구나	-12.0218
▁고파	-12.0219
▁무시하고	-12.022
▁망했다	-12.022
▁동쪽에	-12.022
▁달리는	-12.0221
멩	-12.0221
▁왜이렇게	-12.0221
▁좋주게	-12.0222
▁행운	-12.0222
▁강하게	-12.0223
▁어떻게해	-12.0224
▁이어져	-12.0224
▁사회가	-12.0224
▁친절	-12.0225
▁인원이	-12.0226
▁서방한테	-12.0226
▁요망	-12.0226
▁겹치	-12.0226
▁형제간	-12.0226
▁빨고	-12.0226
[...]
