#version: 0.2
Ġ ì
Ġ ë
Ġ ê
ì Ŀ
í ķ
· ¸
Ġê ·¸
ë ĭ
č Ċ
Ġì ķ
ë Ĭ
ê ³
ê °
ìĿ ´
Ġ íķ
ëĬ Ķ
ê³ ł
ì ķ
Ġì Ŀ
ì §
ì Ĺ
± °
ĸ ´
ê° Ģ
ê ²
Ġë §
ĠìĿ ´
Ġë Ĥ
ë ı
ì Ħ
Ġê·¸ ë
Ġ í
ëı Ħ
ë į
ì§ Ģ
Ġê °
Ġì ŀ
ëĭ Ī
ìĹ Ĳ
ìĦ ľ
ê ¸
ë Ĥ
ì ĸ´
ìķ Ħ
ê² Į
Ġìķ Ħ
ëį °
ë ©
ë ¦
ì ł
ê ±°
Ġíķ ĺ
Ġê ±°
ë© ´
ë ĵ
ì ŀ
ê¸ °
ëĭ ¤
ĠëĤ ĺ
ë ŀ
ë §
ë¦ ¬
ê ¹
Ġì Ĥ
Ġë ĭ
ìĿ Ģ
ë Ŀ
ì ĭ
Ġì ł
Ġì §
Ġì Ĺ
ëĿ ¼
ê¹ Į
Ġì ĺ
íķ ĺ
ëĤ ĺ
ë ł
ìĿ Ħ
Ġìŀ Ī
ë ¡
Ġê ²
Ġì ĭ
Ġê° Ģ
ì ļ
ë¡ ľ
Ġì ĸ´
Ġìķ Ī
ëĵ ¤
ĠìĤ ¬
ì ľ
Ġëĭ ¤
ëĭĪ ê¹Į
ë ¥
Ġë °
ìķ ¼
Ġì ļ
Ġíķ ´
Ġë ª
Ġë§ ī
Ġë Ń
³ ´
Ġê·¸ë Ł
ķ Į
ê ·¸
ê µ
ìľ ¼
£ ¼
Ġì ¢
ì ĺ
ë Ł
ĩ ê²Į
ë Ħ
ìł ľ
Ġë Ħ
Ġíķ ľ
ĠëŃ Ĳ
íķ ´
ëĬĶ ëį°
ë ¬
Ġë Ĳ
· ¼
° ë¦¬
Ġë ı
Ġì Ļ
Ġê ³
íķ ľ
ë§ Į
·¼ ëį°
ĠìķĦ ëĭĪ
Ġë ¨
ĠëĤ ´
ëĦ ¤
Į Ģ
ë °
ĥ Ŀ
Ġì ĸ
ĸ Ī
ë Ķ
ĠëĦ Ī
Ī ĺ
Ġë ³´
Ġìļ °ë¦¬
ì £¼
ë¥ ¼
Ġë ķĮ
Ġê ±
ì§ ľ
ìŀ Ĳ
ì Ĥ
ëŀ Į
Ġë¨ ¹
¶ Ģ
ì Ĭ
Ħ ì§ľ
ĠìĿ´ ìłľ
Ġì Ħ
Ġë§ Ĳ
ĥ ¥
Ġê° Ļ
ŀ ĺ
Ġìĺ ¤
ëĶ Ķ
ìĹ Ī
ì§Ģ ê³ł
ĠìĿ ¼
Ġê·¸ëŁ °
Ġì§ Ħì§ľ
ĠìĤ¬ ëŀĮ
ìļ Ķ
Ġë ¬
ë§ Ī
ëł ĩê²Į
ë ²
ĠëĲ ĺ
Ġê ·¼ëį°
ì Ľ
ê° Ħ
ë¬ ´
Ġë ĵ
Ġê·¸ë ĥ¥
Ġìł Ģ
n a
na m
nam e
ëĤ ľ
Ġê·¸ë ŀĺ
ìĿ ¸
Ġì§ Ģ
ĠìĿ´ ëłĩê²Į
ìĭ ľ
ĸ ìķĦ
ìŀ ĸìķĦ
ëĵ ł
êµ ¬
ëŀ ĺ
Ġì¢ ĭ
ê¸ Ī
Ġí ĸĪ
ëł ¤
ê ±
Ġìĭ ľ
Ġê·¸ ê±°
ĠìĹ Ĩ
Ġë§ İ
ëŀ ĳ
ìĤ ¬
ìĹĲ ìĦľ
Ġë ĺ
Ġë ¹
Ġìŀ Ĳ
Ġìŀ ĺ
Ġê·¸ë ł
Ġì ĥĿ
ì ²
Ġì¢ Ģ
Ġë į
ì ¹
ë ¶Ģ
Ġì ¤
ë ĥ
ĠëĤ´ ê°Ģ
Ġë ²
ĠìĹ ¬
ë ĮĢ
Ġê² ĥ
Ġê ¸
Ġì Ľ
Ġì Īĺ
Ġëĵ ¤
ìĿ ¼
Ġê² Į
ë ¹
Ġì ¹
Ġì °
ìĭ ł
ëĿ¼ ê³ł
ëŁ ¬
ë ³´
ĥ ģ
ìĿ Į
ëŁ °
Ġëª »
Ġëĺ Ĳ
ëĥ Ĳ
ë ¯
Ġ #
ì Ļ
Ġê·¸ëł ĩê²Į
Ġíķ ł
ìĬ ¤
Ġê·¸ëŁ ¬
Ġë Ķ
ìľ¼ ë¡ľ
Ġì Ĩ
Ġìł ľ
Ġìķ Į
ëĭ¤ ê³ł
ì ĸ
ì ¤
Ġìĸ´ ë
Ġ name
ê° ģ
ê°Ģ ì§Ģê³ł
ê±° ëĵł
ìł Ħ
ìŀ ¥
í ħ
Ġë§ Į
Ġê µ
ë ħ
Ġê±° ê¸°
ìĿ ĺ
íķĺ ê³ł
Ġíķĺ ë©´
ê² ł
Ġê·¸ëŀĺ ìĦľ
ìĺ ¤
ì Ĩ
Ġì ľ
ĠìĥĿ ê°ģ
ëĤ ł
ì °
í Ļ
¸ ëĭĪ
ĠëĦĪ ë¬´
ë ª
ëĵ¤ ìĿ´
ĠìĤ ´
Ġíķĺ ëĬĶ
í ŀ
Ġë¬ ´
Ġë ´
ì Īĺ
Ġìķ ½
ĠëĤ ľ
ë¥ ´
Ġë ³
íħ Į
íŀ Ī
Ġìķ Ĭ
Ġì £¼
¡ °
Ġëª ¨
ĠìķĦ ìĿ´
Ġê³ ł
ĠìĿ´ ê±°
Ĺ Ī
ĠëĤĺ ëĬĶ
Ġë§ ŀ
Ġì§ ĳ
ë² Ī
ĠìĹ Ħ
ëį ĺ
ĸ ī
Ġìĸ´ë ĸ
ìĹ ¬
Ġê¸ °
ìĽ Ĳ
Ġë Ĩ
Ġë ¶
Ġí ĺ
Ġë§İ ìĿ´
Ġìĸ ĺ
Ġë§ Ī
ìľ¼ ë©´
í Ĭ
Ġë ĮĢ
ìĺ Ī
Ġì ²
ê± ´
Ġì§Ģ ê¸Ī
Ġíķĺ ê³ł
Ġìķ ł
ëį Ķ
íķľ íħĮ
Ġìł Ħ
Ġìķ½ ê°Ħ
ë ³
ĠìĽ Ĳ
í ĺ
íķĺ ëĬĶ
Ġëĵ¤ ìĸ´
ĳ Ĳ
ì ĥĿ
Ġë ħ
Ġë° Ķ
ĠìĿ´ ëŁ°
Ġë Ī
Ġê± ´
Ġìł ķ
ĠìĻ ľ
ìķ ĺ
ì ĥģ
ê² ĥ
í ĸĪ
Ġê·¸ë ķĮ
Ġíķ´ ìĦľ
Ġìĺ ģ
í Ķ
Ġìļ Ķ
ë Ĳ
íķ Ļ
ëĭ ĺ
ìĭ Ń
ë ´
êµ Ĳ
ìļ °
Ġí Į
ëĭ¤ ê°Ģ
Ġëį Ķ
Ħ °
Ġê± ¸
ì¹ ĺ
ĠìŀĪ ìĸ´
ì Ķ
ëĤ ´
ë ¨
íķĺ ë©´
ê¸ ´
Ġì ¡°
Ħ ìłĦ
Ġìĺ Ī
Ġí Ļ
ĥ Ģ
Ġê° Ķ
ìŀ Ī
ĠìĿ ¸
Ġë ¶Ģ
ì ¦
Ġê°Ģ ì§Ģê³ł
Ġê°Ļ ìĿĢ
Ġì¢ĭ ìķĦ
ë ¶
ĠìŀĪ ëĬĶ
ê± ¸
íķ ł
íĻ Ķ
ë² Ħ
ëĵ ľ
Ġíķ Ļ
ĠëĤ ¨
ĠìĤ ¼
Ġìĭ ¶
Ġëı ¼
í Ħ°
ĠìĻ ĦìłĦ
Ġíķĺ ëĤĺ
Ġë² Ī
Ġìķ ¼
ë¹ ł
Ġë ģ
Ġë¹ Ħ
ĥ Ī
í ĸī
ê ·¼ëį°
ìł Ģ
Ġì¤ ĳ
íĬ ¸
ì§ Ħ
ìł ¸
Ġê° ľ
Ġëı Ļ
ìĭł ëĶĶ
ë £
ìķ Ī
ĠëĶ ±
Ġìĸĺ ê¸°
Ġëı Ī
Ķ ê°Ģ
ìł ķ
Ġì¹ ľ
Ġìłľ ì£¼
Ġì Ĭ
Ġí ĹĪ
êµ Ń
í Į
ĠëĤĺ ëıĦ
ìĻ Ģ
Ġê ¹
Ġìĺ ¬
ĠìĻ Ģ
ĠìĹ¬ ê¸°
ê¹Į ì§Ģ
ìķĦ ëĭĪ
Ġë¬ ¼
Ġì ĵ
ëı Ļ
ë ģ
ì§ ģ
ë¬ ¸
ë¥ ¸
Ġê³ Ħ
ëĭ ¨
íķ´ ìĦľ
Ġê ´
í ģ
Ġë° Ľ
ĠìŀĲ ê¸°
Ġê·¸ëŁ¬ ëĭĪê¹Į
Ġê·¸ ê²Į
Ġë Ĭ
ĠìĦ ¸
Ġíķĺ ëĭĪê¹Į
Ġê±° ìķ¼
ìĽ Į
ĠìĦ ľ
Ġë ĳĲ
Ġê³ µ
ì² Ń
Ġë ¯
ëħ Ħ
ìĭ Ŀ
Ġëį °
Ġë§ Ľ
ê¹ Ĳ
Ġí ģ
ĠìĹĦ ë§Ī
ìķ ł
ìĭ ¤
ĠìĨ Į
ë ķĮ
Ġê² ½
ìĿĮ ìĹĲ
x x
Ġìĸ´ ëĶĶ
Ġë´ Ĳ
ì ¶
Ġê²ĥ ëıĦ
Ġìĸ ¸ëĭĪ
ë© į
Ġì° ¨
ë° ©
Ġë ©
ìĨ į
Ġê·¸ëŁ° ëį°
ëĬĶ ê±°
Ġìĭ ł
ë¯ ¸
ë©´ ìĦľ
ë¹ Ħ
ëĭ ¹
ĠìĬ ¤
Ġëĭ ®
ë§ Ĳ
Ġì ¶
ĠëĪ Ħ
ë¬ ¼
Ľ ëĤł
ìĺ ģ
ëĵ¤ ìĿĢ
Ġë§ŀ ìķĦ
ëĲ ĺ
» ê²Į
Ġì Ī
ë¦ Ħ
ļ Į
Ġíķ´ ìķ¼
¦ ¬
ĠìĦ ł
Ġëª¨ ë¥´
Ĥ ¤
ìļ ¸
ê·¸ ëŀĺ
ìĹĲ ëĬĶ
ìĹĪ ìĸ´
ëĭĪ ê¹Ĳ
ìľ¼ ëĭĪê¹Į
Ġìĸ´ëĸ »ê²Į
Ġ čĊ
Ġê° Ī
ë Į
ìĬ ¨
ì§ ĳ
Ġê°Ļ ìķĦ
ª ½
Ġìĸ ¼
í Ĩ
ìļ ´
Ġë¨¹ ìĸ´
ë©´ ìĿĢ
ĠìĤ¬ëŀĮ ìĿ´
ì ¼
Ġë° °
ìł ģ
Ġí Ķ
Ġê·¸ ëĭĪê¹Į
ëł¤ ê³ł
ĠìŀĪ ìŀĸìķĦ
ĠìĹ ´
Ġì¹ľ êµ¬
ì¤ ĳ
Ġì ĥģ
Ġëĭ ¬
Ġìŀ ħ
íķĺ ê²Į
Ġë¯ ¸
ê²ĥ ëıĦ
Ġì ½
Ġìĺ ĽëĤł
Ġìĵ °
ĠìĹ °
Ġìłľì£¼ ëıĦ
Ħ ë¡ľ
ĠìłĢ ê¸°
ì ¡
ë´ Ĳ
ìĭ ¬
Ġê°Ģ ìĦľ
ë¦ °
Ġì¤ Ħ
ìĸ ĳ
Ġëª ĩ
í ı
Ġë¬´ ìĬ¨
ĠìĹĨ ìĸ´
Ġê° Ħ
ìĨ Į
Ġê°Ļ ìĿ´
Ġìĭ Ń
Ġìŀ ¬
ë¯ Ħ
Ġê² ħ
ëŀ ľ
Ġìĭľ ê°Ħ
Ġíķĺë©´ ìĦľ
ĠìĹĦ ì²Ń
ëĮ Ħ
Ġëħ Ħ
Ġëª °
Ġìľ ł
Ġêµ ¬
Ġê·¸ë ¦¬
Ġëı Į
ë¶Ģ íĦ°
Ġëª ħ
ĠëĤ ł
Ġì ´
ê² ½
ë° Ķ
ì¦ ĺ
ĠìķĮ ìķĦ
Ġê³Ħ ìĨį
ĠìŀĪ ê³ł
Ġì² ĺ
İ ¸
Ġë¨¹ ê³ł
ìĦ ¸
Ġì¡° ê¸Ī
ë¶ Ħ
í Ĺ
í ĹĪ
ĠëŃ Ķê°Ģ
Ġëı Ħ
ë¯ ¼
ĠìĿ´ ê²Į
ĠëĲ ľ
ëª ¨
Ġë¶ Ħ
ìł ł
ê ´
ĠíĸĪ ëĬĶëį°
ëįĶ ëĿ¼
Ġë´ ¤
ë Ĩ
Ġê·¸ë¦¬ ê³ł
ĠëĲ ł
ìĿ´ ëĿ¼
Ġì¢ĭ ìĿĢ
ì§Ģ ë§Į
ĠëĤĺ ìĺ¤
íģ ¬
Ġë° ĺ
ê³ ¼
Ġê± Ķ
Ġë¶ Ī
ê·¸ ëŁ°
ìķ ½
íķĻ êµĲ
ĠëĬ Ĳ
ìĹ ħ
Ġë² Ħ
Ġí ı
ìĿ´ ëŀĳ
ì§ Ī
£ ½
ĠìķĦ ë¬´
ëįĶ ëĿ¼ê³ł
ìĹ °
Ġíķľ ë²Ī
ĠëĶ °
ë¨ ¹
ëŁ ¼
ĠëĤĺ ê°Ģ
ëĦ Ī
ìļ °ë¦¬
Ġë ĸ
Ġëĭ¤ ë¥¸
ĠìĻ Ķ
Ġì į
ĠìļĶ ì¦ĺ
Ġê° ķ
Ġëħ ¸
ëĬ ĺ
ĠìĽĲ ëŀĺ
ìĹĪ ëĬĶëį°
ĠíĮ Ķ
Ġìľ ¡
Ġë§ ¨
ëł Ī
ë¦¬ ê³ł
ë£ ¨
ì² ľ
ìĿ´ ê³ł
ìĤ °
ĠëĲĺ ê²Į
ĠìĤ¬ëŀĮ ëĵ¤
ë²Ī ìĹĲ
ìŀĲ ê¸°
Ġí ĸī
Ġê·¸ëŁ ¼
ìĸ´ ìĦľ
ë§ ī
êµ¬ ëĤĺ
ëĭ¤ ëĬĶ
ìĺ Ģ
Ġí Ĩ
a n
c o
co m
an y
p any
com pany
Ġë° ¥
Ġê·¸ëŁ¬ ë©´
ìĸ ¸
Ġëģ Ŀ
ìľ ł
Ġí ĥĢ
Ġë³´ ë©´
Ġìŀ ¥
ì° ¨
º ¼
Ġí ŀĺ
ĠëĨ Ģ
ĠìĿ ĳ
í ĥĢ
Ġë¬ ¸
Ġê·¸ ê±¸
ĸ ìĹĲ
Ġì½ Ķ
ëª ħ
ê·¸ëŀĺ ìĦľ
ĠìĦ ±
Ġë° ©
ĠëĪ Ī
Ġê² °
ë³ ¸
Ġì ±
Ġëĭ ¹
ì Ī
ì² ĺ
· Ģ
ë Ń
ĭ °
Ġíģ °
Ġìłķ ëıĦ
Ġê·¸ëŀĺ ëıĦ
Ġêµ Ĳ
ì§Ģ ëĬĶ
ĠìķĦëĭĪ ê³ł
Ġëĭ® ìķĦ
ë¬¸ ìĹĲ
íĶ ¼
ìĿ¸ ëį°
ìĦ ±
ìĹ Ķ
ĥ ī
ê° ľ
í ļĮ
Ġìļ °
ë ĳĲ
Ġì¹ ĺ
Ġíķĺ ëĬĶëį°
ĠìĨ Ĳ
ì ħ
ëĭ Į
Ī ¬
Ġë¹ ¨
ĠìķĦìĿ´ ê³ł
ëĵ ±
ĠìĹ Ĳ
ĠìĿ Į
ëĬ Ĳ
Ġìł ģ
ìĶ ¨
ê²ł ëĭ¤
Ġë ķ
ìĸ µ
Ġì »
Ġëĭ¤ ìĿĮìĹĲ
ì ĥĪ
Ġíĺ ¼
Ġì £½
Ġìĭ Ŀ
ìĶ ©
Ġê±° ì§Ģ
ì ¢
Ġë§¨ ëĤł
ê »
Ġí Ĺ
ĠíĶ ¼
ĠíĻ Ķ
Ġìĸ¼ ë§Ī
ëĿ ½
ë¨ ¸ëĭĪ
ìĿ´ ê°Ģ
ì ¡°
ĠëĲĺ ëĬĶ
Ġ &
Ġìľ Ħ
ê² ¨
í ĥ
ìĻ Ķ
ĠëĤ¨ ìŀĲ
ì ģ
íĹ ĺ
Ġí Ĥ¤
ĠíķĻ êµĲ
ĠìĹ¬ ìŀĲ
íĺ ¼
íĶ Ħ
ëĤĺ ëĬĶ
Ġê±° ìĿĺ
ìķĦ ìĦľ
ìĿ¸ ê°Ģ
Ġìĸ´ ì
ĠìķĦ ë¹ł
Ġìļ°ë¦¬ ê°Ģ
ĳ ĺ
ìĦ ł
Ġê ¼
ê³ Ħ
ĠëķĮ ë¬¸ìĹĲ
Ġì ĥĪ
Ġìļ ´
Ġìŀ ¡
ì° ®
ëł ¸
Ġìłľ ìĿ¼
ëĭĪ ëĭ¤
company name
ê° Ļ
Ġì´ Ī
Ġì§ĳ ìĹĲ
Ġìĺ¤ ë¹ł
ĠëķĮ ëĬĶ
ĠìĻľ ëĥĲ
ì§Ģ ëıĦ
Ġë³´ ê³ł
ìł Ĳ
ëģ ¼
Ġê° ĳ
Ġë§Ľ ìŀĪ
ì ª½
ìŀ ĳ
Ġíķ´ ëıĦ
Ġê´ ľ
Ġë° ±
Ġë§Ĳ ìĿ´
ĠìŀĪ ëĬĶëį°
Ġìĸ´ëĸ ¤
ìļ ©
Ġëĵ¤ìĸ´ ê°Ģ
Ġê° Ĳ
ë° ±
ĠìŀĪ ìĹĪ
Ġíķĺ ì§Ģ
ĠìĤ¬ëŀĮ ëĵ¤ìĿ´
ê´ Ģ
Ġìĭ ¬
Ġìŀ ĳ
Ġìĺ¤ ëĬĺ
¸ ë¦¬
Ġì ¡
³ Ĳ
ê·¸ ëŁ¬
ë¶Ģ ëĤľ
ìĺ ¨
ì ´
ê¸° ëıĦ
Ġëª° ëĿ¼
Ġí ĥ
Ġëĭ¤ ëĭĪ
ìĬ µ
ĠíĸĪ ìĸ´
Ġë§Į ëĵ¤
ĠìĨ Ķ
ì¤ĳ ìĹĲ
ê² ©
ĠìŀĪ ëĦ¤
íĮ Į
ĠìķĦ ëĭĮ
Ġí Ľ
Ġìĭ ¸
Ġìĸ ¸
Ġíĺ ¸
ê° ķ
Ġìĭ «
ì² ´
íĬ ¼
Ġìķ ŀ
ëĭ ¬
ë ĥ¥
ìĿ´ ëĤĺ
Ġê°Ļ ìķł
Ġê´ Ģ
Ġë§ ¤
ê ·¼
ĠìĦł ìĥĿ
Ġê±°ê¸° ìĦľ
íĨ µ
Ġë³´ ëĭĪê¹Į
Ġí Ĭ
íķĺ ì§Ģ
Ġê°ĳ ìŀĲê¸°
ĠìĽ Ķ
Ġë ĳĺ
ë¦ ´
ĠëŃĲ ëĥĲ
ì§ģ íŀĪ
Ġíķ´ ê°Ģì§Ģê³ł
¾ ¸
Ġìķł ëĵ¤
Ġì¹ ´
Ġìĸ ĳ
Ġê°Ģ ê³ł
ĠìķĦëĭĪ ìķ¼
Ġ companyname
ëŀ Ģ
ë³´ ëĭ¤
Ġí İ¸
Ġìĺ ¨
ĠìĤ °
ĠìĿ´ ëŁ¬
ĠëĦĪ ëĦ¤
Ġëĵ ľ
ĠíĮ Į
ë´ ¤
Ġíķ ¸
Ġê³ ¼
Ġê°Ķ ëĭ¤
Ġìĺ¬ ëĿ¼
ê·¸ëŁ° ëį°
ìŀ Ħ
ëŃ Ĳ
ìĦ ¯
ĠëĬĲ ëĤ
Ġë³ ¸
Ġìĸ´ë ¨
Ġê¸° ìĸµ
ĠìķĦëĭĪ ëĿ¼
Ġë¨¹ ìĿĦ
Ġíĺ¼ ìŀĲ
Ġìĺ Ĩ
ê º¼
ĠìķĬ ìķĦ
Ġê³µ ë¶Ģ
ì¤ ĺ
ĠìŀĪ ìĿĦ
ì¼ ľ
Ġê±° ëĿ¼
Ġë Ĵ
ê±° ìķ¼
Ġê·¸ëł ĩ
ĠíĻ ķ
ê° Ī
ì¶ Ķ
ĠëĦ ¤
Ġê°Ģ ë©´
ë ¸
ë¡ľ ëĤĺ
Ġëĭ ¨
Ġë Ŀ
Ġê´ľ ì°®
· ¨
ì¹ ´
í Ī¬
ĠìĪ ł
ë¶ Ī
Ġ xx
ìĽ Ķ
Ġì° į
Ġì ī
ë³´ ê³ł
ì ½
ĠëĨ ĵ
ëĭĺ ìĿ´
ê° Ķ
ĠëıĮ ìķĦ
ĠìĨĶ ì§ģíŀĪ
Ġí Ŀ
ê²ł ìĸ´
ìķĺ ìĸ´
Ġìŀ ł
Ġì Ķ
ì¤ Ħ
ĠëĦ ĺ
Ġíŀĺ ëĵ¤
ĠëĲ Ĳ
ì²ĺ ëŁ¼
Ġë° ľ
Ġì° ¸
Ġì ª½
Ġë¨¹ ëĬĶ
ìľ ¡
ĠëĤĺ íķľíħĮ
Ġíģ ¬
ë° °
í Ĥ¤
Ġê·¸ ê±´
ĠëĬĲëĤ Į
ëģ Ķ
Ġìł Ĳ
Ġê·¸ ê²ĥëıĦ
Ġë² Į
Ġê°Ģ ëĬĶ
ĠìłĦ íĻĶ
ì£¼ ê²Į
ë° ĺ
Ġìķł ê¸°
í ĭ°
ê² ħ
Ġê·¸ë ŀ
ê·¸ ëĥ¥
ĠìĪĺ ëıĦ
ĠìĻ ¸
ĠìĿ¼ ëĭ¨
ì¹ ¨
Ġì²ĺ ìĿĮ
íĺ ¸
ë° ľ
Ġìĸ´ë¨ ¸ëĭĪ
Ġì¶ Ķ
Ġíķ Ħ
Ġì «
ë§ ¤
ìķ¼ ì§Ģ
ĠëĤĺ ìĻĢ
ĠìķĦ ê¹Į
Ġëĭ¤ ìĭľ
ìĤ ´
íķĺ ëĭĪê¹Į
ëł ¥
ĠìĿ´ ìłł
Ġì½Ķ ë¡ľëĤĺ
Ġë³ Ħë¡ľ
ì¤ Ģ
Ġìĭ ¤
ë§ Ŀ
Ġí ļĮ
Ġê²° íĺ¼
ë¦¬ ëĬĶ
ê³ µ
ì¹ ľ
Ġìį ¨
ê¸° ëĬĶ
Ġë¹¨ ë¦¬
ìĹĲ ëıĦ
ëĤ ¬
Ġë°Ķ ë¡ľ
ìĿ´ ëĬĶ
ĠìĿ´ ìĥģ
ëı ¼
ĠìĤ´ ìķĦ
ë ĺ
ĠëĦ £
Ġëª ©
ìĿ ĳ
íı ¬
Ġë³ ĳ
Ġëĭ ´
í Ĵ
íķ´ ëıĦ
ĠìĿ ĺ
Ġë§Į ëĤĺ
Ġìĸ´ëĸ µ
Ġê±° ëĬĶ
Ġë³ ¼
ìľ Ħ
Ġë¨ ¸ë¦¬
ëĵ± íķĻêµĲ
Ġì° ¾
ë ĸ
Ġê¸ ¸
ë Ī
ĠëĤĺ ì¤ĳìĹĲ
Ġê·¸ëŀ ¬
ĠìĹĨ ëĬĶ
ĠìķĦ ì§ģ
ĠëĲĺ ê³ł
ë²Ħ ì§Ģ
ê ¾¸
Ġíĺ ķ
Ġë§İ ìķĦ
ë¦¬ ê°Ģ
ëĵ¤ ëıĦ
ĳ ľ
ëĦ ¹
ĠëĤ´ ëł¤
¨ ìĸ´
ëįĺ ëį°
Ġë§Ĳ ê³ł
Ġë¹ ł
Ġë¬¼ ìĸ´
ìĿ´ ìłľ
Ġìĭ¶ ìĿĢ
ĠëĿ ¼
Ġíķł ë¨¸ëĭĪ
ê° Ĳ
Ġë° ĸìĹĲ
ê·¸ ê±°
Ġëĭ¤ ìĿĮ
ĠìĿ´ ìĭŃ
ìķ Ļ
ì¡ Į
ĠëĪĦ êµ¬
ê¸° ê°Ģ
ĠìĽ ĥ
Ġê°ĻìĿĢ ëį°
Ġëª ¸
Ġìļ°ë¦¬ ëĬĶ
ĠìłĦ ìĹĲ
ĠìŀĪ ì§Ģ
ì£¼ ê³ł
ĠìĹ¬ íĸī
Ġì§ ģ
ìĿ´ ëĿ¼ê³ł
ĠëĶ ¸
ë§ ŀ
ĠìŀĪ ìľ¼ë©´
Ġì» ¤
ĠìĻĢ ìĦľ
ĠëĴ ¤
ëĥĲ ê³ł
ĠìĦľ ìļ¸
Ġìļ´ ëıĻ
ì¦ Ŀ
í İ¸
Ġìł Ī
Ġì¤ Ģ
Ġname ìĿ´
ëĤ´ ê°Ģ
Ġêµ Ń
í İ
ĠìķĦëĭĪ ë©´
ìłģ ìľ¼ë¡ľ
ê¸ ¸
ĠëŃ Ķ
Ġê ·Ģ
ĠëĦĪ ê°Ģ
ë° ķ
Ġí Ĵ
Ġê° ĸ
Ġëĺ ĳ
ëĲ ľ
êµ ´
ĠìĺĽëĤł ìĹĲ
Ġìķ ī
Ġìĺ ·
ĠíķĻ ëħĦ
Ġí ĸ
Ġë§Ī ìĿĮ
íķ´ ìķ¼
ì§ Ħì§ľ
ê°Ģ ì§Ģ
ì ³Ĳ
ì§ Ŀ
ĠìĿ´ ìĦľ
Ġì ·¨
Ġì¹ ł
ìĿ´ ìķ¼
Ġì² ľ
ĭ Ģ
Ġê¹ Ģ
ĠìĹĨ ê³ł
ìĪĺ ëĭ¤
ëħ Ģ
µ ľ
¨ Į
Ġê± į
ë³ µ
Ġë³´ ëĤ´
Ġë¶ Ļ
íĸĪ ìĸ´
Ġì¤ ĺ
ìĺ ¬
ìģ ĺ
ĠíĨ µ
ê ¼
ê·¸ ëĦ¹
ĠìĤ¬ ì§Ħ
ĠëĨ Ķ
ê±° ëĤĺ
ĠìķĦ ìĺĪ
ëĿ¼ ëıĦ
ìĦ¸ ìļĶ
ĠëĲĺ ëĬĶëį°
ëĨ ĵ
ì ĥī
ëĮĢ ë¡ľ
ë£ Į
ìł Ī
¨Į ëĵł
ĠíĽ Ħ
íı °
Ġìĺ¤ ëŀĺ
Ġì Į
ê±° ëĿ¼
ê²Į ëĤľ
ê²ł ì§Ģ
ĠìĿ´ ë²ĪìĹĲ
Ġê°Ģ ìł¸
Ġê³ ¨
Ġìłķ ë§Ĳ
Ġê¼ Ń
Ģ ìĿ´
ê·¸ ëĦ¤
ìĹ Ĩ
Ġìĭľ ìŀĳ
ë¸ Į
Ġê¹ Į
í Ŀ
ĠìĨ į
ĠìķĮ ë°Ķ
ĠìķĪ ëĲĺ
ìĿ´ ëĦ¤
ĠëķĮ ëıĦ
Ġëĵ £
ìĹĪ ê±°ëĵł
Ġì µľ
ĠëĤĺ ìĻĶ
ê ·Ģ
ĠìĦłìĥĿ ëĭĺ
ĠëģĿ ëĤĺ
ĠëĤĺ ìĿ´
ë§Ī ëĭ¤
ìĹ ī
ĠìŀĲê¸° ê°Ģ
Ġíķ Ń
ìķĦ ìĿ´
Ġë ľ
ìľ¼ ëĦ¤
ĠìķĦ ì¹¨
ê·¸ ë¦¬ê³ł
ì¡ ±
Ġì± ħ
Ġìĭ¶ ìĸ´
ë° ĸìĹĲ
ĠëŃĲ ì§Ģ
Ġì§ ľ
Ġíķĺ ë£¨
Ġë¹Ħ ìĭ
ì į
ĠìĤ¬ ëĬĶ
ìĹ Ń
ĠìĦ ¤
Ġë§Ĳ ìĿĦ
Ġë°Ľ ìķĦ
Ġê·¸ ê²ĥ
ëŀ Ĳ
Ġìŀ¬ ë¯¸
Ġíı ¬
ĠìĿ´ ë¦Ħ
Ġë¹ ¼
ĠìĤ¬ëŀĮ ìĿĢ
íķ ¸
ìĪ ł
Ġë§Į ìķ½
ĠìĿĮ ìĭĿ
Ġì§ĳ ìĹĲìĦľ
Ġê ½
ê¸ ī
Ġë¨¹ ìľ¼
íĺ ķ
Ġìķł ëĵ¤ìĿ´
ëĤ ¨
ĠìĹĦë§Ī ê°Ģ
ĠíķĦ ìļĶ
Ġìĭ« ìĸ´
Ġê ¿
ìĻ ľ
ìŀ ħ
ĠìĤ¬ëŀĮ ëĵ¤ìĿĢ
ĠìĥĿê°ģ íķ´
ĠíĨ ł
ĠìĪ ľ
Ġë¨ ¼
ìĤ ¼
Ġìĸ´ ëĬĲ
í ĸ
Ġìĸ¼ë§Ī ëĤĺ
ìĤ¬ ëŀĮ
Ġìĸ¼ êµ´
Ġê±´ ëį°
Ġëĭ Ī
í Ĥ
ëĤĺ ëıĦ
ì »
Ġìĺģ íĻĶ
ë§ ¨
ĠìĻľëĥĲ íķĺë©´
íģ ¼
ìĿ´ ë©´
ë° ¥
Ġìĸ´ì ¨Įëĵł
Ġë¨¹ ìľ¼ë©´
ìļĶ ìĿ¼
Ġë§İ ìĿĢ
ëĺ Ĳ
Ġìĸ´ ìłľ
ë¡ Ŀ
ľ ´
Ġì²ĺ ìĿĮìĹĲ
ëĿ¼ ëĬĶ
Ġì§ Ħ
Ġë° Ń
íĻ ľ
Ġìī ¬
ĠìķĦ ì£¼
Ġê°Ģ ì§Ģ
ĠëıĻ ëĦ¤
ì ±
Ġë§Ĳ íķ´
Ġê¸ Ī
ìĹĪ ëįĺ
Ġê² Ģ
ĠëĪĦ ê°Ģ
ëŁ ½
ëª »
ê·¸ëŁ¬ ëĭĪê¹Į
ë§ŀ ìķĦ
í Ľ
ĠëĤĺ ëŀĳ
ì§ ¸
ìĸ´ ëĤĺ
Ġê ·¼
ĠìĥĿê°ģ ìĿ´
Ġë¬¸ ìłľ
íķĺë©´ ìĦľ
ìĹ Ħ
Ġí ħ
ë³´ ë©´
Ġíı ī
ĠìĿ´ìłľ ëĬĶ
íİ ĺ
ĠëĲĺ ì§Ģ
ì¹ ł
ĠìĤ¼ ìĭŃ
Ġë° ķ
ë ĳ
ìĿ´ ì§Ģ
ê ½
ê·¸ ëĭĪê¹Į
ĠìĺĨ ìĹĲ
ì¦ Ī
Ġìĸ¸ ìłľ
ì´ Ī
ĠëŃ ĺ
ê» ĺ
Ġêµ °
ë¦ ¼
íķĺ ëĭ¤
ì£¼ ëĬĶ
Ġì¢ ħ
Ġíķĺë©´ ìĿĢ
Ġëĺĳ ê°Ļ
Ġëķ Ĳ
ĠëĤĺ ìĺ¨
ìĦ Ŀ
ëĬĶ ì§Ģ
Ġìľ¡ ì§Ģ
Ġìļ ķ
Ġíķ´ ìĭłëĶĶ
Ġëĸ ¨ìĸ´
ĠìķĮ ê³ł
Ġê·¸ëŁ° ê±°
ĠëıĻ ìķĪ
ĠëĲĺ ë©´
ĠìĥĿê°ģ ìĿĦ
Ġì« Į
ĠìĿ¼ ë³¸
ĠìķĦ ëĵ¤
ë° Į
Ġìĸ´ ìĦľ
ëĭ Ĳ
Ġê°Ģ ìķ¼
ĠíĴ Ģ
ê·¸ ëķĮ
ĠìŀĪ ìľ¼ëĭĪê¹Į
Ġíĥ ľ
íĶ Į
ĠìķĦìĿ´ ëĵ¤
Ġë© Ķ
Ġíķľ êµŃ
Ġíķĺ ëĭ¤ê°Ģ
ĠíķĺëĬĶ ê±°
ĠìĨĮ ë¦¬
ìķĦ ìĿ´ê³ł
íĺ Ģ
íķĺ ëĬĶëį°
Ġíķĺ ìŀĸìķĦ
Ġê·¸ê±° ëĬĶ
ì £
Ġë³ĳ ìĽĲ
Ġìŀ¬ ë°Į
íĨ ł
ìŀ ¬
Ġë§Įìķ½ ìĹĲ
ê±° ê¸°
Ġëħ¸ ëŀĺ
ìĸ´ ê°Ģ
Ġìĭľ íĹĺ
ëħ ¸
ì½ Ķ
ĠìķĦ ëĬĶ
ëª ©
Ġìŀĺ ëıĦ
íĥ ľ
Ġíķľ ëį°
Ġê ·
Ġì² ´
ìĿĦ ê¹Į
Ġê±Ķ ëĦ¤
¯ ¤
ëĬ ¥
ĠìĻľëĥĲ ë©´
Ġê·¸ê±° ë¥¼
Ġìĸ´ì ©
ë© Ķ
ĠìĿ¼ ìĿ´
ì¡° ê±´
Ġê² ¨
ëħ ģ
Ġí ĭĢ
íĴ Ī
ĠíķŃ ìĥģ
Ġì§Ģ ëĤĺ
ë¡ ł
Ġí ĭ°
Ġë³´ ìĹ¬
Ġí İ
ìĬ¤ íģ¬
ë£ ©
ë³ ĳ
Ġìŀ Ķ
Ġíķ ©
ìĽ ł
íĸĪ ëĬĶëį°
ì¤ ¬
ëł¤ ìĦľ
ëĭ ´
ìĸ´ ìļĶ
ìłģ ìĿ¸
į ¼
Ġë¨¹ ìĹĪ
Ġë¨¼ ìłĢ
ê² Ĳ
ĠìŀĪ ê±°ëĵł
ĠëŃĲ ëĿ¼ê³ł
ĠëĲĺ ëĭĪê¹Į
ĠìĹ° ëĿ½
Ġëĭ¤ ìĦ¯
ìĻ ¸
ĠìļĶ ìĥĪ
ìĸ´ ìķ¼
ĠìĪĺ ê°Ģ
ë²Ħ ë¦¬
Ġì¡ ¸
Ġì£¼ ê³ł
ê¸ Ģ
ê ·
ë³´ ëĭĪê¹Į
ĠìĿ´ ê±´
Ġê·¸ë Ĥ
ëĥ ī
ĠëĦĪ ëĬĶ
ëĶ ±
ê² ¼
ìķĺ ëĬĶëį°
Ġê²Į ëĤľ
Ġê± Ķê°Ģ
Ġë³´ ëĬĶ
ĠíĸĪ ì§Ģ
ë¦¬ ë¥¼
íĻ ©
Ġê±° ê³ł
Ġê º¼
Ġíĸ Ħ
ëı Ī
Ġë¬´ ì¡°ê±´
Ġì¢ĭìķĦ íķ´
ĠìķĮ ì§Ģ
ëł ¨
ĠíĬ ¹
Ġë ½
Ġíĺ Ħ
ì¢ ħ
ìĭ¬ íŀĪ
ìĿ´ ëĭĪê¹Į
ì§Ģ ê¸Ī
ìĸ´ ëıĦ
ì° ½
ìģ ľ
ëį ´
Ġí Ħ°
ĠìĤ¬ëŀĮ ëıĦ
ĠìĿ´ëŁ° ê±°
ìĿ´ ê±°
ê²ł ëĭ¤ê³ł
ĠìĭĿ ìľ¼ë¡ľ
ĠìķĦ íĮĮ
ë³ ¼
ĠëıĻ ìĥĿ
ìĬµ ëĭĪëĭ¤
Ġê°ĸ ê³ł
ëĪ Ħ
Ġë° ĳ
ĠìŀĲ ê¾¸
ì¹ľ êµ¬
ì£ ł
Ġê·¸ë §
ĠìĤ¬ ìĭ¤
ë§Ī ìĶ
Ġë ĥ
ë§Į ìĽĲ
Ġê°Ķ ëĬĶëį°
íĮ Ķ
Ġë° ¤
Ġì² Ń
Ġìĸ¸ëĭĪ ê°Ģ
Ġì ¼
ê´ ĳ
Ġë ¡
ĠìĤ¬ ê³ł
Ġìĸĺê¸° ë¥¼
ĠìķĦ íĶĦ
ĠëĤ ³
ì§Ģ ê°Ģ
Ġì°¾ ìķĦ
ë ķ
Ġëª¨ë¥´ ê²ł
Ġê·¸ëŁ ´
ê ¿
Ġìĸ´ ë¦´
ê°Ģ ëĬĶ
ìį ¨
ĠìĿ ½
Ġì º
ĠíĸĪ ëįĺ
Ġìļ ¸
ĠìĹ´ ìĭ¬íŀĪ
ë° Ľ
Ġëģ ¼
ĠìĬ¤ íĥĢ
Ġê ¶
ê¸° ë¡ľ
Ġê¹ ¨
Ġë© ´
Ġ (
Ġê·¸ëķĮ ëĬĶ
Ġì¤ĳ êµŃ
ìĭľ ê°Ħ
ĠìķĪ íķ´
ëĥĲ ë©´
ĠìĿ´ ë²Ī
ì ¸
Ġìļ° ë¦°
Ġìĵ ¸
Ġìķŀ ìĹĲ
ìķĦ ë²Ħì§Ģ
ĠìĻ ķ
¿ ł
Ġê±¸ ë¡ľ
Ġë¹Ħìĭ ¸
ê ¶
êµ °
ĠìĤ¬ ìĿ´
ì´ Į
Ġì¶ ľ
ê°Ģ ìĦľ
Ġê·¸ë§ Į
Ġname ê°Ģ
ê·¸ ëŁ¼
Ġë¬´ ìĦľ
ĠìĤ¬ íĪ¬
Ġì¤ĳ ìĹĲ
ĠìĹ¬ê¸° ìĦľ
ìħ Ķ
Ġëĵ ±
Ġëı ħ
Ġëģ Ĭ
ĠëĤĺìĺ¤ ëĬĶ
Ġí ĳľ
ĠìłĪ ëĮĢ
Ġë Į
Ġê³ł ëĵ±íķĻêµĲ
Ġë ¿
í ĳľ
ìĿ¸ ì§Ģ
Ġë² ł
ëĵľ íı°
ĠíĥĢ ê³ł
Ġê±´ ê°ķ
ĠíĻĶ ìŀ¥
ê¸° ë¥¼
Ġìĺ¤ ìĭŃ
Ġíķĺ ëĭ¤
ëł ¹
ìĽĮ ìĦľ
Ġì¢ĭìķĦ íķĺëĬĶ
Ġë§Įëĵ¤ ìĸ´
Ġìĺ¤ ëĬĶ
ĠìķĦ ë²Ħì§Ģ
ëĵ¤ ìĿĦ
ëģ¼ ë¦¬
íĥ ķ
Ġë ¸
Ġì¡ ´
ĠìŀĪ ìĹĪìĸ´
Ġì ħ
ìłĦ ìĹĲ
Ġê·¸ëŀĺ ê°Ģì§Ģê³ł
Ġìļ°ë¦¬ ëıĦ
ëĿ¼ ìĦľ
íķ ©
ìĹĲ ìļĶ
Ġì ³Ĳ
Ġìĵ° ê³ł
± ìłķ
ĠìŀĪ ëĭ¤
Ġë§Ĳ íķĺëĬĶ
ìĹĪ ì§Ģ
ìŀĪ ëĬĶ
ìĿ´ëĿ¼ ëıĦ
Ġê³ ³
Ġë¹ Į
¹ ìĭľ
ìĻ ķ
Ġì ª
ìĹĲìĦľ ëĬĶ
Ġì§ Ī
Ġì§Ģê¸Ī ìĿĢ
ê³ ¡
ìļ° ëĬĶ
ë¶Ģ ëŁ¬
ì¢ ĭ
Ġìĵ° ëĬĶ
ĠëĨ į
Ġì¤ĳ ìļĶ
ëĨĵ ê³ł
ë³ Ģ
Ġê²¨ ìļ¸
ê°Ģì§Ģ êµ¬
Ġìŀĺ ëª»
Ġíķĺ ìĹ¬
Ġë³ µ
ìŀ¥ ìĿ´
ëįĶ ëĭĪ
ĠëŃĲ ê°Ģ
ìł ĳ
ì¶ ľ
Ġì± Ļ
Ġíķ¸ ëĵľíı°
Ġìĸ´ ë©į
Ġê±° ë¥¼
Ġíķ´ ì£¼
ĠíĸĪ ê±°ëĵł
ĠëĶ Ķ
Ġì ĥĢ
Ġë ł
ëĭ¤ ìĿĮìĹĲ
ì° ¬
ĠìĿ´ ê±¸
Ġê± ±ìłķ
ê² °
íĸ ¥
ĠìłĢ ëħģ
ĠëĬ ¦
ĠìłĢ ê±°
ĠìķĪ ìĹĲ
ĠëĮĢ íķĻ
Ġëĥ Ħ
Ġëĸ ł
Ġë§ĲìĿ´ ìķ¼
ìĸ ¸ëĭĪ
ìŀ °
Ġëķ ħ
ìĨ ¡
ëĬĶ ëĶĶ
ìĿ¸ ìĿ´
ìķ½ ê°Ħ
ë ľ
ĠìĶ ¨
Ġìŀĳ ìĿĢ
Ġíķĺ ëĤľ
Ġë§Ĳ íĸĪ
Ġë ¦¬
Ġëĭ® ìĿĢ
Ġì§ĳ ìĿ´
Ġíķĺ ë©į
Ġëĳĺ ìĿ´
ĠìŀĪ ìĹĪëĬĶëį°
Ġíķĺ ëįĶëĿ¼ê³ł
ì ĵ
ì°¨ íĶ¼
Ġí Ī¬
Ġìĭľ ì¼ľ
ĠëıĪ ìĿĦ
Ġì¤Ģ ë¹Ħ
íķľ ëį°
ê±´ ëį°
Ġì¶ ķ
ìłľ ì£¼
íĽ Ħ
ì¼ Ģ
ê±° ì§Ģ
ëĭ ¥
Ġë³´ íĨµ
Ġë²Ħ ìĬ¤
ê° ĳ
Ġê°Ģ ìĿ´
ìħ ĺ
íĶ Ī
ĠìķĬ ê³ł
íĨ ¡
Ġìļ ©
Ġë§Ī ìĬ¤íģ¬
Ġëĭ¤ ëħĢ
Ġê²Į ìŀĦ
ìķ Į
ĠìłĢ ë²ĪìĹĲ
ĠëıĪ ìĿ´
ĠìĿ Ģ
ĠìĪĺ ìĹħ
Ġë³ Ħ
ĠëĨĵ ê³ł
ê°Ģ ë©´
ì¶Ķ ë£©
ĠìľĦ ìĹĲ
ĠìĬ¤íĥĢ ìĿ¼
Ġê±°ê¸° ìĹĲ
ĠìĿ´ ë¯¸
Ġëĵ¤ ê³ł
ĠìĿ¼ ìĿĦ
ë© °
Ġëªħ ìĿ´
Ġìĺ¤ ë©´
Ġë° Ģ
ì ¯¤
Ġìĸĺ ê°Ģ
Ġíķĺ ê²Į
ĠìķĪ ëı¼
Ġì¤ ¬
íķ´ ê°Ģì§Ģê³ł
ĠìŀĲ ì²´
Ġëĭ¬ ëĿ¼
ĠìķĦ ë§Ī
ĠëĤ´ ìĿ¼
Ġë Ľ
ĠìŀĲê¸° ëĦ¤
ĠìĿ´ íķ´
Ġë§Į ìĽĲ
Ġëħ ¹
ĠìĹĨ ìĿ´
ìĭľ ëĬĶ
Ġëĵľ ëĿ¼
Ġìĺ¤ ê³ł
Ġê°Ģ ê²Į
ë¥ ĺ
Ġìľł ëªħ
ìĬ ·
ĠìŀĪìĸ´ ìĦľ
ĠìĿ´ ê²ĥ
ĠëĶ° ë¡ľ
ë² ½
íĮ Ĳ
ëı Į
Ġíķľ ëĭ¤ê³ł
Ġì± Ħ
Ġìł Ĭ
Ġê²ĥ ìĿ´
ê·¸ ëĥī
Ġìķ Ķ
ëĶ °
Ġë§Ĳ íķĺ
ì Į
ìĿ´ ëłĩê²Į
ìķ ħ
Ġê¸° ë¶Ħ
ë§Į ìĿĢ
ê½ Ī
ĠêµĲ ìĪĺ
ë§ĪìĶ ¸
ìĹĲìĦľ ëıĦ
Ġë© Ģ
ĠìĿ´ ëª¨
ìļ° ê³ł
Ġíĺ ¹ìĭľ
Ġê±°ê¸° ëĬĶ
ĠëĨ Ĵ
Ġëĵ¤ìĸ´ ìĺ¤
ì° Į
ë² ķ
Ġë§ŀ ëĬĶ
ìŀ ĺ
ëĬĶê±° ìķ¼
Ġì¹´ íİĺ
Ġìĭľê°Ħ ìĿ´
ìķ Ķ
ĠìķĪ íķĺê³ł
Ġë½ ĳ
íĤ ¨
ĠíļĮ ìĤ¬
Ġëª° ëŀĲ
ê·¸ ê²Į
ê³ ±
ì¢ Ģ
ĠíĶ Ħë¡ľ
ê°Ģ ê³ł
ìĻĢ ìĦľ
Ġì¶ ©
Ġê° ģ
Ġíķĺ ëĭĪê¹Ĳ
ĠíķĺëĤĺ ëıĦ
ĠíĹĪ ë©į
ĠìĹ¬ ìĦ¯
ìĸ´ ëĸ
Ġíķľ ëĭ¤
Ġì ĥī
Ġë¹ µ
Ġì ĥ
ëĬĶ ê²Į
ĠíĸĪ ìŀĸìķĦ
ĠíĻ ĺ
ê±° ëĤľ
ĠëŃĲ ëĿ¼
ĠìĿ¼ ìĸ´ëĤĺ
ĠëŃĲ ìķ¼
íĿ ¬
ë§Ī ìĶ¨
Ġì¹ľêµ¬ ê°Ģ
ĠëĥĦ ìĥĪ
ë§Į íģ¼
Ġíķĺ ëįĶëĿ¼
Ġë´¤ ëĬĶëį°
Ġìĥģ íĻ©
Ġëľ ¨
Ġë© °
Ġíħ Į
ĠëĤ¨ íİ¸
ì° į
Ġìĸ´ ì°¨íĶ¼
ĠëĽ °
ìŀĲ ê°Ģ
Ġë¶Ģ ëª¨
Ġìŀ¡ ìķĦ
Ġë´¤ ìĸ´
Ġëĸ ¡
ëı ħ
ĠìĹ¬ ëŁ¬
ĠíĹĪ ëĤľ
ëħ Ķ
Ġë¹Ħ ìĬ·
ĠìĹ Ń
ë¦¬ ë©´
ë¨¹ ê³ł
Ġë¬´ ìĤ¬
Ġì¤ĳ íķĻêµĲ
ĠìķĦì¹¨ ìĹĲ
ê¹ Ķ
ĠìķĦë¹ł ê°Ģ
íķľ ê±°
ĠíĹ Į
Ġëª» íķ´
ê» ´
ê°Ħ ìĹĲ
Ġê¸° ëĭ¤
ĠëĦ Į
ĠìĹ¬ ë¦Ħ
ĠíĹ ¤
Ġë³´ ëĤľ
Ġê°Ģ ì¡±
ëĭ µ
ìĿ´ ëĭ¤
ë »
Ġëĭ¹ ìĹ°
íģ¬ ëĿ¼
ĠëĲĺ ìŀĸìķĦ
ĠìĤ¬ ìĭŃ
Ġì ¦
íķ Ń
Ġëĭ¤ ë¥´
ĠìŀĪìĸ´ ìķ¼
íĹĪ ëĤľ
Ġìŀł ê¹Ĳ
íĹ Į
Ġìĸ´ ëł¤
ĠëĮĢ íķ´ìĦľ
Ġì´Ī ëĵ±íķĻêµĲ
) )
ìłķ ëıĦ
ĠìĦľ ë¡ľ
ĠíĻķ ìĭ¤
ĠìĦ± ê²©
Ġê±° ìŀĸìķĦ
Ġê°Ķ ìĿĦ
ĠíķĺìĹ¬ íĬ¼
ĠìķĦëĭĮ ëį°
Ġìŀħ ê³ł
ĠëĲľ ëĭ¤
ëĸ ¡
Ġëį° ëł¤
Į ê³ł
ì§Ģ ë§ī
ìŀĲ ê³ł
Ġëª¨ë¥´ ê²łìĸ´
ìĺĢ ìĸ´
ĠíķĻ ìĽĲ
Ġê°Ģ ëģĶ
Ġì£¼ ëĬĶ
ê·Ģ íı¬
ĠìĺĽëĤł ìĹĲëĬĶ
ì§Ģ ë¥¼
Ġê¿ Ī
ĠìĿ´ ìĭľ
ĠìĥĿ íĻľ
ĠìĤ¬íĪ¬ ë¦¬
Ġì² «
ìĿĢ ê±°
ĠìķĬ ìķĺ
ë¨ ¸
ĠìĿ´ ìľł
ĠìŀĪ ëĭ¤ê³ł
ĠìĻĶ ëĭ¤
ëŀ ¬
íŀĪ ëł¤
ì ¿ł
ìĹ¬ ìĦľ
ëł ģ
Ġëģ ĵ
Ġìĭł ê¸°
ìĭľ ìĹĲ
í Ħ
Ġí ĥģ
ì¼ Ħ
Ġìĭ¶ ëĭ¤
ĠëķĮ ê°Ģ
ì§Ģ ë©´
ì £½
ìĬ¤ íĥĢ
ê¸° ê³ł
ĠìĦ¸ ìĥģ
íķĺ ê¸°
ĩ ´
Ġë§Ĳ ëıĦ
ê° ĸ
ëĦĪ ë¬´
ìĬ ¬
íĻ ī
ëĶ ©
ìĤ¬ ê°Ģ
ĠìķĦëĭĮ ê°Ģ
ìŀĪ ìĸ´
ĠìĹĨ ëĬĶëį°
ĠëķĮ ë¶ĢíĦ°
Ġìķł ê°Ģ
ëłĪ ìĬ¤
ìĪ Ļ
ìĤ¬ ë¥¼
Ġê±´ ê°Ģ
ìĭľ ê³ł
ĠëĤĺ ëĿ¼
Ġíķł ìķĦë²Ħì§Ģ
ĠìķĮ ìķĺ
ì ©
³ ìĿ´
í ĥĿ
í ļ
ëħĦ ìĹĲ
ìĿ´ ê²Į
Ġë°Ķ ê¿
Ġë³ Ģ
ëĨ Ķ
Ġê· ¤
ìĦ ¤
Ġë¯¸ ìķĪ
ĠìĿ´ê±° ëĬĶ
ë³ Ħ
í ľ´
Ġëĭ¤ ëĭĲ
Ġë ļ
Ġë°Ľ ê³ł
Ġì¡¸ ìĹħ
ĠëĶ° ëĿ¼
ĠìĤ ¶
Ġì° ©
ëĵ¤ìĿ´ ëŀĳ
Ġìĸ´ ë¥¸
ĠìķĦ ë°©
Ġëª¨ ëĵł
ĠìĹĲ ìĿ´
ĠëıĮìķĦ ê°Ģ
ĠíĸĪ ìĿĦ
ĠíĬ ¸
ĠìĻ Ħ
ĠëĤĺ ìĦľ
Ġì»¤ íĶ¼
Ġë³´ ë©´ìĿĢ
ĠëĬĲëĤĮ ìĿ´
ìĭ ¶
Ġëĭ¤ ëħĶ
ìĸ´ ê°Ģì§Ģê³ł
íĸĪ ëįĺ
ëĲ ł
ĠëĵľëĿ¼ ë§Ī
ë Ģ
Ġì¢ĭ ìĿĦ
ìĹĦ ë§Ī
ê¹Įì§Ģ ëĬĶ
ĠìķĦìĿ´ ê°Ģ
ĠëĲľ ëĭ¤ê³ł
ì» ¤
ĠìĬ¤ íĬ¸
Ġìĭł ê²½
Ġë§Ī ì§Ģë§ī
Ġíķĺ ê±°ëĵł
ìĺĪ ìļĶ
Ġê·¸ê±¸ ë¡ľ
íķĺ ìŀĸìķĦ
Ġí ľ´
ĠìĦł ë¬¼
Ġìĸ µ
Ġê¼ ¬
Ġíķ´ìķ¼ ì§Ģ
ê² ¬
ĠìķĬ ìĿĢ
ìĹĲ ëĭ¤ê°Ģ
ìħ ¨
Ġìĺģ ìĸ´
ëĵ ¯
ê¶ Į
Ġìª ¼
Ġë¡ ľ
ĠìĹĨ ìľ¼ëĭĪê¹Į
ìłĢ ê»ĺ
Ġë³´ ë©´ìĦľ
Ġë§İ ê³ł
ëĭ¤ ëĭĪ
ìĪĺ ê°Ģ
Ġëł Ī
ĠìļĶì¦ĺ ìĿĢ
Ġë°Ķ ëĢ
Ġê¸ Ģ
Ġê·¸ë ¦
ĠìĦłìĥĿ ëĭĺìĿ´
ĠìŀĲ ë¦¬
ìĹĪ ìŀĸìķĦ
ĠìĦľ ê·Ģíı¬
Ġì ĩ
Ġìĭľ íĤ¤
Ġê± ·
ĠëĲĺ ëĤĺ
Ġë¯ ¿
íķľ ëĭ¤
ìĪ ľ
Ġê·¸ëłĩ ì§Ģ
ĠëĮĢ íķľ
ī ´
Ġëĭ µ
ĠìĤ´ ê³ł
ìĺ ĽëĤł
ëķĮ ëĬĶ
Ġ( (
ĠëĤĺ ìĺ¬
Ġê³ł ê¸°
ĠëĮ ķ
ëĲ Ĳ
ĠìķĬ ìĿĦê¹Į
ì± Ħ
ëĤĺ ëĿ¼
Ġë¬´ ìĭł
ìĵ °
ìĭł ê°Ģ
Ġê »
ĠìĻ¸ êµŃ
Ġë§Ľ ìĿ´
ìĸĳ ìĿ´
íĺ Ħ
ì¤ĺ ìķ¼
Ġê°Ģ ëĭĪê¹Į
ìľ¼ë©´ ìĦľ
Ġì§Ģê¸Ī ëıĦ
Ġê¹ ľ
ê°ĸ ê³ł
Ġìķī ìķĦ
ëħ Ĳ
Ġê·¸ëĤ ł
Ġë§ Ŀ
ĠëĴ¤ ìĹĲ
Ġê´ ĳ
ë§ Ľ
Ġìį ¼
ĠëĨ Ī
Ġë°ĳ ìĹĲ
ĠìķĦë¬´ íĬ¼
Ġìłķ ìĭł
ĠìķĦì§ģ ëıĦ
ë´ ī
Ġìĭľ ìĹĲ
ê³ ¨
Ġë »
Ġìŀ Ħ
Ġìĺ¤ë¹ł ê°Ģ
Ġêµ° ëĮĢ
ĠìĤ´ ìķĺ
Ġìļ´ ìłĦ
Ġê±° ëĭĪê¹Į
Ġê² ģ
ĠëĤĺ ë¥¼
ëĤ Ń
Ġíŀĺëĵ¤ ìĸ´
Ġìĺ¤ íŀĪëł¤
Ġëį° ê°Ģ
ĠìĹĨ ìŀĸìķĦ
ê·¸ ëłĩê²Į
ë¥´ ê³ł
ë¶ ģ
Ġê³ł ë¯¼
ë§Į íŀĪ
Ġíķĺ ìĺģ
Ġê°ľ ìĽĶ
ìĹĪ ê³ł
ìĸ´ ë¨¸ëĭĪ
ì¶ °
íķĺ ëĤľ
ĠíĮ Ĳ
Ġë¨¹ìĸ´ ìķ¼
Ġxx x
ĠìĹĨ ì§Ģ
ëĿ¼ ë¦¬
Ġìļ°ë¦¬ ì§ĳ
Ġë°Ķ ëĭ¤
ëį Ł
Ġê¹Ģ ì¹ĺ
ĠìĹĨìĸ´ ìĦľ
Ġê¸°ìĸµ ìĿ´
Ġë¨ ¸
ĠíĮ ¨
ĠëĤ ¬
ĠëĦĪ ëıĦ
íħ Ĳ
Ġê±Ķ ëĬĶ
ìĹ ´
ĠìĿ´ ìķ¼
Ġê°Ļ ê³ł
ìĿ µ
Ġë¹Ħ íĸī
Ġìĺ¬ íķ´
Ġìłģ ìĿ´
ĠìĤ´ ì§Ŀ
ëĤĺ ìĦľ
Ġìħ ĭ
ì£¼ ìĿ¼
Ġí Ħ
Ġìĸ´ ë¦°
Ġë¿ Į
Ġê·¸ ìª½
ĠëĤĺìĺ¤ ê³ł
Ġë ĥī
ĠìĿ´ ì²ľ
ê·¸ëŁ¬ ë©´
Ġëĵ£ ê³ł
Ġê¶ ģ
íķ ĳ
Ġë´¤ ìĿĦ
Ġì¡´ ëĤĺ
Ġê°Ķ ìĸ´
ìŀ¥ ìĹĲ
Ġì¢ĭ ê³ł
Ġê¸ ī
ĠìĥĪ ë¡ľ
ìĿ´ ìŀĸìķĦ
ĠíķĻ ìĥĿ
ĠìĿ´ëŁ¬ ë©´ìĦľ
Ġêµ ³ìĿ´
Ġì£¼ ë³Ģ
Ġìĸ´ì© Ķ
ìŀ¥ ëĭĺ
Ġë´Ĳ ìķ¼
ìłĢ ê¸°
ìļ ķ
ĠìĿ´ ê²ĥëıĦ
Ġë² Ĺ
Ġê¹ Ķ
Ġê·¸ëŁ¬ ëĭĪê¹Ĳ
i n
íķĺ ëĤĺ
in g
ĠëĦĺ ìĸ´
ĠìĿ´ ëŀĺ
Ġëª¨ë¥´ ëĬĶ
Ġì° ½
ĠëĨĢ ëŁ¬
ëĵ¤ íķľíħĮ
í į¼
ĠìĤ¬ ëŀĳ
ëĵľ ëĬĶ
ì ī
ì¶ ©
ĠíĻķìĭ¤ íŀĪ
ëł¸ ìĸ´
ìĿ´ ìĸ´
ê°Ļ ìĿ´
ĠìķĦ íĻī
ì° ©
ĠìļĶ ë²ĪìĹĲ
Ġê²½ ìļ°
ê¼ ¬
ĠìĺĪ ìģĺ
íķľ ëĭ¤ê³ł
Ġìłľ ìĤ¬
Ġíķ´ ë³´
Ġì´ Į
Ġê±° ëĤľ
ìł¸ ìĦľ
íķĺ ëĭ¤ê°Ģ
ì ³
ë° Ģ
Ġíģ¬ ê²Į
Ġí ĥĿ
Ġì½ ©
ê³ ¤
ë¸ Ķ
ĠìĿ¼ ê³±
ëģ Ħ
Ġê²ĥ ë§Į
Ġìī ½
Ġìĸ´ëĶĶ ìĦľ
Ġìł ĳ
ĠëĶ ´
íķ ¨
Ġëĭ¤ ëĵ¤
ìķĦ ìķ¼
ĠìĹĨ ëĭ¤
íķĺ ê±°ëĵł
íĻ ķ
Ġì±Ļ ê²¨
ìłĢ ìĶ¨
ì¶ ĺ
ëĤĺ ê°Ģ
í ĥģ
ìķĦ ì§Ģ
Ġìłľ ê°Ģ
Ġê±°ê¸° ê°Ģ
Ġëĭ¬ ìĹĲ
ëª °
ìķ Ĭ
ĠìķĬ ìķł
Ġìĵ ´
Ġìĥģ ê´Ģ
Ġì ¸
Ġë º
ë¦¬ ëıĦ
Ġìŀ¥ ëĤľ
ĠìĬ¤íĬ¸ ëłĪìĬ¤
ìĹĪ ìĿĦ
Ġì Ł
ì Ł
ìĻ Ħ
Ġëĺ ¥
ëŀĺ ëıĦ
Ń ī
ì ·¨
Ġë§ŀ ì§Ģ
Ġìŀ¬ë¯¸ ìŀĪ
Ġëĵ¤ìĸ´ ìĦľ
Ġë¨¹ ìĿĢ
ĳ ¸
Ġìĸĺ ëĦ¤
ì ĥ
ëĵł ì§Ģ
ĠìŀĪ ëĤĺ
ĠìķĮìķĦ ìĦľ
ìĸ ĺ
ĠìĥĪ ë²½
ĠëĤ «
ĠìĹĨ ìĿĦ
Ġê·¸ ëĭ¤ìĿĮìĹĲ
Ġë´ Ķ
ë¹ µ
Ġëĭ¤ëĭĪ ê³ł
Ġë§ĪìĿĮ ìĿ´
Ġë´ ī
Ġê·¸ ì¹ĺ
ë¹ ¨
Ġë¯¸ êµŃ
ëĶĶ ëĭ¤
Ġë§ ¥
Ġí į¼
íķĻ ìĥĿ
Ġëª» íķĺê³ł
íħ Ķ
íķĺ ê¸´
ĠìŀĪìĸ´ ìļĶ
ê·¸ëŀĺ ëıĦ
ìĽ Ģ
Ġìº Ĳ
ì± ħ
Ġëį °ë¦¬
ĠìĶ »
ëį ķ
ĠìĿ¼ ì£¼ìĿ¼
Ġìĥģ íĥľ
ìĻľ ëĥĲ
ë³´ ëĭ¤ëĬĶ
ĠëģĿëĤĺ ê³ł
ĠìĥĿ ê²¼
ĠëķĮ ë§Īëĭ¤
ĠìĤ¬ëŀĮëĵ¤ ëıĦ
Ġë²Ī ëıĦ
ĠìķĦë¬´ ê²ĥëıĦ
ĠëĤ ®
Ġíķĺ ê¸°
Ġíķĺ ê¸´
Ġë¶Ī ëŁ¬
ìŀ ¡
ĠíĹ Ĳ
Ġíķł ë§Ŀ
ìĹĪ ëĤĺ
ë´¤ ìĸ´
Ġë¯ ¼
Ġì ı
Ġíķľ ëĿ¼
Ġê´Ģ ê´ĳ
ë¦ ½
Ġê±° ëĿ¼ê³ł
ĠëŃĶ ì§Ģ
Ġëĭ Ń
Ġì§ľ ì¦Ŀ
Ġí ĥĪ
ĠìķĦ ìłĢìĶ¨
Ġê´ľì°® ìķĦ
ìĹĪ ëĭ¤
Ġê·¸ëłĩ ê³ł
ĠìĥĪ ëģ¼
Ġìĭ¶ìĿĢ ëį°
Ġì ĮĢ
Ġë© ĭ
Ġëĭ¹ìĹ° íŀĪ
ĠìĻĢ ê°Ģì§Ģê³ł
ëĿ¼ ìĿ´
Ġê°Ģ ë©´ìĿĢ
ĠìķĦìĿ´ ëĵ¤ìĿ´
Ġìķł ëĵ¤ìĿĢ
ĠíĻĶìŀ¥ ìĭ¤
Ġìŀĺ íķ´
Ġë°Ķ ëŀĮ
Ġê²° êµŃ
Ġë§ĽìŀĪ ìĸ´
Ġê°Ģ ë¥´
Ġìĭ ¹
í ĭĢ
ê±´ ëĶĶ
Ġë¸ Į
Ġëį ľ
ĠëĬ ĺ
Ġê·¸ ëĭĪê¹Ĳ
ĠëĦ£ ê³ł
ĠìķĪ ëĤĺ
ĠìĬ¤ ë¬¼
ì¡ į
íķĺëĬĶ ê±°
ĠëĤĺ ë¬´
ìĬ¤ íĬ¸
ìļĶ ì¦ĺ
Ġë°Ľ ìķĺ
ëł¤ ë©´
ëĳ ¥
ëĵ¤ ìĸ´
Ġê·¸ëŁ¬ ê³ł
Ġë°Ľ ëĬĶ
ĠêµĲ ìľ¡
ìĹ ¼
ĠìķĮ ìķĺìĸ´
ì° ¸
ĠìĿ¼ ì°į
ĠëĲĺ ëĬĶê±°
Ġê ¾¸
ë§Ī ìŀĲ
Ġëª¨ ìĸĳ
ë´Ĳ ìķ¼
ë Ĵ
Ġê´Ģ ìĭ¬
Ġíķĺ ëł¤ê³ł
Ġë§ĽìŀĪ ëĬĶ
ì¤ Į
Ġì¢ĭ ìķĺ
ĠìĤ¬ëŀĮ ìĿĦ
ĠíĶ Ħ
Ġê°Ģ ëıĦ
êµ¬ ë§Ī
ĠìĥĿ ìĿ¼
ìĹ¬ ê¸°
Ġì¹ľêµ¬ ëĵ¤
ë ļ
ê±° ë¦¬
ëł¸ ìĿĦ
ëŁ ī
ĠíĬ Ģ
ĠìĿ´ìĥģ íķľ
ĠìĿ´ ìĭłëĶĶ
Ġíķ ¨
Ġëĭ¤ëĭĪ ëĬĶ
ìĸ ¼
ì¶ ķ
ìŀĲ ë§ĪìŀĲ
Ġìľ¡ ìĭŃ
ëł Ģ
ìĿ´ ëıĦ
ĠìŀĲ ìĭĿ
ë§Į íķľ
Ġê°Ģ ê°Ģì§Ģê³ł
Ġê¸° ëıĦ
Ġê±¸ ìĸ´
ìĹ¬ íĸī
ĠìķĦìĿ´ êµ¬
ĠìĮ ĵ
ë²Ħ ëł¤
Ġë§Ĳ ëĿ¼ê³ł
ĠìĬ ¬
Ġì¹ ¨
ĠìĪĺ ìĪł
Ġê³ł ìĥĿ
íķĺ ëĭ¤ê³ł
ĠìĹ¬ ëįŁ
ìĿĢ ëį°
ĠìłĲ ìĭ¬
Ġë¹Ħìĭ ¼
Ġìĥī ê¹Ķ
ì§ ĵ
ëł¥ ìĿ´
Ġì°¨ ëĿ¼ë¦¬
ìĺ¤ ê³ł
Ġë¶Ģ ë¶Ħ
ĠìĻĶ ìĸ´
Ġê°Ļ ëĭ¤
ëĮĢ ê°Ģ
Ġìĺ¬ ëł¤
Ġë´Ĳ ëıĦ
ĠëĬ¦ ê²Į
Ġë¶Ģ ë¥´
ìĨĮ ë¦¬
Ġê¸° ë³¸
Ġì¼ ĢìĿ´
Ġì² ł
Ġê°ĻìķĦ ìļĶ
Ġë¨¹ìľ¼ ëŁ¬
Ġì¢ĭ ëĭ¤
ĠëĮĢ íĻĶ
ĠìĽ Ģ
ĠìķĦ ìľł
Ġê¸Ī ë°©
ìľ¼ ëŁ¬
ë² Į
Ġê°Ģ ë§ĮíŀĪ
ĠìĽ Į
ĠìŀĲì²´ ê°Ģ
Ġê°Ģ ê¹Į
ĠëĮĢ íķĻêµĲ
ĠìĭĿ ëĭ¹
Ġname ëĬĶ
Ġê±°ê¸° ëıĦ
ĠìĪ Ļ
ê¸° ë§Į
ĠìŀĲê¸° ëĬĶ
Ġë¨¹ ì§Ģ
íģ ´
ìłľì£¼ ëıĦ
ìŀ Ķ
ìļ´ ëį°
ì§Ģ ìĸ´
íļ į
Ġëª¨ë¥´ ê³ł
Ġxx xx
ìĻ ĦìłĦ
ìĿ´ ëŀľ
ì§Ģë§Į ìĿĢ
ëĲĺ ëĬĶ
ĠìłĢ ëĬĶ
ĠìłķëıĦ ë¡ľ
íķĺ ëĦ¤
Ġìĸ¸ëĭĪ ëĬĶ
Ġê¹ľ ì§Ŀ
ìĻľëĥĲ íķĺë©´
Ġìĺ¬ëĿ¼ ê°Ģ
ìľ¼ ëĭĪê¹Ĳ
Ġëª¨ë¥´ê²ł ëĬĶëį°
Ġíŀĺ ëĵł
Ġë³´ ëĭ¤
ì£¼ ë©´
ëĥ Ī
Ġë¨¹ ìĹĪìĸ´
ìĿ´ëĿ¼ ëĬĶ
Ġí ļ
ĠíĻ į
Ġë² ķ
Ġí ĩ´
ê±¸ ë¡ľ
íı ī
ê¹ Ģ
ëķ Ĳ
ĠêµĲ íļĮ
ëĤ ¸
Ġê¶ģ ê¸Ī
ìĦ Ń
ĠìĥĿê°ģ ëıĦ
ëıĻ ìķĪ
ë°© ìĿ´
Ġê·¸ë Ķ
ë§Ī ëĬĶ
ĠíķĺëĬĶ ê²Į
Ġíĺ¸ ëģĶ
ê°Ķ ëĭ¤
Ġìĸ´ ìłĢê»ĺ
Ġëĭ®ìĿĢ ëĶĶ
Ġìŀ Ĭ
ĠìłĬ ìĿĢ
ìŁ ģ
ì° °
Ġê²ĥ ëĵ¤
ëĲĺ ê³ł
Ġìª½ ìľ¼ë¡ľ
Ġë§Ĳ ìĿĢ
Ġì§ ĵ
ĠìķĦ íĶĪ
ĠìĥĿê°ģ íķĺë©´
ëĵ Ŀ
ìĿ¸ ëĶĶ
Ġë§Į ëĤ¬
Ġìª½ ìĹĲ
Ġì¢ĭ ì§Ģ
ĠìĪľ ê°Ħ
Ġë´Ĳ ë´Ĳ
ĠìĭŃ ìĿ´
Ġë§Į ëĵł
ë§ ģ
ĠìĪ ¨
ìĦ ¼
Ġì¢ĭìĿĢ ëį°
Ġë°Ľ ìĿĦ
Ġìļ°ë¦¬ ëĤĺëĿ¼
ĠìŀĲ ì£¼
Ġê±° ìĹĲ
ĠìŀĪ ê¸´
ìĺ¤ ëĬĶ
ĠìĿ¸ ìĥĿ
ìĹĪ ëĦ¤
íķĻ ëħĦ
Ġì» ´
ìĿ´ ê±°ëĵł
ëł ĩ
Ġìį °
ë° Ń
ìĨ Ĳ
Ġê³ §
ë¦¬ ìĬ¤
ëĵľ ëĿ¼
ĠìĿ¼ ìĸ´
Ġìĸ´ë¨¸ëĭĪ ê°Ģ
ê²ł ëĦ¤
Ġìĸĺê¸° íķ´
Ġë²Ħ ë¦¬
ĠìĥĿ ê¸´
ĠìĽĢ ì§ģ
a d
Ġì·¨ ë¯¸
Ġë°° ìļ°
e s
r es
ĠìŁ ¤
ëĦ ·
íĮ ħ
Ġëħ¹ ìĿĮ
ĠìŀĪ ìĸ¸
ad d
res s
ìŀĸìķĦ ìļĶ
Ġë¹ ¡
ĠìķĦëĭĪ ì§Ģ
Ġìłľì£¼ëıĦ ìĹĲ
Ġë¬´ ìĭľ
ĠìŀĪìĹĪ ê±°ëĵł
íĸ Ħ
Ġname ëŀĳ
add ress
Ġê²Ģ ìĤ¬
ìŀ¥ ìĿĦ
ë´ Ķ
ĠíĦ ¸
ĠìķĦ ëĥĲ
Ġìĭľ ì§ĳ
ìĽĲ ëŀĺ
íĸĪ ì§Ģ
Ġì¹´ íĨ¡
Ġê½ ĥ
ĠìŀĲ ìĹ°
ì º
ĠìĺĪ ë¥¼
Ġë° ĸ
Ġê°ĸ ëĭ¤
Ġíķĺ ëĿ¼ê³ł
Ġë§ŀ ì¶°
ë¨ ¸ë¦¬
ĠíĸĪ ëĭ¤
Ġìĸ´ëĸ ¡
ìĪĺ ëıĦ
Ġë¶Ģ ìĤ°
íĴ į
ĠëĤĺ ìģĺ
ĠìĹ° ìķł
ì¸ ł
íĮ ¨
ëł µ
ĠìķĬ ìĿĦ
ĠìŀĪëĬĶ ê±°
íĹĪ ê³ł
ìĭľ ëĤľ
ìļ° ëĭ¤
Ġíķĺ ëıĦ
ë¬´ ìĽĲ
Ġë§ ¡
ĠëĬĲ ëģ¼
ëľ »
ìĬ¤ ê°Ģ
ëĨ ¨
ĠíĤ¤ ë¡ľ
Ġë¹Ħíĸī ê¸°
Ġìľ ¼
ìĿ´ ëŁ°
ìĭľ ë©´
Ġíķł ê±°
ê°Ļ ìĿĢ
íķ´ ìĭłëĶĶ
ĠìĿ´ ëŀ¬
Ġì²Ń ìĨĮ
ĠëĬĲ ê»´
ë³´ ëĤľ
Ġê³ł êµ¬ë§Ī
ìĺĢ ëĬĶëį°
Ġíķľ ê±°
Ġê°Ķ ëĭ¤ê°Ģ
Ġì¶ķ êµ¬
ì ª
íĻ ĺ
ĠìĺĪ ìłĦìĹĲ
Ġê³ ±
Ġìĺģ ìĥģ
ĠìĻĶ ëĬĶëį°
ëĭ¤ ìĿĮ
ìĿ´ëĿ¼ ìĦľ
ĠíķĺëĤĺ ìĶ©
Ġëį°ë¦¬ ê³ł
ĠëķĮ ê¹Įì§Ģ
ĠëĭĪ ê°Ģ
ĠìķĦëĭĪ ëĥĲ
Ġë§Ĳ íķĺë©´
Ġì£½ ìĸ´
Ġìĸĺ ëĬĶ
ĠíĹ¤ ìĸ´
ĠëıĦ ìĻĢ
Ġë³´ ìĿ´
Ġê·Ģ ì°®
ëĦ¤ ê°Ģ
ìĶ ¬
ĠëĤ´ ìļ©
Ġë¯¸ ë¦¬
Ġì¹ĺ íĤ¨
Ġëĸ ¼
Ġìĸ´ ëĶ
ĠìĿ¸ ìĬ¤íĥĢ
ĠíĶ Į
ĠìĹĨ ìľ¼ë©´
Ġíķĺ ëĦ¤
ĠëĦĪ íķľíħĮ
ĠìķĦìĿ´ ëĵ¤ìĿĢ
ĠëĤĺ ëĪ
ìł ¼
ĠíĻ ľ
ĠìĹĦë§Ī ëĬĶ
Ġëª» íķĺ
Ġì¸ µ
ĠìĿ¼ ë¶ĢëŁ¬
ì¹ĺ ëĬĶ
Ġname ìĿ´ê°Ģ
ê¹ ¡
ĠìĿ¸ íĦ°
ëĬĶê±° ëĿ¼
ìª½ ìľ¼ë¡ľ
Ġëĺĳê°Ļ ìĿĢ
ĠìķĦë¬´ ë¦¬
ĠìŀĪ ëĭ¤ê°Ģ
ëĬĲ ëĥĲ
ĠìłĲ ìłĲ
ìĿ´ íĬ¸
ê¸° ìĹĲ
ĠìķĶ íĬ¼
Ġì² Ļ
ì² ł
ĠìĻĦìłĦ íŀĪ
ĠíĮĮ ëĬĶ
ĠíķĺëĬĶ ëĶĶ
Ġìĺ¤ ì²ľ
ë» Ĳ
Ġ {
ĠìĺĨ ìĹĲìĦľ
ĠëĤĺ ë§Į
Ġëĭ «
Ġë°¤ ìĹĲ
ĠìķĦë¬´ ëıĦ
ìĸ´ ëĶĶ
ìķĦ ë¬´
Ġì´ Ŀ
ĠìĿ µ
Ġname ëıĦ
ì§ĳ ìĹĲ
ĠìķĦ ëĵ¤ìĿ´
Ġë ±
ĠíĹĪ ê³ł
ë´¤ ëĬĶëį°
ê°Ģ ëĿ½
Ġëį° ëĬĶ
Ġê°ľ ìĿ¸
ĠëĨĶ ëĳĲ
Ġë¨¹ìĸ´ ëıĦ
Ġìłľì£¼ëıĦ ëĬĶ
Ġì¤ĳìļĶ íķľ
ê¸¸ ëŀĺ
ëŃ Ķê°Ģ
ĠìĿ´ìľł ê°Ģ
Ġì§Ģ ê°Ģ
ëŁ ´
Ġë¶Ī íİ¸
ĠìĹ ħ
íĦ ´
ĠìĹĦë§Ī íķľíħĮ
Ġìĸ´ ëł¸ìĿĦ
ĠëĿ¼ ê³ł
ĠìļĶì¦ĺ ìĹĲ
ĠíĮĶ ìķĦ
Ġëĭ¤ íĸī
Ġíģ ´
ëĦ ¨
ĠìķĬ ëĬĶ
Ġì°į ìĸ´
Ġname ìĿ´ëŀĳ
Ġìĭł ì²Ń
ë¨¹ ìĸ´
ìĨ Ķ
Ġê±° ëŀĳ
ĠìŀĲ ê³ł
ĠëĤĺ ìģľ
ĠëĦ ĵ
Ġíķľ íħĮ
ì§Ģ ê²Į
ĠìłĢ ëłĩê²Į
íĸĪ ìĿĦ
Ġë©° ì¹ł
Ġë¹¼ ê³ł
Ġë°ĶëĢ Į
Ġíķĺë£¨ ìĹĲ
ë³´ ëĬĶ
ë¦¬ ì§Ģ
ì² Ļ
ĠëĤĺìĻĢ ìĦľ
ĠìľĦ íķ´ìĦľ
ĠëĪĪ ìĿ´
ĠìĥĿ ê¸°
Ġë°Ķê¿ Ķ
ì¸ µ
ì³ ¤
ë² ł
Ġê·¸ëŁ° ê²Į
Ġì Ńī
ìĭĿ ìľ¼ë¡ľ
ĠëĤ¨ìŀĲ ì¹ľêµ¬
ê³ł ê¸°
ĠìĿ¼ ëıĦ
ê°Ģ ë£¨
ê¹ ¨
ë¦ Ń
Ġê°Ģ ê¸°
Ġìķŀ ìľ¼ë¡ľ
Ġë¸ Ķ
ëĵ¯ ìĿ´
Ġì¤ĳ ê°ĦìĹĲ
ìłķ ìĿ´
ìĭ ¸
Ġë§Ĳ íķľ
Ġë§Ĳ íķł
ĠìĤ¬ëŀĮ íķľíħĮ
Ġê¸° ë¦Ħ
Ġì§ §
Ġë°¥ ìĿĦ
ĠíĤ¤ ìļ°
Ġí ĮĢ
Ġì¹ł ìĭŃ
Ġëĵ¤ìĸ´ ê°Ķ
Ġíĸī ë³µ
Ġëĵ¤ìĸ´ ê°Ħ
ĠìķĬ ëĤĺ
ĠìĤ¬ ëĿ¼
Ġì¹ ¼
ìļĶìĿ¼ ëĤł
Ġë³´ ëŁ¬
Ġê·¸ëŁ¬ ë©´ìĿĢ
ĠìĿ´ ë°±
Ġë²Į ìį¨
ĠìĤ¬ ìĦľ
ìĪĺ ê³¼
ĠìķĮ ëł¤
ĠêµĲìĪĺ ëĭĺ
Ġê·¸ëĶ Ķ
ĠíĸĪ ëĦ¤
Ġíİ ĺ
ëŁ Ń
Ġê°Ļ ê¸´
ê² ¡
íĥ Ħ
ì¹ĺ ê³ł
ĠìĽĥ ê¸´
Ġíķĺ ì§Ģë§Į
Ġê·¸ë ĮĢ
Ġëĭ¤ ë¦¬
Ġë°Ń ìĹĲ
ĠëĪĦ ëĤĺ
ê° Ĵ
ĠìĿ¼ ë°ĺ
ê¼ ¼
Ġìĺ Ģ
ĠìķĪ ëĲľ
ìī ¬
ìĹĲ ìĬ¤
Ġê°Ģ ê²©
ìª½ ìĹĲ
ĠìŀĪìĹĪ ëįĺ
Ġëª¸ ìĿ´
ķ Ĳ
Ġìľł íĪ¬
Ġì¹´ ëĵľ
ĠíĮĶ ìĭŃ
ĠìĿ´ ìĭł
ì§ľ ë¦¬
ìĺ¤ ë©´
Ġëĭ¤ìĿĮ ëĤł
Ġë°Ľ ìĿĢ
ĠìĮ ¤
Ġê°Ģ ëĬĶëį°
Ġìĭ¬ ì§Ģìĸ´
¼ Ī
Ġìĭł ëŀĳ
ĠìķĦ ëŀĺ
íķ Ħ
ĠëĴ ·
Ġëª» íķĺëĬĶ
ĠìķĦ ê¸°
Ġê°Ģ ìŀĲ
ĠìĬ¤ ë¬´
íķĺ ëŁ¬
Ġê¹Į ì§Ģ
ĠìĨĲ ëĭĺ
Ġìłľ ëĮĢë¡ľ
ĠìĤ¬ íļĮ
í ĭ
ëĭ¤ ëĭĪê¹Į
ĠìĿ´ëŁ¬ ê³ł
Ġìķŀ ìĹĲìĦľ
ë§Į ìĹĲ
ìĬ¤ ëŁ½
ĠëĦĪ ëŀĳ
ĠëĤł ìĶ¨
Ġì £
ë¦ ¿
Ġë§Ĳ ë¡ľ
Ģ ´
ìĬ¤ ë¡ľ
Ġë°° ëĭ¬
Ġíĺ¸ íħĶ
ĠìĦ ŀ
Ġê³Ħ íļį
Ġíķł ëł¤ê³ł
ê° Ŀ
ĠìĺĽëĤł ìĹĶ
Ġì§ģ ìŀ¥
ì¡Į ìĸ´
ĠìĥĿê°ģ íķĺëĬĶ
Ġê²½ íĹĺ
ĠëĿ¼ ë©´
ê±´ ê°Ģ
Ġíķ´ ë´Ĳ
ĠëĲĺ ìĸ´
Ġíķĺ ë¯Ħ
Ġë³´ ë¦¬
ê· ¹
ë ĳĺ
Ġì° Į
Ġë²Ī ìĶ©
ë¬¼ ìĿ´
ëį ľ
ìĬ ´
Ġê·¸ ì¶Ķë£©
ìĽĲ ìĿ´
Ġë§¤ ìĿ¼
Ġê¸ ´
Ġìĩ ¼
Ġìµľ ê·¼
ëĤĺ ë¬´
ì§Ģ ì§Ģ
a r
ìľ¼ë©´ ìĿĢ
ëŁ¬ ìĽĮ
Ġíĭ° ë¹Ħ
c l
e ar
cl ear
clear ing
Ġë§ ĺ
Ġê³ł ìĸĳìĿ´
Ġë¬¼ ë¡ł
ë¡ Ń
ĠìķĦë¬´ ëŀĺëıĦ
Ġìµľ ê³ł
Ġê±¸ ëł¤
ĠíĸĪ ëĭ¤ê³ł
Ġê·¸ëŀ¬ ëĬĶëį°
ë³ ¶
ë²Ħ ë¦°
ìĬµ ëĭĪê¹Į
ĠìĹĨ ëĭ¤ê³ł
Ġë ī´
ìĦ± ìĿ´
Ġì§Ħì§ľ ë¡ľ
Ġê·¸ë ķĲ
ìĹĲ ê²Į
ëĭ¤ ë¥¸
Ġë¬´ìĦľ ìĽĮ
ìĿ į
Ġì§ģ ìłĳ
ëĤ Ļ
ìĽ ĥ
Ġíķ´ìķ¼ ëĲĺ
Ġë§Į ëĵľëĬĶ
Ġì£¼ ë§Ĳ
ĠíĸĪ ìĹĪìĸ´
ĠíĶ¼ ë¶Ģ
Ġíķĺ ëįĺëį°
Ġì°¨ ê°Ģ
Ġì¤ĺ ìķ¼
Ġì¢ĭ ëĭ¤ê³ł
ìĺ¤ ë¹ł
Ġê°ķ ìķĦì§Ģ
ī ìŀ¥
ĠëĤĺ ê³ł
Ġìĭľ ì²Ń
ëłĪ ìĿ´
íķ´ ë¶ĢëĤľ
Ġëį° ìĦľ
Ġì§ĳ ìķĪ
Ġê°Ģ ìĭłëĶĶ
ĠëĤ´ ëħĦ
ì¡ ´
Ġë°Ķ ê¾¸
Ġìķī ìķĦìĦľ
ĠëĬ Ļ
Ġê·¸ëŁ¬ ë©´ìĦľ
Ġ Ġ
ìķĦ ë¹ł
ĠíĹ ¬
Ġë³´ íĹĺ
ìĭł ìĿ´
Ġê±° ë©´
Ġì¶ľ ê·¼
ĠìĦ ¼
Ġìĭł ê³ł
Ġíķł ê¹Į
ì ¥
ĠëĶ° ëľ»
ëł Į
ìĭľ ë¯Ħ
ìĭľ ì¼ľ
Ġë¶Ħ ìľĦ
ì ĮĢ
ê± Ķ
Ġì£½ ìĿĦ
Ġìŀĺ íķĺëĬĶ
ëįĺ ê°Ģ
ëıĻ ìĥĿ
Ġíķłë¨¸ëĭĪ ê°Ģ
Ġname íķľíħĮ
Ġì²ĺìĿĮìĹĲ ëĬĶ
Ġì£¼ ìłľ
ìĶ Ģ
ëĨ Ī
Ġê±´ ëĶĶ
ĠìķĦ ìļ°
ĠëĤĺìĺ¤ ë©´
íĮ ¡
ĠìĹĨ ìĹĪìĸ´
Ġìłľì£¼ëıĦ ìĹĲìĦľ
ìĥĿ íĻľ
Ġì£ Ħ
Ġìĵ° ëłĪ
Ġì¡° ìĭ¬
Ġì£¼ ë©´
Ġì°¨ ìĿ´
Ġê·¸ëĮĢ ë¡ľ
ĠìĭŃ ìĿ¼
Ġëĭ¤ ìĿ´ìĸ´
Ġìĭľ ìĸ´ë¨¸ëĭĪ
Ġê³µ ë¬´ìĽĲ
Ġìĸ »
Ġê·¸ê±° ìĹĲ
Ġê³ł ëª¨
Ġê·¸ëłĩê²Į íķ´ìĦľ
ĠìĹ¬ê¸° ëĬĶ
ĠìĦľ ë°©
ĠëĤľ ë¦¬
Ġëħ ¼
ë¡ ±
Ġìĸ´ ëłµ
ëķĮ ëıĦ
ĠìķĬ ìķĺìĸ´
ĠìĶ ©
ĠëĮĢ ìĭł
īìŀ¥ íŀĪ
Ġë» Ķ
ĠëĲĺ ê²łëĭ¤
ĠëıĪ ëıĦ
Ġì ¯¤
Ġìĺ¤ ëŀľ
Ġíķ´ ìĻ¸
Ġìľłëªħ íķľ
ĠìŀĲ ê²©
Ġìĺ¤ ë¦Ħ
Ġì¡ ±
Ġì¢ ģ
ë²Ħë¦¬ ëĭĪê¹Į
ë¨¹ ëĬĶ
ê² Ģ
Ġë³´ ê¸°
Ġê·¸ëŀĺ ê°Ģì§Ģêµ¬
Ġíĥ Ħ
ĠìĨĮ ê°ľ
ĠìĹĨ ëĦ¤
Ġíĸ ¥
Ġë§Ĳ ìķ¼
Ġëĭ´ ë°°
Ġíķ´ ì¤ĺ
ĠëĤĺ ìĿ´ê°Ģ
ĠìĿ¸íĦ° ëĦ·
Ġë³´ ìĿ´ëĬĶ
Ġëĭ¹ ìĭľ
Ġíĺķ ëĭĺ
Ġë¬ »
ĠìĿ´ê±° ë¥¼
ĵ ¨
ĠëĪĪ ì¹ĺ
ëĪ Ī
Ġì¡° ìļ©
ë² Ķ
ĠìĹĲ ìĬ¤
ë²Ħë¦¬ ë©´
Ġê±´ ì§Ģ
Ġê³µë¶Ģ ë¥¼
Ġì§ĳ ìĿĢ
Ġë°© ë²ķ
Ġì§Ģ ëĤ´
íģ °
ĠëĲĲ ìĸ´
ĠìĦ¤ ëªħ
ĠëĤĺëĪ ł
Ġê·¸ ìłĢ
Ġê·¸ëŁ¬ ê²Į
ĠëĳĲ ê°ľ
Ġì¹ľêµ¬ ëŀĳ
íħĲ ëį°
ìĺ¤ ëĬĺ
Ġê±° ìĺĪìļĶ
ëģ Ĺ
Ġë¹ł ìł¸
Ġìĺ ®
ĠìĹ¬ìŀĲ ê°Ģ
Ġë ŀ
ĠëĦ ·
ĠìĹ ¼
Ġê°Ģ ìŀ¥
Ġì§Ģ ìĹŃ
ĠëĪ Į
ìĿ´ ìĹ¬
í Ģ´
Ġëį ĺ
ëĬĶê±° ì§Ģ
ĠíĬ¹ íŀĪ
í ĥĪ
ĠìĮ į
Ġìķ ħ
Ġë§Ĳ ëĿ¼
ĠëĦĺ ìĸ´ê°Ģ
ìŀĪ ê³ł
ĠìĺĪ ìģľ
ë§ İ
ĠíĽ ¨
ìĺ ·
Ġë§Į ëĤł
ë¡ Ģ
ĠëĨ ¨
Ġë¶Ħ ìĿ´
ìĹĪ ëĭ¤ê³ł
ìĿ¸ ê±°
ìĤ¬ ëĬĶ
ĠìŀĪìĸ´ ê°Ģì§Ģê³ł
ìĮ į
Ġëĵ ł
Ġëĺĳê°Ļ ìĿ´
ìķĦ ë¦¬
Ġë¹Į ëł¤
Ġí ĳ¸
Ġê° Ĵ
ĠìĹ° ìĬµ
ë¥´ ëĬĶ
Ġíķ´ ë³´ê³ł
Ġë§İ ìķĺ
ê·¸ ëŀ
Ġìķ¼ ìĿ´
Ġê±° ëĦ¤
Ġìĺ¤ ë°±
ĠìĥĿ ê²¨
ëŀ Ħ
Ġìĺ¤ ì§Ģ
ĠìķĦëĭĪ ëĭ¤
Ġì¢ĭ ê²Į
Ġêµ īìŀ¥íŀĪ
ĠëĳĲ ë²Ī
Ġíļ ¨
ĠìĿ´ ë§Į
Ġë³´ ëĭĪê¹Ĳ
Ġìĭ ¼
ëĤĺ ê³ł
Ġëĵ¤ìĸ´ê°Ģ ìĦľ
ë²Ħ ëł¸
Ġìŀĳ ëħĦ
í ĵ¨
ĠìķĦ ì¤Į
ĠíĸĪ ìĹĪëĬĶëį°
ëŀľ ëĵľ
ì¿ł ëĭ¤
ëĵł ê°Ģ
Ġêµ¬ ê²½
ìķ ¡
íĸĪ ê±°ëĵł
ë²Ħ ë¦¬ê³ł
ìĸ´ ë©į
ëª° ëĿ¼
ìª Ħ
Ġë°ĺ ì°¬
Ġíģ° ìĿ¼
ìĥģ ìĿ´
Ġë¬¸ìłľ ê°Ģ
ĠìłĦ íĺĢ
ëĤĺ ê²Į
ĠìĪĺ íķĻ
Ġëı¼ ì§Ģ
ì§ĳ ìĿ´
ì¼ ĵ
ĠíĸĪ ëĤĺ
ĠìĪĺ ëĬ¥
ĠìĥĿê°ģ íķĺê³ł
ĠëĤĺ ê°Ī
Ġê°Ģ ëĤľ
ìŀ¥ ìĹĲìĦľ
Ġíı Ń
Ġëĵ£ ëĬĶ
ê·¸ ê±´
íĵ¨ íĦ°
Ġìĺ¤ ìĿ¼
ìĭł ê²Į
ëŁ¬ ìļ´
ëĳ ¬
Ġëĭ¤ìĿ´ìĸ´ íĬ¸
ĠëĤ¨ ìķĦ
Ġíķ´ ìļĶ
Ġêµ ´
Ġìłľ ëĮĢ
ìĿ¼ ëĭ¨
Ġìĭľê°Ħ ìĹĲ
Ġê·¸ëĤ ĺ
Ġë§Ī ë¦¬
ìĹĨ ìĿ´
ìľ¼ ëł¤ê³ł
Ġëĵ¤ìĸ´ ê°Ī
ìŀĲ ëĬĶ
Ġë¶Ħ ëªħ
ê²ł ì§Ģë§Į
í Ī
ë¦¬ìĬ¤ ë§Ī
ĠìķĦíĮĮ íĬ¸
ĠëĦ£ ìĸ´
Ġì£¼ ìĿ¸
ëĲĺ ë©´
ìĺĢ ì§Ģ
Ġë©° ëĬĲ
Ġë³ĳìĽĲ ìĹĲ
ë¶Ī ê³ł
ĠìĤ¼ ì´Į
Ġì·¨ ìĹħ
ĠìĺĪ ìłĦ
Ġìłķ ë¦¬
ĠëĮĢ ëĭ¨
Ġê·¸ë¦ ¼
ëª ĩ
Ġìĭł ë°ľ
Ġìŀ¡ ê³ł
Ġê´Ģ ë¦¬
ë¹ Ľ
ì§ ķ
ĠíĿ ĺ
ì ĩ
ĠìĺĪ ìķ½
ĠìľĦ íĹĺ
Ġê²ĥ ì²ĺëŁ¼
íĸĪ ëĭ¤
Ġì¶Ķ ì²ľ
Ġê°Ļ ì§Ģ
Ġëĵ¤ìĸ´ê°Ģ ë©´
ìĭĿ ìĿ´
ì½ ©
ĠìĿ´ ìĤ¬
Ġë§Į ëĤľ
Ġê·¸ëŁ° ê°Ģ
Ġì¢ĭ ê²łëĭ¤
Ġê²ħ íĸī
ë² ħ
ĠíķľëĿ¼ ìĤ°
ĠìŀĬ ìĸ´
Ġê³Ħ ëŀĢ
ĠëĤĺ ë³´ê³ł
ëįĺ ê±°
Ġê±´ ë¬¼
Ġê²ĥ ëĵ¤ìĿ´
Ġì¤ĳ ê°Ħ
ĠìĿ´ìķ¼ ê¸°
ĠìķĪ ê°Ģ
ëĵľ ëĿ¼ê³ł
ĠíĹĪ ëĬĶ
ĠìĹĲ ìĸ´
Ġì¦ Ĳ
íķĺë©´ ìĿĢ
ĠìĽĮ ëĤĻ
Ġë°° ê³ł
ìļ°ë¦¬ ê°Ģ
Ġí ŀ
ĠíķĻêµĲ ìĹĲìĦľ
ë°Ķ ë¡ľ
ì¹ĺ ê°Ģ
ĠíĿ Ķ
Ġ address
ëĤ ¼
ëĺ ĳ
ë¹Ħ ê°Ģ
ĠìľłíĪ¬ ë¸Į
ĠíĽ¨ ìĶ¬
xx x
ìłģ ìĿ´
ĠìŀĪ ëĮĢ
ĠìĹ¬ìŀĲ ì¹ľêµ¬
ëĭ¬ ëĿ¼ê³ł
ìŀ ł
ĠìĹ¬ê¸° ê°Ģ
Ġìĺ¤ëĬĺ ìĿĢ
ĠìĪĺ ìĺģ
Ġê²ģ ëĤĺ
ëįĶëĿ¼ê³ł ìļĶ
ĠìĽĥ ê²¨
ë§Ī íĬ¸
ĠìķĦì¤Į ë§Ī
Ġê°Ĳ ìŀĲ
ĠìĤ¬ ìĹħ
ĠìĿ¸ ìłľ
Ġìłľì£¼ ìĭľ
Ġê³ł ëĿ¼
Ġì¡°ê¸Ī ë§Į
Ġê°Ģ ë°©
Ġë²Ī ì§¸
ëĦĪ ëĦ¤
ĠëģĿëĤĺ ë©´
Ġìĺ¤ ëĭĪê¹Į
ìĬ ¹
Ġë§Į íģ¼
íĻĶ ê°Ģ
ìĦł ìĥĿ
İ Ħ
Ġëı¼ ìĦľ
ĠìĹĦë§Ī ëıĦ
ĠìĽĶ ê¸ī
ê¹ Ŀ
ĠìĿ¸ ìłķ
ĠìķĦ ë²Ħ
ĠìķĦëĭĪ ìŀĸìķĦ
Ġëĭ ¦
ìĤ¬ ëıĦ
Ġëĵ¤ìĸ´ê°Ģ ëĬĶ
íķ© ëĭĪëĭ¤
Ġì¡°ê¸Ī ìĶ©
Ġê´ľ íŀĪ
Ġê¸°ìĸµ ëĤĺ
ë¦¬ìĬ¤ë§Ī ìĬ¤
ĠìĤ¬ ì´Į
ĠíķĻ ê¸°
Ġìį¨ ìķ¼
Ġìłľì£¼ ìĸ´
ìĿ´ ìĭŃ
Ġë§Ĳ ìķĦ
ìļ°ë¦¬ ëĬĶ
ĠíĥĿ ìĭľ
Ġë§Ĳ ìĶĢ
ĠëĤĺ ê°Ķ
ĠìĽ ¬
Ġì¹ľ íķ´
Ġíķ´ ê°Ģ
Ġìķłëĵ¤ ëıĦ
Ġë¨¹ìĸ´ ìĦľ
ĠìĤ¬ ê·Ģ
Ġíķľë²Ī ëıĦ
¨ ìĿ´
ĠëĤĺ ë¦Ħ
ĠìłĢëħģ ìĹĲ
ĠìĥĿê°ģ ìĿĢ
ĠëĶ± íŀĪ
Ġë¬¼ ìĿ´
Ġì²ĺ ëŁ¼
Ġë³ ¶
Ġë¨¹ ìĹĪëĬĶëį°
ĠìĭŃ ìĺ¤
Ġì»´ íĵ¨íĦ°
ëĿ¼ ê²Į
Ġë§İìĿĢ ëį°
Ġíķ´ ë´¤
Ġì¹ľ íķľ
ĠëĲľ ìŀ¥
Ġê·¸ê²ĥ ë§Į
Ġìĸ´ ìļ¸
Ġê¹¨ ëģĹ
ìĸ´ ìł¸
ë³¼ ê¹Į
ľ ìĹĲ
Ġì§Ģ ìĽĲ
ĠìĪĺ ëĬĶ
Ġëķ ¡
Ġë¬¼ìĸ´ ë³´
ĠìĹ° ìĺĪ
Ġë¨¹ ìĸ¸
ĠíĸĪ ìľ¼ë©´
ìĭ¤ ìĹĲ
Ġê·¸ë ¶
ĠëĬ Ķ
ë³ĳ ìĽĲ
Ġë¹ Ļ
ê²ħ íĸī
Ġê·¸ë¶ Ħ
ĠíĤ¤ ìĽĮ
ê¼ Ī
Ġíķł ìĪĺ
Ġê´ ´
ìłĢ ê²ĥ
ìĿĺ ìłĲ
Ġë¶ ģ
Ġë¯¸ ê¹¡
Ġì°į ê³ł
ĠìŀĲê²© ì¦Ŀ
ĠìĿ´ë¦Ħ ìĿ´
ĠìĤ¬ ìķ¼
ëħ ķ
ĠìĹ´ ëĳĲ
Ġê°Ħ íĺ¸
ĠëĤ¨ìŀĲ ê°Ģ
Ġíķĺ ìŀĲ
ĠíĻķ ìĿ¸
Ġê º
Ġíķ´ ë¶ĢëĤľ
Ġê·¸ëķĮ ë¶ĢíĦ°
ëĨ į
ëĭ Ŀ
Ġëĵ ¯
ìĬ¤ ë¥¼
ĠëĪĦ êµ°
ê°Ģ ê°Ģ
Ġê°Ģ ëĬ¥
Ġê³ł ëĵ±
Ġë¶Ģëª¨ ëĭĺ
Ġëª¨ ìĬµ
ĠìĦł íĥĿ
ĠìķĮ ìķĪ
ĠìĦł ë°°
Ġê³µ íķŃ
íĶ Ħë¡ľ
Ġíķĺ ìĸ
Ġëģĵ ìĹ¬
Ġë§Ī íĬ¸
Ġëį° ëıĦ
Ġì§ Ĳ
ĠìķĪ ìĹĲìĦľ
ìĭĿ ìĿĦ
Ġë´Ĳ ìĦľ
Ġê°Ħ ëĭ¤ê³ł
Ġëĭ¨ ê³Ħ
Ġìĸ´ ìĭł
Ġì¹ľ ìłķ
ĠëĤ ļ
ìŀĲ ë¥¼
íķł ê±°
Ġìĭ¶ ìĸ´ìĦľ
Ġê²½ ì°°
Ġíķ´ ê·¸ëĦ¹
ĠíķĺëĤĺ ë§Į
Ġë²Ħ ëł¤
Ġìĸ´ë¨ ¸
Ġëĵ¤ ìĿĢ
ĠìĿ´ëŁ¬ ëĭĪê¹Į
ĠìķĦë²Ħì§Ģ ê°Ģ
Ġê·¸ëĤĺ ë§Ī
ìĿ´ ë¥¼
ĠìŀĪ ëįĺ
Ġìķ½ ìĨį
Ġê´ľì°® ìĿĢ
ĳ ¥
ĠìĿĮ ìķħ
ëĿ¼ ë©´
ìķĦ ê°Ģì§Ģê³ł
Ġêº¼ ëĤ´
Ġì§Ģ ëĦ¤
ĠëĮĢ ì¶©
Ġê·¸ëķĮ ëıĦ
Ġëª¸ ìĹĲ
ĠìĤ¼ ë°±
ĠìĬ µ
ê·¸ ê±¸
Ġìª¼ ëģĶ
ì§Ģ ëĭĪê¹Į
Ġëĭ¬ ëĿ¼ê³ł
Ġíķ´ ì£¼ê³ł
ĠíĸĪ ê³ł
Ġë°° ìĽĮ
Ġìĺ¬ ë¦¬
ĠìłķëıĦ ëĬĶ
Ġìŀ ĥ
ĠìĹĲ ìĦľ
ìĪĺëĭ¤ ê²Į
ĠìķĦ ëĭĲ
ĠëĨĢ ê³ł
íĽ Ħë¡ľ
Ġëģ¼ ê³ł
ê°Ĳ ìĿ´
ê² ģ
Ġíķ´ ì¤Ħ
Ġë²Ī ìĿĢ
ĠìĹĦë§Ī ëŀĳ
ê·¸ ê²ĥëıĦ
ĠìĤ´ ìĿ´
ĠëĲĺ ê±°ëĵł
íĹĪ ë©į
Ġë¶Ģ íĦ°
ĠëĤ´ ê³ł
Ġì§ĳ ìĿĦ
ĠìĨ ¡
Ġëª¨ ìŀĦ
Ġëħ¸ ëł¥
Ġìĸ´ì© Į
Ġìĭľê°Ħ ìĿĦ
ìľ¼ ëĿ¼ê³ł
ĠëĮĢ ë°ķ
ĠìĨį ìĹĲ
Ġëĭµ ëĭµ
ìŀ¥ ëĭĺìĿ´
ìĤ¬ ë¦¬
Ġìĭ¶ ì§Ģ
Ġìłķ íĻķ
ìľ¼ ëĤľ
Ġë§Ī ëĿ¼
ĠëĲł ê±°
Ġê¶ Į
íķĺ ëł¤ê³ł
ê·¸ëŀĺ ê°Ģì§Ģê³ł
Ġë§ŀ ëĭ¤
Ġíģ¬ ë¦¬ìĬ¤ë§ĪìĬ¤
ĠìĽĲëŀĺ ëĬĶ
ĠíĶ¼ ê³¤
ĠëĤ Ń
ê±°ê¸° ìĦľ
ĠìĹ ł
Ġìĭ¶ ê³ł
Ġëĵ¤ìĸ´ ìĻĢ
ëªħ ìĿ´
ĠìĥĿê°ģ ë³´ëĭ¤
Ġì£¼ ë¬¸
ĠìĿ¼ ìĿĢ
Ġíķ´ ëĿ¼
Ġë´ Ħ
ĠëĤł ìĿĢ
ĠíĻķ ì§Ħ
Ġë ¼Ī
Ġì¹ĺ ê³ł
íķĺ ë©į
ë§Į ìĿ´
ìŀ¥ ëıĦ
Ġì§ĢëĤĺ ê°Ģ
Ġë§Ī ìĭľ
Ġë§Ī ìĿĮìĹĲ
ĠíĹĪ ìĺģ
ìĺĢ ê±°ëĵł
ĠìłĢ ëŁ°
Ġë¨¸ë¦¬ ê°Ģ
Ġì§ģ ìĽĲ
Ġë¬´ ìĦŃ
Ġê· ¹
ĠëĤĺ ë¨¸
ĠëĲĺ ëĦ¤
ĠìłĦ ë¶Ģ
Ġì¢ĭìķĦ íķĺê³ł
Ġêµ¬ ìĭŃ
ê°Ģ ìĿ´
Ġíĥ ķ
Ġëĵľ ëĬĶ
ĠëĤĺê°Ģ ìĦľ
Ġíĸī ìľ¼ëĦ¤
ìĿ´ íģ¬
Ġì´Ī ë°ĺ
Ġë§Įëĵ¤ ê³ł
ìķĦ ê°Ģ
Ġë³´ ë¯Ħ
Ġë§Ī ìĿĦ
Ġê´Ģ ëł¨
ĠìĤ¬ ì£¼
Ġê±¸ ë¦°
Ġìľł ëŁ½
Ġë¹ĦìĬ· íķľ
ĠìĿ´ íĭĢ
ĠëĲľ ëĮĢ
ë¦¬ ìĹĲ
ìłľ ë¡ľ
Ġê·Ģ ìĹ¬
ĠëıĮ ëł¤
ĠíĿ Ĳ
íķĺ ìĹ¬
ì¼ °
Ġëĵ¤ ìĹĪìĸ´
Ġê·¸ê²ĥ ìĿ´
Ġì ¥
Ġëı¼ ìļĶ
ĠìĤ¼ ì²ľ
ìĭ¬ ìĿ´
Ġìĺ¤ ëĿ¼
Ġìłķ íķ´
ĠìķĪ ì¢ĭ
ĠìŀĪìĸ´ ëıĦ
Ġìĸ¸ëĭĪ ëĦ¤
ë© ĺ
ĠìłĢ ë²Ī
Ġë²Į ìĸ´
Ġë¬ ¶
Ġì« Ļ
ĠìĿ´ ìģĺ
íĬ ľ
Ġë°© ìĨ¡
Ġì¦ Ŀ
ì¥ ¬
Ġë £
Ġìĺ ¥
ĠìĥĿê°ģ ëĤĺ
Ġë¨¹ ìľ¼ëĭĪê¹Į
Ġíİ¸ ìĿĺìłĲ
ìĹĲ ë§Į
ĠìĿĺ ë¯¸
ĠëĮĢ ë¡ľ
Ġìŀĺ ìĥĿ
ìłķ ìĿĦ
Ġì» ¨
Ġë¶Ļ ìĸ´
ĠìķĮ ìķĺëĬĶëį°
ĠíĨ ¡
Ġë Ł
Ġìĸ¸ëĭĪ ëıĦ
ìłľ ê°Ģ
ê²ł ìĬµëĭĪëĭ¤
Ġê°Ģ ë³´ê³ł
Ġì ¿ł
ë¨¹ ìĿĦ
ìĸ´ëĸ µ
Ġì¶© ê²©
Ġê°Ļ ê¸°ëıĦ
Ġì£¼ë³Ģ ìĹĲ
Ġë§ī ìĥģ
ĠìĿ¼ëĭ¨ ìĿĢ
Ġë§İ ìķĦìĦľ
ĠìĿ´ê²ĥ ìłĢê²ĥ
Ġë§İ ì§Ģ
Ġê°Ģìł¸ ê°Ģ
íķĺ ë¯Ħ
ìĥĿ ê°ģ
Ġì§ģ ìĹħ
Ġìĵ°ëłĪ ê¸°
1 0
Ġê°Ī ìķĦ
Ġê³Ħ ìĤ°
Ġë©´ ìłĳ
ĠìĿ´ íĽĦë¡ľ
ê²Į ìļĶ
ëıĦ ê°Ģ
ĠìŀĪ ê²Į
ĠëĤĺ ë³´ëĭ¤
ĠëĬ ¥
ĠìĭŃ ë§Į
ìĤ Ń
Ġë§ĮëĤĺ ìĦľ
ĠíķĺëĤĺ ëĭĺ
Ġë§ĮëĤĺ ê³ł
ë ½
ĠìķĦìĿ´ ëĬĶ
Ġí Ĥ
ë¦ ĩ
ĠìķĪëĲĺ ê³ł
Ġê°ĻìķĦ ìĦľ
Ġë¬¼ìĸ´ ë´Ĳ
ìĿ´ ë¡ľ
ĠëıĦ ìĭľ
ìĪĺ ë¥¼
ë ī´
ìĪĺ ë¡Ŀ
ĠëĤĺ ë©´
ĠëŃĲ ëŀľ
Ġëı Ħë¡ľ
Ġìĺ¤ ë§Į
ĠíĴ į
Ġë§¥ ì£¼
Ġê°Ħ ëĭ¤
Ġëª ½
Ġë² Ķ
Ġëľ ¯
Ġê½ ī
íĤ ¬
ìĹĪ ìľ¼ë©´
íķľíħĮ ëıĦ
ì¼ ĢìĿ´
Ġë¿ Ĳ
ĠìĿ´íķ´ ê°Ģ
Ġìŀ ¤
Ġìī½ ê²Į
Ġë§ŀ ìĸ´
ìĭľ íĤ¤
ĠìĿ¸ ìĤ¬
Ġê°Ĳ ìĤ¬
ĠìĤ¬ ëĭ¤
ĠìķĦë¹ł ëĬĶ
ĠìĿ¸ ê°Ģ
Ġëª¨ë¥´ ê²Ĳ
Ġìķłê¸° ëĵ¤
Ġíķ´ ê·¸ëĦ¤
Ġê±¸ ë¦¬
ĠíĹĪ ë¯Ħ
Ġë§Ĳ íķĺê³ł
ìĤ¬ ëĭĺ
ë¶Ģ ê°Ģ
Ġë§Ī ì°¬
ĠìŀĪìĹĪ ê³ł
Ġìŀĳ ëħĦìĹĲ
ì§Ģ ë¡ľ
ìĪĺ ê²Į
Ġìµľê·¼ ìĹĲ
ë¬´ ìĬ¨
Ġê±Ķ ëıĦ
Ġê·¼ ì²ĺ
ëĶ ¸
Ġë°© ìĹĲ
Ġíķľ ì°¸
ĠëıĮìķĦ ëĭ¤ëĭĪ
Ġë¨¹ ëĬĶëį°
ĠëĦĪ íĿ¬
ë¶Ģ ë¶Ħ
ĠìĹ° ê²°
ë ¿
íĴ Ģ
Ġê½ ¤
Ġíı Ĳ
ëķ ħ
ìĻľ ëĥĲë©´
ĠíĹ¬ ìĬ¤
ĠíķĺëĬĶ ê±°ìķ¼
ĠìķĦ íľ´
ĠìłĦ ê¸°
ê²ł ëĬĶëį°
Ġêµ¬ ìĽĮ
Ġë¹¨ ê°Ħ
ĠëĲĲ ëĬĶëį°
ìĿ´ ìłł
Ġë³´ ëĥĪ
ëĮĢ ìĹĲ
Ġìĸĳ ëħĲ
ĠëĶ¸ ìĿ´
Ġìĥ ¤
ĠìĿ´ ë§Įíģ¼
íķ´ ìļĶ
Ġì¢ħ ë¥ĺ
ĠëĤĺ ì¤ĳ
Ġê±° ê±°ëĵł
Ġë¶Ī ìĮį
Ġëĭ´ ìķĦ
ĠëģĿ ëĤ¬
Ġìĺ¤ë¹ł ëĬĶ
Ġì²ĺìĿĮ ìĹĶ
ê±° ëĬĶ
Ġì¶Ķ ìĽĮ
ê±´ ì§Ģ
ë³´ ëĭ¨
ĠëıĻ ë¬¼
ĠëĽ° ìĸ´
íĺ ľ
ĠíĨµ íĻĶ
ĠìĭĿ êµ¬
Ġìĩ ł
Ġë§¤ ìļ°
íķľ ê²Į
Ġì¥ Ĳ
ì£¼ ë§ĮìĿĢ
ìŀ¥ ê³ł
ĠëĤ¨ìŀĲ ìķł
ĠìĺĪ ë»Ĳ
Ġ .
ĠìĿ´ ë¶Ī
ê¹Į ë´Ĳ
íķĻ ê³¼
Ġëª¨ ìŀĲ
Ġë¬¼ ê±´
ëĮ ķ
ĠìĨĮ ë¦¬ê°Ģ
ĠìļĶ ë¦¬
Ġë°Ľ ìķĦìĦľ
ìĭł ê³ł
ìĭľ ëĥĲ
ĠìŀĪìŀĸìķĦ ìļĶ
Ġíĸ ĩ
ĠëħĦ ëıĦ
ĠëĨĵ ìĿĢ
ìĿ¼ ìĿ´
ìĹĲ ìĿ´
Ġì¹ľêµ¬ ëĵ¤ìĿ´
ëį ©
ê·¸ ì¹ĺ
ëĴ Ģ
ìŀĪ ëĬĶëį°
ĠíĸĪìĸ´ ìļĶ
ĠìĦ±ê²© ìĿ´
ĠëĤĺê°Ģ ëĬĶ
Ġëĸ¡ ë³¶
ê°Ħ ìĿ´
ĠìĿ´ëŁ° ê²Į
ĠìĿ¼ ëħĦ
ĠìĥģíĻ© ìĿ´
ĠëħĦ ìĹĲ
ë§ĪìĶ Ģ
ĠìĿĢ ê·¼
ĠìĹ ī
ë§Ĳ ìĿ´
Ġê¸° ê³Ħ
Ġê¹ Ĭ
ë¹ Ļ
ìļ° ìĬ¤
ìĸ´ëĸ ¤
Ġìĸĺê¸° íķĺëĬĶ
ĠëĿ¼ ëĬĶ
Ġêµ° ëį°
íĸĪ ëĭ¤ê³ł
Ġìĥģ ëĮĢ
ìĻĶ ìĸ´
Ġëĭ¤ëĭĪ ë©´ìĦľ
ëĤĺ ë´Ĳ
ĠìŀĶ ì¹ĺ
ĠìĹ ĺ
Ġëª¨ ìķĦ
Ġìŀħ ìŀ¥
ĠíĨł ìĿµ
Ġë©Ģ ë¦¬
Ġê² ¡
ĠëŃĲëĥĲ ë©´
ĠíĴĢ ìĸ´
ĠìĦľ ë¥¸
Ġíķ´ ì£¼ëĬĶ
ëĦ Ĳ
Ġì§Ģ íķĺ
Ġíĺ Ī
Ġê·¸ëŀ¬ ìĸ´
Ġíķľ ëĮĢ
Ġì¢ĭìķĦ íķĺ
ĠìĹ°ìĺĪ ìĿ¸
Ġì§Ģ ëĤľ
Ġìļ°ë¦¬ íķľíħĮ
Ġìĸ¸ëĭĪ ëŀĳ
ìĸ´ ë¥¼
Ġëĵ¤ ìĹĪ
íķł ë¨¸ëĭĪ
ë²Ħ ëł¤ìĦľ
Ġë© į
Ġìĵ° ë©´
ë§¨ ëĤł
ëĭ¹ ìĹĲ
ĠëĨį ìĤ¬
ĠìĥĪë¡ľ ìļ´
Ġíķĺ ëĭĪ
ĠìŀĲ ìĭł
ĠíĽ Ī
ĠëĦ Ĳ
Ġê³ł ì¹ĺ
ĠìŀĲê¸° ëıĦ
ë¦ İ
ĠìĪł ìĿĦ
Ġêº ¾
ë§ Ļ
ĠìĹ´ íķľ
ë¶ĢíĦ° ëĬĶ
Ġë´¤ ê±°ëĵł
Ġëª°ëĿ¼ ëıĦ
Ġê°Ģ ìĿ´ê°Ģ
Ġê¸° ìĪĻ
ëıĦ ë¡ľ
Ġì§ ¤
Ġì¤ĳ ìķĻ
Ġíİ ľ
Ġê²°íĺ¼ ìĭĿ
Ġíķ´ ì¤¬
ĠëĭĪ ëĦ¤
ëĭ Ļ
ìĺ¤ ìĭŃ
Ġë°Ķ ìģĺ
ìķ ķ
Ġìĭľ ê¹Įì§Ģ
ëĳĲ ê³ł
ĠìķĦëĭĪ ëĿ¼ê³ł
ìĿĦ ëķĮ
Ġìĺ¤ ëĿ¼ê³ł
ĠìĨĮ ê¸Ī
ĠíĸĪ ìĹĪê±°ëĵł
ĠìĤ¬ ìŀ¥ëĭĺ
ĠëĨĢ ìķĦ
ĠìļĶìĥĪ ëĬĶ
ìĭ ±
ĠìĹ¬ìŀĲ ìķł
Ġê½ Ĥ
Ġê°Ķ ì§Ģ
Ġì« ĵ
Ġì³Ĳ ëĭ¤
ìĽĲ ëıĦ
Ġìĸĺê¸° íķĺ
Ġê²ħ íķ´
Ġê³¨ ìķĦ
Ġìĩ¼ íķĳ
Ġì½ ľ
ĠìĤ¬ìĿ´ ìĹĲ
Ġë¬´ìĦľ ìļ´
ìĿĦ ê±°
Ġëĺ ĺ
ë§Ĳ ë¡ľ
ìĹĨ ëĬĶ
Ġìĸ´ëĬĲ ìłķëıĦ
ĠíĿ ¬
ê²łìĸ´ ìļĶ
Ġìķłëĵ¤ìĿ´ ëŀĳ
ĠíĹĪ ìĹ¬
ê°ĳ ìŀĲê¸°
ìĹ ½
Ġì¼ ľ
ìĮ ¤
ì³Ĳ ìĦľ
ëįĺ ëĶĶ
ìł¸ ê°Ģì§Ģê³ł
ìĿ´ ê¸´
ëĵ¤ ëģ¼ë¦¬
Ġëĳĺ ì§¸
ĠìłķëıĦ ë©´
Ġë¹ Ī
Ġê²½ ìļ°ëĬĶ
Ġê±° ëĭ¤
Ġë°Ķ íĢ´
ĠëĲł ì§Ģ
Ġìŀ¥ ìĤ¬
Ġë³´ ì§Ģ
ĠìĿ¼ íķĺëĬĶ
ĠíĻ Ī
Ġê¼ ´
ĠìŀĪ ëĭ¤ëĬĶ
Ġë§ŀ ì¶Ķ
ĠëĤĺ ëĬĶëį°
ĠíĽĦ íļĮ
ë¶Ģ ëŁ°
ĠìĦ¸ ê³Ħ
ìĿ´ íĦ°
ìļ° ë©´
ĠëĤ ¼
Ġíķ´ ì¤Ģ
ĠëĤ¨ ìĿĢ
Ġê·¼ ìľ¡
ëĿ¼ ìĿ¸
Ġìĸ´ ì°Į
ëįĶëĿ¼ ëıĦ
ëľ ¨
Ġì§ĳ ëıĦ
ê» Ħ
ìĿ´ ìĺģ
Ġë¶Ģ ëĭ´
ĠëĤĺ ê°Ħ
ìłĲ ìĿ´
Ġíĥ Ķ
ì§Ģ ìĹĲ
ĠìŀĪ ì§Ģë§Į
íĹĮ ëĶĶ
Ġê±° ê¸´
Ġëħ¸ ëĬĶ
ìķĦìĿ´ êµ¬
ĠìĤ Ĳ
Ġëĭ¤ ëĭĮ
Ġì¢ĭ ê¸´
ĠìĿĺ ìĤ¬
ê·¸ëŀ ¨
Ġê°Ļ ëĭ¤ê³ł
Ġë§Į ëĤĺëĬĶ
Ġë§ŀ ê³ł
Ġë¯¸ ì¹ľ
Ġê·¸ë§Į íģ¼
ë° ¤
ìŀ¥ ìĿĢ
ĠíĻľ ëıĻ
Ġìł ¤
Ġëĵ¤ìĸ´ ìĺ¨
Ġë¬¼ ìĹĲ
Ġëª» íķł
ëĦĪ ê°Ģ
ìĨĶ ì§ģíŀĪ
Ġìŀĺ ëĿ¼
íĺ Ī
Ġíı¬ ê¸°
Ġë§İ ìľ¼ëĭĪê¹Į
ê ¾
Ġê°ĻìĿĢ ê±°
ĠëĤł ìĿ´
ëł ´
Ġê²¨ìļ¸ ìĹĲ
ĠíĿ ĳ
ĠìĤ´ ë©´ìĦľ
Ġì¡° ê·¸
Ġìļ´ëıĻ ìĿĦ
Ġë³´ ëĬĶëį°
Ġë°¥ ëıĦ
ê» Ģ
ê´Ģ ìĿ´
Ġì§ Ŀ
Ġê°ľ ê°Ģ
ìĨĮ ìĹĲ
Ġíİ¸ ìķĪ
Ġë¶Ļ ìĹ¬
íŀ Į
ĠëĤĺ ìĿĺ
ë¬´ ìĤ¬
Ġëľ »
ĠëĤ« ì§Ģ
Ġíĺ¸ ê¼¼
ì´Ī ìĹĲ
ĠíĭĢ ìĸ´
Ġí ľ
ĠìŀĪ ëĮĦ
ĠëıĦ ë§Ŀ
ëĸ ¼
Ġë§İ ìŀĸìķĦ
ë¥´ ë©´
Ġì° Ĳ
ìĸ´ ì
ëĮĢ ëĬĶ
Ġíħ Ĳ
Ġíķ© ëĭĪëĭ¤
Ġë¬¸ íĻĶ
ì «
ëª ¸
ĠëıĪ ìľ¼ë¡ľ
Ġíķ´ ìĺģ
ĠìĿ´ ëŁ´
Ġì¼ Ģ
Ġëª© ìļķ
Ġíıī ìĥĿ
ĠìĦ¸ìĥģ ìĹĲ
ìĿ´ ìĦľ
Ġê°Ģ ìĿĦ
Ġê°Ģ ë³´
ĠìĤ¬ ê±´
Ġì¢ĭìĿĢ ê±°
ê·¸ ëłĩ
ĠìĿ´ìĭľ ëĤľ
ë¶Ģ ëĭĪê¹Į
Ġìĭ« ìĿĢ
ĠìĨĮ ë¬¸
ĠìĦ ¬
ĠìĬ¤ íĨł
ĠëĤĺìĻĶ ìĸ´
Ġê±° ì§ĵ
ĠëģĬ ìĸ´
Ġê¸° íļĮ
± ìĿ´
ìķ ¤
Ġíķĺ ëĭ¹
Ġì° ¬
ìķĦëĭĪ ë©´
Ġë´Ĳ ìĭłëĶĶ
Ġë°ĸ ìĹĲìĦľ
ĠëıĪ ìĿĢ
Ġì¶ ¥
ĠíĮ ¬
Ġì¶Ķ ìĸµ
Ġìĸ¼êµ´ ìĿ´
ìŀħ ëĭĪëĭ¤
Ġê¸°ëĭ¤ ëł¤
íĹĪ ë¯Ħ
Ġê¸°ë¶Ħ ìĿ´
ĠìĿ´ ìĸ´
ìĬ¤ëŁ½ ê²Į
ĠëĪĪ ìĹĲ
ĠìĿ´ëŁ¬ ëĬĶ
ĠìĤ´ìķĦ ìķ¼
Ġìĸĺê¸° íķĺê³ł
Ġìĸ´ëł¤ ìļ´
Ġê» ´
ê½ ĥ
ìĿ´ ëŀĺ
ĠìĦ Ŀ
Ġì¢ĭìķĦ ìĦľ
Ġê°Ģë¥´ ì³Ĳ
ë ±
ëŁ¬ ìĬ¤
Ġëģ Ħ
Ġëģ Į
ĠìķĦëĭĪ ëĭĪê¹Į
Ġê²Ģ ìĥī
Ġì²´ ìľ¡
Ġíĳľ íĺĦ
í ĩ´
Ġê±° ëĥĲ
name ìĿ´
ĠìķĪ íķĺ
Ġë§Įëĵ¤ ìĸ´ìĦľ
Ġì£¼ ìĿ¼
ìĽĲ ìĹĲ
Ġì İĦ
Ġê°Ģ ëł¤ê³ł
ĠëķĮ ë§Į
ì½ ľ
ê¹Į ì§Ħ
Ġìĭ ±
Ġíķ´ ëħĢ
ëħ¸ ëĤľ
ĠëĪĦ ìĽĮ
ĠìĥĪë²½ ìĹĲ
ĠìĹ Ķ
ë²Ħ ëł¸ìĸ´
Ġìŀħ ìĸ´
Ġëĸ ¨
íĤ ¹
ë¹¨ ë¦¬
ĠìĿ´ ëķĮ
ëĤĺ ìĭłëĶĶ
Ġëª© íĳľ
ëķĮ ë¬¸ìĹĲ
ëłĪ ë¹Ħ
ĠíĿ °
ìĽł ìĸ´
ê³Ħ ìĨį
ĠíĻĺ ê²½
ĠëĲĺ ë©´ìĿĢ
Ġê±° ëŀĺ
ĠìŀĪìĿĦ ê¹Į
Ġë§Ĳ íķ´ìĦľ
Ġë²Ħ ë¦¬ê³ł
ê±° ìĿĺ
Ġíĸī ëıĻ
ĠëĲĺëĬĶ ëĶĶ
Ġìĸ´ì© Įê³ł
íķĺ ëĿ¼ê³ł
ĠìłĢ ëıĦ
ĠìĹĨìĸ´ ìļĶ
ë¶Ħ ìĿ´
Ġìī¬ ëĬĶ
íĪ °
Ġê·¸ ëĭ¤ìĿĮ
ĠìķĦëĭĪ ë©´ìĿĢ
Ġì§ĳ ì¤ĳ
Ġ x
ĠíĹĪ ë¦¬
ìŀĲ ë¦¬
Ġì¡° ì¹´
ë°© ìĹĲ
Ġë¹¨ ëŀĺ
Ġê´ĳ ê³ł
ĠìķĦëĭĪ ìĹĲìļĶ
ĠìĹ¬ë¦Ħ ìĹĲ
Ġìļ° ìľł
ĠëĴ¤ ë¡ľ
Ġë°© íķĻ
ì ¿
ĠëģĿ ëĤľ
Ġì½ ĺ
Ġëĥī ìŀ¥ê³ł
Ġë¬¼ ìĿĦ
ĠìĽ ¹
Ġìĸĺê¸° ê°Ģ
Ġìį ©
Ġíķĺìĸ Ģ
ëĦ¤ ëĬĶ
ĠìķĦ ëĭĻ
ëĭ ·
ëĭ¹ íŀĪ
Ġìľł íĬľ
ì½ ĺ
ëŀ Ń
Ġëĺĳ ëĺĳ
Ġë¬´ìĭľ ê±°
Ġê±° ë¦¬
ëĤĺ ì¤ĳìĹĲ
ĠìŀĪ ìľ¼
ĠìŀĪ êµ¬ëĤĺ
1 1
Ġëª¨ë¥´ ê²łëĭ¤
Ġê·¼ ëĶĶ
Ġë§Īì°¬ ê°Ģì§Ģ
Ġíķł ëķĮ
ĠëıĻìĥĿ ìĿ´
ìĺĽëĤł ìĹĲ
Ġê¸° ì¤Ģ
Ġìĺ· ìĿĦ
ĠíĥĿ ë°°
ĠëĤĺê°Ģ ê³ł
Ġë¬´ ë¦İ
Ġì°¨ ë¥¼
Ġìľł íĸī
íĹĪ ìĹ¬
ĠëĤĺ ìķĦ
ĠìŀĪ ëįĶëĿ¼ê³ł
Ġìŀ¬ë°Į ìĸ´
Ġì§Ģ ëıĦ
ĠìķĬ ìľ¼
Ġìĭ¶ ëĭ¤ê³ł
ë§Ĳ ê³ł
Ġëªħ ìłĪ
Ġì¹ĺ ë£Į
· °
Ġì£¼ ì°¨
ê¸° ì§Ģ
íķĺëĬĶ ê²Į
ĠìĤ¬ ë¬´
ĠìĿ´ìłľ ê¹Įì§Ģ
ì¦ Į
ĠìĬ ¹
ì§ĳ ìĹĲìĦľ
ìĹ¬ ê°Ģì§Ģê³ł
ĠìķĪëĲĺ ëĬĶ
Ġíķĺ ëĥĲ
Ġê² Ĳ
Ġê°Ģ ëĿ¼
Ġë² ½
ĠìŀĲ ìľł
ëª ¬
íĬ¸ ê°Ģ
ĠíĤ¤ ìļ°ëĬĶ
ĠëĨĴ ìĿĢ
ê³¼ ê°Ģ
ĠíĻ ©
ĠëĤ¨íİ¸ ìĿ´
Ġëĭ¹ ê·¼
ëĮĢ ë¥¼
ĠìĬ¤ ìĬ¤ë¡ľ
íķł ëķĮ
ìĿ´ ë¸Į
ëħ ľ
ìĺ¤ ë¦Ħ
ëĵľ ê°Ģ
í ĳ¸
ĠìķĦìĿ´ ëĵ¤ëıĦ
ìļ° ëĭĪê¹Į
Ġì¶Ķ ìĦĿ
Ġíĩ´ ê·¼
ìĸ´ì ¨Įëĵł
ĠìķĪ ê²½
Ġê²ĥ ë³´ëĭ¤
ĠìĦ± ëĭĺ
Ġëĵ¤ ìľ¼ë©´
Ġíķ© ê²©
Ġë§ĮëĤĺ ë©´
ê· ł
ĠíĮ į
Ġê°Ķ ê±°ëĵł
ê¸° ë¦Ħ
Ġëª¨ë¥´ ëĭĪê¹Į
Ġìĺ¤ë¹ł ëŀĳ
ĠíķĺëĤĺ ê°Ģ
Ġë²Ī íĺ¸
Ġëĸ¨ìĸ´ ìł¸
Ġë ĥĪ
Ġì£½ ëĬĶ
Ġê·¼ ë¬´
ëĵ £
ĠìĥĿ ìĦł
ĠìĹ´ ìĸ´
ĠëĨĢ ëŀĲ
Ġë ¥
ĠìķĦ ë¶Ģ
ëĤĺ ìĿ´
Ġë¨¹ ìĹī
ĠëĤ¨ ìķĺ
Ġì£½ ìĿĢ
Ġê·¸ëŁ¬ ì§Ģ
ë³ Ħë¡ľ
Ġìĸ´ ìĿ´
ìķĦëĭĪ ìķ¼
ìŀĲ ëıĦ
Ġìĸ´ë ķĮ
Ġëķ ľìĹĲ
Ġíĳľ ì¤Ģ
ëĦ¤ ìļĶ
ĠìŀĲ ëıĻ
Ġëª¨ ë¥¼
Ġëª¨ ë¥¸
Ġë³¸ ìĿ¸
ìķĦ ê¹Į
ĠìĤ¬ëŀĮëĵ¤ íķľíħĮ
Ġë°Ķ ëĭ¥
Ġê¿ Ģ
Ġë§ ¹
ëįĶëĿ¼ êµ¬
Ġìĥģê´Ģ ìĹĨ
ìĿ´ ëŀĢ
Ġê°Ģ ìĿ´ëĦ¤
ëĤ´ ê³ł
ĠìĹĨìĸ´ ê°Ģì§Ģê³ł
ë¨ ¼
ĠëģĿ ê¹Įì§Ģ
ê·¼ ëĶĶ
Ġë¶Ģ ì¡±
ĠìĻĢ ìķ¼
ê· ¤
ì§ Ĳ
Ġíķł ìĿ¸
Ġíķľ ë§Ī
Ġê³ł ë§Ļ
ĩ Į
Ġëĵ¤ ìĿĦ
ĠíĥĢ ëĬĶ
Ġìĭ¬ íķ´
ë§ ¹
ëĭ¤ ë¦¬
ĠìķĬ ìľ¼ë©´
Ġê·¸ëŁ¬ ëĬĶ
Ġì¶ Ķê°Ģ
ĠìĦľìļ¸ ìĹĲ
Ġê¿ ©
Ġëī´ ìĬ¤
ĠìĿ´ ëĶ°
Ġê°Ģ ë¯Ħ
Ġì¢ĭ ê²łìĸ´
Ġëĵ¤ ë©´
Ġì§Ģê¸Ī ê¹Įì§Ģ
Ġìĭľ ìłĪ
ëĮĢ ì²´
Ġê²°íĺ¼ ìĿĦ
ê²Ĳ ëĶĶ
Ġë°ĺ ìĹĲ
Ġì·¨ ìĨĮ
ëĵ¤ ë§Į
ĠíĮĶ ê³ł
Ġìĭ¸ ê²Į
Ġëªħ ìĿĢ
Ġëĵ¤ìĸ´ê°Ģ ê³ł
Ġíķ ĳ
Ġì¹ĺ ì¦Ī
ĠíķĦìļĶ ê°Ģ
Ġê°ģ ìĭľ
Ġì¹ľêµ¬ ëıĦ
Ġê´Ģê´ĳ ê°Ŀ
ê± į
Ġê°Ģ ìĬ´
ĠìĿ´ìłľ ìķ¼
ĠìĿ¸ ê°Ħ
Ġíķĺ ê²łëĭ¤
ĠìĹ¬ ìľł
Ġë§Ľ ì¢ĭ
ĠëĲľ ëĮĦ
Ġê·¸ëŀĺ ìķ¼
ĠíĻ Ķê°Ģ
ìĺĢ ëĤĺ
ëĭ¤ ìĦ¯
Ġìĸ´ ìļ°
ìŀĲ ë¡ľ
Ġëĭ¹ ìŀ¥
ĠìłĢ íĿ¬
Ġê³ł ìĤ¬ë¦¬
Ġíķĺ ë¥´
Ġê·¸ë¦ ĩ
Ġê´Ģìĭ¬ ìĿ´
Ġëĭ¹ ìĭł
ĠíķĺëĬĶ ì§Ģ
ĠìĿ¼ì£¼ìĿ¼ ìĹĲ
ê³ ³
ë¦¬ ìķĦ
Ġname ëĦ¤
Ġê³¼ ìĿ¼
Ġíķľ ëĶĶ
Ġë³´ ëĿ¼
ĠëĮĢ ë¶Ģë¶Ħ
ĠëĨĵ ìľ¼ë©´
Ġë³´ëĤ´ ê³ł
Ġë²Ī ìĹĲ
ĠëĤ¨ ìĿĺ
ĠëĤ´ëł¤ ê°Ģ
ë©´ ìĿ´
ê±°ëĵł ìļĶ
íĹ Ĳ
ê¾ ¼
Ń Ī
Ġìľ Ħë¡ľ
ìķĦ ìľł
Ġì²ĺìĿĮ ë¶ĢíĦ°
Ġìĭľ ì¼°
ëĭ¬ ìĹĲ
Ġì´Į ìĹĲ
Ġë°Ķ ë¹ł
ìļ° ë¦°
Ġê°ķ ìĿĺ
Ġê±°ì§ĵ ë§Ĳ
Ġëį ®
íĺ ĳ
ĠìĤ¼ ë§Į
ĠìĿ½ ìĸ´
ìŀ İ
ë¹ ¼
Ġê°ľ ë¥¼
Ġë¶Ī ìķĪ
Ġë§¤ ìļ´
ĠëĥĦìĥĪ ê°Ģ
ìº Ķ
ĠëĤĺìģĺ ì§Ģ
Ġê°Ģ ë©´ìĦľ
Ġë§Ĳ íĸĪìĸ´
ĠëĤĺìĺ¤ ëĭĪê¹Į
ìķ ŀ
ì¯¤ ìĹĲ
Ġìĸ´ ìĭłëĶĶ
ìĸ´ëĸ »ê²Į
ĠìĤ¬ëŀĮìĿ´ ëŀĳ
Ġë³´ ìĿ¼
ĠìĦľìļ¸ ìĹĲìĦľ
Ġíı¬ ìŀ¥
ĠìĿ´ ëĿ¼ê³ł
ĠìŀĪ ëĥĲ
Ġê°Ģ ìļ´ëį°
ë¥ ł
Ġëļ «
ĠìĻĢ ìĿ´
íķ´ ì£¼
Ġë§Ĳ ë§Į
ĠìŀĪìĹĪ ì§Ģ
ĠëŃĲ ëĭĪ
ĠìŀĲ ì·¨
Ġì¹ľêµ¬ ëĵ¤ìĿ´ëŀĳ
ìĭł ì§Ģ
Ġê¸°ìĪĻ ìĤ¬
ìķł ê¸°
Ġëª¨ë¥´ ê²Į
Ġìłģ ìĿĢ
Ġìĸ´ë¦° ìĿ´
ĠìłĦ ë¬¸
ëĲĺ ê²Į
Ġëĭ¬ ëł¤
Ġë´¤ ì§Ģ
Ġë§Ī ìĭľê³ł
Ġìłľì£¼ëıĦ ê°Ģ
ĠìĿ´ ìª½
ĠìļĶì¦ĺ ìĹĲëĬĶ
Ġë° Ŀ
Ġíķľ ìĭľê°Ħ
Ġì§Ģ ì¼ľ
Ġê²ĥ ìĿĦ
ĠìķĪ ë³´
ĠíķĺëĤĺ ëĬĶ
Ġëªĩ ë²Ī
ĠíķĦìļĶ íķľ
Ġëį ķ
Ġíķľ ëĳĲ
Ġë§Ľ ì§ĳ
Ġì¹ľêµ¬ ëĬĶ
Ġê² ¬
Ġì» ¸
Ġìĸ´ëł¤ ìĽĮ
Ġìŀĺ íķĺê³ł
êµŃ ìĪĺ
Ġë©Ķ ë°Ģ
ĠìĶ ¹
Ġë§Ī ëĬĺ
Ġë°Ľ ìľ¼ë©´
ĠìĻĶëĭ¤ ê°Ķëĭ¤
ìķĦ ëıĦ
ĠëĤĺ ëĭĪê¹Į
ë§ ¥
Ġê³ł ë¥´
ĠëĬĲ ê¼Ī
ĠíĽĦ ìĹĲ
Ġíĥľ ìĸ´
ëĤĺ ë©´
ĠíĸĪ ëĮĢ
ĠíĸĪ ì§Ģë§Į
Ġìĵ° ì§Ģ
Ġìŀłê¹Ĳ ë§Į
ĠìķĪ ë¨¹
ë¶Ģ ëª¨
Ġê³ł ë§Ī
ëĦĪ ëĬĶ
Ġê·¸ëłĩ ëĭ¤ê³ł
Ġë§ĪìĿĮ ìĿĦ
ìĤ¬ëŀĮ ìĿ´
ĠìķĪ íķ´ëıĦ
ĠìĨĲ ìľ¼ë¡ľ
ĠìłĦ ìĹĲëĬĶ
Ġê¹ İ
ĠëĤ´ ëħĦìĹĲ
Ġë¨¹ ìĹĪëįĺ
Ġë°Ķ ëĭ·
Ġìĸ¸ëĭĪ íķľíħĮ
Ġê²ħ íķ´ëıĦ
Ġíģ¬ ê³ł
Ġëĵ¤ ëł¤
Ġëĵ¤ìĸ´ ìĻĶ
Ġê³¨ íĶĦ
Ġëª°ëŀĲ ìĸ´
ëĭ¤ ìĭľ
ìĹ ł
Ġíķĺ ëĬĺ
Ġê·¸ëķĮ ê°Ģ
ĠìŀĲ ëŀĳ
ì© Įê³ł
Ġê²ĥ ìĿĢ
ĠìĨĮ ì£¼
ĠëĦĪëĦ¤ ê°Ģ
Ġëª» íķľ
Ġë©°ëĬĲ ë¦¬
Ġíķĺ ëŁ¬
ê°Ķ ìĸ´
Ġìļ© ëıĪ
Ġìł ĸ
íķĺ ëĭĪê¹Ĳ
ĠìĿ´ëŁ¬ ë©´
ĠìĦ Ń
íĸĪ ëĦ¤
Ġíķ´ ìĹ¬
Ġê·¸ ìŀĲ
ĠìĹĨ ê±°ëĵł
ĠìĿ¼ìĸ´ëĤĺ ìĦľ
Ġê°Ģ ìŀĸìķĦ
Ġíķ´ ì¤ĺìķ¼
Ġê·Ģ ìĹ½
ìł ĵ
Ġë³´ ëĤ¸
ë¬¼ ìĿĦ
ëĭ ®
Ġê°Ģ ì¡į
Ġê²Ģ ìĿĢ
ìĬ¤ ëıĦ
Ġë´¤ ëįĺ
Ġë°± ë§Į
Ġíİ¸ íķĺê²Į
ĠìĦ± ì§Ī
Ġìĺģ ìĸĳ
ĠìĤ ĺ
Ġname ìķĦ
ĠìĽ¹ íĪ°
ì¡° ê¸Ī
ëĤ¬ ìĸ´
Ġëļ ľ
ĠìłĦ ì²´
ĠíĻ Ģ
Ġë© ¸
Ġëĭ¹ ìĭľìĹĲ
ĠíĸĪ ëĮĦ
Ġìĭľ ìĽĲ
Ġí ĳ
Ġì§Ī ë¬¸
ĠíĸĪ ëĭ¤ê°Ģ
ĠëıĻëĦ¤ ìĹĲ
© ëĭĪëĭ¤
Ġìĸ´ ê¹¨
ĠìķĮ ê²Į
ĠêµĲìĪĺ ëĭĺìĿ´
1 2
ĠìłĦ ëĤł
ìĥģ ìĿĦ
Ġë³´ ëĭ¤ê°Ģ
ĠëĮĢ ëĭµ
Ġìķł ë§¤
ìļ´ ëıĻ
Ġê´Ģ ê³Ħ
ë©Ķ ëĿ¼
ĠìĪĻ ìĨĮ
Ġë§İ ìĿĦ
Ġê°Ħ ìĹĲ
ìľ¼ë¡ľ ëĬĶ
Ġíķľë²Ī ìĶ©
íĬ ¹
ê²ł ëĥĲ
Ġë§Ĳ íķĺëĭĪê¹Į
Ġì¹ľ ì²Ļ
ĠëĤĺê°Ģ ë©´
ĠìłĦ ê³µ
Ġì±ħ ìŀĦ
ĠìĽĲ ìĶ©
ìħ ¨ìĸ´
ë§Į íķĺë©´
ĠëĶ± ëĶ±
Ġìĭ¸ ìļ°
ĠìķĦíĮĮ ìĦľ
ĠìĿ¼ ìļĶìĿ¼
Ġê³¼ ìłľ
Ġê°ģ ìŀĲ
ĠëĤĺìĻĶ ëĬĶëį°
Ġì±ħ ìĿĦ
Ġê°Ģ ë´¤
ĠíķĻêµĲ ìĹĲ
Ġë° Ł
Ġíķľ ë¦¼
ĠëĶ° ëĿ¼ìĦľ
ĠìĽĶ ìĹĲ
ìĸ´ ì§Ħ
ĠëŃĲ íķĺê³ł
Ġë§ŀ ìĿĢ
Ġë°° ê°Ģ
Ġê³ł ì¶Ķ
Ġíĺķ ìłľ
Ġì§ľ ë¦¬
Ġì¶ ¤
ĠìĤ Ń
Ġìĭ¶ ìĹĪëĬĶëį°
ĠëªħìĿ´ ìĦľ
ìĥĿ ìĿ´
Ġìī¬ ìļ´
ĠìķĦíĶĦ ê³ł
Ġê°Ļ ìľ¼ë©´
ĠíĸĪ ìľ¼ëĭĪê¹Į
Ġê¸¸ ìĿ´
íĸ¥ ìĿ´
Ġë°Ķ ìĿ´
Ġê±¸ ëł¸
ĠëŃ £
ĠìĹ¬íĸī ìĿĦ
ĠíĽĪ ëł¨
ĠìĿ´ íĺ¼
Ġë³´ ê²Į
Ġë¨¹ ê¸°
ĠëĮķ ê¸°
Ġë¯¸ ìļ©
ĠìķĦ ëĭĺ
ĠìķĦëĭĪ ê½Ī
Ġë°ĺ ëĮĢ
ĠíĬ¹ ë³Ħ
ĠìĤ¬ ë©´
Ġë°° ìļ°ê³ł
ì¹´ ë¶Ģ
ìĦłìĥĿ ëĭĺ
ìĹ ĩ
ëį ¸
ĠëĤĺìĺ¤ ì§Ģ
ĠìĿ´ íĽĦ
Ġìĭ¶ ìľ¼ë©´
ĠìķĦë¹ł íķľíħĮ
Ġê°Ģ ìķ¼ì§Ģ
ĠìŀĲ ìĦ¸
íķĺ ëĭĪ
Ġëħ¸ íĬ¸
ìĭ ¹
Ġìĭľ ì¦Į
Ġê¸ ģ
ê·¸ê±° ëĬĶ
Ġê°Ģ ìłķ
íĨ ±
ĠìĹ ĳ
Ġname ìĿ´ëĬĶ
ĠìĺĪìģĺ ê²Į
ëĳ¥ ìĿ´
ìĬ¤ íĦ°
Ġìłľ ë°ľ
ìĥ ¤
ìĿ´ ìĹĪìĸ´
ĠëĤ ¸
Ġê² ¹
íĿ Ķ
ëĶĶ ê°Ģ
Ġê±Ķ ëŀĳ
ĠìķĦë¹ł ëŀĳ
ĠíĭĢ ëł¤
Ġë¨¹ ê²Į
ìĭľ ìķĦ
Ġëª¨ ëĳĲ
ĠìĻľëĥĲ ë©´ìĿĢ
ĠíĨł ìļĶìĿ¼
ĠíħĮ ìĿ´
ëĮĢ ë©´
ê¹Įì§Ģ ë§Į
Ġê²½ íĸī
ëĳ Ķ
Ġìĸ» ìĸ´
ĠìľłíĬľ ë¸Į
Ġê°Ħ ëĭ¨
ì¤¬ ìĸ´
Ġì¢ Į
íĮ ł
ìłĦ ê±°
ĠìĻĶ ìĿĦ
ê²ł êµ¬ëĤĺ
ĠëĨĶ ìĦľ
Ġëĥī ëıĻ
Ġìĭ¬ ê°ģ
Ġëĸ¡ë³¶ ìĿ´
Ġë§ŀ ìĿĦ
íļ ¨
ì§Ģ ìķĬ
Ġëł Į
Ġë§ī ëĤ´
ìĽ ĢìĿ´
ëª ½
ĠëĨ ©
ìĦ¼ íĬ¸
ĠíĶ¼ íķ´
Ġìĭłê¸° íķ´
ĠëĤ Ļ
ĠëĤ´ ëĬĶ
Ġìĭľê°Ħ ëıĦ
Ġìı ĺ
ĠëĦ· íĶĮ
Ġì°¨ ìĿ´ê°Ģ
Ġë¶Ī ëłĢ
Ġë¨¹ìľ¼ë©´ ìĦľ
ëļ ±
ìĹĲ ëĭ¤
ê³µ ë¶Ģ
Ġë°ķ ìĬ¤
Ġíķ´ ê²°
Ġê·¸ê±° ëŀĳ
ëĤ¨ ìŀĲ
Ġë§Ĳ ëŀľ
Ġë© Ī
Ġìĺ¤ëŀľ ë§ĮìĹĲ
íĸĪ ìŀĸìķĦ
Ġìĸĺê¸° íķł
Ġìĭ¬ ìĭ¬
ĠëĤ³ ê³ł
ìķĦ ì£¼
ìĹĪ ìľ¼ëĭĪê¹Į
Ġì°į ìĿĢ
ĠëĪĮ ëŁ¬
ĠëĪĦ ê²Į
ĠëĤĺìĺ¤ ëĬĶëį°
Ġë§ĽìŀĪ ê²Į
ë§İ ìĿ´
ĠëĤļ ìĭľ
Ġë¹ ļ
ĠìķĦ ëĵ¤ìĿĢ
ê¹ ĥ
Ġìĺ¤ íĽĦ
ĠìĹĨ ëĬĶê±°
Ġê°Ķ ëįĺ
ëıĦ ë¡Ŀ
ë¡ľ ë§Į
Ġìĭľ ëĤ´
Ġì£¼ ìĭĿ
ê²½ íĸī
Ġìĭľ ëģĦ
ì¹ĺ ë¥¼
Ġê´ľì°® ìĿĢëį°
íĭ ±
ĠìŀĪ ëįĶëĿ¼
ĠìĤ¬ ëĭĪê¹Į
ĠìĹ¬ê¸° ëıĦ
Ġì°į ëĬĶ
Ġë©Ķ ëī´
ëĿ ł
ĠìĹ¬ê¸° ìĹĲ
ĠìĥĿê°ģíķ´ ë³´ë©´
Ġì¢ĭ ìķĺìĸ´
ĠìĦ¸ ìĽĮ
Ġë³¸ ìĿ¸ìĿ´
Ġê°Ģ ëĭ¤ê°Ģ
ì½Ķ ë¡ľëĤĺ
Ġê² ©
Ġíķł êº¼
ìĥģ ëıĦ
ĠëıĦ ëĮĢì²´
ìķĦ ë²Ħ
ĠìķĦ ìī¬
Ġíķĺ ìĭľ
Ġë§ŀ ìķĺ
Ġë°Ķ ì§Ģ
ĠìķĬìķĦ ìļĶ
ê°Ģ ëıĦ
Ġíı ´
íĿ ¥
ĠíĺĦ ìĭ¤
ĠìķĦìĿ´ íı°
ĠëıĻ ì°½
Ġë¬¼ìĸ´ ë´¤
íķĺ ë£¨
Ġê¹Ģ ë°¥
ĠìĤ¬ ìļ©
ĠìļĶ ìĸĳ
ĠëĪĪ ë¬¼
ĠìķĦë¹ł ëıĦ
Ġìķłëĵ¤ íķľíħĮ
Ġì¼ĢìĿ´ íģ¬
Ġê°Ļ ëįĺëį°
Ġëª°ëĿ¼ ìĦľ
íĿ ĺ
Ġìŀ¬ë¯¸ìŀĪ ê²Į
ê¹ ¥
Ġìĸ´ ìĸ´
Ġì£¼ ì§Ģ
Ġê³ł ìĸĳ
Ġë§ŀìķĦ ìļĶ
Ġë°° ìļ´
ĠìĿ´ë²Ī ìĹĶ
Ġëĭ¤ ìĿ´
Ġê³Ħ ìķ½
ëĭ Ń
ìĹĪìĸ´ ìļĶ
ĠëĤł ìĹĲ
ĠìĤ¼ ìĦ±
ìĦľ ìļ¸
Ġìĸ´ ìĭľ
Ġë§Ī ìħĶ
Ġìłģ ìĸ´
ìķĦ ëĵ¤
Ġìŀħ ìĿĦ
ì§Ģ ê¸°
ëĶĶ ìĺ¤
ĠíĸĪ ëįĶëĭĪ
ëĭ¹ ìĿ´
ĠíĥĢ ìĦľ
ëĺ ¥
Ġê¹Ķ ëģĶ
Ġìŀĥ ìĸ´
ëĵ ¬
ëĨĵ ìĿĢ
ë İ
Ġíķĺ ëįĺ
Ġìķł ì´ĪìĹĲ
Ġëĭ® ëĭ¤
ëĭĪ ê°Ģ
ĠìĹĨ ìĸ¸
Ġê¸° ëĮĢ
Ġìļ° ìĦł
Ġíķ´ ëĤľ
Ġìĺ¤ ë©´ìĿĢ
ĠìĥĿê°ģ íķ´ìĦľ
ĠìĤ´ ë©´
ë²Ī ì§¸
ĠìĿ´ ë¹¨
Ġì§ ¸
íķĺ ëįĶëĿ¼
ëĤĺ ëĦ¤
ê¸° ìĹħ
ĠìĤ¬ ê³¼
ìĽ ¡
ĠëĲľ ëĭ¤ëĬĶ
Ġíķ´ ë³¸
Ġìĭľ ëĪĦ
ĠìĪĺ ì¤Ģ
Ġê³Ħ ëĭ¨
ĠëĤ´ëł¤ ìĺ¤
Ġì ©
ĠìĽĲ ìĿ´
Ġê±ĶëĦ¤ ê°Ģ
ëĵ¤ ê³ł
ĠëĲľ ê±°
Ġì½Ķë¡ľëĤĺ ê°Ģ
Ġë¶Ħëªħ íŀĪ
Ġê²½ íķ´
ĠëĦĺ ê²Į
ê°Ģ ê²Į
ë´Ĳ ìĦľ
íĹĪ ìĺģ
Ġì£Ħ ìĨ¡
ë¹ ¡
Ġìĥģ ëĭ´
ì£¼ ìĹĲ
ìĹ¬ ìŀĲ
ì²ľ ìĽĲ
Ġìļ° ìļ¸
ëĳ ĳ
Ġê±° êµ¬ëĤĺ
ê²ł ëĭ¤ëĬĶ
Ġëª° ëŀĢ
Ġìľł ì¹ĺ
Ġê³¼ ìŀĲ
ĠìĤ¬ì§Ħ ìĿĦ
Ġíĥ ĳ
Ġì« Ħ
ĠëĲ ¬
ĠëķĮ ë¬¸
ì§Ħ ê±°
ĠëĮ ĵ
ĠìķĦ ëĭĪê¹Į
Ġë³´ ìĿ´ê³ł
êµ¬ ê°Ģ
Ġìĸ´ë©į ìĿ´
ëŀ «
Ġê°Ī ëł¤ê³ł
ê¸Ī ìĿĦ
ĠêµŃ ë¬¼
Ġê·¸ëŁ¬ ëĭ¤ê°Ģ
Ġíŀĺ ìĿ´
ê°Ģ ë¥¼
êµŃ ìĹĲ
ëļ Ŀ
ìĺĢ ëįĺ
Ġëıħ ìĦľ
Ġì¹ĺ ë§¤
ë¦¬ ëĭĪê¹Į
Ġì° Ķ
Ġìĸĺê¸° ëıĦ
ĠëģĿ ëĤł
Ġê±°ê¸° ìĹĲìĦľ
Ġì¶© ë¶Ħ
ĠíķłìķĦë²Ħì§Ģ ê°Ģ
ĠìķĦëĭĻ ëĭĪê¹Į
ìĹĪ ëĮĢ
ë²Ī íĺ¸
Ġìŀħ ëĬĶ
ëŃ ĩ
Ġê° ±
ĠìŀĪëĬĶ ê²Į
ĠíķĺëĤĺ ìĹĲ
ë°Ķ ìĿ´
ĠìĤ¼ ì¶ĺ
Ġíĺķ ìĿ´
ĠëĴ¤ ì§ĳ
Ġê° ļ
ĠëķĮ ëł¤
ĠíĤ¤ ìļ°ê³ł
Ġê±ĶëĦ¤ ëĬĶ
Ġì°¨ ëł¤
ëŀ Ļ
ìĺ Ĩ
ĠìĨĮ ë¦Ħ
Ġìĭ«ìĸ´ íķ´
ê·¸ ê²ĥ
ìļĶ ìĥĪ
Ġë°± ìĭł
ìķĦ ë°©
ĠëĤĺ ìĻĦ
ìĿĮ ìĿ´
ìķ¼ ëĲĺ
ĠìĿ¼ ë¡ľ
ĠíĿ ¥
ê° ±
Ġíķľ ëĮĦ
íĬ¸ ëĤ¨
Ġì ³
ĠìĿ´ ìĭ¤
ĠìĿ¸ ëį°
Ġì» µ
ì» ¨
ê¶ ģ
ìľ¼ ë©į
ìľ¼ ëĦ¹
ë² ¼
Ġíŀ Ī
ĠêµŃ ë¯¼
íĬ¸ ë¥¼
ĠëĲĺ ìĦľ
ì¡ ¸
ì¤Ħ ê²Į
ìį ¹
ìĹ Į
ìķĦ ì¹¨
ĠìķĪ ëĲł
Ġëĭ¤ ìĸĳ
ĠìŀĲ ëĬĶ
ìĥģ ìĹĲ
ê·¸ëķĮ ëĬĶ
ĠìķĪ íĸĪ
ë§Į ìķ½
ĠëıĦ ì°©
Ġëª¨ë¥´ ì§Ģ
ĠëĤĺ íĥĢ
ĠìĿ´ëª¨ ê°Ģ
Ġë§Į íĻĶ
ĠìĹ° ê¸°
ĠíĿ Ļ
Ġëª© ìĨĮë¦¬
Ġíķ «
ĠìŀĪìĹĪ ìŀĸìķĦ
Ġìĸ´ë¨¸ëĭĪ ëĬĶ
Ġìµľ ëĮĢ
Ġê°Ģ ìĿ´ëĬĶ
ĠëķĮ ëĤĺ
ĠìķĦ ê¹Ŀ
Ġëģ Įê³ł
Ġë ĩĮ
Ġêµ ½
Ġëª° ëŀĺ
Ġìłķ ë³´
ìĿ´ìłľ ëĬĶ
ĠìĤ¬ ëĬĶëį°
ê·¸ ëĤ´
Ġë²Ħ ëł¸
Ġì¹´ ë©ĶëĿ¼
Ġê» į
ì£¼ ì§Ģ
Ġíķĺê³ł ìĭ¶
Ġë¨¹ìľ¼ ëł¤ê³ł
Ġìĸ´ëĶ ĺ
Ġê¾¸ ì¤Ģ
ĠìķĦ íĮł
Ġíķľ ì°½
Ġë¨¹ ìŀĸìķĦ
Ġëĵ¤ ìĹĪëĬĶëį°
Ġìķ¼ ìĿ´ê°Ģ
ë¹Ħ ëıĦ
Ġìĺ¤ëĬĺ ëıĦ
ìĹĨ ìĸ´
ĠìĥĢ ëĬĶëį°
Ġì¢ĭìķĦ íķĺê±°ëĵł
ĠìĤ¬ëŀĮëĵ¤ ìĿĦ
Ġíķľ ëĭ¤ëĬĶ
ìľ¼ë¡ľ ëıĦ
ì§Ħ ëĭ¤
ĠëĴ¤ ìĹĲìĦľ
Ġë§Īì§Ģë§ī ìĹĲ
ĠìĽĥ ê¸°
ĠìĹŃ ìĤ¬
Ġìĺ¤ íĶĪ
ê°Ļ ìķĦ
íĺ Ķ
Ġë¶Ģ ìŀĲ
ë°Ľ ê³ł
ĠìĹ¼ ìĥī
Ġíĸĩ ë¹Ľ
Ġë²Ħë¦¬ ëĭĪê¹Į
ĠìĿ Ħ
ê±° ìļ´
ìĬ¤ ëĬĶ
Ġì£¼ ìľĦ
Ġë§Ľ ìĿ¸
Ġì¢ĭìķĦ íķĺëĬĶëį°
ĠìķĦ ëĬĶëį°
êµĲ ìľ¡
ëĤ´ ëĬĶ
Ġìĭ¤ ìłľë¡ľ
Ġìį¨ ìĦľ
ëĨ Ģ
ĠìĥĢ ìĸ´
Ġê²½ìļ° ìĹĲëĬĶ
Ġì§ľì¦Ŀ ëĤĺ
Ġê²Ĳ ëĶĶ
ĠìŀĲ ìłĦê±°
Ġìĥģ ì²ĺ
Ġë§Į ìĹĲ
ĠìļĶ ê±°
ĠëĤ¨ ëĬĶ
ìĥĪ ê¸°
Ġë°ĽìķĦ ìķ¼
Ġë¶ĦìľĦ ê¸°
ìłľ ë¥¼
ë°Ķ ëĭ¥
Ġìļķ ìĭ¬
® ¤
Ġë¶Ģ ì§Ģ
Ġëº ı
ë§Ī ìĭľ
ĠìĥĿê°ģ íĸĪëĬĶëį°
Ġë°Ķ ê¹¥
ĠìłĦíĻĶ ë¥¼
ì§Ģê¸Ī ìĿĢ
Ġíľ´ íķĻ
ì£¼ ê°Ģ
Ġìĵ° ëŁ¬
Ġìĭľ ìŀ¥
ĠìŀĪëĬĶ ì§Ģ
Ġëª¨ë¥´ ëĬĶëį°
Ġë§ĲìĿ´ ì§Ģ
ê¼ Ń
Ġê±· ëĬĶ
ìĸ´ ìłľ
ì¹ĺ ë©´
Ġëľ ¬
ĠìĿĮ ë£Į
Ġìķłê¸° ê°Ģ
Ġìŀ¬ë°Į ëĬĶ
Ġìĸ´ëĸ¡ íķ´
ĠëĤĺë¨¸ ì§Ģ
Ġê·¸ ì§Ģ
ìķĦ ëħ¸
Ġë²Ħ ë¦°
Ġë³´ ëĭ¤ëĬĶ
ë§Ĳ ìĿĦ
Ġëį°ëł¤ ëĭ¤
ìĦľ ëĬĶ
Ġì¢ĭ ëĮĦ
ìŀĲê¸° ê°Ģ
ĠëĦĪëĦ¤ ëĬĶ
ĠìĿ´ìĥģ íķĺê²Į
ìĽĲ ìĿĦ
Ġëĵ± ë¡Ŀ
ĠìķĪ ìłĦ
Ġë§Ĳ ìķĦìķ¼
Ġëª ¬
ĠìĤ´ ëĭ¤
ĠìĤ¬ìĿ´ ì¦Ī
ìĿ´ ë²Ħ
ë¦¬ ì¹´
ĠìĤ´ ëĭ¤ê°Ģ
Ġê±¸ ìĸ´ìĦľ
Ġìĸ´ëĶĶ ê°Ģ
Ġêµ¬ ë©į
ĠìĨį ìĥģ
Ġë½ĳ ìķĦ
ĠìĽĲ ìĿ¸ê°Ģ
Ġë¬¸ ìŀĲ
ê³ł ìĿ´
ĠìĽĲ íķĺëĬĶ
ì¢ħ ìĿ¼
Ġë§ĺ ìĹĲ
ìĤ¬ ì£¼
ì¹ĺ ê¸°
Ġìĺ¬ ë¦¬ê³ł
ìĸ¼ ë§Ī
ĠëĤ´ ëĤ´
ëģ Ī
ĠìĿµ ìĪĻ
íķĺ ê±°ëĤĺ
ĠìĦ¸ ëĮĢ
ĠìĤ¬ ëª¨
ĠìķĦìĿ´ ëıĦ
ìļ°ë¦¬ ëıĦ
Ġí ĭ
ëıĻ ëĦ¤
Ġë°ľ íĳľ
ĠìĿ´ ëĶĶ
Ġìī¬ ê³ł
ìĬ¤íģ¬ ë¦¼
Ġë§Ĳ íķĺì§Ģ
Ġìĭľ ë¶ĢíĦ°
Ġì£¼ ìĦ¸ìļĶ
Ġê±¸ ìĸ´ê°Ģ
Ġìķ¼ ì±Ħ
ĠëĤ´ ìķ¼
ìĿ´ ìĬ¤
Ġìł ĵ
ĠëĮĢ ê°Ģ
Ġìŀ¡ ìķĦìĦľ
ìĹĦ ì²Ń
ĠìĿĮìĭĿ ìĿĦ
Ġì¢ħ ìĿ´
Ġì§Ħì§ľ ìĿ´
ìĭľ íĹĺ
ĠìĥĿ ê¸°ê³ł
Ġê±¸ ë¦´
xx xx
Ġëķ Ģ
ëĦ £
ìķł ëĵ¤
Ġë© ľ
ĠìķĦìłĢìĶ¨ ê°Ģ
ĠìĹĨ ëĮĢ
Ġê²Į ë¯Ħ
ë¹Ħ ë¥¼
ĠìĿ´ê±¸ ë¡ľ
Ġìĺ¬ ëł¸
ĠíĶĦë¡ľ ê·¸ëŀ¨
Ġì° ¢
Ġìĺģ íĸī
ì²ľ íŀĪ
ìľ¼ ëĭĪ
Ġëħ¸ íĺķ
ĠìĤ° ì±ħ
ĠìķĪ íķĺë©´
ĠìĹ ¥
ĠíħĮ ëłĪë¹Ħ
ĠëĤĺì¤ĳ ìĹĲëĬĶ
ìķĦ ì§ģ
ìľ ¨
ëĦ Į
ĠíķĻêµĲ ë¥¼
ì ı
Ġname ìĿĢ
ì§Ī ìĿ´
Ġë©ĭ ìŀĪ
ĠìĤ¬ëŀĮ ìĿĺ
ĠìĹŃ íķł
Ġê±° ëĤĺ
ĠëŃĲ íķ´
ĠìĿ´ëŁ° ëį°
ĠëıĻ ê¸°
ê°Ģ ëĤľ
Ġëĵ¤ ìĸ¸
ĠìķĬ ê²Į
Ġë°Ľ ìķĺìĸ´
ĠìĹ° êµ¬
ĠìĺĪ ë¯¼
ĠìºĲ ë¦Ń
ëĵ¤ ìĿĺ
ìĤ Ĳ
Ġëª¨ ìĹ¬
Ġìĭ¤ ìĬµ
Ġíķĺë¥´ ë°©
ĠíĸĪ ìĸ¸
ĠìĻĢ ìĭłëĶĶ
Ġìŀ¡ ëĬĶ
Ġë§İ ëĭ¤
ĠìĨĲ ê°ĢëĿ½
ĠíĴ Ī
Ġê²ĥ ëĵ¤ìĿĦ
íķľíħĮ ëĬĶ
ëŃ Ķ
Ġê³¼ ëª©
Ġìĺ¬ëĿ¼ ìĺ¤
í ĮĢ
ìĿ´ ë²ĪìĹĲ
ĠìĤ¬ ëŁ¬
Ġë¬´ ë£Į
ê» ĳ
ĠíĶ¼ ìŀĲ
Ġíĥľ ìĸ´ëĤĺ
ĠìĬ¤íĥĢìĿ¼ ìĿ´
Ġê°Ķ ëĭ¹
Ġì¤ĳ ìĹĲìĦľ
Ġë°ľ ëĿ¼
Ġìĭľ ëĮĢ
ë´Ĳ ëıĦ
ìĹĦë§Ī ê°Ģ
Ġë¹Ļ ëĸ¡
ìĺ ¥
Ġíĥ Ĳ
Ġë¥ ¼
ìĤ¬ ì§Ħ
Ġì§Ģ íĤ¤
Ġë© ĺ
Ġê±°ê¸° ëĭ¤
ìķĺ ëĭ¤
Ġë¡ ¤
1 3
ìĸ´ ëĬĲ
ë¥ µ
Ġíĺ¼ìŀĲ ë§Į
Ġë½ Ģ
Ġë³´ ëĭĪ
ĠìĤ° ìĹĲ
Ġìĸĺê¸° ëĬĶ
ì¢ Į
Ġë²ł íĬ¸ëĤ¨
ëı Ķ
Ġê¸° ìĪł
Ġë¨¹ìľ¼ ëĿ¼ê³ł
ĠíĤ ¬
Ġê°Ģ ìŀĲê³ł
ì²ĺ ìĿĮìĹĲ
ëĦ ĺ
Ġë§ŀ ëĦ¤
ìģ ł
Ġíŀĺëĵ¤ ê³ł
Ġê°Ģ ëĿ¼ê³ł
Ġìĺ¤ ëĬĶëį°
ë¯¸ ê°Ģ
Ġì¹ĺ ëĬĶ
ìĸ´ ë¡ľ
Ġìĸ ĩ
ì§Ī ìĿĦ
ĠìĦ± ê³µ
ĠëŃĶ ëį°
ĠìĻĢ ëıĦ
ĠìķĦë°© ìĿ´
Ġì§ ±
ĠëĤł ëĿ¼
ìĤ¬ ê³ł
ê²ł ëĮĢ
ëįĺ ì§Ģ
Ġë°° ì¶Ķ
Ġì§Ģ ë°©
ë£ ¸
Ġíĺ¸ ë°ķ
ëĴ ¤
Ġìĸ´ì ĥī
ĠëĬĲëĤ Ģ
ĠìĿĢ íĸī
ì£¼ ë¡ľ
ĠìłĦ ë³µ
Ġìĺ¬ ëłĪ
ĠëĬ¥ ëł¥
ĠìĻ ł
ĠìĥĿê°ģ íķĺ
Ġì§Ģ ìĸ´
Ġëı¼ ì§Ģê³ł
Ġê³³ ìĿ´
Ġê°Ģê¹Į ìĿ´
ĠìĹ İ
ì¤ ľ
ĠëĤľ ëĭ¤
Ġëı¼ ê°Ģì§Ģê³ł
Ġë°° ìĽł
ê°Ķ ëĬĶëį°
Ġíķľë§Ī ëĶĶ
íı Ń
ĠìĨĲ ìĹĲ
Ġê¹Į ë¨¹
ĠìĿ´ ìģľ
Ġì§ ķ
ĠìĤ¬ëŀĮ ìĿ¸ëį°
Ġìŀħ ë§Ľ
ĠìķĦ ëĿ¼
Ġê² ª
ìķĺ ì§Ģ
Ġì°¨ ìĹĲ
Ġê°Ī ê¹Į
ĠìĦ± ìłģ
Ġë§ŀì¶° ìĦľ
ìĦľ ê´Ģ
ĠëĤĺ ê°Ģì§Ģê³ł
ĠìĭŃ ëħĦ
Ġì£¼ìĿ¸ ê³µ
ĠìĿ´ ëŀĳ
Ġê·¸ëŁ° ì§Ģ
Ġì£¼ ëĭĪê¹Į
Ġì¤ĳ ê³ł
ìĤ¬ëŀĮ ëĵ¤
íķ´ ì£¼ê³ł
Ġë¶Ģ ëŁ¬
Ġë¶Ģ ìĹĮ
íĮ Ł
Ġì²ľ ì²ľíŀĪ
ĠìŀĪ ê²łëĭ¤
ĠìĤ¬ ëĭ¤ê°Ģ
ĠëĦĪ ìĿĺ
ë³´ íĹĺ
Ġë¹Ħ êµĲ
ì» ¬
ì Ńī
Ġíķ´ ê°ĸê³ł
ìľ¼ë¡ľ ë§Į
ĠíķĺëĬĶ ê±°ëĿ¼
ìĹ¬ ê³ł
ê¹Įì§Ģ ëıĦ
Ġì±Ħ ìĽĮ
Ġì¹¨ ëĮĢ
ĠìĿ´ ì¶Ķë£©
ĠìĥĿê°ģ íķł
Ġìĭ¶ ìĿĦ
ĠìĭľíĤ¤ ê³ł
Ġë§Į íķľ
Ġì¹ĺ ë©´
ĠëŃĲ ëĵł
ĠìķĮ ìķĻ
ìĻĶ ëĬĶëį°
ĠìŀĦ ìĭł
ĠìĬ Ī
ëĮ ģ
Ġë¨¹ìĹĪ ì§Ģ
ëĤľ ëĭ¤
Ġë¯¸ ëŀĺ
Ġíĺķ ë¶Ģ
ĠìĹŃ ìĭľ
Ġìĥģíĥľ ìĹĲìĦľ
ê²Į ë©Ķ
íķ´ ìķ¼ì§Ģ
ìŀĪ ëĦ¤
Ġìĸĺê¸° íķĺë©´
Ġìĺ· ëıĦ
ĠìŀĪ ê²łì§Ģ
Ġê°Ģ ê·¸ëĦ¹
Ġìĸ´ ìĭľëĤľ
Ġìŀĳ ìķĦ
Ġì·¨ ì§ģ
ì°Į ê°ľ
ĠìķĬìĿĢ ëį°
Ġëħ¸íĬ¸ ë¶ģ
íķľ ëĶĶ
ìĭľ ê°Ģ
íŀĪ ëĬĶ
ĠìĺĪ ë°°
ĠëĤĺìĺ¤ ìŀĸìķĦ
Ġê°Ģê¹Į ìļ´
íĸĪ ê³ł
Ġíķĺ ê²łëĭ¤ê³ł
ĠìĤ´ ëł¤ê³ł
Ġê³¨ ëª©
ë ·°
Ġë§Į ëĵľ
ĠìķĬ ëĥĲ
Ġìŀ¬ ë£Į
íĺ¼ ìŀĲ
ĠìĥĿê°ģíķ´ ë³´ëĭĪê¹Į
Ġê±°ê¸° ëĭ¤ê°Ģ
Ġê·Ģ ìĭł
ëıĮ ìķĦ
ĠìºĲë¦Ń íĦ°
ìĿ´ ë¦Ħ
ëĦ¤ ëıĦ
Ġìĺ¤ íĨł
Ġìłķ ìĥģ
Ġë¶Ģ íĥģ
Ġíİ ´
ĠìķĪ ëĵ¤
Ġê²ĥ ëĵ¤ìĿĢ
Ġê°Ī ì¹ĺ
Ġê±°ëĿ¼ ìĦľ
ĠëĲĲ ì§Ģ
ĠìŀĲê¸°ëĦ¤ ê°Ģ
Ġíķĺ ìłł
ĠìĥĿê°ģ ìĹĶ
ê±° ê³ł
ĠëŃĲ íķĺ
Ġê²½ ìłľ
Ġìŀħ ìĹĲ
Ġë¹ł ì¡Į
íĽ Ī
Ġì«ĵ ìķĦ
Ġíķĺ ê²łì§Ģ
ìĪĺ ëĬĶ
ĠìĨĲ ìĿ´
ë³´ ëĭĪ
Ġíı °
Ġìĺ¤ë¹ł ëıĦ
Ġëª¨ë¥´ê²ł ì§Ģë§Į
ĠëĤĺ ë¹ł
ĠëĤ´ ë¦¬
ì£¼ ìĦ¸ìļĶ
ë¶Ģ ë¡ľ
ĠìĿ¸ ê¸°
Ġìĸ´ëĶĶ ëĥĲ
Ġìľł ì§Ģ
ĠíķĺëĬĶê±° ì§Ģ
ê² ¹
ëĭ¤ ëħĢ
Ġì§ ł
ĠìĤ¬ëŀĮ ë§Į
ëģ Ŀ
ĠìĨĮ ê³łê¸°
Ġê²ħ íĹĪ
ĠìŀĲ ê°Ģ
Ġìĭ«ìĸ´ íķĺëĬĶ
Ġìŀ ĸìķĦ
Ġìŀ¬ ìĤ°
ĠìļĶì¦ĺ ìĹĶ
ĠëĿ Ħ
ĠìĤ¬ìĭ¤ ìĿĢ
ëķ ¡
ë½ ķ
ĠëĲĺ ê¸´
ì°¨ ê°Ģ
ì£ Ħ
Ġê°Ģ ë£¨
Ġê³ °
Ġê±´ ëĦĪ
ĠìķĦëĭĪ ëĦ¤
Ġìĺ¬íķ´ ëĬĶ
ìĿ´ ìĥģ
íķľ ë²Ī
íħ ľ
ĠìķĦìĿ´ ìĬ¤íģ¬ë¦¼
Ġë¹Ħ ëĮĢë©´
Ġë²Ħ ëĬĶ
ëĭ¤ ë©´
ëł¤ ê°Ģì§Ģê³ł
Ġìĺ¬ ë¦°
ĠìĹ¬ê¸° ìłĢê¸°
ĠíĶ¼ ìķĦëħ¸
Ġì¤¬ ìĸ´
ì© į
ìĿĦ ê±¸
Ġê¸° ìĤ¬
ëĲĺ ìĸ´
ĠëĨĢ ëŀĢ
ìĹ ĺ
Ġìĺ¤ ë¥¸
Ġìĺ¤ ì£½
Ġë¶Ģë¥´ ëĬĶ
ìĿ´ ìĹĪëĬĶëį°
ĠìĤ´ ì§Ģ
ĠíķĺëĤĺ ëĭĺìĿ´
Ġê°Ĳ ê¸°
ĠìĦľ ë¹Ħ
Ġíĺ ľ
Ġëĭ¨ ì²´
Ġëĭ¤ ê°Ģ
ë³´ ì§Ģ
ĠëıĻ ë¬¸
ĠíĹĪ ëĭ¹
Ġì¹ĺ ë§Ī
ìĿ´ ë²Ī
ĠëĤ ©
Ġë©´ íĹĪ
ĠíĹĪ ëĬĶëĶĶ
ĠíĥĢ ìĿ´
ìĤ¬ëŀĮ ëĵ¤ìĿ´
ĠëĮĢ ì¶ľ
Ġë¹ł ì§Ģ
ìĿ¸ ëĵ¤
ìļ° ê½Ī
ì´ ī
Ġê³¼ íķĻ
Ġë¹ł ì§Ħ
Ġëª°ëŀĲ ëĬĶëį°
ĠíĹĪ ë¯¼
ë§Ĳ ëıĦ
ĠìķĮìķĦ ìķ¼
Ġì¡°ìļ© íŀĪ
Ġì¢ĭìķĦ ìļĶ
Ġíİ¸ íķ´
Ġê³ł ë¬´
ë´ ħ
Ġë°ĺ ìĿĳ
ë¸ Ĳ
ê°Ĳ ìĿĦ
ĠëĦ·íĶĮ ë¦Ń
Ġê°Ģ ëĬĶê±°
ëħ ¼
ĠëĳĲ ê³ł
Ġëĭ¤ë¥¸ ëį°
ëĪĦ êµ¬
Ġë¹¡ ìĦ¸
Ġì ĳ¥
ìĿ´ ëĥĲ
ĠìĿ´ ëħĦ
Ġíĺ ĳ
Ġê¸¸ ìĿĦ
Ġì°© íķľ
ëĭ¤ ìĿ´
ë³´ ëĿ¼
ë´Ĳ ë´Ĳ
ê²Į ìŀĦ
ìĿĢ ìĿ´
ê·¸ ëĤľ
Ġìķł ìĽĶ
ĠìļĶ ê°Ģ
íķł ê¹Į
ĠìĹ¬ê¸° ê¹Įì§Ģ
ìĿ´ ëĤľ
ĠìĿ´ ìĦ±
ĠìĿ¼ íķĺê³ł
ì²ĺ ìĿĮ
Ġê¸¸ ê²Į
ìķĦë¬´ íĬ¼
Ġìķ ¡
ëıĦ ìĿ´
Ġëª» ìĤ´
ĠëĶĶ ìŀĲ
ĠëıĦìĭľ ëĿ½
Ġíķĺ ìĭľëĬĶ
ĠìĻĶ ëĭ¤ê³ł
Ġìķ ķ
ê²Į ë¯Ħ
ì¤ į
ĠëĨĢ ëŀĺ
Ġìĭ¸ ê³ł
ĠìĿ´ìĭľ ë¯Ħ
Ġë ĳ
ìĭľ ìŀ¥
ĠëĮĢ ë©´
ĠíķĻ ìłĲ
ìĨį ìĹĲ
Ġê°Ī ê±°
Ġë¯¸ ìĹŃ
Ġê² ī
Ġìĭľ ê³¨
Ġë¹Ħ ëĭĲ
ĠìĿĮìĭĿ ìĿ´
ĠìĿ´ëŀ¬ ëĬĶëį°
ë¥´ ê²Į
ĠëıĻ ìķĦë¦¬
Ġìľ¡ì§Ģ ìĹĲìĦľ
Ġë°Ķëĭ¤ ìĹĲ
ìĿ´ ê±´
ë° į
Ġëĵ¤ìĸ´ ìĺ¬
ìĤ¼ ìĭŃ
Ġëļ Ŀ
Ġëŀ ĳ
Ġê·¸ëł ¤
ĠëħĦ ìĿĦ
ê²° íĺ¼
Ġì£¼ë§Ĳ ìĹĲ
íķĺìĹ¬ íĬ¼
Ġë§Ĳ ìķĻ
ĠìķĮ ê²łìĸ´
ĠìĽĲ ìĹĲ
ë²Ħ ê±°
ê·¸ê±° ë¥¼
Ġë©¸ ì¹ĺ
ì¹ Ń
ìĹ¬ ìĦ¯
ĠìĭŃìĿ´ ìĽĶ
ìĿ´ ê¸°
íķĺ ê¸°ëıĦ
íķĺ ìĦ¸ìļĶ
Ġë§Ĳ ìĿ¸ì§Ģ
Ġì§Ģ ê°ĳ
Ġìº ł
Ġì¢ĭìķĺ ëįĺ
ì£¼ ìĿĺ
name ê°Ģ
ĠìĿ´ë¦Ħ ìĿĦ
Ġíľ´ ê°Ģ
Ġëĭ¹ íĻ©
íķ´ ìł¸
ĠìĽ¬ ë§Įíķĺë©´
Ġì²´ íģ¬
ìĹĲ íĶĦ
ĠìĿ¼ ë§Į
ĠìĦ¤ íĥķ
íĦ ¸
ĠíĻķì§Ħ ìŀĲ
Ġìĺ¬ëĿ¼ ìĻĢ
Ġë³´ íĺ¸
Ġíĸī ìĤ¬
Ġìłģ ëıĦ
Ġìĸµ ìļ¸
Ġê°ľ ë°ľ
Ġíķĺë£¨ ì¢ħìĿ¼
Ġëª» íķĺê²Į
Ġìłģ ìĿĳ
ëĿ¼ ìĬ¤
Ġë¨¹ ëĭ¤ê°Ģ
ĠìĿ´ëŀĺ ìĦľ
ë¡ľ ëıĦ
ĠìĤ¬ ê·
ê·¸ ëŁ´
Ġëĵ¤ìĸ´ ìķ¼
ĠìķĮë°Ķ ë¥¼
ĠìĤ¬ ê¸°
Ġë²Ī ë§Į
Ġìĥģ íĴĪ
ì¹´ ëĵľ
ìŀ ī
Ġë¨¹ ëĬĶê±°
ìłĢ íŀĪ
Ġìŀĳ ìĹħ
ìī ½
ì µľ
Ġë³´ ëĤ¼
Ġë¬´ ìĹĩ
ĠëĮĢ íĳľ
ĠìĪ Ł
Ġê´ľì°® ìĿĦ
ĠëŁ ¬
Ġê³ ¤
ĠìķĦëĭĪ ì§Ģë§Į
ĠíĮ ¥
ĠìĬ¤ íı¬
íĥĢ ë¯¼
ì¤ĺ ìĦľ
Ġëĵ¤ìĸ´ìĺ¤ ëĬĶ
ëĭ¤ ê²Į
ìĸĺ ê¸°
ĠìķĬ ìķĦìĦľ
Ġê°ľ ìĶ©
Ġê°ľ ëħĲ
Ġê·¸ëłĩ êµ¬ëĤĺ
ìĿ´ ëĦĪ
Ġë³´ ìŀĲ
ĠíĸĪ ëĬĶì§Ģ
Ġì£¼ ìĤ¬
ĠëĤł ì§ľ
Ġë²Ħ ë¦¬ë©´
Ġëħ¸ ëŀĢ
Ġë°ľ ìłĦ
Ġëį° ëł¹
íĺķ ìĿ´
ê½ Ŀ
Ġë¶Ģì§Ģ ëŁ°
Ġê² ¸
ìĬ¤ ëŁ¬ìļ´
Ġëı¼ ìķ¼
ĠíĹĪ ì§Ģ
ĠìĹĲ íĶĦ
íķ´ ì§Ģ
Ġë¶Ģ ë¶Ģ
Ġê°Ħíĺ¸ ìĤ¬
Ġì§Ģíķĺ ì²ł
Ġê°Ģ ë³¸
ĠìĥĿê°ģ ëĤĺëĬĶ
ĠìĺĨ ìľ¼ë¡ľ
ìħĶ ìĦľ
Ġê°Ģ ìĭľ
ĠëŃĲ ê³ł
ĠëĺĲ ëŀĺ
ĠìĦ¸ ê¸Ī
ĠëĤĺ ìĿĦ
ĠìĽĲ ì§ľë¦¬
ê´ ľ
ĠìĨĲ ëĭĺìĿ´
Ġì¶Ķ ìļ´
Ġì¹ľêµ¬ íķľíħĮ
ì¹´ ìĺ¤
Ġê·¸ëĤ ľ
ĠíĪ¬ ìŀĲ
Ġìļ°ë¦¬ ëŀĳ
Ġì¢ĭìķĦ íķ´ìĦľ
Ġìŀ¬ ìĪĺ
ê²½ íĹĪëĤľ
Ġì²ĺìĿĮ ìľ¼ë¡ľ
ĠìŀĪ ëįĺëį°
Ġê²¨ ìļ°
Ġë£ ¨
ìĿ´ ëĵł
ìĿ¸ ìĿĦ
Ġì¢ĭ ìľ¼
Ġëª» íķ´ìĦľ
Ġìĺ¨ ëĭ¤ê³ł
Ġìĺ¬ëĿ¼ ê°ĢëĬĶ
Ġì¤Ģ ëĭ¤ê³ł
ë¬ µ
Ġìĭ¶ ê¸´
Ġê°ĢëģĶ ìĶ©
Ġíķ´ ë³¼
ĠìĹ°ëĿ½ ìĿ´
ê°Ģ ëĭĪê¹Į
ì£¼ ëĭĪê¹Į
ìŀĪ ì§Ģ
Ġëª¨ìĸĳ ìĿ´ìķ¼
Ġê¸¸ ìĸ´
ĠíĸĪ ìĹĪ
Ġë± Ģ
Ġëĭ¹ìĭľ ìĹĲëĬĶ
ĠíħĮìĿ´ ë¸Ķ
ĠìĿ´ ìļ©
Ġíķĺ ê¸¸ëŀĺ
ĠìĦ¸ íĥģ
ĠëĨĵ ëĬĶ
ĠíĮ¨ ëĶ©
ĠëĤĺ ì§Ģ
ĠëŃĲ ìĺĢì§Ģ
íĥĢ ê³ł
Ġëĭ¨ ìĸ´
Ġê¸Ī ìļĶìĿ¼
ëĭ¤ ë³´ë©´
ì¹ Ļ
íĹĪ ê²Į
ĠìĻĶ ì§Ģ
Ġìķī ìķĻ
ĠìĦ¸ìĥģ ìĿ´
Ġëļ ±
Ġì§ĳ ìĸ´
ê²ĥ ìĿ´
ĠíķĺëĤĺ ë¥¼
Ġê·¸ëŁ° ê±´
ìķĺ ëįĺ
ĠìķĬ ìķĺëĬĶëį°
ëĨĶ ìĦľ
Ġë¸Į ëŀľëĵľ
Ġê°ķ ìķĦ
Ġë¬¸ìłľ ëĬĶ
ìŁģ ìĿ´
Ġíķĺ ëĵł
Ġì§ ¬
ë¡ľ ëĬĶ
ìĤ¬ ëŀĳ
ĠìĦł ìĪĺ
ìĦ± ìĿĦ
Ġìī½ ì§Ģ
Ġëª¨ìĸĳ ìĿ´ëĿ¼
Ġíķ´ ê·¸ëĥī
ë§Ŀ ìĿ´
ĠìķĪ ìĵ°
Ġë¬ µ
Ġì° °
Ġê¸° ê°Ħ
ĠìĥĪ ìļ°
Ġìĸ¸ ìłł
ĠìŀĪìľ¼ë©´ ìĿĢ
í ĳ
ê²¨ ìĦľ
ĠíĤ¤ ìļ¸
Ġìĺ¬ëĿ¼ ê°Ī
Ġëĵ¤ ìĹ¬
Ġë§Ī ì£¼
Ġíŀĺ ëĵľ
Ġíķ´ ëĨĵê³ł
Ġìļ°ë¦¬ ëģ¼ë¦¬
ĠíĻĶìŀ¥ íĴĪ
¬ ìĺģ
íķĺ ì§Ģë§Į
ĠëĲĺ ê°Ģì§Ģê³ł
ëĮĢ íķĻ
Ġê³¨ ëĿ¼
ìĥ Į
Ġë³´ ë¯¼
Ġëª¨ë¥´ íģ¬ëĿ¼
ĠëģĿ ëĤ´
ê³Ħ ê°Ģ
ĠìĿ´ ë¦¬
Ġíķĺ ëĥĲê³ł
Ġê°Ģ ìłł
ĠìķĪ ëĲĲ
ĠìĤ´ ìķĦìĦľ
ëĭĺ ìĿĢ
ĠìĺĽëĤł ë¶ĢíĦ°
Ġí Ī
Ġíķ´ ë´Ĳìķ¼
Ġìĺģ êµŃ
ĠëĤĺ íķĺê³ł
Ġê·¸ëŁ¬ ëĬĶëį°
ìŀĪ ìŀĸìķĦ
ĠíĸĪ ìĹĪì§Ģ
ìĭ¤ ìĹĲìĦľ
Ġë¨¸ë¦¬ ë¥¼
Ġë´ī ìĤ¬
Ġê³µ ì§ľ
Ġìĺ¤ë¹ł íķľíħĮ
Ġê¸°ëĭ¤ ë¦¬
ì£¼ ê¸°
ìĭľ ëĭĪ
Ġìĸ´ëĶĶ ë¡ľ
Ġì´Ī ì½Ķ
ìĺĽëĤł ìĹĲëĬĶ
ìĩ ¼
Ġíľ ĺ
ĠìĤ¬ ìĺ¤
ĠìĤ¬ ìŀ¥ëĭĺìĿ´
Ġê±Ķ íķľíħĮ
ĠëĤ´ëł¤ ìĻĢ
ĠêµŃ ê°Ģ
ĠìķĪ íķĺëĬĶ
Ġë³´ ê±´
ëģ Į
ĠìĿ´ ëĿ¼
ìĹĲ ìĦł
Ġë¨¹ ìŀĲ
Ġëĵ¤ ìĿ´
ìĿ¼ ìĿĦ
ĠìķĬ ìľ¼ëĭĪê¹Į
Ġê³µ ìĹ°
ëĤ¬ ëĬĶëį°
Ġìĸ´ë¦´ ëķĮ
ë¡Ń ê²Į
ĠëĮĵ ê¸Ģ
Ġê¾¸ì¤Ģ íŀĪ
ê·¸ ëĭĪê¹Ĳ
íķł ëł¤ê³ł
ĠíĤ¤ ê°Ģ
ĠëĨĪ ìĿ´
Ġëįĺ ìł¸
ĠìĹĨ ìĹĪëĬĶëį°
Ġìĸĺ ê¸¸
Ġìª Ħ
Ġëģ Ī
Ġìĺ· ìĿ´
Ġìĭłê¸° íķľ
ëĶĶëĭ¤ ê²Į
ë± ħ
Ġ @
ëĤľ ìĿ´
ëª¨ ê°Ģ
ĠìĿ¼ ìĹĲ
ĠìĭŃ ë¶Ħ
Ġê°Ĳ ëıħ
Ġë ĸ´
ë´¤ ìŀĲ
Ġë²ł ìĿ´
Ġëı ĭ
ì¹ĺ ëıĦ
Ġë°° ìļ¸
Ġíķĺ ìĦ¸ìļĶ
Ġë¹ Ľ
Ġì£¼ ìĹĲ
Ĺ ê²Į
Ġìĵ °ë¦¬
ìĶ¨ ê°Ģ
Ġë²Į ê³ł
ĠìķĪ ëħķ
íķ´ ëĿ¼
ĠìĭŃ íĮĶ
ëĪĦ ê°Ģ
ëĮĢ ìļĶ
Ġê°Ħ ìĭĿ
ĠíĹ Ļ
íĸĪìĸ´ ìļĶ
Ġë°Ń ìĿ´
ìĸ´ ìĸ´
Ġê°Ķ ìŀĸìķĦ
ë¶ ķ
Ġì´Ī ëĵ±
Ġëĭ¤ëħĢ ìķ¼
ìĦľ ëıĦ
ĠnameìĿ´ ëıĦ
ĠëĮĢíķĻ ìĥĿ
Ġë§Į ì¡±
Ġë§ŀ ëĬĶëį°
Ġë°Ķ ëĿ¼
Ġê±´ ì¡°
Ġë°° ìļ°ëĬĶ
ìĪ ¨
Ġìŀł ìĿĦ
Ġìĥ¤ ìĽĮ
ë³´ ìŀĲ
ĠìłĦ ìĦ¸
Ġê²½ìļ° ëıĦ
íķĺ ëįĶëĿ¼ê³ł
Ġê³ ¡
Ġê³ł ìŀ¥
Ġê²½ íĹĪ
ĠìĪ «
Ġëªħ ìĶ©
ĠêµĲ ë³µ
ĠêµŃ ìĪĺ
ĠìĦ¤ ê±°ì§Ģ
ĠìŀĪ ëĥĲê³ł
ĠëĤ¨ìŀĲ ëĬĶ
ĠëĦ£ ìľ¼ë©´
ĠìĿ¸ ëıĦ
Ġëª© ìĨĮ
ìľ¼ ë¯Ħ
Ġê±°ê¸° ë¥¼
ĠìĽĲ ìĿĦ
ĠëĲĲ ìĿĦ
Ġì²ľ ìĽĲ
ìŀĪ ìľ¼ë©´
Ġê²½ íĹĪëĤľ
Ġíķ´ìķ¼ ëĲł
ìľĦ ê°Ģ
ĠíĬ¹ ìĿ´
íģ¬ ë¦¼
Ġì¤ Į
ĠìĦ± ìĤ°
Ġê³łëĵ± íķĻìĥĿ
ë² ¤
Ġìĸ´ëĸ ¨
íģ Ĳ
ĠíĶ¼ íĭ°
ë¦ ī
ê´ ´
ĠíĻĶ ëĤĺ
ìĭ¶ ìĸ´
) (
Ġì§Ģ ëĬĶ
ĠíĸĪ ì£¼ê²Į
Ġë°Ķ ëĭ¹
ìĥĪ ëģ¼
Ġì£½ ê³ł
Ġëĺĳê°Ļ ìķł
ĠëĳĲë²Ī ì§¸
Ġëª¨ë¥´ê²ł ê³ł
Ġíķĺëĭ¤ ë³´ë©´
ëĬĶ ëĭ¤ê³ł
Ġê°Ģ ëĦ¤
ĠìĿ´ê±° ì§Ģ
Ġìĭ¸ ìĽĮ
ìķĬ ìķĦ
ìķĦ íľ´
ĠëĤĺ ëĪĦ
Ġê²Į ëıĦ
ë¶ Ļ
Ġëķ Ħ
ĠëĨĶ ëĳ¬
Ġê·ĢìĹ¬ ìĽĮ
Ġì¶©ë¶Ħ íŀĪ
ê²Į ëıĦ
ĠëĲĺ ê²łìĸ´
ĠìłĦ ë¶ĢíĦ°
ë¶Ģ ëłĢ
ë¹ ¤
Ġìĸ´ëĸ »
Ġìª½ ìĿĢ
ìĿ¸ ê²Į
Ġì°¨ ëıĦ
Ġìĺ¨ ëĿ¼ìĿ¸
ì¡Į ëĬĶëį°
Ġìµľ ìĨĮ
ìĿ¸ ëĵ¤ìĿ´
Ġìľł ë¦¬
ĠëĨĶ ëĴĢ
Ġë¿Į ëł¤
ĠëĲĺ ëĭĪê¹Ĳ
Ġì² ¨
Ġê°Ģì§Ģ êµ¬
Ġë¬´ìĦľ ìĽĮìĦľ
ĠëĮķ ê²¨
ĠìŀĲìĹ° ìĬ¤ëŁ½ê²Į
ĠìĹĨ ìĹĪ
ĠëķĲ ê°Ģ
Ġë°Ķê¿ Ģ
Ġíį¼ ìĦ¼íĬ¸
Ġíķ´ìķ¼ëĲĺ ëĤĺ
Ġê±¸ ë¦¬ëĬĶ
Ġë¹Ħ ê°Ģ
ìľ¡ ìĭŃ
Ġìį¨ ëıĦ
Ġì³ ¤
Ġíķĺ ëĿ¼
ê·¸ ëĭ¤ìĿĮìĹĲ
ĠëħĦ ìĿ´
Ġìī °
ìĸ¸ëĭĪ ê°Ģ
Ġíķ´ ë¨¹
ëĮĢ ê¸°
íĻĶ ë¥¼
ĠíķĻêµĲ ê°Ģ
Ġê¸° ëĬ¥
ĠìŀĪìĸ´ ìĭłëĶĶ
Ġì¤Ħ ìĸ´
Ġìĺ¤ìĿ¼ ìŀ¥
Ġì½Ķ ìĬ¤
Ġìª½ ìĿ´
ĠìķĦì§ģ ìĿĢ
Ġëį ©
ĠëĨĢ ëĿ¼
ĠíĤ¤ ìĽł
Ġìĭ¸ ìĽĢ
êº¼ ìķ¼
ĠìłĦíĻĶ ê°Ģ
ĠìĹ°ëĿ½ ìĿĦ
Ġíķ´ì£¼ ë©´
ĠìĤ´ ê¸°
ë¶Ħ ìĹĲ
íĨµ ìĿ´
Ġì¡¸ ëĿ¼
ĠìķĦ ëĵ¤ëıĦ
ìĬ Ī
Ġíķł ê²Į
ë§Įìķ½ ìĹĲ
ìķĦ ìļ°
Ġíķĺ ëĬĲ
ĠìĤ¼ ìĿ¼
Ġìĸĺê¸° íķĺëĭĪê¹Į
Ġë¬¼ ëł¤
Ġë°° ìĨ¡
ĠíħĲ ëį°
ë ¤
ĠìĹ ¿
ĠìĿ¼ íķĻëħĦ
ĠëĲĺ ëĤľ
ĠìĭŃ ë§ĮìĽĲ
ĠëŃĺ ë¡ľ
Ġë°Ģ ê°Ģë£¨
ĠìĶ» ê³ł
Ġìŀħìŀ¥ ìĹĲìĦľëĬĶ
Ġê°Ģ ì§Ħ
Ġë¬¼ ëıĦ
Ġìŀħ ìĿĢ
Ġì§ĳìĹĲ ë§Į
ìļ© ìĿ´
ì½ ¤
Ġë§Ĳ ìĹĲ
ĠíĻĶ ë©´
Ġëĭ¤ëĭĪ ë©´
Ġê¸°ìĸµ ìĹĲ
/ (
ì¹ ¼
Ġìłľì£¼ëıĦ ëıĦ
Ġê°Ħ ìŀ¥
Ġê³µë¶Ģ íķĺëĬĶ
ĠìĤ¬íĪ¬ ë¦¬ë¥¼
ë¡ľ ê·¸
Ġìĺ¬ ë¦¬ëĬĶ
Ġì´Ī ë°¥
Ġê°Ĳ ê·¤
ëĤĺ ìļĶ
Ġë³´ ìĿ¸
Ġëĵ¤ ë¦¬
Ġë§ŀ ìľ¼ë©´
ĠìĤ¼ ëħĦ
ìł¸ ê²Į
Ġê²° ê³¼
Ġê°Ĳ ìłķ
íĨµ ëł¹
Ġê·¸ëŀ¬ ëįĶëĭĪ
ì´Ī ëĵ±íķĻêµĲ
ê· ľ
Ġê±° ìĹĲìļĶ
Ġìĺ¤ ë¥´
ĠìĹĨ ëĮĦ
Ġì ¿
ìķĦ ìĺĪ
ĠìĿ¼ ìĥģ
ë²Ħ ìĬ¤
ëª¨ ë¥´
ĠëĤĺìĻĢ ê°Ģì§Ģê³ł
Ġìĭľ ë¦¬
ĠìķĮ ìŀĸìķĦ
ĠëĮĢ ì²´
íı Ĳ
Ġë²Ħ ë¦¬ëĬĶ
Ġëĵ¤ìĸ´ìĺ¤ ë©´
ĠëĦ£ ìĸ´ìĦľ
ĠìĺĪìłĦ ìĹĲëĬĶ
ê·¸ ëĶĶ
ìĤ´ ìĿ´
Ġì²´ íĹĺ
íĭ ´
ìĭľ ë¯¼
ìĤ¬ ìĭ¤
ĠìķĦìĿ´ ëĶĶ
ê²¼ ìĸ´
ĠëĤ® ìĹĲ
Ġì½ľ ëĿ¼
ìĿ¸ ìĿĢ
ĠìĹĨìĸ´ ëıĦ
Ġëª¸ ìĿĦ
ĠíĭĢ ë¦°
ê²Į ë§ĮìĿĢ
ê¸° ë©´
ĠìĥĿê°ģ ìĹĲëĬĶ
ĠìĤ´ ìķĺìĸ´
êµŃ ìĿ´
Ġìĭł ìłľì£¼
ĠìĹ¬ìŀĲ ëĬĶ
Ġíİ¸ íķľ
Ġìļ´ëıĻ ëıĦ
ĠíĶĦ ëŀĳ
ê°Ģ ìĹĲ
Ġê±° ëŀľ
Ġíķľ ëªħ
ëĮĢ íķĻêµĲ
Ġìĵ° ëĭĪê¹Į
Ġë¶Ħ ëĵ¤ìĿ´
Ġê°ķ ìľ¼ëĦ¤
ĠíĿĶ ëĵ¤
ìķ ī
ĠìķĪ ëĤ´
ĠìĥĿê°ģ íķľ
ìłķ ë§Ĳ
Ġë§ĽìŀĪ ëĭ¤ê³ł
ĠìķĦëĭĮ ê±°
ĠëĨĶëĳĲ ë©´
Ġë§ī ê±¸
Ġì¹ Ń
Ġìį ¬
ĠìķĦ ë¥´
ĠíĸĪ ìĹĪìŀĸìķĦ
Ġëĵ¤ìĸ´ ìĻĢìĦľ
Ġíı¬ íķ¨
Ġíĥľ ìĽĮ
Ġìį° ìĸ´
ĠëĶ°ëľ» íķľ
ĠìķĦë²Ħ ì§ĢëĬĶ
ìĶ ¸
Ġìŀħ êµ¬
Ġìļ° ìĻĢ
ĠìĨĲ ìĿĦ
ĠìĹī ëį©
Ġë§Ĳ íĪ¬
ëıĻ ìĤ°
ê°ľ ìĽĶ
ĠìĽĶ ìļĶìĿ¼
Ġê½ ģ
íĮĶ ìĭŃ
ĠìķĦë¶Ģ ì§Ģ
ìłľ ìĿ¼
ìĿ¸ íĬ¸
ìĺ¤ ë°±
ĠìĨį ìľ¼ë¡ľ
Ġì§Ħ íĸī
ëł Ľ
ĠìĿ¼ ìĽĶ
Ġì¢ĭ ìķĪ
ĠìĹ° ë§Ĳ
Ġìĺ¬ëĿ¼ ê°ĢìĦľ
Ġëĸ¨ìĸ´ ì§Ħ
Ġë°ĶëĢ Ĳ
ĠíĶĮ ëŁ¬ìĬ¤
ëıĦ ë¥¼
ĠìŀĪ ìľ¼ëĭĪê¹Ĳ
ĠìłĢ ê²ĥëıĦ
Ġìķł ë¥¼
Ġë§Ľ ëıĦ
Ġë¯¸ ìĪł
Ġê²° ìłķ
ê²ħ íķ´
Ġíķ© ëĭĪê¹Į
Ġì£¼ ë¯¼
ĠìĿ´ëŁ° ê±¸
Ġìŀħ ìĽĲ
ê²ħ íķ´ëıĦ
Ġì°¾ ìķĦìĦľ
Ġê´Ģëł¨ ëĲľ
íķ Ģ
Ġìĺ¤ ì¤Į
Ġê·¸ëŀ¬ ì§Ģ
ì ŃĪ
ìķĦ ìĿ´ê°Ģ
ĠìĤ¬ ê°Ģì§Ģê³ł
ëĬĶëį° ëıĦ
ĠìĹĨ ìĹĪëįĺ
ëĮĢ ëıĦ
ìĿ¼ ë³¸
Ġëª¨ ìĹ¬ìĦľ
ì¡ Ī
ĠìĿ´ìĥģ íķ´
Ġì§ĳ ìľ¼ë¡ľ
Ġë§Ī íĿĶ
Ġìŀ¬ë°Į ê²Į
¯ ëį°
ĳ ¤
Ġíķĺ ê±°ëĤĺ
Ġìĸĺ ëŀĳ
Ġê³µë¶Ģ ëıĦ
Ġìĺ¤ ì¼ĢìĿ´
ĠìŀĲ ë¦¬ê°Ģ
Ġì£¼ ë¡ľ
Ġcompanyname ìĹĲìĦľ
ĠíķĦ ëĿ¼
Ġê¸¸ ìĹĲ
ĠëıĦ ìĦľê´Ģ
ì¤Ģ ëĭ¤ê³ł
ĠíĺĦ ê¸Ī
ëį° ê¸°
ëĤĺ ë¬¼
ìĹ¬ ìķ¼
ëĲĺ ì§Ģ
ĠëĦ¤ ìĿ´ë²Ħ
ìŀĺ ëıĦ
ĠíĻį ì½©
ê³ Ħë¡ľ
ĠìĿ´ ë¥´
ĠìłĢ ìª½
Ġëĥ ħ
Ġê¿Ī ìĿ´
Ġìĸ´ ë¦¬
ìĿ¸ ëıĦ
Ġíķ´ìķ¼ ëı¼
ĠíĹ ·
ĠìŀĪìĹĪ ìĿĦ
Ġìĸ´ë¦°ìĿ´ ì§ĳ
Ġíķĺ ë§¨
ìĺĢ ê³ł
Ġëĭ¨ íĨ¡
ĠìĿ½ ê³ł
ĠìĦŃ ìĦŃ
ĠìĿ´ ëħģ
ĠëĮĢ íļĮ
Ġê¿Ī ìĿĦ
Ġìĸ´ëĶ ľ
ìĿ´ ìĹĲ
Ġê· ľ
Ġìĸ´ëĸ¡ íķĺì§Ģ
ĠëĨĢëŀĲ ìĸ´
ĠìĤ¬ ë°±
ĠìĿ¼ ëĵ±
ë§Ī ìĭ¬
ĠìĥĿ ê¸¸
Ġìķł ëĬĶ
Ġê³µ ê°Ħ
Ġì¹ĺ ìĽĮ
Ġëĭ´ ëĭ¹
ì¢ĭ ìĿĢ
ìĸ´ ì§Ģ
ê±° ë©´
ĠëĲ Ģ
Ġname ìķ¼
Ġë§Ī ëĭ¹
ĠíļĮ ìĿĺ
Ġìĸ´ì©Ķ ìĪĺ
ëĤĺ íķľíħĮ
Ġë¬¼ìĸ´ ë³´ê³ł
ĠëıĪ ë§Į
Ġì´ ¬ìĺģ
ĠíĥĢ ìŀĦ
Ġê³µë¶Ģ íķĺê³ł
ëŀ į
ëĥ Ħ
ĠëĳĲ ìĭľê°Ħ
Ġë© ķ
ëį ¤
ë¡ľ ìļ´
Ġë§İ ëĦ¤
Ġê·¸ëŁ¬ ëĭ¤
ìĪĺ ë¡ľ
Ġë§Ī ë¬´
ì¦Ŀ ìĿ´
Ġë°ĳ ìľ¼ë¡ľ
ĠìĪŁ ê°ĢëĿ½
ĠëŃĲ íķĺëĬĶ
ë¥´ ìĭł
ìļ° ëĤĺ
Ġê°ķ ìĽĲëıĦ
Ġëĭ´ ìŀĦ
Ġê·¸ëŀ¬ ëįĺ
Ġê·¼ì²ĺ ìĹĲ
Ġíĳ ¹
ĠìŀĲ ëĿ¼
ĠëıĦ ìĽĢ
Ġë³´ ë©į
Ġë¹Ħ íĥĢë¯¼
ĠìľĦ ìĹĲìĦľ
ĠìĦłìĥĿëĭĺ ìĿĢ
ì¢ĭ ìķĦ
ëł¤ ìķ¼
ìĦł ìĿ´
Ġë°± ë§ĮìĽĲ
Ġì°½ ê³ł
íķĺ ìļ°ìĬ¤
ĠìĥĿ ê¸°ëĬĶ
ìĽĲ ìĹĲìĦľ
ĠìļĶ ê¸°
ĠíĹĪ ìĹ°
ĠìĻĢ ì¤ĳìĹĲ
Ġìŀ¥ ìĨĮ
Ġë§¤ ëĭ¬
Ġìĸ´ë¥¸ ëĵ¤ìĿ´
ë¿ Ĳ
Ġ ?
ĠìĹĨ ëĤĺ
Ġì¢ħ ìĿ¼
Ġì¢ħ êµĲ
ìķĦ íĻī
ë¶Ģ ëĬĶ
Ġìĸĺê¸° íķľ
Ġì¶© ìłĦ
ĠìĥĿê²¼ ìĸ´
ĠìĿ´ ì¼Ģ
ë¦Ħ ìĿ´
ĠíĮĮ ë§Ī
Ġê·¸ëłĩ ê¸´
Ġíķ´ ìĤ¬
Ġìľ Ĺ
ĠìĸĺëĦ¤ ê°Ģ
ĠëĦ·íĶĮë¦Ń ìĬ¤
ĠìĿ´ ì£¼
ìļ ±
Ġëĭ¤ ë¥¼
Ġëĭ¤ìĿĮ ì£¼
ìķĶ íĬ¼
Ġê°ľìĿ¸ ìłģìľ¼ë¡ľ
Ġë°°ê³ł íĮĮ
ìĦľ ê°Ģ
ë¦¬ ë©´ìĦľ
ĠìķĬ ìŀĸìķĦ
Ġê³ł ì³Ĳ
Ġìķłê¸° ë¥¼
ĠìĮ ©
ĠëŁ °
Ġìļ°ë¦¬ ëĤĺ
Ġíķł ì§Ģ
Ġì²« ì§¸
íŀĪ ê³ł
Ġìĺģ íĸ¥
ĠëĪĦêµ¬ ëŀĳ
Ġìĭ¶ìĸ´ ê°Ģì§Ģê³ł
Ġì§ĢëĤĺ ë©´
ìļĶì¦ĺ ìĿĢ
Ġíļ¨ ê³¼
· Ķ
ĠìķĦ ê³ł
ëĮĢ íļĮ
ĠëĤ¨ìŀĲ ëĵ¤ìĿĢ
Ġì°į ìĸ´ìĦľ
ĠêµŃ ëĤ´
Ġíĳľ ìłķ
Ġê·¸ìª½ ìľ¼ë¡ľ
Ġë°°ê³ł íĶĦ
ĠíĪ Ń
ë¦¬ ê¸°
ĠìĤ¬ ì§Ģ
ë² ¨
Ġìĸĺê¸° íĸĪ
ĠëĲł ê¹Į
ĠíĥĢ ë©´
ĠíĮĮ íĭ°
Ġë°Ģ ìĸ´
Ġê·¸ëŁ° ê±¸
Ġë§İ ìķĺìĸ´
ĠìļĶ ëŁ°
ĠìĬ¤ ì¼Ģ
ë°Ķ ìĿ´íĬ¸
Ġìĸ´ë¥¸ ëĵ¤
Ġíķĺ ë¯¼
Ġê°Ģ ë´Ĳ
ĠíĸĪ êµ¬ëĤĺ
ĠíĮĶ ì²ľ
ìĺĢ ìľ¼ë©´
Ġê³¼ ìłķ
Ġì¶ķ ìłľ
Ġëº Ħ
Ġìł ¸
ĠìĤ¬ ì²ľ
ĠìĤ¼ìĭŃ ë¶Ħ
Ġê¶ģê¸Ī íķľ
ìĿ´ ìħĺ
ĠêµŃ ìĸ´
Ġìļ¸ ê³ł
1 4
Ġìľł ìĤ°
íĤ¤ ë¡ľ
íķĺ ëĿ¼
Ġì¹ľêµ¬ ëĵ¤ëıĦ
ĠëıĮ ê³ł
Ġë°© ìĸ´
Ġë¹ł ì§ĢëĬĶ
ìº Ĳ
ìĹĪ ëĭ¤ê°Ģ
Ġìĭľ íĤ¨
Ġìķ½ ìĿĦ
ĠëıĦ ìłĢíŀĪ
ĠíĶ¼ ìĭľ
ĠíĬĢ ê¹Ģ
ìĭľ ëĭ¤
Ġêµ ¿
Ġì¶ľ ë°ľ
Ġë¶Ģë¶Ħ ìĿ´
Ġíĩ´ ì§ģ
Ġì¡± ìĿĢ
ë¡ ¤
ĠëĲĺ ê¸°
ĠìķĬ ì§Ģ
ëł¸ ëĬĶëį°
Ġìĸ¼êµ´ ìĹĲ
ë°Ľ ìķĦ
ë» Ķ
ĠëĤłìĶ¨ ê°Ģ
Ġëĵ¤ ìĹĪëįĺ
ĠìĤ´ ìķĶ
ĠëĪĪ ìĿĦ
ĠëĪĪ ìį¹
ĠìĨĮë¦¬ ë¥¼
Ġì¢ĭ ìľ¼ëĭĪê¹Į
ĠëĶ¸ ìĿĢ
ĠìķĦíĻī ìĭľ
Ġíķ´ë´¤ ìŀĲ
Ġê° ĵ
ê±°ê¸° ìĹĲ
Ġëĭ¤íĸī íŀĪ
Ġìĸ´ ìĿ´ê°Ģ
Ġë³´ ëł¤ê³ł
ĠëĤĺìĿ´ ìĹĲ
Ġëľ¯ ìĸ´
Ġíķ´ ì§Ģ
Ġì¹ľêµ¬ ëĵ¤ìĿĢ
ĠëĤ¨ìŀĲ ëĵ¤ìĿ´
Ġê²°íĺ¼ íķł
Ġë§ĪìĿĮ ëĮĢë¡ľ
Ġë§ĲíĸĪ ì§Ģ
ĠìĭľíĤ¤ ëĬĶ
ī ģ
ĠëĲ ©ëĭĪëĭ¤
Ġë´Ĳ ëĿ¼
êº¼ ë²ĪìĹĲ
ĠìĿ´ ì¸µ
ì² ¨
ì° ľ
ĠêµĲ íĨµ
ĠìĿ¸ íĦ´
ĠìĤ° ëĭ¤
ĠëĦ¤ ê°Ģ
Ġì¤¬ ëĬĶëį°
ĠìĥĿê°ģ íĸĪ
Ġë´Ĳ ê°Ģì§Ģê³ł
Ġìłģ ëĭ¹íŀĪ
Ġê³¼ ìĪĺ
ĠëĦ£ ëĬĶ
Ġì§§ ê²Į
ëĭ¤ ëĭ¤
Ġì§Ģ ê³ł
Ġë°Ķ ë³´
Ġë¬¼ ì§Ī
Ġê¼ ¼
ëĭ¬ ëĿ¼
ĠëĨĶëĳĲ ê³ł
Ġë¸Ķ ëŀĻ
Ġì¶Ķì²ľ íķ´
ĠëĮĢ íĨµëł¹
ĠìķĮìķĦ ëĵ£
Ġë§İìķĦ ê°Ģì§Ģê³ł
ĠíĨµ íķ´ìĦľ
ĠëĨĴ ìķĦ
ĠëĤĺëĿ¼ ìĹĲìĦľ
ë ĩ
Ġìĺ µ
Ġëĭ® ê³ł
Ġë¨¹ìĿĦ ê±°
ë¶Ī ë¯Ħ
Ġê¸Ī ìķ¡
ĠìĿ´ë²Ī ìĹĲëĬĶ
Ġê³łëĵ± ìĸ´
ĠìĿ´ ë»Ĳ
Ġê°Ģ ê·¸ëĦ¤
ìłĲ ìĿĦ
ê°Ģ ë©´ìĦľ
ĠìĦ± ëĭ¹
ìĥī ê¹Ķ
ì¹´ë¶Ģ ëĮĦ
ĠìķĦ íĶĮ
Ġìĸĺ ëıĦ
Ġì¢ĭìķĦ íķĺëĭĪê¹Į
ì§ĳ ìĿĢ
Ġìĭ¸ ìĽł
ĠëĲĲ ëĭ¤
ëł¥ ìĿĦ
ĠëĮĢëĭ¨ íķľ
ĠìķĦëĭĲ ê¹Į
Ġì´Īë°ĺ ìĹĲ
ĠëĤĺ ìĿĢ
Ġíķľ ëıĻìķĪ
Ġë§Ĳ íķ´ìķ¼
Ġìķ¼ ìĿ´ëĦ¤
íĬ¸ ë¡ľ
Ġê³µë¶Ģ íķł
Ġì¤ĺ ëıĦ
ĠíĽĦ ë°°
íĮ¨ ëĵľ
ê¸Ī ìĿ´
ĠëĤ¨ ëıĻìĥĿ
Ġê²½ íķ´ëıĦ
ĠëŃĲ ë¥¼
íŀ Ĳ
ìĺģ íĻĶ
ĠìĿ´ ëŀľ
Ġíķĺ ìĿ´
Ġê°Ģ ëĤĺ
ĠìŀĲ ì¡´
Ġëª» ê°Ģ
Ġê°ľ ëĬĶ
Ġê³µ ê¸°
Ġìį ¸
Ġìļ´ ìĺģ
Ġìłķìĭł ìĿ´
Ġìĺ® ê²¨
Ġìĸ´ ìĭ¤
íķľ íħĲ
Ġë¨¹ ìĹĪê±°ëĵł
ìĹĪ êµ¬ëĤĺ
Ġë§Ī ìĿ¸
ĠìłĦíĻĶ íķ´
Ġìļķ ìĿĦ
Ġìļ°ë¦¬ì§ĳ ìĹĲ
ëĤ ©
ìĿ¼ ëĤł
Ġì¤Ħ ê²Į
ê²½ íķ´
ìħ ĭ
Ġê´ľ ì¶ĺ
ĠíĦ° ìł¸
ê³ł ìĤ¬
íı ´
Ġê·¸ë§Į ëĳĲ
Ġëĵ¤ìĸ´ìĺ¤ ê³ł
ĠìķĪ íĥĢ
ìķĺ ëĭ¤ê³ł
ĠìļĶ ë§Ŀ
ĠìĦľ ìļ´
ìĭ¤ ìĿ´
ĠëĶ° ê³ł
ĠëĪĦêµ¬ ëĥĲ
ĠíĭĢ ë¦¬
Ġì°½ ë¬¸
Ġê·Ģì°® ìķĦ
ìĿ´ ëŁ¬
ĠëĤ ¯
Ġìĺ¬ëĿ¼ ê°Ħ
ĠìĨį ìĿ´
Ġì²Ń ëħĦ
Ġë ®¤
ĠëŃ ī
ë¹ Ī
Ġê°Ī ëĿ¼
íĶ¼ ìĬ¤
ĠìĺģíĻĶ ê´Ģ
Ġëħ¸ëŀĺ ë¥¼
ĠëĳĺìĿ´ ìĦľ
Ġê¸ī ìĭĿ
Ġì§§ ìĿĢ
ì ·
êµ¬ ëĭĪ
Ġì¢ĭìķĦ íĸĪ
Ġì¹ľêµ¬ ëĦ¤
ĠíĶĦ ë¦¬
ìĹĲìĦľ ë§Į
ëįĶ ë§Į
ë²Ħ ë¦´
ĠëıĻ ê°ĳ
Ġìī ´
Ġëıħ ê°Ĳ
ĠëĬĲëģ¼ ëĬĶ
ìķ¼ ëı¼
Ġì¢ĭ ëįĶëĿ¼
Ġë¡ ¯ëį°
ì© Į
ëıĦ ìĹĲ
íķĺ ëĥĲ
Ġë¨¹ìĸ´ ë´¤
ĠíķĻêµĲ ëıĦ
ìľ¡ ì§Ģ
Ġì»¤ ìĦľ
Ġì¤ĺ ìĦľ
ë²Į ëłĪ
ĠíĤ¬ ë¡ľ
Ġë¨¹ ê¸´
ĠìķĬ ëĬĶëį°
Ġë§Ľ ìĿĢ
ĠìĦłìĥĿëĭĺ ëıĦ
Ġíķ¨ ëįķ
ë© ©
ìĤ¬ ìĭŃ
Ġë§ĽìŀĪ ê³ł
Ġíĺ¼ìŀĲ ìĦľ
Ġì§ľ ìŀ¥
ëŁī ìĿ´
ĠìĮ¤ ìĿ´
Ġìķ ¤
ëł ī
Ġë§Ĳ íķ´ëıĦ
Ġíĺ ¹
Ġê±¸ ë¦¬ë©´
êµŃ ìĿĢ
íĹ ¤
ìĹ° íŀĪ
ĠìĤ´ìķĦ ëıĦ
ĠíĹ· ê°Ī
ìķ¼ ìĿ´
ĠìĹ¬ ê¸´
ë¹ Į
Ġìĵ° ëĬĶëį°
Ġíŀĺëĵ¤ ê²Į
Ġìľ¡ì§Ģ ìĹĲ
íķĺ ìŀĲ
ëħ ł
Ġíķłë¨¸ëĭĪ ëĵ¤
Ġì¯¤ ìĹĲ
ĠíķĦëĿ¼ íħĮ
ê¸ ĭ
ĠìĥĿê°ģ ë§Į
Ġê¸° ê°Ģ
Ġì¢ĭìķĦ íķł
ìłĢ ëĬĶ
ĠìĿ´ë¥´ ì¼Ģ
ë¦¬ ìĸ´
ĠëŃĲ ìĺĢ
Ġê·¸ê±° ìķ¼
ë³´ íĨµ
ĠëĮĢ íķ´
ì´ Ŀ
ĠìĥĿê¸° ë©´
ĠìķĪëĲľ ëĭ¤ê³ł
Ġë§Ī ëĭ¤
Ġê°Ī ë¹Ħ
ĠëĮĢíķĻ ìĽĲ
ìĬ¬ íı¬
Ġê·¸ìª½ ìĹĲ
Ġê° ł
ĠìłĢ ê²ĥ
ìĹ¬ ëįŁ
ĠìłĦ ìŀĲ
ìķł ê°Ģ
ĠìĤ¬ëŀĮëĵ¤ìĿ´ ëŀĳ
Ġë§İ ê±°ëĵł
ë³´ ê²Į
Ġëª» íķĺëĭĪê¹Į
ĠìŀĲê¸° íķľíħĮ
ĠëĦĺ ìĸ´ìĦľ
ĠíĦ ±
Ġìĺ¤ ê¸°
ĠíĮ ©
ìĺ Į
Ġìĺ¤ ìŀĸìķĦ
ĠìĿ¸ ì²ľ
ĠìķĦëĭĮ ëĶĶ
ĠíļĮ ìŀ¥
Ġë¯¸ìķĪ íķ´
ê³ł ëĵ±íķĻêµĲ
ĠìĤ¬ ëĭ¹
ìľ¼ ê³ł
Ġìĭľ ìķĦë²Ħì§Ģ
Ġì¹ ¸
Ġì¡° ìłĪ
ê²¨ ìļ¸
Ġì°į ìĿĦ
ĠìĺģíĻĶ ë¥¼
ĠìłķíĻķ íŀĪ
ëĩ ¨
Ġê°Ģ ìĬ¤
íķľ ëĭ¤ëĬĶ
ëŀĳ ìĿ´
íĻ į
ĠíĹĪ ëĭĪê¹Į
ìĺģ ìĥģ
Ġíģ¬ ë¦¼
ĠëĤ¬ ìĸ´
ìĵ ¸
ĠìĿ´íķ´ ë¥¼
ë ¼Ī
Ġìĸ´ ë¥´ìĭł
ĠìĹĨ ìķł
Ġë§Ī ìĭ¤
Ġê´ľì°® ëĭ¤ê³ł
Ġë§Ĳê³ł ëĬĶ
Ġìĸ´ë¨¸ ëĭĺ
Ġëļľ ê»ĳ
Ġìķ¼ ê°Ħ
ĠìĦľ ìĦľ
Ġë¬¸ ìĿĦ
ĠíĻĺ ìŀĲ
Ġìĺ¥ ëıĶ
Ġëı¼ì§Ģê³ł ê¸°
ì§Ģ ëĦ¤
Ġìĭľ ëĮģ
ĠìĬ¤ ìľĦ
ĠëĪĦ ëĤĺê°Ģ
ë°Ķ ì§Ģ
ê³Ħ ë¥¼
Ġë§ĽìŀĪ ëĬĶëį°
Ġë¬´ìĭł ê±°
Ġìĭłëŀĳ ìĿ´
ĠìµľëĮĢ íķľ
ê±° ê¸°ëĬĶ
Ġìĸ´ íĶĮ
ĠìķĮ ê²łì§Ģ
Ġìŀ¬ ë¯¼
ëĨ ©
Ġë°© íĸ¥
Ġê¹Ģ ìĹĲ
Ġê¶ģê¸Ī íķ´
ìĹĪ ëĮĦ
Ġìĭ¬ íķľ
Ġëĵľ ëŁ¬
Ġìº Ķ
Ġë° ´
Ġìľ¼ ë¡ľ
Ġìĺ¤ ì§ķ
ĠìĹ¬ìŀĲ ëĵ¤ìĿ´
Ġë§ĲíĸĪ ìŀĸìķĦ
ĠìĬµ ê´Ģ
Ġíķ´ ìķĪ
ĠëĲĺ ê²łëĦ¤
Ġê·¸ëŀĺ ìļĶ
Ġë¶ ķ
Ġìķ¼ ìĿ´ëĬĶ
ĠëĤ¨ìŀĲ ëĵ¤
Ġíĺ¸ ì£¼
Ġìĸ´ë¨¸ëĭĪ ëıĦ
Ġìĸ´ìłľ ëıĦ
Ġëĸ¨ìĸ´ ì¡Į
Ġìħ Ķ
Ġëº Ĳ
ìĿ´ êµ¬ëĤĺ
ìĦ ¬
ìŀ ĸ
ĠëĤĺ ìĭłëĶĶ
Ġë§ŀ ê²Į
Ġìĺ¨ ëĭ¤
ĠìķĬìķĦ ëıĦ
ĠìķĪëĲľ ëĭ¤
Ġë§ĪëĿ¼ íĥķ
Ĳ ëŁ¬
Ġíķ´ ë³¼ê¹Į
ĠëĮĢ ë§Į
Ġê¹ Ĳ
Ġì¤Ħ ëıĦ
Ġì´Ī ë¡Ŀ
ëĤ¨ ìķĦ
íĺĢ ìĦľ
ë°Ľ ëĬĶ
ĠìķĮìķĺ ì§Ģ
Ġíķľ ê±°ìķ¼
Ġì¤ į
Ġëĵ¤ ëłģ
Ġëĵ¤ ìľ¼ë©´ìĦľ
ĠëĮĢ êµ¬
Ġë°Ķ ìģľ
íķĻ ìĽĲ
Ġë¶Ģ ë¥´ê³ł
Ġê²½ ê¸°
ëŀĢ ëĭ¤
Ġìĭľìŀĳ íķľ
ĠìĬ¤íĨł ë¦¬
Ġíķ´ ëĨ¨
ë°Ķ ëŀĮ
ĠìĿ´ ìĽĶ
Ġíķĺ ê¸°ë¡ľ
ëĤĺ ëŀĳ
Ġë² ¨
Ġëĵ¤ ìľ¼ëĭĪê¹Į
ìĬ¤ ëŁ¬
íĮ ¬
íĮ į
Ġìĭł íĺ¼
ĠìĬ¤ ëĭĺ
ê²ħ íĹĪëĤľ
ì³Ĳ ê°Ģì§Ģê³ł
ĠìĥĿíĻľ ìĿĦ
ĠìĻ¸êµŃ ìĿ¸
Ġë§Ī ìĶ¸
Ġì°¨ ëĬĶ
Ġì´ Ĳ
Ġë°ĺ ìĿ´
ĠìŀĪìĹĪ ëĦ¤
ĠíĽ Ķ
Ġë²Į ëłĪ
ëı¼ ì§Ģ
ĠìŀĪ ëĭ¨
íķľ íĭ°
Ġì£¼ ëĿ¼ê³ł
Ġì¢ĭìĿĢ ëĶĶ
ĠìŀĪìĹĪ ìľ¼ë©´
ĠìķĪ íķł
ĠìķĪ íķ´ìĦľ
ê²ł ëĭĪ
ĠëĳĲ êº¼
Ġêµ¬ ìĦĿ
ĠíĹĮ ëĶĶ
ĠìŀĲë¦¬ ìĹĲ
Ġë¨¸ ë¦¿
Ġê²½ìļ° ê°Ģ
ìĦľ ë¥¼
ĠìķĪ íĸĪìĸ´
Ġê¸° ìĹħ
ĠíĮ ¡
Ġê³Ħ ìłĪ
ĠìĬ¤ íİĺ
Ġìħ Ģ
ĠëĤ´ìļ© ìĿ´
ì¹ĺ ì§Ģ
Ġë¶Ģ ëģĦ
ĠìĪ ²
Ġëĭ¤ë¥¸ ê±°
Ġë¶ĦìľĦ ê¸°ê°Ģ
ĠìŀĲëıĻ ì°¨
¤ ë²Ħ
íķĺ ìĭł
íķĺ ëĭ¹
Ġê±°ê¸° ë¡ľ
Ġëıħ ìĿ¼
Ġëĭ ¥
ĠìĤ´ ë¦¼
ë¦° ëĭ¤
ì» ·
Ġë§ĲíķĺëĬĶ ê±°
íķĺ ëĭ¤ëĬĶ
Ġì¢ĭ ëĮĢ
Ġëĵ¤ ëŁ¬
ìłĢ ì©Įê³ł
Ġëĭ¬ ëĭ¬
ĠìĿ´ë¦Ħ ìĿĢ
ì© ¡
Ġê±° ëĵł
ëĶ ´
name ëĬĶ
Ġê±°ê¸° ê¹Įì§Ģ
ìĹ¬ ëıĦ
Ġê³µ ìĤ¬
íĦ °ë¦¬
ìķĦ ë§Ī
Ġë§Ĳ ê¹Į
íĺ ¹ìĭľ
íķł ë§Ŀ
ĠìĿ½ ëĬĶ
ëļ ľ
Ġxxxx x
Ġëĵ¤ìĸ´ ëıĦ
Ġë¨¹ìĸ´ ìķ¼ì§Ģ
Ġëĭ¤ëĭĪ ëĭĪê¹Į
ĠìķĪ ìłķ
ĠëķĮ ëĭĪê¹Į
ĠìĿ¼ íķł
Ġë²Ħ ë¦´
ĠìĹĲìĸ´ íĮŁ
ë§Ī íķľ
ĠëĪĪ ëıĦ
Ġëª© ìĤ¬ëĭĺ
ĠëĤĺìĻĶ ëįĺ
Ġë³´ìĹ¬ ì£¼
Ġì¤ĳêµŃ ìĸ´
Ġê·¸ë¶Ħ ìĿ´
ìłľ ëıĦ
ĠëĦĪ ë¥¼
Ġìĺ¤ ë§ĮìĽĲ
Ġëĵ¤ìĸ´ ê°Ģì§Ģê³ł
Ġìĺ¤ëŀĺ ëĲľ
Ġíıī ìĨĮìĹĲ
Ġìº ¡
ìŀĲ ìĹĲ
ìĻ Ĳ
ìĺ¤ ëĿ¼
ĠìłĦ ìĹŃ
ĠíĹĪ ë©´
ĠìĪĺìĹħ ìĿĦ
Ġë²Ī ìĿĦ
ìķĪ ìĹĲ
Ġcompanyname ìĹĲ
Ġìŀ¬ë¯¸ ìĹĨ
Ġíķĺëĭ¤ ë³´ëĭĪê¹Į
ĠìķĦ ëģ¼
ìĿ¼ ê³±
Ġìłľ ëª©
Ġìĸĺê¸° íķĺëĭ¤ê°Ģ
ìĭĿ ëıĦ
ìĤ° ìĿ´
ĠìĦ± ìĿ¸
Ġë°© ê¸Ī
Ġë¹ł ì§Ģê³ł
Ġëĵ± ê¸ī
íķĺ ëĮĢ
ìľ Ħë¡ľ
ĠëĳĲ ìĦ¸
ë¶ĢëĤľ ìĿ´
ĠëĬĲëĤĮ ìľ¼ë¡ľ
ĠìķĦë¥´ ë°ĶìĿ´íĬ¸
ëĵ¤ ìĹĲ
Ġíķľ êº¼ë²ĪìĹĲ
íķ´ ì§Ħ
Ġë§Ĳ íĸĪëĬĶëį°
ì° ¾
ĠëĤĺê°Ģ ìķ¼
ìĪ Ń
Ġê´ľì°® ì§Ģ
Ġìĸµ ì§Ģë¡ľ
ìłĢ ë²ĪìĹĲ
Ġë§Ľ ìĹĨ
Ġìĭľê°Ħ ìĿĢ
Ġë¹¨ë¦¬ ë¹¨ë¦¬
ĠëĪĦêµ¬ íķľíħĮ
ĠìĦłìĥĿëĭĺ íķľíħĮ
Ġê°Ļ ê±°ëĵł
Ġìĺ¤ ìłĦ
Ġíĺ¹ìĭľ ëĤĺ
Ġê¸°ë³¸ ìłģìľ¼ë¡ľ
Ġë ĳ¥
ĠìĿ´ ëıĻ
Ġë§ŀìķĦ ìķ¼
ĠëŃĶê°Ģ ë¥¼
Ġëĵ¤ìĸ´ê°Ģ ìķ¼
Ġíħ Ķ
ìķĮ ìķĦ
ĠëĮĢíĻĶ ë¥¼
ĠìĿ´ ë§ĪíĬ¸
ĠìĪł ëıĦ
Ġìŀ¬ë¯¸ ê°Ģ
Ġëĸ¨ìĸ´ ì§Ģ
ë°Ń ìĹĲ
í ŀĺ
Ġê° ¤
ë§Į ìĿĺ
Ġëª» ë¨¹
Ġìĸ´ë ĳĲ
Ġë§ŀ ëĤĺ
Ġì¢ĭìķĦ íķĺì§Ģ
ëĵľ ë¥¼
Ġë°Ľ ìľ¼
ì§ĳ ìĿĦ
ìĦ¸ ê°Ģ
ĠìĻĶ ìŀĸìķĦ
ĠëģĿ ëĤĺëĬĶ
Ġìĭ« ê³ł
ĠìĿ´ ê¸°
ĠìķĪ ëĵ¤ìĸ´
Ġë¨¹ ê±°ëĵł
Ġíĥ ĵ
Ġìĸ¼êµ´ ëıĦ
Ġíĥľ íĴį
ìĭľ ëĭĪê¹Į
Ġêµ ¶
ĠëĳĲ ëĵľ
ëĬĲ ëĭĪ
ĠëĤĺìĻĶ ìĿĦ
ĠìķĦëĿ¼ ëıĻ
ê±° ë¥¼
ĠìĤ¬ ìŀ¥
Ġìĭľ íĤ¬
ĠìĥĿê°ģ ìĹĲ
ë°© ìĿĦ
ìŀĳ ëħĦ
ìĩ ł
ĠìĿ´ ë£¨
íķ´ ì£¼ëĬĶ
Ġë³´ ëĭ¨
ë§Ī ìĿĦ
Ġë¶Ģ ëŁ½
ĠíĿ ī
Ġë¶ģ íķľ
ĠëķĮ ëŀĳ
Ġëªĩ ê°ľ
Ġì»¤ íĶĮ
íķĺ ìĭľëĬĶ
Ġìĺģ ìĺģ
ì¤ĳ íķĻêµĲ
ëı¼ ìĦľ
ì§ ±
ĠìķĦ ìķĦ
Ġíķ´ìķ¼ ê²łëĭ¤
Ġë¯¸ ì³¤
ëĦĪ ëıĦ
Ġë°¥ ìĿĢ
Ġë°Ķê¾¸ ê³ł
Ġë§Ĳ íķĺëĬĶëį°
ĠëĲĺ ëĥĲ
ê²ł ëįĶëĿ¼
ĠíķĺëĬĶ êµ¬ëĤĺ
ĠìķĦëĭĪ ê±°ëĵł
ê²ł ê³ł
Ġê´ľì°® ëĭ¤
ĠìķĪì¢ĭ ìķĦ
ĠëĤ´ ë©´
Ġname ìĸ¸ëĭĪ
Ġëª¨ ìķĦìĦľ
Ġì¤ĳ íķĻìĥĿ
Ġê²½ ìŁģ
ëĲĺ ëĭĪê¹Į
ĠìķĦê¹Į ëıĦ
ĠëıĻëĦ¤ ìĹĲìĦľ
ì¤¬ ëĬĶëį°
Ġê²°êµŃ ìĿĢ
Ġë¸Ķ ë¡ľê·¸
ĠëıħìĦľ ìĭ¤
ĠìķĬ ìķĪ
Ġëª¨ë¥´ ìŀĸìķĦ
Ġë°ĺ ìĿĢ
Ġë¶Ī ê³ł
Ġë§¤ ëĭĪ
Ġë¬¼ìĸ´ ë³´ëĬĶ
Ġìĥīê¹Ķ ìĿ´
ëŀĦ ê¹Į
ĠíĿĺ ëŁ¬
ĠìĹĳ ìĬ¤
ìĦľ ë¡ľ
êµ¬ ë§Į
ë¬¼ ìĹĲ
ĠëģĿ ìĹĲ
ë©Ķ ê¸°
ĠëŃĲ ëŃĲ
Ġìķł íĶĮ
ìłĢ ëħģ
Ġë´Ĳ ìķ¼ì§Ģ
Ġë³ĳìĽĲ ìĹĲìĦľ
ĠíĦ° ì¡Į
ĠìĨĮê°ľ ìĭľì¼ľ
Ġë°©ë²ķ ìĿ´
ëİ ħ
Ġê·¸ëŀĺ ê°ĸê³ł
Ġì¢ĭ ìŀĸìķĦ
ìĨ ¥
Ġë¶Ģ ë¥¸
Ġìŀħ íķĻ
íĹĪ ëĬĶ
ĠìĻĶ ê±°ëĵł
ĠìĨĲ íķ´
Ġìłģ ê¸Ī
ê» ı
Ġê¼ ½
Ġëĭ¤ìĿĮ ë¶ĢíĦ°
Ġë³µ ìŀ¡
Ġìŀ ĩ
ë¦ ħ
ĠìĤ ½
ĠëĲ ¨
ì£¼ ë§ĪëĬĶ
Ġìľ ¤
Ġë¹Ħ íķ´ìĦľ
Ġëªĩ ìĭŃ
Ġìŀ¡ ìĿĦ
Ġìª½ ìĹĲìĦľ
ĠìĿ´ë¦Ħ ìľ¼ë¡ľ
ĠìķĦ ê°Ģ
Ġê°Ģ ëĵĿ
ìķĺ ê±°ëĵł
Ġìĥģ ìĥģ
ĠíĮĶ ë¡ľ
ëĭ® ìķĦ
Ġë§İ ëĭ¤ê³ł
Ġê±¸ ë¦¬ê³ł
ĠìĬ¤ íĶ¼
Ġë¨¹ìĸ´ ë³¸
Ġìĭ¬ ìĸ´
Ġê¸°ëĭ¤ ë¦¬ê³ł
Ġìĥģíĥľ ë¡ľ
Ġìĸ´ ì§Ģ
Ġíķ´ ëĤ¬
Ġëı ĦìłĦ
Ġìĭ¶ ê¸°ëıĦ
ìĨĮ ê°Ģ
Ġìĭ¬ íķĺê²Į
Ġìĸ´ì©Įê³ł ìłĢì©Įê³ł
ĠìĹĦì²Ń ëĤĺê²Į
Ġìĭ¸ ìļ¸
Ġë°ľ ê²¬
Ġê·¸ëŀ¬ ê±°ëĵł
ìħ¨ ëĬĶëį°
Ġë¿Į ë¦¬
ĠëıĦìĻĢ ì£¼
Ġë³´ìĿ¼ ëŁ¬
Ġìľłì¹ĺ ìĽĲ
Ġê·¸ ìłķëıĦ
ĠìĪĺ ìŀħ
Ġíķł ê±°ìķ¼
ĠìķĦìĿ´ íĮ¨ëĵľ
ë°© íķĻ
ë¬¼ ëıĦ
êº¼ ëĿ¼
ê¹Ģ ì¹ĺ
Ġë§ī ìķĦ
ĠìĻ ¼
ë¬´ ê²Į
Ġìĭľ ê¸°
Ġì°¸ ê³ł
ĠìĭľíĹĺ ìĿĦ
ìĦľ ê²Į
Ġë´ ħ
Ġëĭ¤ë¥´ ê²Į
Ġì¡°ìĭ¬ íķ´ìķ¼
Ġì´Īëĵ± íķĻìĥĿ
ìĸ´ ì°¨íĶ¼
ĠíĹĪ ìłł
Ġìľł íķĻ
ê·¸ëŁ° ê±°
ĠìłĲ ìĪĺ
ĠìķĪ ë¨¹ìĸ´
Ġíķľ ê²Į
ë³´ ë©´ìĿĢ
Ġê±´ ëĵľ
Ġê°Ģ ê¸´
ìĿ¼ ìĹĲ
ë²Ħ ë¦¬ëĬĶ
ëĨ ¨ìĸ´
Ġíİľ ìħĺ
Ġë¹ ħ
ĠìĥĿê°ģ íķĺì§Ģ
Ġìķ¼ ë¬´
ĠëıĻ ìª½
Ġë¯ ¸ëĭĪ
ë°© ìĹĲìĦľ
ë¹Ħ ëĬĶ
íļĮ ìĤ¬
ĠìłĦíĻĶ íķ´ìĦľ
Ġëĸ¨ìĸ´ ì§ĢëĬĶ
ĠìĹ¬ìĦ¯ ìĭľ
ĠíĬ¸ ëŁŃ
Ġëĵ¤ìĸ´ê°Ķ ëĬĶëį°
Ġíķĺ ëŀľ
ìľ¼ ëĤ´
ê± Ķê°Ģ
ĠíķĺëĤĺ íķĺëĤĺ
ë¯¼ ìĿ´
ìŀ £
ĠìŀĪ ìĬµëĭĪëĭ¤
ë³´ ìĦ¸ìļĶ
íĸĪ ëĮĦ
íķł ìĪĺ
ĠëıĦ ëĳĳ
ĠìĤ¶ ìĿĦ
ë³´ ëĭĪê¹Ĳ
Ġëª¨ ìĸĳìĿ´
Ġëª¨ ìĬ¬íı¬
ë¬¸ ìĿ´
ëĲĺ ëĬĶëį°
ê²½ ìĿ´
ĠìķĦë¬´ ëłĩ
Ġì£½ ìĸ´ëıĦ
Ġì¹´ ì¹´ìĺ¤
ĠëĤĺìĻĢ ìķ¼
Ġì¤Ģë¹Ħ ë¥¼
ìĦ¼ íĦ°
ĠìĿ´ëłĩê²Į íķ´ìĦľ
Ġë¬´ ë¦¬
ĠëħĦ ìĿĢ
ë¶Ī ë©´
Ġíķ´ ëĤĺ
ëĶ ª
ĠëķĮ ìĹĲ
Ġì§Ģ ëŀĦ
ĠìĥĿê°ģ íķĺëĭĪê¹Į
ë¥´ ë¥´
ĠìĿ´ëŁ° ìĭĿìľ¼ë¡ľ
Ġë¶Ģ ëĵľ
Ġìĸ´ëĸ»ê²Į ëĵł
Ġê²° ìłľ
Ġë¨¹ìĿĦ ê¹Į
Ġë³¼ ê¹Į
Ġë³´ëĤ´ ëĬĶ
Ġê±±ìłķ ìĿ´
ĠíļĮìĤ¬ ìĹĲìĦľ
Ġë¸Ķ ë£¨
ëįĶëĿ¼êµ¬ ìļĶ
ĠìķĪ íķľ
Ġìĺģ íķ´
ì¹ĺ ë£Į
Ġë°Ľ ìķĻ
Ġê¿ Ķ
ĠìĤ¬ë¬´ ìĭ¤
ĠëĤĺ ëĤĺ
Ġì´Ī ëĶ©
Ġê°ĢëĬĶ ê²Į
ĠìłĬ ìĿĦ
ĠìĿ´ëĶ° ê°Ģ
ĠìķĦëĭĪ ëĥĲê³ł
ìłĦ íĻĶ
Ġë´ ¥
Ġê°Ķ ëĭ¤ê³ł
íļĮ ìŀ¥
ĠìĿ´ìĭŃ ìĺ¤
Ġê¹Ķ ìķĦ
ĠìĤ¬ ë¨¹
Ġë¨¸ë¦¬ ëıĦ
Ġë¬¼ìĸ´ ë³´ë©´
ĠìĹ¬íĸī ëıĦ
ĠìĻĢìĿ´ íĶĦ
ĠíĶĦëŀĳ ìĬ¤
Ġë³´ ìĿ´ì§Ģ
Ġê³ł ê¸ī
ê²ĥ ë§Į
ĠìĦ¸ ê²Į
ĠìĤ¬ëŀĮìĿ´ ëĿ¼
Ġëĵ¤ìĸ´ê°Ģ ëĭĪê¹Į
ĠìŀĪìĹĪ ëĭ¤
ê±° ëĿ¼ê³ł
Ġë¨¹ ìĹĦ
ĠëıĻ ë°±
ĠìĨĲ ì£¼
Ġíķĺì§Ģ ë§Ī
ĠìĽĶ ëĭ¬
Ġìĭľìŀĳ íķ´
ëŁ½ ê²Į
Ġê·¸ ìĤ¬ëŀĮ
Ġëį ´
ì§ĳ ëıĦ
Ġëĭ¬ ìķĦ
Ġê²ħ íĹĪëĤľ
1 5
Ġëĵ¤ ìĹī
Ġë¶Ģ ëĤľ
Ġë°Ľ ìľ¼ëŁ¬
Ġì°¨ ë¡ľ
Ġë¹ł ë¥¸
Ġíķłë¨¸ëĭĪ ëĬĶ
Ġê°Ģ ëł¤
Ġìĭľ ìĸ´ë©į
Ġíķł ëŀĺ
Ġë¶Ħ ëĵ¤
Ġìĸ´ì©Į ëĭ¤
X X
ê·¸ ì¶Ķë£©
ĠìĹĨ ìĹĪê³ł
ì¤ĺ ëıĦ
ĠëĬĺ ìĸ´
ĠìĿ´ ëłĩ
Ġëľ¨ ëĬĶ
Ġê°Ģê²© ìĿ´
ì§Ģ ë§Ī
Ġíķĺ ê¸°ëĬĶ
ëıĻ ìĿ´
Ġë°Ľ ìķĪ
ĠëıĦ ìĽĢìĿ´
Ġê°ĢìĿ´ ëıĦ
ĠíĮĲ ëĭ¨
Ġìħĭ ìĿ´
ĠìķĦ ìĭľ
Ġíķĺ ìŀĲê³ł
íķĺ ëĮĦ
ĠìłĦ ìŁģ
ĠìĦ¸ ê°ľ
Ġë© ¤ë²Ħ
Ġë°° ëł¤
Ġë¶Ģëª¨ ëĭĺìĿ´
ĠíĻį ë³´
ĠìłķíĻķ íķĺê²Į
a u
ĠìĤ¬ ìļ°ëĤĺ
ĠíĸĪ ëĥĲë©´
ìĪĺ ëĭĺ
ĠìŀĪëĬĶ ê±°ìķ¼
Ġë¨¹ìĸ´ ìĭłëĶĶ
Ġì°¸ ê¸°ë¦Ħ
ĠìĿĺ ë£Į
Ġì²ľ ë§Į
ĠìĿ´ìķ¼ ê¸°ë¥¼
Ġëº Ģ
Ġê°Ģ ëĭĪê¹Ĳ
ĠìĺģíĻĶ ê°Ģ
Ġë©Ģ ìĸ´
l au
ĠëĤ´ ë²Ħëł¤
êµ¬ ë¦¬
Ġê·¸ëłĩê²Į ê¹Įì§Ģ
ìĬ¤ ëŁ¬ìĽĮ
ê²ł ëĬĶ
ĠìķĦìĿ´ ë¥¼
íĸĪ ìľ¼ë©´
Ġìĭł ë¶Ģ
Ġíĸī ìłķ
Ġë¨¹ëĬĶ ëĭ¤ê³ł
Ġë¹ĦìĬ· íķĺê²Į
ĠìĤ¬ëª¨ ëĭĺ
Ġì¤ ľ
ëŃ ĺ
ĠíĮĮ ëŀĢ
Ġíŀĺëĵ¤ ì§Ģ
Ġìĭľìŀĳ íķĺë©´
ìĭľê°Ħ ìĹĲ
Ġëį°ë¦¬ ëŁ¬
ê¹ ľ
íĻ Ģ
ìĪĺ ê½Ī
ĠëıĻ ê·¸
ĠìŀĲì²´ ë¥¼
Ġë³¶ ìĿĮ
ĠìĥĿê°ģ íĸĪìĸ´
ĠëĨĢ ëĭ¤ê°Ģ
Ġìĭ« ìĸ´ìĦľ
Ġìĸ´ëĸµ íķ´
Ġì§Ħ ìĭ¬
Ġìĥ ĲëŁ¬
ì§Ģ ëĤĺ
ĠìķĦ ìī½
Ġê±° ìĹ¬
Ġë³´ ìŀĸìķĦ
ĠìĤ´ ê²Į
Ġìŀ¡ ìĿĢ
ĠìĤ° ëĭ¤ê³ł
Ġë°ĽìķĦ ê°Ģì§Ģê³ł
ĠìĬ¤ íĤ¤
ĠìĿ´ìĥģ ìĿĢ
Ġë¨¸ë¦¬ ìĹĲ
ĠìķĦë°© ìĿĢ
Ġê±° ì£¼ê²Į
ĠìĤ´ ìĹĲ
Ġë¹Ħ ë°Ģ
ĠìłķëıĦ ë§Į
Ġìŀĳ ê°Ģ
Ġìĸ´ë¥¸ ëĵ¤ìĿĢ
ĠìĪĺíķĻ ìĹ¬íĸī
ë¥ł ìĿ´
Ġê·¸ë ¯
Ġì¹´ ëłĪ
Ġë¨¹ìĹĪ ìĿĦ
ĠíĸĦ ìĭłëĶĶ
Ġë°ĶëŀĮ ìĿ´
Ġíĭ Ī
ĠìŀĪ ê¸°
ĠìĤ¬ ìĻĢ
ĠìłĢ ê²Į
ìĤ¬ ìĿ´
Ġê±¸ ëł¤ìĦľ
ĠìĬ¤ ë§ĪíĬ¸
ì²´ ê°Ģ
ëŃĲ ëĥĲ
ĠìĦłìĥĿëĭĺ ëĵ¤
Ġë©į ì²Ń
ë¤ Ħ
ĠìĿ´ ëĨĪ
ìĭľ ë¡ľ
ì¹ «
ĠëĤ¨ ê²¨
ĠìĿ´ëŁ¬ ëĬĶëį°
Ġëĺĳ ë°Ķë¡ľ
ĠëĤĺìĺ¨ ëĭ¤ê³ł
Ġëĭ¤ë¥´ ê³ł
Ġëĭ¤ëħĶ ìĸ´
ĠìĦľë¹Ħ ìĬ¤
a p
ì§Ģ ëĤľ
ĠìĤ¬ ëĮĢ
ìĤ¬ ë¬´
ĠìĹ¬ ìĦ±
ĠìłĦ êµŃ
ê» į
ê·¸ëŁ¬ ë©´ìĿĢ
ĠìĿĮìĭĿ ëıĦ
ĠìĿ´ê²ĥ ë§Į
ê² ¸
ìĦľ ìķ¼
ĠìĨ ¥
ìĸ¸ ìłľ
Ġëĭ¤ìĿĮìĹĲ ëĬĶ
Ġê²Ģ ìłķ
Ġë¹ĦìĬ· íķ´
ìķĦë¹ł ê°Ģ
ì§Ģ ìŀĸìķĦ
Ġíķĺ íķĦ
ĠìłĢ ìŀ¥
Ġì¢ĭ ìľ¼ë©´
ìĺ¤ ì§Ģ
Ġë¶Ģ ëĶª
Ġëį° ë¡ľ
íĥ ĳ
Ġìĺ¬ëĿ¼ ê°Ķ
ĠìĿĺë¯¸ ê°Ģ
ĠìĿ´ìłľ ëıĦ
Ġìĺ¬ ëŀĲ
Ġíŀĺëĵ¤ ìĸ´ìĦľ
Ġë¯¸ìļ© ìĭ¤
d ing
p lau
ëĬĶ ëĭ¤
Ġê°Ģ ê¹Ŀ
ë¥´ ì§Ģ
Ġê³µ ê°Ĳ
ëĨ ĺ
Ġìĺ¬ëĿ¼ ìĺ¨
Ġê·¸ëłĩ ëĭ¤
ìķĦìĿ´ ëĵ¤
ìı ł
ap plau
applau ding
Ġê ¾
ìĹĪ ëĬĶì§Ģ
ĠìĪĺ ìļĶìĿ¼
íĬ¸ ëıĦ
Ġê¸°íļĮ ê°Ģ
ĠìĬ¤íı¬ ì¸ł
Ġê°Ģ ì§Ī
íĬ Ģ
ĠíķĺëĤĺ ë¡ľ
Ġê·¸ëłĩ ìŀĸìķĦ
Ġìŀł ìĭľ
ĠìķĦê¹Į ìĽĮ
ĠìĨį ìĹĲìĦľ
Ġëĸ¨ìĸ´ ì§Ģë©´
ìĹ¬ê¸° ìĦľ
Ġëª©ìļķ íĥķ
ĠìķĪ íķ¸
Ġë¨¹ ëĭ¤
Ġíķł ìķĦë²Ħ
Ġìłľ ìĿ´
Ġë§Ī ë¥¸
ĠìĦľ ë¥ĺ
ì¡Į ëĭ¤
Ġë©Ķ ìĿ´
ê°Ħ ëĭ¤
ĠíĸĪ ìĹĪëįĺ
ĠìĪĺ ë°ĸìĹĲ
Ġìĸĺ íķľíħĮ
ì°¨ ëĿ¼ë¦¬
ì» µ
Ġë³´ ëĿ¼ê³ł
ìĪĺ ê´ĳ
ë¹ł ìĿ´
ĠíĹĪ ë²ħ
Ġìŀħ ìľ¼ë©´
ĠëĨĢ ëŀ¬
ì¹´ íİĺ
Ġê·¸ëŀ ľ
ĠìĿ´ìĭŃ ìĤ¬
Ġì¤Ģ ëĭ¤
Ġìĭľìŀĳ íķĺ
ĠíķĺëįĶëĿ¼ê³ł ìļĶ
Ġê³µ ìľł
Ġê°Ħ ê±°
ĠìĭŃ ì¹ł
Ġê¸°ìĸµ ëıĦ
ĠëĿ ł
Ġë§īê±¸ ë¦¬
ìĿ´ ìĹĪê±°ëĵł
ĠìĤ¬ ëĬĶê±°
êµ¬ ë¥¼
Ġëĵ¤ìĸ´ ë³¸
Ġë°Ľ ìķĺëĬĶëį°
ë¦° ëĭ¤ê³ł
ìĹ° ìĿ´
ĠëĶ¸ ê¸°
ê¶ Ī
Ġìĺ¤íĨł ë°ĶìĿ´
Ġê°Ģ ê²łëĭ¤ê³ł
ĠìķĪ ëĲ
ĠìĤ¬ ë§Į
ìĭľ ë¥¼
ĠìķĮ ë©´
ĠìĤ´ ëł¤
ìĪĺ ìļķ
ĠìłĦ ëĿ¼ëıĦ
Ġìŀ¥ ë©´
ĠìĿ¼ ìĸµ
Ġì£¼ ëĬĶëį°
ĠíķĻ ë¶Ģëª¨
Ġìĸ´ëĶĶ ìĹĲ
ĠìľĦ íķľ
ìĿ´ê±° ëĬĶ
Ġíķ¨ ê»ĺ
Ġëļ± ëļ±
Ġìĺ¤ì§ķ ìĸ´
Ġíķľ ìª½
ìĿ¸ ì¤Ħ
Ġêµ ³
Ġëĵ¤ìĸ´ ë´Ĳ
Ġëª¸ ë¬´ê²Į
ĠìķĮë°Ķ ìĥĿ
Ġë³Ħ ê±°
Ġë°Ķê¿ ¨
ê²¹ ìĤ´
Ġìºł íķĳ
íķ´ ì§ĢëĬĶ
ë°© ìĿĢ
íĨ ¤
ĠìĹ¬ìŀĲ ëĵ¤ìĿĢ
Ġëĭ¤ëĭĪ ì§Ģ
ĠìĪł ì§ĳ
ĠìķĦìĿ´ëĵ¤ íķľíħĮ
Ġíķ¨ ë¶Ģë¡ľ
ê·¸ëłĩ ì§Ģ
Ġë°Ķëĭ· ê°Ģ
Ġë§Īë¬´ ë¦¬
Ġì§ ļ
Ġê°Ģ ìŀħ
ĠëŃĲ ëŀĳ
Ġë´¤ ëĭ¤
ĠëĦ£ ìĿĦ
ĠìĿ¼ìĸ´ ëĤľ
ĠëĤ¨ìŀĲì¹ľêµ¬ ê°Ģ
Ġë§ī ìĿ´
ìľ¼ ëŀľ
ĠìķĦëĭĪ ìĹĪìĸ´
ĠìĹĨìĸ´ ìł¸
Ġëħ¸ ìĿ¸
Ġë§ĲíĸĪ ëĦ¤
Ġê²ĮìŀĦ ìĿĦ
Ġëª¬ ëĶ±
Ġê°Ģ ê¸°ë¡ľ
Ġë³´ ë§Ĳ
ìĭľ ê¸°
Ġë² ¤
ìłĦ ìĹĲëĬĶ
Ġë¶ ĵ
Ġêµ¬ ì²ľ
Ġìŀ¥ ê°Ģ
ĠëĲĲ ëĭ¤ê³ł
Ġìŀ¬ë¯¸ ìŀĪìĸ´
ĠìķĮìķĺ ê±°ëĵł
Ġì½ĺ ìĦľ
êµĲ íļĮ
Ġìĥģ ëĭ¹íŀĪ
Ġìľ¡ ì²ľ
ê°ľ ë¥¼
ĠíĻĶ ìŀĲ
Ġíķ´ìĻ¸ ìĹ¬íĸī
íĳ ¼
ìĿ´ ëĭĪ
ê°Ģ ìĬ´
ë© Ģ
ìŀ ĩ
ĠìĤ¬ ëıĪ
íķ´ ê°Ģ
ĠìķĦë¬´ ê±°ëĤĺ
Ġê³¼ ìĻ¸
ĠíĽĦ ëĿ¼ìĿ´
Ġê¾¸ ë¯¸
Ġê±° ë¯Ħ
Ġíķľ ëĭ¬
ë³´ ë©´ìĦľ
Ġì¡° ê±´
Ġìĺ¬ ì¼Ģ
ĠìĨĮ ìĬ¤
ĠíĮĮ ë¦¬
ĠëĦĪ ëĦ¨
ĠìĤ¬ëŀĮ íķĺê³ł
ìĺ¤ ëĭĪê¹Į
íĺ ģ
ëª¨ ëį¸
ë¨¹ ìľ¼ë©´
Ġìĭ¸ ìļ°ëĬĶ
ĠìĿ´ìĭŃ ë§Į
Ġëĵ£ ê¸°
ĠìĦ¤ ë§Ī
ì¹ł ìĭŃ
ĠíĸĦ ë²Ħê±°
ëıĦ ëĬĶ
ìľ¼ ëĿ¼
Ġíķľ ìŀĶ
ĠìĿ¼ ìĿ¼
ë¹ Ķ
ĠëĤľ ë¦¬ê°Ģ
Ġë¨¹ìĸ´ ë³´ê³ł
Ġìŀ¥ ë¡Ģ
Ġì¹ĺ ê³¼
Ġë¬¼ìĸ´ ë³´ëĭĪê¹Į
ëĲľ ëĭ¤
Ġìª ĺ
Ġëį°ëł¤ ê°Ģ
Ġê·ĢìĹ¬ ìļ´
ĠìĿ´ ìª½ìľ¼ë¡ľ
Ġê±° ëĥĲê³ł
ìľ¼ ë¡ł
íķ´ ì§Ģê³ł
ìĿĮ ìĭĿ
Ġìı Ł
ĠíĬĢ ìĸ´ëĤĺ
Ġì¹Ń ì°¬
Ġê±° ì£¼
ĠìĹ¬ ëıĻìĥĿ
ëĤ´ ìĿ¼
ĠìĤ¼ ìĸĳ
ĠìĦľ ë°©ìĿ´
Ġë¹¨ ëĿ¼
ĠìľĦ íķ´
Ġìĸĳ ìĿ´
ĠìķĬìķĺ ëĤĺ
Ġì¼ĢìĿ´ ìĬ¤
ĠëĪĦêµ° ì§Ģ
Ġìĸ´ ìĦ±
ĠìĤ¬ ì£¼ê³ł
ĠìĿ´ëŁ° ê±´
ĠìļĶ ë§Įíģ¼
Ġê°Ķ ìĹĪëĬĶëį°
ĠìĶ Į
Ġëª© ìļĶìĿ¼
Ġê·¸ê²ĥ ìĿĦ
ĠëĤĺìĺ¨ ëĭ¤
Ġì¦ ī
Ġë²Ĺ ìĸ´
Ġëĭ¤ ë¦¬ê°Ģ
Ġíķľ ê°Ģ
Ġëª¨ ëŀĺ
Ġìķł ëıĦ
ĠíķĻêµĲ ëĬĶ
ì¦Ī ëĭĪ
ìĸ¼ êµ´
ĠìĮĵ ìķĦ
ĠëĤĺë¨¸ ì§ĢëĬĶ
Ġë°Ľ ì§Ģ
ëĲĺ ìĦľ
ì°¨ ë¥¼
ĠíĤ¤ ìļ´
ĠëĤ´ëł¤ ìĺ¨
ë¸Į ìĿ´
Ġë± ĥ
ĠìĹħ ë¬´
ĠìĭŃìĿ¼ ìĽĶ
ĠìĹĨ ëĭ¤ëĬĶ
ìĤ¬ ì§Ģ
ĠìĽ ¨
Ġì£¼ ìĨĮ
Ġê¸¸ ê±°ë¦¬
ĠíĸĪëįĺ ê±°
ĠíĺĪ ìķķ
ê·¸ ëŀ¬
ĠìļĶ ìĥĮ
ĠëĪĦ ìĽĮìĦľ
Ġìŀ¡ íĺĢ
ê·¸ëŁ¬ ê³ł
ĠìŀĪìĿĦ ê±°
ìĥī ìĿ´
Ġë°ķ ìķĦ
ìķĮ ë°Ķ
ĠìĭľíĤ¤ ë©´
ìĿ´ ì²ľ
ëĵ¤ íķĺê³ł
ëł¤ ëĬĶ
ìĪĺ ìĹħ
ìĹ¬ ë¦Ħ
ĠìĿ¸ ë¬¸
Ġêµ¬ íķ´
Ġêµ¬ ì¡°
ëĬĲ ëĿ¼
Ġì£½ ìĹ¬
ë° Ķê°Ģ
ĠìĿ¼ ëĤł
ê±¸ ìĿ´
Ġê´Ģ ë¦¬ë¥¼
Ġê²Ģ ìĤ¬ë¥¼
ĠìĤ¬íĪ¬ ë¦¬ê°Ģ
ĠìĤ¬ ìĤ¼
Ġìķł ëĭĪ
ĠìļĶ ë²Ī
Ġê³µ ëıĻ
ĠëĤĺìĺ¤ ëĬĶê±°
Ġì§ĢëĤĺ ê°ĢëĬĶ
Ġëķħ ìĿ´
ĠìķīìķĦ ìŀĪ
Ġì¢ĭ ëįĶëĿ¼ê³ł
ĠìĹĨ ê¸´
ìĿĮ ìĿĦ
Ġì¢ĭìķĦ ê°Ģì§Ģê³ł
Ġê¹ ¡
Ġëį° ìĿ´íĬ¸
ĠìķĪëĲĺ ë©´
ìĭľ ëĮĢ
êµ¬ ìļĶ
ìķł ëĵ¤ìĿ´
Ġë¶Ħ ìĿĢ
íĮĮ ìĿ´
Ġë³´ëĤ´ ì£¼
ĠìĦ¤ëªħ ìĿĦ
ĠíĸĪ ëĭ¨
Ġìĭľ ìĽĶ
ĠìŀĲ ìĿ´
Ġì£¼ ìĿ¸ìĿ´
Ġëĭ¬ ëŀĺ
Ġê²°íĺ¼ íķĺê³ł
ìĺ¬ ëĿ¼
ĠíĽĦ ë°ĺ
ĠìĦ¤ ëĤł
Ġìĥ Į
Ġìĥ ĺ
ë©´ íĹĪ
Ġíķł ëķĮëĬĶ
ĠëĦĪë¬´ ëĦĪë¬´
Ġì£¼ ìĽĮ
Ġì£¼ ë©´ìĦľ
Ġê¸° íĥĢ
ĠëĶ° ëĬĶ
Ġíŀĺ ìĿĦ
Ġìĺ¨ ê±°
Ġìŀł ìĿ´
ë°¥ ìĿĦ
Ġê³łë¯¼ ìĿĦ
ëĿ¼ ìļ°
ëĤĺ ëĭ¤
ëįĶ ëŀĺ
ĠìĦ¸ ìĽĶ
Ġì²ĺ ë¦¬
ĠìŀĪìĹĪ ëĤĺ
Ġìĸĳ íĮĮ
ì§Ģê¸Ī ëıĦ
ĠëĤĺ ëĦ¤
ĠìĤ¬ ìľĦ
ĠìķĦìĿ´ ëıĮ
Ġëį° ë¥¼
Ġë²Ħ ëł¸ìĸ´
ĠíĶ¼ ê°Ģ
Ġìķłëĵ¤ ëģ¼ë¦¬
ĠëıĮìķĦ ëĭ¤
ĠëıĻìĥĿ ìĿĢ
ĠìĿ´íĽĦ ìĹĲ
ìķĦ íĮĮ
Ġëĭ ¿
íķĺ ì§Ħ
Ġìĭ« ëĭ¤
Ġë¨¹ëĬĶ ëĭ¤
Ġê°Ģ ë´¤ìĸ´
ìĺ¤ íŀĪëł¤
Ġë§Ľ ìĿĦ
ĠíĹ Ľ
Ġì´Ī ì½ľ
Ġê±°ê¸°ìĦľ ëıĦ
Ġìķłëĵ¤ ìĿĦ
ĠìĿĺ ê²¬
Ġì°¾ ëĬĶ
Ġë¡ ±
ìĿ´ ìĹĲìļĶ
Ġìĺ¤ ë©´ìĦľ
ĠìĥĿê°ģ íķ´ëıĦ
Ġë¯¸ íĦ°
ĠëĤ¨ìŀĲ ë¥¼
ĠìĦŀ ìĸ´
ĠìķĦëĭĪ êµ¬ëĤĺ
Ġë³´ ê±°ëĵł
Ġëĵ¤ìĸ´ ë³´ë©´
Ġìłķ ì¹ĺ
ĠíĮĶ ë§Į
Ġê¸°ìĸµ ìĿĢ
ĠìĤ¬ì§Ħ ìĿ´
ëĨĵ ìľ¼ë©´
Ġë¯¸ìķĪ íķľëį°
Ġë£ ¸
ĠìĤ¬ê· Ħ
íķľ ëĮĦ
Ġë¬ ĺ
ĠëĲĺ ëĥĲê³ł
ĠìĨĮ ë°©
Ġìŀ¡ ìķĻ
Ġíŀĺëĵ¤ ëĭ¤
Ġë¬¼ìĸ´ ë³¸
Ġë©Ģ ì©¡
ê²Ģ ì§Ħ
Ġëĭ¤ ê°ĻìĿ´
ë¬ ĺ
Ġë§Ĳ íķ¸
Ġìŀ¥ ê¸°
Ġê°Ģìł¸ ìĻĢ
Ġì²´ ëł¥
ĠëĤ³ ìķĦ
ĠìĿ´ ìłķëıĦ
Ġê°Ģ ë¦¬
íķľ ëĮĢ
Ġê²½ ì£¼
Ġìĺ¬ëĿ¼ ê°Ģë©´
Ġìŀĺëª» ëĲľ
Ġìĸ´ëĶ ¨
ìĹ ¥
ĠìķĦëĭĪ ìĹ¬
Ġë³´ ëĬĶê±°
Ġë¨¹ ìłł
Ġìľ¡ ë°±
ĠìľĦ ì£¼ë¡ľ
ĠëĨĶ ìķ¼
Ġìĺ¤ëŀĺ ëĲĲ
ìĤ¼ ì´Į
ĠíķĻìĥĿ íļĮ
Ġëĭ« ìķĦ
Ġì¹¼ ë¡ľ
Ġì§¬ ë½ķ
ëĵ¤ ìķĦ
ê·¸ ì§Ģ
Ġë¬´ ëĦĪ
Ġê³ł ê¸°ë¥¼
ëĵľ ë¡ľ
Ġë°© ìĿ´
ìħ ī
Ġë¬¼ìĸ´ ë³¼
í īģ
Ġê±° ì£ł
Ġë¹ Ĺ
Ġëį ¥
Ġìłľ ëĿ¼
Ġì¤Ħ ìĿĦ
Ġëªħ ëıĦ
ĠìĹ¬ìŀĲ ëĵ¤
ë°ķ ìĿ´
ĠìĤ¬ëĬĶ ê²Į
ĠëĨį íĺĳ
Ġê³± ì°½
ĠëĦĵ ìĿĢ
ĠìĦ¼ íĦ°
ìĩ Ħ
ĠìĹł ë¹Ħ
Ġê°Ģ ìĪĺ
ìŀ¥ ìľ¼ë¡ľ
Ġìĺ¬ ë¦´
Ġëĭ¬ ê³ł
Ġìĭ« ëĭ¤ê³ł
ĠíĮĮ ìĬ¤íĥĢ
Ġìŀ¬ë¯¸ ìŀĪëĬĶ
Ġì¡´ ìŀ¬
Ġìĺ¤ ëĤľ
ë¹ ´
Ġê³³ ìĹĲ
ĠìĿ´ì²ľ ìĿ´ìĭŃ
ìĭľ ë¦¬
ë³´ ë¯Ħ
ĠëıĻ ëĤ¨ìķĦ
ĠìĭŃ ìľ¡
Ġêµ¬ ë°±
Ġê²° ë¡ł
Ġëĭ¤ëĭĪ ëĭ¤ê°Ģ
Ġìı Ļ
Ġìĭľìĸ´ë¨¸ëĭĪ ê°Ģ
íķľ êµŃ
Ġë§İ ìľ¼ë©´
Ġê³ł ì¶
Ġê°ľ ë§Į
Ġì½ §
Ġì±ħ ìĥģ
ĠëĪĦêµ° ê°Ģ
Ġìłķíķ´ ìł¸
Ġë°Ķëĭ¥ ìĹĲ
ìķĦì¹¨ ìĹĲ
Ġíķĺ ìļ°ìĬ¤
ëĶ ĺ
ë¬´ ìĭł
Ġìĭľ ê¸ī
Ġë§Į ìł¸
Ġê°Ķ ëĦ¤
Ġê°ĻìĿĢ ëĶĶ
Ġë²Ħ íĭ°
íĭ° ë¹Ħ
ĠìĻ¸ íķłë¨¸ëĭĪ
ĠëĦ£ ìĿĢ
ĠíĺĦ ìŀ¬
ĠìķĦíĶĦ ëĭ¤
Ġë§ĲíĸĪ ëįĺ
Ġê´´ ë¡Ń
Ġê³łìĸĳ ìĿ´ê°Ģ
ê°Ģ ìĬ¤
Ġê±° ëĭĪ
Ġê°Ģ ë©į
ìľ¼ ëĬĶ
ĠìĤ´ ìķĺëĬĶëį°
Ġì¡° ìĤ¬
Ġì¡° êµĲ
ĠìĻĢ ìĿ¸
Ġë°ĺ ì§Ģ
ĠëĤĺê°Ģ ì§Ģ
ĠìĿ¼ìĸ´ëĤĺ ë©´
Ġë¯¿ ê³ł
Ġìĺ¬ëłĪ ê¸¸
Ġê·¸ë¯ Ħ
ĠìĤ¬ëŀĮ ë§Īëĭ¤
ĠìĥĿ ê²¬
ĠíķĺëĬĶ ê±´
ĠëĮĢ ìłķ
ì°¨ ëıĦ
Ġëĸ¨ìĸ´ ì§Ī
Ġë°ĳ ìĹĲìĦľ
ĠìĻł ì§Ģ
ê¸° ë³´ëĭ¤ëĬĶ
ĠìłĦ ìĹĲëıĦ
íĨµ ìĹĲ
ĠíķĦ ê¸°
ĠíķĺìŀĸìķĦ ìļĶ
Ġëħ¸ëŀĺ ê°Ģ
Ġìĺ¤ì²ľ ìĽĲ
ìĿ´ ìĹ°
Ġëĭ¤ ìļ´
ĠëĤĺìĺ¤ ëĦ¤
ê°ľ ê°Ģ
Ġëĭ¤ëĭĪ ëĬĶëį°
Ġë¶Ļ ìĿĢ
Ġíĥľ êµŃ
ìĻ¸ ë¡ľ
Ġíķ¸ëĵľíı° ìľ¼ë¡ľ
ëľ ©
Ġíĺľ íĥĿ
ê°Ģ ìķ¼
Ġê°Ģ ëĭ¤
ĠìłĢ ì©Įê³ł
Ġìľł ìĿ¼
Ġìŀ¥ íķĻ
ìĦł ìĿĦ
Ġë§Įëĵ¤ ìĸ´ìķ¼
Ġìĭ¸ ìļ°ê³ł
íĿ ¡
ĠìĦłìĥĿëĭĺ ëĵ¤ìĿ´
Ġì§Ħ ì§Ģ
ĠìķĦì£¼ ë¨¸ëĭĪ
ĠíĻĺ ë¶Ī
ĠëıĮìķĦê°Ģ ìħ¨
ìķ Ĺ
ĠìĥĿê°ģ ìľ¼ë¡ľ
Ġë¶Ģëª¨ ê°Ģ
Ġìħĭ ì§¸
Ġíķłë§Ŀ ìĿ´
Ġì¿ł íĤ¤
ë¦¬ ë¡ľ
íķł êº¼
ĠêµĲ ìŀ¥
ĠìĿ´ìĭŃ ìĿ¼
Ġë§ĪìĿĮ ìľ¼ë¡ľ
Ġë§Ĳë¡ľ ëĬĶ
Ġíķĺ ê¸°ëıĦ
ìľ¼ ëŀĺ
ĠìŀĲ ìĤ´
Ġê³ł ìĨĮ
Ġë¶Ģ ëŁ¬ìĽĮ
Ġìĭł ë¬¸
Ġë§ĪìĬ¤íģ¬ ë¥¼
ĠìķĦ ëĤĺ
ĠìĤ¬ ëıĦ
ĠëĲĺ ì¼ľ
ĠìłĢ ëł´
Ġê²ĥ ìĹĲ
Ġì¹ľ ìłĪ
ĠìĻĶ ëĭ¤ê°Ģ
Ġìļ¸ ìĸ´
íĮĲ ìĹĲ
Ġìį¼ ìĸ´
¨ ĭ
ë¦¬ íı¬
Ġë¨¹ ìĹ¬
ìĭľ ëħľ
Ġëª» ìĥĿ
Ġë§Ī ìĦ¸ìļĶ
íĸĪ ëĤĺ
ìĺ¬ íķ´
Ġíıī ìĥģ
Ġë²Ĺ ê³ł
ĠìĹĨ ìĹĪê±°ëĵł
Ġë¶Ģ ë¥¼
Ġìĸ¸ëĭĪ ìķ¼
ë°© ëıĦ
Ġì¹ľêµ¬ ë¥¼
ĠëĤĺìĺ¤ ê±°ëĵł
Ġìķŀ ë¨¸ë¦¬
ë°° ì¶Ķ
Ġìĭ¤ ìĪĺ
Ġìī¬ ìĸ´
Ġëĭ¹ìĹ° íķľ
Ġíķĺ ì§ĢëıĦ
ĠëĤĺ ìĻķ
ĠìŀĲ ê·¹
ìĺ¤ ëŀĺ
ĠíĹĪ ê³¡
ëŃĲ ì§Ģ
Ġìµľ ìķħ
Ġëľ¨ ê³ł
ĠíħĮ ëĭĪê¹Į
ĠìĻĦ ë²½
ë¶Ģ ë¥¼
Ġìĸ´ëĶĶ ì§Ģ
Ġëĳĺ ìĿ´ê°Ģ
Ġë°ľ ë¡ľ
ĠìŀĲ ìĭłìĿ´
ë¬¼ ë¡ł
ĠëģĮ ìĸ´
ĠìķĦ ê»´
ìĺ µ
ëł¤ ëĤĺ
ë³´ ëĤ´
Ġê¸° ìļ´
ê·¸ëŀĺ ê°Ģì§Ģêµ¬
ëĮ ĵ
ìĺĢ ìŀĸìķĦ
Ġì§ĢëĤĺ ê³ł
ĠìķĦíĶĦ ë©´
ĠëĤ¨íİ¸ ìĿĢ
Ġë¯¿ ëĬĶ
Ġë§¤ëĭĪ ìłĢ
Ġìĸ¸ëĭĪ ëĵ¤
Ġíĸī ìĿ´ëĦ¤
ê²ħ íķ´ë¶ĢëĤľ
Ġë©´ ìĦ¸
Ġë¯¿ ìĸ´
ìĺĽëĤł ìĹĶ
Ġë¸Į ìĿ´
Ġê·Ģì°® ìķĦìĦľ
Ġìĭľë¦¬ ì¦Ī
ìĿ´ ìĸ´ìĦľ
ë¦¬ ê²Į
ĠëĮĢ ìŀ¥
íĮ ©
ĠìĨĮ ëıħ
ĠìķĮìķĦ ìļĶ
Ġê°Ĳ ëıĻ
Ġì¡ Į
Ġìĸĳ ë§Ĳ
Ġì¶Ķ ë£©
Ġìļ¸ ë©´ìĦľ
Ġê´ĳ ì£¼
Ġë¶Īíİ¸ íķ´
Ġìĺ¤ ë¦¬
Ġëĭ´ ìķĦìĦľ
ĠíĦ° ì§Ħ
ĠìŀĲë¦¬ ìĹĲìĦľ
Ġê³łë§Ī ìĽĮ
ĠëĶĶìŀĲ ìĿ¸
Ġê°Ģ ë¯¼
Ġê°Ģ ìľĦ
ĠìĿ´ëŁ° ê²ĥëıĦ
ĠëıĪ ê¹Į
ìĦł ê²Į
íİ ĳ
Ġë§ĪìĿĮ ìĿĢ
Ġìĸ¼êµ´ ìĿĦ
ĠíĺĦ ëĮĢ
Ġëķħ ìĿĦ
Ġë§ĮëĤ¬ ëĬĶëį°
1 6
ì İĦ
ĠìķĪ ì£¼
Ġì¢ĭ ê²Ĳ
ĠíĸĪ ëĭ¤ëĬĶ
Ġê³ł íĸ¥
Ġëª¸ ëıĦ
Ġë°ĸ ìľ¼ë¡ľ
ĠìĽ¬ ë§Įíķľ
ì§Ģ ê¸´
Ġíķĺ ëĵľëĿ¼
Ġë§Ī ì¹¨
Ġë¯¸ ì³Ĳ
ë°Ľ ìĿĢ
ë» ¤
ĠìŀĦ ìļ©
Ĭ ê·¸
Ġê·¸ ê¸°
ìĸ´ ë¦´
ĠìĽĲ ìĿ´ë©´
Ġë¶Ģ ëĮĢ
ĠëıĻ ìĺģìĥģ
ëĨ ĢìĿ´
Ġì¹ĺ ìļ°
ĠìĿĺ ìĤ¬ê°Ģ
ĠëĿ¼ ìĿ¸
ĠëĮ Ħ
Ġìĭłê¸° íķĺëĭ¤
ĠìŀĲê°Ģ ê²©
ëį° ìĿ´
Ġê²ĥ ëĵ¤ëıĦ
Ġìķ¼ êµ¬
Ġë¬¼ ë¦¬
ĠëıĦ ë¯¼
Ġê¸°ìĸµ ëĤĺëĬĶ
ë§Ī ìĬ¤íģ¬
ĠíĸĪ ìĹĪëĦ¤
ĠìķĬ ìĬµëĭĪê¹Į
ĠëĶ° ë¥¸
Ġìĭ¶ìĿĢ ëĶĶ
Ġì½© ëĤĺë¬¼
Ġë¶ĪëŁ¬ ìĦľ
Ġí Ģ
ë©´ìĦľ ëıĦ
ĠìĨĲ ì§Ģ
ĠìķĦëĭĪëĿ¼ ìĦľ
ì¤Ħ ê¹Į
ë§¤ ìĿ¼
Ġíŀ Ĳ
ĠìŀĺìĥĿ ê²¼
Ġê°Ģ ê±°ëĵł
ĠìĤ´ ê¹Į
Ġë¶Ģ ëıĻìĤ°
ĠìĹ´ ë§¤
ĠìĨĲ íĨ±
Ġêµ° ìĿ¸
ĠìĪĺìĪł ìĿĦ
ëĥĦ ìĥĪ
½ ìĿ´
Ġê±° ìļ¸
ìĹĪ ëĭ¨
ĠìŀĲ ê¸´
ëĤł ìĿĢ
ĠìĭŃ ìĤ¼
Ġìļ° ëıĦ
ĠëĲĺëĬĶ ê²Į
íķĺ ê¸°ê°Ģ
ĠìĪĺ ë©´
Ġìłľ ì¶ľ
ê²ł ëĥĲê³ł
Ġì§Ģê¸Ī ìĿ´
Ġê°Ī ëŀĺ
Ġë§Ĳíķ´ ë´Ĳ
Ġë ¦
ê²Į ìĿ´
Ġíķĺ ìħ¨
Ġìĸ´ ë§Ī
ë§Ī íĨł
Ġì° ľ
Ġì° Ŀ
ë³´ ëĿ¼ê³ł
ĠìĬ¤ ì¹´
ìĭ¬ ìĿĦ
ĠìĤ¬ì§Ħ ëıĦ
Ġìĸ´ë©į ìĿĢ
Ġìĭłê²½ ìĵ°
Ġê¸Ģ ìĿĦ
ë²ł ìĿ´íĦ°
ĠíĶ¼ë¶Ģ ê°Ģ
Ġíķĺ ê²łìĸ´
íķĺ ëįĺ
ìĺĪ ë¥¼
ë¬¼ ë¡ľ
Ġìĭľìŀĳ íķ´ìĦľ
ĠëĨĪ ìĿĺ
ì¥ Ĳ
ìĭľíĤ¤ ê³ł
ĠìĿ´ìĸ´ íı°
į ½
ê°Ģ ë¯Ħ
Ġê·¸ê±° ì§Ģ
Ġë§İ ëįĶëĿ¼
Ġê³ł ìĤ¼
Ġìĸ´ëĸ ł
ê·¸ëŁ¬ ëĭĪê¹Ĳ
ĠíĬ ¼
ĠëĦĪëĦ¤ ëıĦ
ëª¨ëį¸ ë§ģ
Ġë µ
Ġê°Ļ ëįĶëĿ¼ê³ł
ë¶Ģ íĦ´
ĠìĹ° ê·¹
ìĿ¸ëį° ëıĦ
Ġëľ¨ ê±°ìļ´
ëĨĶ ìķ¼
ìŀ¡ ê³ł
Ġì ĳ¤
Ġê·¸ ìłĢê»ĺ
ëĤĺ ì§Ģ
íĸĪ ëĭ¤ê°Ģ
ì¤ĳ êµŃ
Ġë°ĺ ë³µ
Ġê±Ķ ë¥¼
Ġë²Į ìĸ´ìĦľ
íĻľ ëıĻ
Ġëħ¸ëŀĺ ëıĦ
Ġìĵ¸ ëį°
ĠëĤĺëĿ¼ ê°Ģ
Ġê¸´ ìŀ¥
ĠëħĦëıĦ ìĹĲ
ìĹ ĳ
ëĿ¼ ë¶ĢëĤľ
ĠìŀĪ ì£¼ê²Į
ĠìķĪ ë§ŀ
ĠëŃĲ ëıĦ
ì£¼ ëĿ¼
íķĺëĬĶ ëĶĶ
ĠìĿ¸ íĺķ
ĠëĨĢ ëŀľ
ê´Ģ ìĹĲ
Ġíİ¸ ì§Ģ
Ġìĺģìĸ´ ë¡ľ
íķ´ ìĺģ
ĠìĿ¼ ëħĦìĹĲ
Ġì¢Ģ ëįĶ
Ġê¸ į
ìĿ´ëĿ¼ ë¶ĢëĤľ
ĠëĤ´ëł¤ ìĻĢìĦľ
Ġë¹ł ì§Ī
Ġë°Ģ ê°Ĳ
ĠëĮĢìĭł ìĹĲ
ĠìŀĺìĥĿ ê¸´
Ġì§ľìŀ¥ ë©´
íħĮ ëĭĪê¹Į
ĠëĮĢ ê¸°
ĠìłĦ ê¹Įì§Ģ
íĬ¸ ëĬĶ
ĠëĤł ëıĦ
ëł¸ ëĭ¤
Ġìĭ¸ ìĦľ
Ġíİ ĳ
ê¶Į ëıĦ
Ġê±· ê³ł
ìĥ µ
ìĿ´ ê±¸
ëĤĺ ëĤĺ
Ġíķľ ë³µ
Ġê²Į ë¯¼
Ġìłľ íĴĪ
íĸī ìľ¼ëĦ¤
Ġì¤ĳ ìĿĺ
ĠìĬ¤ íħĮ
Ġë¶Ħ ìĹĲ
ì¡Į ëĭ¤ê³ł
ĠìĪľ ìĪĺ
Ġíħ ĥ
Ġê³³ ëıĦ
Ġê°Ģì¡± ìĿ´
ĠìĺĪìģĺ ëĭ¤
ì³ ¥
Ġê¸°ëıĦ ë¥¼
ĠìŁ¤ ëĬĶ
ĠìĹĲìĸ´ ì»¨
Ġê¹¨ëģĹ íķĺê²Į
ĠìĥĿ ìĿ´ëĿ¼
ìķĦëĭĪ ëĿ¼
ĠëĤł ìķĦ
íģ¬ ëĥĲ
ì» ´
ë§Ľ ìĿ´
ìĺĨ ìĹĲ
ëĵ¤ ìĸ´ê°Ģ
Ġê·¸ëŁ¬ ìŀĸìķĦ
ê±´ ê°ķ
ĠìĨĮ ì¤ĳ
ĠìĨĮ ìĦ¤
Ġì´ ĺ
ĠíķľêµŃ ìĿ¸
ĠíķľêµŃ ìĹĲìĦľ
Ġìĭľì¼ľ ìĦľ
ĠìĹ°ìķł ë¥¼
ĠìķĦëĭĪ ìļĶ
Ġë³´ ê´Ģ
Ġìļ°ë¦¬ ìĿĺ
Ġìĭľ ê³Ħ
Ġìŀħ ìĸĳ
Ġìĵ° ìŀĸìķĦ
ĠìķĮìķĦ ìĭłëĶĶ
ĠìĿĳ ê¸ī
ìŀħ ê³ł
Ġìĺ¤ìĭŃ ë§Į
Ġë½ĳ ëĬĶ
ĠìĥģíĻ© ìĹĲìĦľ
ĠìĿ´ ê°Ģ
ê±° ë¯Ħ
ĠìĻ Ĳ
ìĤ¬ ëĭĺìĿ´
íĹĪ ë¯¼
ĠìĻĶ ìĸ´ìļĶ
Ġíģ° ê±°
ĠëĪĦêµ¬ ì§Ģ
ĠìĽĥ ê³ł
Ġìļķ ìĭ¬ìĿ´
Ġíķ¸ëĵľíı° ìĿĦ
ĠìķĦ ë¦Ħ
ê±° ëĭĪ
Ġë³´ ì¡°
ĠëĮĢ ìĥģ
Ġë¯¸ ëģĦ
Ġìĵ° ëĬĶê±°
Ġìŀ¡ ìľ¼ë©´
Ġê°Ķëĭ¤ ìĻĶ
ì¹´ ëĿ½
Ġì²« ë²Īì§¸
ëĭ¤ëĭĪ ëĬĶ
Ġë³´ìĿ´ ëĬĶëį°
ë³¶ ìĿĮ
ĠìĥĿê²¨ ìĦľ
ĠëĬ¥ ëł¥ìĿ´
Ġë°Ķ ê¾¼
ìŀĪ ëĬĶê±°
ë¯¸ ìķĪ
ĠìĿĺ ì§Ģ
Ġì°¾ ê³ł
Ġíıī ê·ł
ì³ Ķ
ĠìĮĵ ìĹ¬
ĠìĿ´ ë§Įíķľ
Ġíķ´ ë²Ħë¦¬ëĭĪê¹Į
Ġë³´ ìĦ¸ìļĶ
Ġê·¸ëŁ° ê²ĥëıĦ
ĠìĥĿê°ģ íķĺê±°ëĵł
ĠìĤ´ ëįĺ
Ġìĸĺê¸° íķĺëĬĶëį°
Ġìŀħ ìĪł
Ġë©´ ìĹŃ
ĠìĤ¶ ìĿ´
ĠêµŃë¯¼ íķĻêµĲ
ê°Ģ ìĿ´ëĦ¤
ì§Ģ ëĬĶê±°
Ġë§Ī ìĭľëĬĶ
ĠíĹĪ ëĿ½
ĠìĦľ ìª½
ë³´ëĭ¤ ëıĦ
ĠìķĦê¹Į ìļ´
Ġìĭ¤ íĮ¨
ê¿ Ī
Ġëª°ëŀĲ ì§Ģ
Ġê°Ħëĭ¨ íķĺê²Į
ê±° ëĭĪê¹Į
ëķĮ ë§Īëĭ¤
ĠìĭŃ ìĤ¬
ëªħ ìĿĦ
ĠëģĿëĤĺ ìĦľ
Ġë¹¼ ìķ¼
ìĦĿ ìĿ´
Ġë¬¶ ìĸ´
Ġìłĵ ê°Ī
Ġì ŃĪ
ĠìĹĨ ì§Ģë§Į
Ġê²Į ë©Ķ
Ġë°Ķ ë¥´
ĠìĹ´ ê³ł
ìħ Ģ
Ġì´Ī ìĹĲ
Ġë§¤ ìŀ¥
ĠìĿ´ë¦Ħ ëıĦ
Ġìı ł
Ġëª¨ìĬµ ìĿĦ
§ ê°Ģë£¨
ĠëĲĺ ëįĶëĿ¼ê³ł
ëĮĢ íı°
Ġname ìĮ¤
Ġë¬´ íķľ
íĻĶ ìłĲ
Ġìľł ìłĦ
ĠëıĦ ìĥĪê¸°
Ġìĸ¸ ìĸ´
Ġíģ¬ ëĭĪê¹Į
ìĸĺ ê°Ģ
Ġê°Ļ ëįĶëĿ¼
ìĿ¼ ë¡ľ
ìŀĪ ëĭ¤
ĠìĽĶ ìĦ¸
ĠìĹĺ ë¦¬
ĠìĪĺ ê±´
ĠìĥĿê°ģ íķĺëĬĶëį°
ìĭĿ ìĿĢ
Ġìŀħ ìĿ´
ĠìķĦë¬´ ëĤĺ
ĠìĽĥ ìĸ´
íİ ľ
Ġì¤ĳìļĶ íķ´
ĠêµĲìľ¡ ìĿĦ
ê±Ķ ëĦ¤
ĠëĴ¤ì§ĳ ìĸ´
íķĺ ê²łëĭ¤
ĠìĥĿê°ģ íķ¸
ĠìĦ¸ ìĿ¼
Ġëªħ ë§Į
Ġë²Ħ ë¦ĩ
ëĭ¤ëĬĶ ê²Į
Ġëĳĺ ëŁ¬
ë©° ëĬĶ
Ġê²© ë¦¬
ìķĦ ëĬĶ
Ġíķ´ ìĭłê°Ģ
Ġëĵľ ë¦¬
ìľĦ ìĹĲ
ĠìĥĲëŁ¬ ëĵľ
ìĹ Ķê°Ģ
íķ´ ê·¸ëĦ¹
ëĤľ ê±°
ìķĺ ìľ¼ë©´
ĠëĤ¨ ì¹ľ
Ġê°Ħ ì§Ģ
ĠëıĮ ë¦¬
ĠìķĦì§ģ ê¹Įì§Ģ
ĠëĶ¸ ëıĦ
Ġìĭłê²½ ìĿĦ
ìļ°ëĭ¤ ê²Į
ĠíĹ¬ìĬ¤ ìŀ¥
ìł Ĭ
ĠìĤ¬ëŀĮ ìĿ¸
Ġëª¨ë¥´ ì§Ģë§Į
ë°ĺ ìĿ´
ê¾¸ ë¡ľ
ĠìĤ¼ìĭŃ ë§Į
Ġíĭ° ì¼ĵ
ĠëŃ£ ëıĦ
ëĭ¤ ëĵ¤
ë¡ľ ê°Ģ
ĠëĤ´ êº¼
Ġìĭ¶ ìĹĪìĸ´
Ġë¨¹ìľ¼ ëŀľ
Ġëĸ¨ìĸ´ ì§Ģê³ł
ĠìĤ´ìķĺ ëįĺ
ìĿį ëĭĪê¹Į
ĠíķĦëĿ¼íħĮ ìĬ¤
Ġíķ´ ë³´ëĭĪê¹Į
Ġì§Ģ ìĿĢ
ëŀĳ ìĿĢ
ê²ł ëįĶëĿ¼ê³ł
ĠëĤ¨ ëĵ¤
ìĭĿ ëĭ¹
Ġì¹ł ì²ľ
Ġìĸ¸ìłľ ê¹Įì§Ģ
ìĽł ëĬĶëį°
ëķ ľìĹĲ
ëĳĺ ìĿ´
Ġì¡°ê·¸ ë§Į
ìĸ´ ìļ°
ĠìķĦëĭĪ ìķĦëĭĪ
Ġë³´ ê¸´
êµ¬ ë©į
Ġëª¨ ëį¸
ìĽĲ ìĿĢ
ĠëĤ¨ ìķĺìĸ´
ĠíĹĪ ëŀľ
ĠìĨĮ ëĿ¼
ë¯¸ ë¦¬
Ġë²Ħ ìĦ¯
ĠìĭĿ ê²Į
ĠíĶ¼ ìĶ¨
Ġì´Ī ê°Ģ
ĠìĽĥ ìľ¼ë©´ìĦľ
Ġë¦¬ ëª¨ëį¸ë§ģ
ì»¤ ëĿ¼
ìĺ¤ë¹ł ê°Ģ
ĠíĺĪ ìķ¡
ĠìĿ´ ê²¨
Ġê°Ģ ì§ĢëıĦ
ìŀĲ ê¾¸
Ġê²ĥ ë³´ëĭ¤ëĬĶ
Ġê°Ķ ìľ¼ë©´
ĠêµĲ ìĸĳ
Ġíıī ìĨĮ
Ġíķ´ì£¼ ìĦ¸ìļĶ
ĠìĿ¼ìĸ´ ëĤ¬
Ġê±° ìłĪ
íķ´ ìĹ¬
Ġname ìĶ¨
Ġìłģ ê²Į
ê´Ģ ë¦¬
ìĸ¸ëĭĪ ëĬĶ
ĠíĮĲ ë§¤
Ġíķĳ ê³Ħ
Ġë³´ ë¦Ħ
Ġëĵ¤ìĸ´ ë³´ëĭĪê¹Į
ë´ Ħ
Ġë¶Ħ ëıĦ
Ġëĭ¨ ìĪľ
Ġë§Ĳê³ł ëıĦ
ĠnameìĿ´ ëĦ¤
Ġìī¬ ìĽĮ
Ġëĭ¤ë¥´ ì§Ģ
ëĭ¤ëĭĪ ê³ł
Ġíķľ ëĭ¤ìĿĮìĹĲ
ĠëķĮ ì¯¤
ĠìĿ¼ ìļĶìĿ¼ëĤł
ì² ©
ĠìķĬ ìķ¤
Ġê³ł ë¥¼
Ġê³ł ìĤ¬
Ġë§Ī ëĭ¹ìĹĲ
íĻĶ ìŀ¥
ĠëĤ¨ ìĿ´
Ġë¨¹ìĸ´ ëĿ¼
ê²½ íķ´ëıĦ
Ġíķľë²Ī ìĹĲ
Ġìŀ¥ ìķł
ĠìĦ± ê²½
ê°Ļ ìĿĢê±°
ê°Ī ë¹Ħ
ĠìĿ¼ë³¸ ìĹĲìĦľ
ĠíĶĮ ëĿ¼ìĬ¤
Ġê²½íĹĺ ìĿ´
ĠëĬĻ ìĿĢ
ë½ Ģ
ì¿ ¨
ĠíĶ¼ìĭľ ë°©
ìĻĢ ê°Ģì§Ģê³ł
Ġëªĩ ëħĦ
Ġì¢ĭìĿĢ ê²Į
Ġë°¥ ìĿ´
ĠëĲĲ ìŀĸìķĦ
ĠìĻ¸ ë¡ľ
íĴ ĢìĿ´
ĠìĤ¶ ìķĦ
ĠìĬĪ íį¼
ìĭľ ê²½
ĠëĪ ķ
ĠìĺĪ ë°©
ëıĻ ìĹĲ
íĭ° ì½ĺ
ĠìķĪëĲĺ ì§Ģ
ĠíĨł ìļĶìĿ¼ëĤł
ì¸ ¡
Ġíĥľìĸ´ ëĤľ
Ġíķĺ ëįĶëĭĪ
ĠëĤĺ ìŀĸìķĦ
Ġê·¸ëŁ¬ ëĦ¤
Ġìłķ ë¶Ģ
ĠìĿ¸ ê°ķ
Ġë§ŀìķĦ ìĦľ
Ġë°° ê²½
ìĤ° ìĿĦ
Ġë¨¸ë¦¬ ì¹´ëĿ½
Ġì·¨ íĸ¥
Ġíļ¨ ê³¼ê°Ģ
ìħ¨ìĸ´ ìļĶ
ëĭ¤ ìļ´
Ġìĭľ ìĬ¤
ĠìĽĲ ë£¸
Ġê²ħ íķĺëĤľ
ê³¼ ëĬĶ
Ġê°Ĳ ìĦ±
Ġì°¸ ìĹ¬
ĠìķĦìĿ´ëĵ¤ ìĿĦ
Ġë± ī
ĠìĿĢê·¼ íŀĪ
ìĿ´ ê²ĥëıĦ
Ġíķ´ ë´¤ëĬĶëį°
Ġë§Į ëĳĲ
ëĭ¨ ìĿ´
ĠëĨĵ ìĿĦ
Ġì¢ĭìķĦíķ´ ê°Ģì§Ģê³ł
ĠìĽĢì§ģ ìĿ´ëĬĶ
Ħ ë¦¬
ê±° ìĽĮ
Ġë¨¹ê³ł ìĭ¶
íĹĪ ìĹ°
Ġë²Ħ ëł¤ìĦľ
Ġê¹Į ì§ĢëĬĶ
Ġë¬» ìĸ´
ĠëĤĺ ìķ¼
Ġë§Ĳ íķĺë©´ìĦľ
Ġìĺ¤ ìłĦìĹĲ
Ġê±¸ ìĹī
ëĤ´ ëł¤
êµŃ ìĿĦ
ĠíĤ¤ ëıĦ
Ġë°ľ ëĭ¬
Ġìŀĺëª» íķľ
Ġëŀ ľ
ĠëĤĺë¦Ħ ëĮĢë¡ľ
Ġê·¸ ìłĦìĹĲ
ëıĦ ë¦¬
Ġê°Ģ ìĤ¬
êµ ³ìĿ´
ìľ¼ ë¯¼
Ġì§Ģ ìłĲ
Ġë§İ ëįĶëĿ¼ê³ł
ĠìĪĺ ìłľ
Ġëª» íķ´ëıĦ
Ġë§ŀ ëĬĶê±°
ĠìļĶ êµ¬
ëĭĺ ëıĦ
Ġë§ĽìŀĪ ìĹĪìĸ´
Ġë°± ìĺ¤ìĭŃ
ĠëĿ¼ ìĿ´
Ġê¸Ģ ë¡ľ
Ġë§ĮëĤ¬ ìĿĦ
Ġíİ¸ìķĪ íķĺê²Į
Ġê°¤ ëŁŃ
Ġë§ µ
ĠìĹ ½
ëĿ¼ ì§Ģ
ĠíĸĪ ì£¼
ĠíĸĪ ëĥĲ
ĠìĥĿê°ģ ëĤľ
ìł¸ ìķ¼
Ġê³¼ ê±°
ìį ©
ĠìķĦíĶĦ ëĭ¤ê³ł
Ġìļ´ìłĦ ìĿĦ
Ġê³µì§ľ ë¡ľ
name ëıĦ
ĠìķĮ ìķĶ
Ġê±´ ì¶ķ
ĠìĤ¬ëŀĮìĿ´ ëĭĪê¹Į
ìłģ ìĿ´ê³ł
Ġëĭ¤ìĿĮ ë¶ĢíĦ°ëĬĶ
Ġìłĳ ì´ī
Ġíķĺ ìŀ°
ë³´ ë¦¬
ĠìĤ¼ íķĻëħĦ
Ġì°¨ ê³ł
ì¢ħ ìĿ´
ĠìĤ¬íĪ¬ë¦¬ ë¡ľ
Ġê´Ģê´ĳ ì§Ģ
ëĴ ģ
ĠëĮĢê°Ģ ë¦¬
Ġê±° ìĺĢëĬĶëį°
íķĺ ì§ĢëĬĶ
ĠëĤľ ëĭ¤ê³ł
ë£ »
ĠëıĮ ìķĦìĦľ
ìĦ¸ ì§Ģ
ìĺĢ ëĦ¤
Ġìłķë§Ĳ ë¡ľ
ìħĶ ê°Ģì§Ģê³ł
Ġê¹Ģì¹ĺ ì°Įê°ľ
ĠìľłíĪ¬ ë²Ħ
ĠìķĦê°Ģ ìĶ¨
ëį° ëıĦ
ìķĺ ìĿĦ
ĠíķĺëĤĺ ìĿĺ
ë¹Ħ ë¡ľ
Ġìĭľê°Ħ ë§Į
ë¯¼ íĦ´
ĠìĹĲ ëĦĪ
Ġë¦¬ ëįĶ
ĠìĹ¬ëŁ¬ ê°Ģì§Ģ
ĠëĤĺì¤ĳ ìĹĶ
Ġê±° ë¡ľ
ë³´ ëł¤ê³ł
Ġëª» íķĺë©´
ì° Ĳ
Ġìķ½ê°Ħ ìĿ´
íĺ ¹
Ġëªħ íĴĪ
ìŀĲê¸° ëĬĶ
ìļ© ìľ¼ë¡ľ
Ġê±´ê°ķ íķĺê²Į
ëıĮ ìĿ´
ĠìĺĪìģĺ ê³ł
ĠìĹ Ĭê·¸
Ġê³ ¶
ĠìķĦëĭĪ ìĹ°
Ġìĺ¤ ë¶Ħ
ìļĶ ë²ĪìĹĲ
Ġì£¼ ëĿ¼
íĶ ½
Ġëĭ¬ ë§Ī
ĠíĮĶ ë°±
ĠëĨĢ ìĿ´
Ġë¬¸ íĻĶê°Ģ
ĠìĨĲ ìŀĲ
ĠëĤĺìĺ¨ ê±°
Ġê²°êµŃ ìĹĲëĬĶ
ĠìĿ¸ìĬ¤íĥĢ ìĹĲ
ê° ĵ
Ġê°Ģ ìļĶ
íķľ ì§Ģ
Ġêµ µ
Ġìľł ì±Ħ
Ġê°ĢëĬĶ ëĶĶ
ëĺ ĺ
ĠëģĬ ê³ł
ĠìĤ¶ ìķĦìĦľ
ĠìĹ ĩ
Ġë°Ķ ê¼Ī
ì°¨ ëĬĶ
Ġê°Ĳ ìĹ¼
Ġê¸°ìĸµ ìĿĦ
Ġì¹ł ë°±
ĠìĦ¤ ì¹ĺ
ê¿ Ģ
ĠìĤ¬ëĿ¼ ë´ī
Ġíķł ëĿ¼ê³ł
ĠíķĺëĬĶ ê²ĥëıĦ
Ġìĺģ ìĹħ
Ġì¡° ìĥģ
íĹ Ļ
ĠëĲł ê±´ëĶĶ
ĠìĤ¬ëŀĮëĵ¤ ìĿĺ
Ġì´Ī ëĮĢ
Ġë§ĽìŀĪ ëĭ¤
Ġë§Įëĵ¤ ë©´
Ġë°ľ ìĿ´
Ġìĭ¤ íĹĺ
ĠëĤ´ëł¤ ìĻĶ
ë§ŀ ì§Ģ
Ġìĭľìŀĳ íķł
ĠìĿ¼ë³¸ ìĸ´
ĠìĦľë¡ľ ê°Ģ
ĠíĬ¹ë³Ħ íķľ
ê´ľ ì°®
ë¦¬íı¬ íĦ°
ĠëĲĺ ê²łì§Ģ
Ġì¢ĭ ìķĺëĬĶëį°
ëĵľ ë¯¼íĦ´
ë§Ĳ ìĿĢ
ĠêµĲ ìĤ¬
Ġìĸ¸ ëĭĮ
ĠíĸĦ ìĦľ
ê¸°ë¡ľ ëĬĶ
ĠíĮ¨ ìħĺ
Ġë¯¼ ë§Ŀ
ĠíĦ¸ ìĸ´
ĠìĺĢ ëĬĶëį°
Ġì£¼ìłľ ê°Ģ
ĠëŃĲ ëĿ¼ëıĦ
ĠëĲĺ ë¯Ħ
ë³´ ìĹ¬
Ġë§Ī ëĶĶ
Ġë§Ī ëĥ¥
Ġì¤ĳ ë¬¸
ìĨį ìľ¼ë¡ľ
Ġcompanyname ëıĦ
ĠíĿ ¡
ĠìķĦì¹¨ ë¶ĢíĦ°
Ġëª¨ ìĿĺ
ĠëĶ° ì§Ģë©´
íĥ Ĳ
ì¤Ģ ëĭ¤
Ġê±´ê°ķ ê²Ģì§Ħ
Ġìĸ´ì°Į ëĲĲ
Ġì¡°ê·¸ ë§Īíķľ
ĠìĤ¬ ìŀ¥ìĿ´
ĠìķĦëĭĪ ëŀĺ
Ġë¨¹ ì§ĢëıĦ
ë§Ī ë¦¬
ĠìĹĨ ëįĶëĿ¼ê³ł
ìĿ¼ ëıĦ
ĠìķĬ ëĭ¤
Ġìľł ëĭĪ
ĠëĲĺëĬĶ ì§Ģ
Ġìĭ¸ ìļ´
Ġë§Ĳíķ´ ì¤ĺ
ëŁ½ ê³ł
ĠëłĪ ëĵľ
Ġì¸ ¡
Ġëĭ¦ ìķĦ
ìĸ¼ë§Ī ëĤĺ
ĠìĿ´ ìŀĲ
ì§Ģ ì»¬
Ġìļ°ë¦¬ ë§Į
ĠëĤĺëĬĶ ìĿ´
ĠëĮĢ ë¦¬
ë³ į
ĠìļĶ ëłĩê²Į
ĠìĿĺ ìŀĲ
Ġíı¬ ìĿ¸íĬ¸
ĠëıĻìĥĿ ëıĦ
Ġë¹Ħìĭ¸ ê³ł
ĠìĬ¬ ìĬ¬
Ġëª©ìĨĮ ë¦¬ê°Ģ
ì§Ģ ë©´ìĦľ
Ġìļ°ë¦¬ ë³´ëĭ¤
Ġë§Ĳ ëł¤
Ġì¢ĭ ê²łëĬĶëį°
Ġì°¨ ëĭ¨
Ġê²Ģ ì§Ī
íķ¨ ìĿ´
ìŀĪ ìľ¼ëĭĪê¹Į
íķł ìķĦë²Ħì§Ģ
ë¬¼ ìĸ´
Ġë§ĽìŀĪ ëįĶëĿ¼
ĠëĤĺíķľíħĮ ëĬĶ
Ġìĺ· ìĿĢ
ĠíĴĢ ê³ł
Ġë°¤ ìĥĪ
Ġíļ Ł
ê°Ģ ìĿ´ê°Ģ
ê±° ê¸°ê°Ģ
íķĺ ìĭľ
Ġíķ´ ëĭ¬ëĿ¼ê³ł
ì§Ħ ëĭ¤ê³ł
ĠìĹĦì²Ń ëĤľ
ĠëħĦ ëĮĢ
ĠíĶ¼ ê³ł
Ġì¡ °ë¦¬
ë°ľ ìĿ´
ë³ĳ ìĿ´
ĠëĤ´ìĿ¼ ìĿĢ
ĠìĬ¤íĬ¸ëłĪìĬ¤ ë¥¼
Ġíĳ ¼
ĠìĹīëį© ìĿ´
Ġìļ°ë¦¬ëĤĺ ëĿ¼ëĬĶ
ê³ł êµ¬ë§Ī
ì§Ģ ëĬĶëį°
ĠëĤĺ ë¬¼
Ġê°Ģ ë³´ë©´
ìĻĢ ëıĦ
Ġìĵ° ê²Į
Ġë°¥ ë¨¹
Ġìĺ¤ë¹ł ëĦ¤
Ġë§ĽìŀĪ ì§Ģ
ĠíĽ Į
ĠìĻ¸ ëª¨
ë°ķ ìĬ¤
Ġìĺģìĸ´ ë¥¼
Ġë³´ê¸° ìĹĶ
Ġëĥīìŀ¥ê³ł ìĹĲ
ìķĦ ëĭĮ
Ġíķ´ ë´¤ìĸ´
ìŀĸìķĦ ìĺĪ
Ġëĵ¤ ìĹĪìĿĦ
ë¬¸ ìĿĦ
Ġíķĺë©´ìĦľ ëıĦ
ĠìĮ Ī
Ġê°Ģìł¸ ê°ĢìĦľ
ĠìĿĮìĭĿ ìĿĢ
ë©Ķ ë¦¬ì¹´
ì ¾
í ľ
ëĤĺ ë³´ëĭ¤
Ġê°Ģ ìŀ°
ìĿĺ ë¥¼
ĠìķĬ ê±°ëĵł
Ġìĸĺ ë¥¼
Ġì¡° ìĦł
Ġê°Ķ ìĹĪìĸ´
Ġìĸĺê¸° ë§Į
Ġê°ķ ëĤ¨
Ġë°© ìĸ¸
ĠìĶ ģ
ĠëĤĺìĿ´ ëıĦ
Ġë¨¹ìľ¼ ëĿ¼
Ġì§ĢëĤĺ ìĦľ
Ġíŀĺëĵľ ëĭĪê¹Į
ĠìĬ¤íİĺ ìĿ¸
ê±° ë¦¬ëĬĶ
Ġì§ ĸ
ê·¸ ë¦ĩ
Ġë¨¹ ìĿ´ê³ł
ë³´ ê¸°
Ġê·¸ëŁ¬ ëįĶëĿ¼ê³ł
ëĤ´ ë¯¸
ìłĢ ëıĦ
Ġì±Ļ ê¸°
ĠëĥĦ ë¹Ħ
Ġê» Ħ
ëŀŃ ìĿ´
ì· Ħ
Ġê³ł ëł¤
ëĭ¨ ê³Ħ
Ġëħ¸ ëıĻ
ĠëĲĺëĬĶ êµ¬ëĤĺ
ê²ħ íķĺëĤľ
ì© Ķ
Ġë§Īì§Ģë§ī ìľ¼ë¡ľ
Ġì¢ģ ìĮĢ
ĠìľĦíĹĺ íķľ
Ġì İ
ìĿ¼ ìĿĢ
Ġê¸° ëĥ¥
ĠíĻĶ ìļĶìĿ¼
Ġìĭ¤ ìłľ
ĠëĤ´ëł¤ ìĺ¤ëĬĶ
Ġë¹¼ ë¹¼
ĠíĨł ëģ¼
Ġëĭ¤ëħĶ ëĬĶëį°
íķ¨ ìĿĦ
íĻķ ìĭ¤
Ġë ·Ķ
Ġê°Ģ ë´Ķ
ìĤ ¿
Ġë§Ī ë£¨
íķĻ ê¸°
Ġë°Ľ ìľ¼ëĭĪê¹Į
ĠëĳĲ ë¶Ģ
ĠìĨĮ íĻĶ
ëª¨ ëĵł
Ġë´¤ ìŀĸìķĦ
Ġìĸ´ì ¨Į
Ġë³¼ ëł¤ê³ł
ĠìĦľìļ¸ ìĿĢ
ĠëĤĺìĻĶ ëĭ¤ê³ł
Ġìĸ¼êµ´ ìĿĢ
Ġëıħ ë¦½
ĠìºĲ ëĤĺëĭ¤
Ġì§ĵ ê³ł
Ġíķĺ ìĭł
ëŀ ´
Ġíķľ ê¸Ģ
Ġëĵ¤ ìĹĪê±°ëĵł
Ġì±ħ ìĿ´
ĠìĨĮë¦¬ ëıĦ
Ġëĸł ëĤĺ
Ġìĸ´ëłµ ê²Į
ê²ģ ê²Į
ìķŀ ìĹĲ
Ġê³łì¶ §ê°Ģë£¨
Ġê±° ìĺĢìĸ´
ĠìĤ´ ë©į
íŀĪ ë©´
Ġì¤ĳ ëıħ
ê³¼ ë¥¼
Ġì¶Ķ ìļ¸
Ġë¹ł ë¥´
ĠíķŃ ê³µ
ĠíķĦìļĶ ëĬĶ
Ġì¤Ģë¹Ħ íķĺê³ł
Ġìľłëªħ íķ´
Ġíľ´ ëĮĢíı°
Ġë» ¥
Ġìĥģê´Ģ ìĿ´
ĠìĿ´ìģĺ ê²Į
Ġê·¸ ëıĻìķĪ
ìĿ´ ëª¨
ĠìķĪ ë¨¹ê³ł
Ġë§Ĳ ëŀĺ
ìĺ¤ ëĿ¼ê³ł
Ġê³ł íĨµ
ĠìĤ¼ ê²¹ìĤ´
ìĻĢ ìĿ´
Ġì¤Ħ ìĿĢ
Ġë³¸ ëĭ¤
Ġì¢ħë¥ĺ ê°Ģ
Ġíķ Ģ
ê±° ë¦¬ê°Ģ
ê¸° ê°Ħ
Ġê°Ģ ë§Į
ĠìŀĲ ìķ¼
Ġê¹ »
Ġëª¨ë¥´ ì¼ľ
ĠìĹ° ìŀ¥
Ġë§ĮëĤĺ ìķ¼
Ġê¹Ģ ìŀ¥
Ġìĭľìŀĳ íķĺëĬĶ
Ġë¹¼ ë©´
ĠìĿ´ê²ĥ ìĿ´
ëĸ¼ ê¸°
ìĿ´ ìĹĪëįĺ
ìľ ¤
ê·¸ ê±¸ë¡ľ
íķĺê³ł ëĬĶ
Ġê±¸ ê³ł
Ġìĭ¶ ëĭ¤ëĬĶ
ĠëĬĲëĤ Ħ
Ġì±ħ ëıĦ
ë°Ľ ìĿĦ
Ġë¹Į ëł¤ìĦľ
ĠìĹ¬ìľł ê°Ģ
Ġìļ°ìļ¸ ì¦Ŀ
ĠìĿ´ íķĻëħĦ
ëı Ĺ
Ġë§Ĳ ìŀĲ
Ġìĭľ ëĮĢê°Ģ
Ġì¢Ģ ìĿ´
Ġë² ¼
Ġëª» íķľëĭ¤
ëĵľ ëłĪ
ìĭ¤ ê±°
Ġë¨¹ìĸ´ ë´Ĳ
ĠìĤ¬ëŀĮìĿ´ ìķ¼
ë¦° ê±°
Ġë¨¹ìĹĪ ëĭ¤
ĠëĵľëĿ¼ ìĿ´ë¸Į
Ġì´Į ìĹĲìĦľ
ĠìķĦê¸° ëĵ¤
ìĥĿíĻľ ìĿĦ
Ġì°¢ ìĸ´
Ġë¹¡ìĦ¸ ê²Į
ê°Ģ ëģĶ
Ġìļ°ë¦¬ ë¥¼
Ġìĺ¤ ë¯Ħ
ĠìĥĿ ë¦¬
Ġê±´ ëĵ¤
ĠìĿ¸ ìĥģ
ë¬¼ ê´Ģ
ìĨĮ ìĹĲìĦľ
ìĺĢ ëĭ¤
Ġìĸ´ì ¨ĭ
ĠíķĦ ìĪĺ
ìĪľ ê°Ħ
íĬ¹ íŀĪ
ĠìĭľìĬ¤ íħľ
Ġê°Ģ ëĵł
ëĵ¤ìĿ´ ëĤĺ
Ġìĭł íĺ¸
íĥ ±
ëĶ° ëĿ¼
Ġíķ´ë³´ ìŀĲ
Ġê²°êµŃ ìĹĶ
Ġê°Ģë¥´ ì¼ľ
ĠìĬ¬ íĶĪ
Ġë§ º
Ġê°Ģ ë³į
ĠëĮĢ ìłĦ
ĠìļĶ ë§Įíķľ
Ġê°Ķ ìĹĪê±°ëĵł
ìķ½ ìĿĦ
Ġìŀĳ íĴĪ
Ġìį¨ ê°Ģì§Ģê³ł
Ġíĺķ ìĿĢ
ĠêµŃ ìłľ
Ġë§Ĳíķ´ ì£¼
ëĶ° ë¡ľ
Ġë ·°
ë¦¬ íķĢ
Ġê± ĺ
ĠìĭŃ êµ¬
ì§Ī ê±°
Ġíķ© ëĶĶëĭ¤
Ġ ĠčĊ
ìĿ´ ë©´ìĿĢ
ĠìĿ´ ìĤ¼
ë³´ ëŁ¬
ĠëĤ¨ ëħĢ
ĠìĤ¼ ìĽĶ
ĠìŀĲê¸° ë¥¼
ê» ¸
ê³µ íķŃ
ĠìĿĺ ë¬´
ĠìĥĿê°ģíķ´ ë´Ĳ
íĮ¡ ìĿ´
ëĬ ¦
Ġë§ ģ
ëĭ¤ ë³´ëĭĪê¹Į
ëĤľ ê²Į
ĠìĽ ħ
Ġëª» íķĺì§Ģ
Ġë¹Ħ ë¹Ķ
ê·¼ëį° ìĿ´
ìĭ¬ ì§Ģìĸ´
Ġìį ½
íĶ¼ íĭ°
ĠìķĮë°Ķ ëıĦ
Ġíķĺë£¨ ëĬĶ
ĠìŀĶ ìĨĮë¦¬
ĠìĿ´ìľł ëĬĶ
Ġíĥģ êµ¬
ì»¤ íĶ¼
ĠìĺĢ ìĸ´
ê·¸ ëĤł
ìĽ ħ
ìĭľ ê¹Įì§Ģ
Ġì¢ĭ ëĦ¤
ì² «
ìĭł ëį°
ìĬ¤ íĨł
Ġì£¼ ìŀĸìķĦ
ĠìĹ° ê¸Ī
ĠìĦłìĥĿ ìĿ´
Ġíİ¸ ì§ĳ
Ġë³¸ ê±°
Ġì¤Ģë¹Ħ íķĺëĬĶ
íķŃ ìĥģ
ĠìĸĺëĦ¤ ëĬĶ
ĠìĶ» ìĸ´
Ġíĳľì¤Ģ ìĸ´
ĠìĹ¬ ê³ł
Ġëĵ¤ìĸ´ ê°ķ
Ġê²ħ íķ´ë¶ĢëĤľ
Ġëĭ¹ ì²¨
ĠìĹ¬ìŀĲ ë¥¼
Ġìĭ¬ ë¦¬
ëıĪ ìĿ´
Ġì¹´íĨ¡ ìľ¼ë¡ľ
ĠìŀĲê°Ģê²© ë¦¬
ĠíĶĮëĿ¼ìĬ¤ íĭ±
ĠëĦĪ ë§Į
ìłĢ ê±°
Ġìĭ¤ ëĤ´
Ġì¢ģ ìĿĢ
ì§Ģ ê·¼
íķľ ê±°ìķ¼
Ġë³´ ìĿ´ëĭĪê¹Į
Ġë¨¹ ëįĺ
ê°Ħ ëĭ¤ê³ł
ĠíĹĪ ëĬĶê±°
êµŃ ëıĦ
íı ¼
ĠëĦĺ ê²¨
ê³µ ìĽĲ
Ġë§ĪìĿĮ ëıĦ
ĠìķĪëĲĺ ê²łëĭ¤
Ġìĸ´ìĦľ ë¶ĢëĤľ
Ġë°Ķê¿Ķ ìķ¼
ìŀł ê¹Ĳ
Ġê±° ë§Į
ĠìŀĪ ëĭ¹
ĠìķĪ ê³ł
ĠëĤ´ ëĨĵ
ë§Ī ê°Ģ
Ġì§Ģ ëĥĪ
ë³´ ìĿ´
Ġì§ĳ ì°©
ĠìĻĶ ëĦ¤
Ġìľ¡ ì§ĢëĬĶ
ĠëĪĪ ìľ¼ë¡ľ
ê·¸ëŁ¬ ë©´ìĦľ
Ġìĺ¬ëĿ¼ ìĺ¤ëĬĶ
Ġê¸ī íķĺê²Į
Ġì§ĢëĤ´ ê³ł
Ġì½ĺìĦľ íĬ¸
ĠëĤĺ ìĺģ
ĠìĿ¼ ìľ¼
ĠìŀĲ ë©´
ëĤł ìĹĲ
Ġë¶Ģ ìłķ
ĠìłķëıĦ ê°Ģ
Ġë³¸ ëĭ¤ê³ł
ìĤ¬ëŀĮ ëĵ¤ìĿĢ
Ġíĥģ íĥģ
ĠìĿ´ìĭł ê±°
Ġê°Ĵ ìĿ´
ĠìĬ¤ì¼Ģ ì¤Ħ
íķ´ ê·¸ëĦ¤
ĠìĥĿê°ģ íķĺë©´ìĦľ
Ġëĭ¨ ë°±
ĠìłĲ ìĿ´
ìĤ´ ìķĦ
Ġëĭ´ ìĹĲ
Ġë§İìķĦ ìļĶ
ĠìĶ¨ ìĶ¨
Ġìĸ´ìĭł ê±°
Ġê»į ì§Ī
ĠëıĪê¹Į ìĬ¤
ĠìķĦ ëĦ¤
íķĺ ì§ĢëıĦ
Ġê°Ģ ì¼Ħ
ĠëŃĲ ëŀĦê¹Į
ĠíĮ Ŀ
Ġìĸ¼ ë§Į
Ġìŀĳ ê²Į
ĠíĽ Ħë¡ľ
Ġëĭ¨ íĴį
íĺ¸ ìĤ¬
ìį °
Ġíİ Ħ
ĠìĦ¼ ì¹ĺ
Ġë²Ķ ì£Ħ
ì« Ħ
ĠíĥĢìĿ´ ë°į
Ġíķ´ ê°Ģì§Ģêµ¬
Ġë¶Ģ ìĦľ
Ġë¶Ħ ë¦¬
Ġëª°ëĿ¼ ê°Ģì§Ģê³ł
Ġê³µë¶Ģ ë§Į
ĠìĭĿëĭ¹ ìĹĲ
ĠëĬĲëģ¼ ê³ł
Ġê·¸ë £
Ġê² ł
Ġíķ´ ìŀ¥
Ġíķ´ ìĤ°
Ġë§Ī ìĿ´ëĦĪ
ìŀĪ ìĿĦ
ĠìĹ´ ìĿ´
ĠìĹ´ íĿĺ
Ġë¶Ī ë²ķ
Ġë°© ìĹĲìĦľ
ĠíĬ¹ ì§ķ
Ġë½ ķ
ĠìĿ½ ìĿĦ
Ġê±´ê°ķ íķľ
Ġíŀĺëĵł ëį°
Ġì£¼ìľĦ ìĹĲ
Ġíķľ ëĭ¨
Ġëª» íĸĪ
Ġì£¼ ëŀľ
Ġë¹Ħ ë¦°
ĠìĦ¸ íĬ¸
Ġëį° ìĿ´íĦ°
Ġë¹¨ ìķĦ
ĠìłĦíĻĶ ë²Īíĺ¸
ĠíļĮ ê³Ħ
ĠëĤ´ëł¤ ìĺ¬
ĠìĦľìļ¸ ëĮĢ
ĠìĿ´ë²ĪìĹĲ ëıĦ
ĠëĤ³ ìĿĢ
ĠìĦłë¬¼ ìĿĦ
ìłľì£¼ëıĦ ëĬĶ
ìĸ´ ë¦¬
ĠìĤ¬ ìĻĶ
Ġìĭ¶ ìĹĪëįĺ
Ġìĭł ìŀħ
Ġë²Į ì´Ī
ĠìĿĺ ìĭ¬
Ġìĭ¶ìĸ´ ëıĦ
ĠëĤ³ ìĿĦ
ìĿ´ ë¯¸
Ġê°Ģ ë³´ëĭĪê¹Į
ĠìķĪ ìľ¼ë¡ľ
ê·¸ ëķĲ
Ġë§ŀ ê¸´
Ġë°Ķ ëĭ¹ìĹĲ
ĠëįĶ ìĽĮ
ĠëĪĦ êµ¬ëĤĺ
ì¡Į ì§Ģ
ë²Ħë¦¬ ì§Ģ
ìĵ° ê³ł
Ġíķĳ íģ¬
Ġìĸ´ëĶĶ ê°ĢìĦľ
Ġë¨¹ìĸ´ ë´¤ìĸ´
ìĨĮ íķľ
Ġì´ ī
Ġë°¥ ë§Į
ĠëģĿ ìĿ´
ĠêµĲ íĻĺ
ìŀĳ ìĿĢ
Ġë³´ëĤ´ ë©´
ĠíķŃ ìķĦë¦¬
Ġê²¨ìļ¸ ìĹĲëĬĶ
Ġê³łëª¨ ê°Ģ
ê°Ģ ì¡±
Ġê° ĩ
ĠìķĦëĭĪ ëĭĪ
ì£¼ ëĿ¼ê³ł
ìŀĲ ë©´
ĠëĲĺ íģ¬ëĿ¼
Ġëĵ¤ ì§Ģ
ĠìĤ´ ëĭ¹
ìłķ íķľ
Ġê³µ ìŀ¥
ë§ī ìĿ´
Ġì½Ķ íĬ¸
ĠëĲĲ ëĦ¤
Ġìĸ´ë¨¸ëĭĪ íķľíħĮ
Ġê¸¸ ë¡ľ
Ġëĸł ëĤĺìĦľ
Ġì¶ķ íķĺ
Ġìĸ´ë¥¸ ìĿ´
Ġëĭµ ìĿ´
Ġëĭ¤ ëĵ¬
ĠëĲĺ ìĹ¬
Ġë¹Ħ ë²¼
Ġê³µ ê²©
Ġëªĩ ë°±
Ġê±°ê¸°ìĦľ ëĬĶ
Ġê´ľì°® ê³ł
Ġíģ¬ ì§Ģ
Ġëĺĳê°Ļ ìķĦ
ĠìĭľíĹĺ ìĿ´
ĠìķĦíĶĦ ëĭĪê¹Į
Ġë²ł ëŀĢëĭ¤
ĠìĥĢ ê±°ëĵł
Ġë¦¬ ë·°
Ġê°ĢìĿ´ ëĵľ
Ġíİĺ ìĿ´ìĬ¤
Ġë Ĺ
Ġíķ´ ìĦĿ
ĠëŃĲ ëĵłì§Ģ
ìĤ¬ ë¡ľ
Ġì£¼ ë¨¸ëĭĪ
Ġì£¼ íĥĿ
Ġë°Ķ ë¥´ê³ł
Ġê±¸ ìĿĦ
Ġì¹ľêµ¬ ëĵ¤íķľíħĮ
ĠëĤł ìĶ¬
ìĪ į
Ġìŀ¡ ìľ¼ëŁ¬
íĮĮ ë¦¬
Ġíģ¬ ë¡ľ
ĠíĸĦ ìĪĺëĭ¤
Ġìĺ¤ ëĬĶê±°
ëł¤ ëĭĪ
ìĬ¤ íħĮ
Ġê³ł ê¹ĥ
Ġê¸° ìŀĲ
Ġë§Ī ìĿ´íģ¬
Ġìķł êµĲ
Ġì¡° ê°ģ
Ġìĭ¶ ê±°ëĵł
Ġê²ħ íķ´ìĭłëĶĶ
ĠìŀĪëĦ¤ ìĿ´
ëł¥ ëıĦ
ĠíĨµ ìŀ¥
Ġë²Ĺ ê²¨
ëıĦ ëıĦ
Ġìĭľ ì»¤
Ġìķł ê¸°ëıĦ
Ġê²½ ìĺģ
Ġë¶Ī êµĲ
Ġì± Ħë¡ľ
Ġê¼ °
ìłĲ ìĹĲìĦľ
ĠìĿ¼ë³¸ ìĹĲ
ĠìłĢë²ĪìĹĲ ëıĦ
Ġë¹µ ë¹µ
Ġì§ĳìķĪ ìĹĲ
ĠìķĦëĭĪ ëŀľ
ë¬´ ì¡°ê±´
Ġê·¸ëłĩê²Į ëıĦ
Ġê³ł ë§ĮíŀĪ
Ġì¤ĳ ìĭ¬
ĠíĶ ½
ĠëĦĵ ìĸ´
Ġê·¼ìľ¡ ìĿ´
Ġì¿ ¨
Ġë§ »
ĠìķĦ íĮ¡
Ġê°Ģ ì£½
Ġíķ´ ìĹ°
íĻ Ī
Ġê°Ī êº¼
ĠìķĮìķĦ ë´Ĳ
ìľł ìĿĺ
ĠëĤ¨ìŀĲ ëŀĳ
Ġìĭ¬ ìŀ¥
Ġíİ¸ ìŀħ
Ġìŀł ëıĦ
ĠìĿ¼ë³¸ ìĿĢ
ëıĪ ìĿĦ
Ġë¹Ħìĭ¸ ê²Į
Ġë¶Īíİ¸ íķľ
ĠìĮį êº¼
ê°Ģ ëĭ¤
Ġíķĺ ì§ĢëĬĶ
Ġê°Ģ ì¹ĺ
ì£¼ ë¥¼
ĠìłĢ ê±´
ìĭľ ì§Ģ
Ġê·¸ëŁ¬ ëĭĪ
Ġì£¼ ë¨¹
ìłķ ìĭł
ĠìĦľ ëĦĪ
Ġê°Ħ ë³ĳ
Ġëªħ ìĿĦ
ìĹĶ ìĹĲìĬ¤
ĠìĿ´ìĭŃ ëĮĢ
Ġìĸ´ìłľ ëĬĶ
Ġë¨¹ìĹĪ ìŀĸìķĦ
Ġê³Ħíļį ìĿĦ
ĠìķĦë²Ħ ì§ĢëıĦ
ìĸ´ ë¥¸
Ġê±° ê¾¸ë¡ľ
Ġíķ´ ë¦¬íı¬íĦ°
ì£¼ ìĿ¸
ĠìļĶ ë¦¬ë¥¼
ìĤ° ìĹĲ
ê°Ĳ ëıĦ
ëħ¸ ëŀĺ
ĠìŀĪìĹĪìĸ´ ìļĶ
ĠëĮĢíķ´ìĦľ ëĬĶ
ĠìĦłë¬¼ ë¡ľ
Ġì·¨ë¯¸ ê°Ģ
Ġë°ĶíĢ´ ë²ĮëłĪ
Ġê²Ģìĥī íķ´
Ġì²´ìľ¡ ëĮĢíļĮ
ĠìĿ´ ëĭĪê¹Į
ìĸ´ ê²Į
ê±° ê¸°ëıĦ
ĠìŀĪ ê²łì§Ģë§Į
ĠìķĪ íĸĪëĬĶëį°
ĠìĤ¬ ì¤ĺ
ĠìĻĢ ê·¸ëĦ¹
ĠìĿ´ìĥģ íĺķ
ìĽł ëįĺ
Ġë°ĶëĢ Ķ
ĠìķĦìī¬ ìļ´
ĠìĤ¬ ìĿ´ê°Ģ
ĠëķĮ ë¦¬
Ġìĺ¤ ëŀ«
ëĶĶ ìħĺ
Ġê¸° ì°¨
Ġê¸° ë¡Ŀ
ë¬¸ íĻĶ
ĠíĻĶ ë¥¼
ĠíļĮ ìĭĿ
Ġê²°íĺ¼ íķľ
ĠëĽ° ê³ł
ĠìĿ´ìĭľ ë©´
Ġë± ħ
Ġíģ´ ëŀĺ
íķĺ ê¸°ëĬĶ
ì£¼ íĸī
Ġìĺ¤ ê²Į
ĠìĹĨ ìĹĪì§Ģ
ëĮĢ ìĹĲìĦľ
Ġê¸° ëħĲ
ì¤ĳ ê°Ħ
ĠìľĦ ì¹ĺ
ëŀĢ ê²Į
ĠìĿĺ ìĭĿ
ĠíĨł ë§ĪíĨł
ĠëıĮìķĦê°Ģ ìĭł
Ġë©°ëĬĲ ë¦¬ê°Ģ
Ġì§ĢëĤľ ë²ĪìĹĲ
Ġëĺĳëĺĳ íķľ
ĠìĿ´ ë¹łìĿ´
ìķĦ ìķĦ
ĠìŀĪ ëĭĪ
ĠìĿ´ìłľ ë¶ĢíĦ°
ĠìŀĲ ë§¤
ĠìļĶ ê¸Ī
ëĤ´ ìĦľ
ĠìĿ¸ ë¶Ħ
Ġì°¨ ìĹĲìĦľ
Ġê°Ī ìĪĺë¡Ŀ
ĠìŀĪìŀĸìķĦ ìĺĪ
Ġë¨¹ìĿĦ ëŀĺ
Ġìĵ´ ëĭ¤ê³ł
ĠìĬ¬ íį¼
Ġíģ´ ëŁ½
Ġëĳ ¬
ìĩ¼ íķĳ
íķĺ ìĺģ
ĠìķĪ íĸī
ĠìĤ¬ëŀĮ ìľ¼ë¡ľ
ĠìĥĿ ëªħ
ìļ´ ìłĦ
Ġìŀħ ìŀ¥ìĹĲìĦľ
íĹĪ ëĭ¹
ĠíĥĢ ì§Ģ
ĠëıĻìķĪ ìĿĢ
ëĬ¥ ìĿ´
Ġê·¸ë§Į ëĳĲê³ł
Ġì±Ļ ê¸°ê³ł
Ġìį¼ ëĬĶëį°
ê°Ĵ ìĿ´
Ġì¢Į ìļ°
ë´ħ ìĦľ
ê³ł ê°Ģ
ìĦľ ê·Ģíı¬
Ġê±° ë©´ìĿĢ
ĠëĤ´ ë¦¬ê³ł
ĠìĿ¼ ìĿ¸
ìĿ¸ ê±°ìķ¼
Ġë¹ ¤
Ġëĵ¤ ë¦¬ëĬĶ
ìĿĺ ìĽĲ
Ġë°Ķ ì§Ŀ
ìķĺ ìŀĸìķĦ
ĠíķĻ ë²Ī
Ġë°° ëĵľë¯¼íĦ´
Ġê°ĢìĦľ ëıĦ
ĠíĨ ¤
Ġë¬¼ìĸ´ ë´¤ìĸ´
ĠíļĮìĤ¬ ìĹĲ
ĠìķĬìķĺ ìĿĦê¹Į
Ġê³¼ìĪĺ ìĽĲ
ìľ¼ ìĦ¸ìļĶ
ĠëĤ´ ìĦľ
Ġìĭľ ìĦ¤
Ġë§Ī ìĭł
ĠìĤ¼ ëĭ¤
Ġê°ľ ëıĦ
Ġê³µ ê°ĦìĿ´
Ġêµ¬ ëĳĲ
ĠëĨĵ ìľ¼ëĭĪê¹Į
ĠëĪĦêµ¬ ìķ¼
Ġìĭľì¼ľ ìķ¼
Ġë³´íĨµ ìĿĢ
ê²Ģ ìĤ¬
ìĿ´ ë°±
ĠëĲĺ ëĬĶê±°ìķ¼
ĠìķĬ ëĦ¤
ĠëĨ ¨ìĸ´
ìłĢ ëŁ°
ĠëĳĲ ëªħ
ĠìĹĦë§Ī ëĦ¤
Ġìŀħ ìĹī
ĠìķĮìķĦ ë³´ê³ł
ĠìĿĳ ìĽĲ
ëĳĲ ë©´
ë´¤ ê±°ëĵł
ĠíķĦ ë¦¬íķĢ
ĠëĬĲê»´ ìł¸
ĠìĿ´ ë©´
ĠìķĦ ëĤ´
Ġê·¼ëį° ìĿ´
Ġì§Ģ êµ¬
ĠíĸĪ ê²łì§Ģ
Ġì£¼ ê¸°
Ġì¤Ħ ìĿ´
Ġë¶Ļ ìĿ´ê³ł
Ġëķħ ìĹĲ
Ġì°½ íĶ¼
Ġì¶¤ ì¶Ķ
ë º
ĠìĿ´ ê³¼
Ġíķĺ ëŀĺ
ëŀ µ
ìĺ¤ ëŀľ
Ġê¸° ì¹¨
ìĭ¤ ê±°ëĿ¼
Ġê°Ī ëķĮ
Ġë¶Ħ ëĵ¤ìĿĢ
ĠìĹ¬ìŀĲ ëŀĳ
ĠíĮĮ ëĬĶëį°
ĠìĻ¸ ìĽĮ
Ġíķłë¨¸ëĭĪ ëıĦ
ĠìķĦíĶĦ ì§Ģ
Ġë§Ĳíķĺ ê¸°
Ġê¹Ķ ê³ł
ĠëĭŃ ê°ĢìĬ´
Ġëĵ¯ ìĿ´
Ġëĭµëĭµ íķ´
ê¸° ëĦ¤
ëĿ¼ ê°Ģ
ëĤĺ ëĤľ
Ġíķ´ ìĪĺìļķ
Ġë³´ ìĿ´ìŀĸìķĦ
Ġë§Ī ì¼ĵ
ĠìĤ¬ëŀĮìĿ´ ê³ł
Ġëĭ¬ ë¦¬
ë°Ķ ëĭ¤
Ġë¶Ħ ìķ¼
ĠëĶ° ëŁ¬
ĠíĶ¼ ëĬĶ
Ġìļ´ëıĻ íķĺëĬĶ
ĠíĦ° ì§Ģê³ł
ìĭľê°Ħ ìĿ´
Ġëª¨ë¥´ê²łìĸ´ ìļĶ
ĠìĦľê·Ģíı¬ ìĹĲ
Ġì¸µ ìĹĲ
ĠìķĦì¤Įë§Ī ê°Ģ
ëĬĶ ê°Ģ
Ġì§Ģ ëĤ¬
êµ¬ íķĺê³ł
ĠìĨ ľ
ĠìŀĪìĸ´ ìķ¼ì§Ģ
Ġë¨¹ìĸ´ ê°Ģì§Ģê³ł
ĠëĶ° ìĦľ
Ġëĸ Ħ
ĠìĤ¬ëŀĮëĵ¤ ë§Į
Ġìĸ´ëĸ¤ ê±°
ëĸ ł
ì¡Į ìĿĦ
ĠìĻķ ëĶ°
íķ© ëĭĪê¹Į
Ġì§ĳìĸ´ ëĦ£
Ġë³¶ìĿĮ ë°¥
Ġê·¸ ì¶ķ
ëĬĶ ìĿ´
ê²Į ë¯¼
ê¸° ìĸµ
íķĺ ë¯¼
Ġê³ł ìłķ
ĠìĻĢ ëĿ¼
Ġë´Ĳ ìļĶ
ĠìĹ° ìĸ´
ìĨĮ ë¥¼
Ġë´¤ ëĭ¤ê³ł
ìļ© ìĿĦ
ê¼ ´
Ġê±ĶëĦ¤ ëĵ¤
êµ° ëį°
Ġìļ© ëĭ´
Ġë³¶ ìķĦ
ĠìĭľëĪĦ ìĿ´
ĠìĿ´ ëıĦ
ĠìĹĨ ëįĶëĿ¼
ë¥´ íĬ¸
ĠëįĶ ìĿ´ìĥģ
ì¤ĳ ê°ĦìĹĲ
ĠíķĦìļĶ íķ´
Ġëª¨ìĬµ ìĿ´
Ġì»¨ ìħī
ĠìĬ¤ë§ĪíĬ¸ íı°
Ġìķ ¨
Ġê·¸ë Ĩ
ê¸° ìĤ¬
ì£¼ ë§ĪìĶ¨
ĠìŀĲ ë£Į
ìĻ Ī
Ġê·¸ëłĩê²Į íķĺëĭĪê¹Į
Ġë§Ī ê°Ĳ
Ġë°Ķ ê»´
íĸĪ ëĮĢ
ìŀĪ ê²Į
ĠëĳĲ ìĭľ
Ġíģ Ĳ
ĠëıĮ ë©©
ĠëĶ° ìķ¼
Ġìĺ¬ëĿ¼ ê°Ģê³ł
Ġì§ģ ìĽĲìĿ´
Ġë¨¹ìĹĪ ëĭ¤ê³ł
Ġíĳľ ìĦł
ĠëĭŃ ë°ľ
Ġëĭ¤íĸī ìĿ´ëĭ¤
Ġíĸīë³µ íķľ
Ġëª½ ê³¨
ìĸ´ ë¨¸
ĠëķĮ ê¹Įì§ĢëĬĶ
ĠìĪĺ ìĿµ
Ġìłķ ìĿ´
Ġì¢ĭìķĦ íķĺìŀĸìķĦ
ĠíĹĪ ë¦¬ê°Ģ
ëĭ¨ ìĿĦ
ĠìķĮìķĦ ì§Ģ
ĠíĮĶ ìķĦìĦľ
Ġë°© ìļ¸
ĠëĤ³ ìľ¼ë©´
ìĿ´ ìĹĪëĤĺ
íķĺ ëįĺëį°
ĠìŀĪ ê±°ëĤĺ
ë§Ī ì¼ĵ
Ġê²Į ëĭ¤ê°Ģ
Ġë¶Ģ ìĸ´
ĠìĬ¤ íĭ°
Ġìĵ° ëĿ¼ê³ł
Ġìĭľê°Ħ ìĶ©
Ġëª° ëł¤
ìłĲ ìłĲ
Ġë§¤ ëł¥
ë´¤ ì§Ģ
ĠëıĻëĦ¤ ê°Ģ
Ġê±ĶëĦ¤ ëĵ¤ìĿĢ
ĠëĮĢíķľ ë¯¼
Ġì£¼ë³Ģ ìĹĲìĦľ
Ġë§¡ ê²¨
ĠìĤ¬ê·Ģ ê³ł
ĠëıĦë§Ŀ ê°Ģ
ĠëłĮ ì¦Ī
ĠìķĪëħķ íķĺìĦ¸ìļĶ
ĠìĹĺë¦¬ ë²łìĿ´íĦ°
ĠìĽĲ íĶ¼ìĬ¤
ì¡ °ë¦¬
ìĪ «
ĠìĽĥ ëĬĶ
Ġì¤ĺ ìķ¼ì§Ģ
Ġë¹¼ ëĬĶ
ë©Ķ ìĿ´ìħĺ
Ġì¤ĳêµŃ ìĿ¸
Ġë¡ľ ëĺĲ
Ġë³´ê¸° ìĹĲëĬĶ
ë³ĳìĽĲ ìĹĲ
Ġê·¸ëĨ Ī
ëĭĪ ê»ĺ
íķĺ ìłł
ĠìĤ¬ ì¶ĺ
Ġë³´ ëĦ¤
ĠíĸĪ ìĹĪê³ł
Ġê¸° ì´Ī
Ġê°ľ ëĤĺ
ë¨¹ ìĿĢ
ĠìĦ¤ ëłĪ
Ġë´ī íĪ¬
ë¿ Į
ë§ ĺ
Ġê°Ģ êµ¬
Ġê°Ģ ëŀľ
ĠëĦ ī
ë° ĳ
ĠìĪĺ ë°ķ
Ġê·¸ëłĩê²Į íķĺë©´
Ġì£¼ ìĿĺ
ĠëĳĲ ëł¤
Ġìĭł ìĦ¸
Ġìĵ° ëįĺ
ĠëĲł êº¼
Ġë°© íĥĦ
ĠëĲĲ ê³ł
Ġì¢ħ ê°ķ
ĠìĿĢ íĺľ
Ġê¹Ĭ ìĿĢ
ĠìĿ´ ê¸¸
Ġê±° ì²ĺëŁ¼
ê¹Į ìļĶ
ĠìŀĪ ìĪĺëĭ¤
ĠìĹĨ êµ¬ëĤĺ
Ġì¹ľ íķĺê²Į
Ġìĸ¼ ë¥¸
Ġìĵ° ë©´ìĦľ
ĠìĻĶ ëįĺ
Ġë¹ł ì§Ģë©´
Ġíİ ¼
Ġê°Ģê¹Į ìĽĮ
ìłľ ëĬĶ
ĠëķĮ ë¦¬ê³ł
Ġë§İ ê¸´
ĠìŀĲ ë¥´
ĠìĿ¸ ëĶĶ
Ġë¬¼ ê³ł
ĠìĬ¤ íİ
ë°Ķ íĢ´
Ġë¶Ħ ìĿĺ
ĠìĨĶ ì§ģ
ĠíķľêµŃ ìĹĲ
ĠëĮĢíķĻ ìĿĦ
ĠìĬ¤ë¬´ ìĤ´
ĠëłĮ íĬ¸
Ġìķ ±
ĠìĿ´ ì§Ģ
ìķĦ ëĵ¤ìĿ´
ĠìķĦëĭĪ ìĺĢìĸ´
Ġìĸ ¹
ìŀĲ ëĵ¤ìĿ´
ìĭľ íĶ¼
Ġíķł ê±´ëį°
ìĪĺ ìĪĺ
ìŀĪ ìĸ´ìļĶ
ĠìĹ° íĥĦ
ĠìłķëıĦ ìĿĺ
ëĳĲ ë¶Ģ
Ġë¹¨ ê°ľ
ĠìŀĪìĿĦ ëķĮ
Ġë¶Ļ ìĸ´ìĦľ
ìĹī ìľ¼ëĦ¤
Ġë¨¼ ì§Ģ
Ġíĭ° ê°Ģ
Ġì¡¸ìĹħ íķĺê³ł
ĠìĿ´ì²ľ ìĭŃ
ĠìĿ´ ëĵĿ
ĠëŃĲ ìĹĲ
ìĤ¬ ìĹĲ
ĠìĦ¸ ìļ°
Ġê³µ íı¬
ëĭ¹ íķľ
ë¬¼ ìĿĢ
Ġë°± íĶĦë¡ľ
Ġcompanyname ê°Ģ
ĠëıĮìķĦ ê°ĢëĬĶ
ĠëĬĲëĤĮ ìĿĦ
íĺ¸ íħĶ
ĠìĹ¬íĸī ìĿĢ
Ġìļ´ëıĻ íķĺê³ł
ĠëıĻìĥĿ ìĿ´ëŀĳ
Ġê¹¨ ëĭ¬
Ġê±´ê°ķ ìĿĦ
ĠëĶĶ ì¦ĪëĭĪ
Ġìŀ¡ìķĦ ìķ¼
ĠíĻķì§Ħ ìŀĲê°Ģ
ĠíĨ¡ íĨ¡
ì¹´ë¶Ģ ëį´
ĠìĿ´ ìĻķ
Ġë³´ ëĵľ
Ġì° ¹
Ġì£¼ ëĬĶê±°
Ġê³ł ëĶ©
Ġê·¸ëŁ°ëį° ëıĦ
ĠìĤ° ê±°
Ġì°¸ ìķĦ
Ġì¹´íİĺ ìĹĲ
Ġíĸ¥ ìĿ´
Ġê¹İ ìķĦ
Ġíĥĳ ëıĻ
ĠìĿ´ ë²¤
Ġíķĺ ì¼Ħ
ĠëĤ´ ë¶Ī
Ġì§Ģ ìĽĮ
ĠìŀĲ ë¦¬ë¥¼
ĠìķĮ ê²Ĳ
Ġìĸĺê¸° íķĺë©´ìĦľ
Ġêµ¬ ëĤĺ
Ġìŀĳ ê³ł
ĠëĦ¤ ëª¨
Ġë§ĮëĤĺ ì§Ģ
ĠìĽĥ ìĿĮ
ĠnameìĿ´ íķľíħĮ
Ġë§ĪìĿĮ ìĿĺ
Ġëĵ± ìĤ°
Ġì§ĵ ëĬĶ
ĠìĽ¨ ëĶ©
Ġë·Ķ íİĺ
Ġê±° ê°Ģ
ë¡ľ ë¡ľ
ĠìĪĺ ëĭ¤
ëŁ¬ ìĽĮìĦľ
Ġê³ł ìĪĺ
ëĤ´ ê¸°
ëħĦ ëıĦ
Ġë¯¸ ì¹ĺ
Ġëĭ¹ ìĿ¼
ëĭĪëĭ¤ ê²Į
Ġê°Ģê³ł ìĭ¶
ĠëĤĺìĻĶ ì§Ģ
Ġëįķ ë¶ĦìĹĲ
Ġíķĺ ëĵľëĿ¼ê³ł
ìľ ¨ìĿ´
Ġìĺ¤ ë©Ķê¸°
Ġê³µ ì£¼
Ġìľł ê¸°
Ġëĵ¤ìĸ´ê°Ģ ì§Ģ
Ġíķłë¨¸ëĭĪ ëŀĳ
ĠìķĦì£¼ ë²Ħ
ì± Ļ
Ġìĥ ´
ìª ¼
Ġìĭľì²Ń ìĹĲ
ê»Ģ ëį°
Ġì£ĦìĨ¡ íķ©ëĭĪëĭ¤
1 7
Ġê°Ģ ëĭ¹
ĠìķĪ ìķĦ
Ġë§Ĳ ëĮĢë¡ľ
Ġê·¸ëĥ¥ ìĿ´
Ġíķł ëł¤ë©´
ĠìĤ´ ìĿ¸
Ġê¸° ìłĢ
Ġë§Ī ìĿ´
Ġë¶Ģ ìŀ£
ĠëıĻ ìĭľìĹĲ
Ġìĸ´ëĶĶ ìķ¼
Ġì²ľ ë§ĮìĽĲ
Ġë¨¹ìľ¼ ëĤľ
ëĥī ìĿ´
ĠìĪĺìĹħ ìĿ´
ĠëĤ® ìĿĢ
Ġìĭłì²Ń ìĿĦ
ĠíĽĶ ì³Ĳ
ĠëĤĺ ì²ĺëŁ¼
ëĿ¼ ëĭĪê¹Į
ë¡ ¬
Ġê°Ģ ë´¤ëĬĶëį°
Ġíķ´ ë³´ë©´
Ġë§İ ëĮĢ
ĠìĽ ¨ìĿ´
Ġname ë¥¼
ĠëĮĢ ëĨĵê³ł
Ġë°Ķ êµ¬ëĭĪ
Ġê°Ķ ê³ł
Ġìĵ° ëĭ¤ê°Ģ
íĹĪ ë©´
ĠìĦ± ê²Į
ĠìĤ´ìķĦ ê°ĢëĬĶ
Ġë°Ń ìĿĦ
Ġë¹Ħìĭ¸ ì§Ģ
ĠëĮķ ê¸°ê³ł
Ġê³± ê²Į
ĠëĶ°ëľ» íķĺê²Į
Ġì¡± ë°ľ
ĠìĿ¸íĦ°ëĦ· ìľ¼ë¡ľ
Ġíķĺê³łìĭ¶ ìĿĢ
Ġë°´ ëĵľ
ìĿ´ ê²ĥ
Ġê°Ģ ê·¸ëĥī
ìķĪ íķ´
ĠíĹĪ ê²Į
Ġë¶Ī ë§Į
ìľł ëŁ½
ĠìĦ± ìŀ¥
Ġëĭ¹ ëĩ¨
Ġìį¨ ìł¸
Ġëª¸ ìĿĢ
ĠìŀĲìĭĿ ìĿ´
ĠëĤĺëĪł ìĦľ
Ġë´Ħ ìĹĲ
1 8
Ġìĸ´ íľ´
ë§Į íķ´
ëĶ ľ
ĠìĿ¼ ê³ł
Ġê²ĥ ê¹Įì§Ģ
ë³´ ì§ĢëıĦ
ìĭĿ íĴĪ
íĭ° ê°Ģ
Ġëģ¼ ìĽĮ
ĠìĻķ ìľ¼ëĦ¤
ê±Ķ ëĬĶ
ìķĦ ì°Į
ĠìĤ¬ ëĤĺ
Ġíķľ ìŀĲ
ĠìĹ¬ê¸° ë¡ľ
Ġë°± íĮĶìĭŃ
Ġê³µë¶Ģ íķ´ìķ¼
Ġìŀł ìŀł
ìľĦ ë¥¼
ëĲľ ëĭ¤ê³ł
ĠíķĺìĹ¬ ê°Ħ
Ġìļ´ìłĦ ë©´íĹĪ
ĠìĹłë¹Ħ íĭ°
íĻķìĭ¤ íŀĪ
Ġìĸ´ì¨ĭ ëĵł
ĠëķĮ ëĿ¼
Ġì§Ģ ìĿ¸
ĠìķĮ ê²łëĭ¤
ìĿ´ëĿ¼ ëĵłì§Ģ
Ġìļ° ìĹĲ
ìª½ ìĿ´
Ġíİ¸ ìĿ´
ĠëĤ´ëł¤ ìĦľ
ìŀħ ëĭĪê¹Į
Ġê±´ê°ķ ìĹĲ
ĠíĮ¨ íĤ¤
Ġìĸ´ìļ¸ ë¦¬ëĬĶ
ê»Ģ ëĶĶ
Ĳ ģ
ĠìķĦ ë©Ķë¦¬ì¹´
ĠëĤĺ ê°ķ
Ġëį ¤
ĠìķĦìĿ´ ìĬ¤
ĠìĦ¸ íĻĶ
ĠíĥĢ ìķ¼
ìĺ¨ ê±°
Ġê³¼ ìĹ°
Ġì·¨ ê¸ī
Ġë°ĽìķĦ ëıĦ
ĠíķĦìļĶ ëıĦ
ĠëĽ° ëĬĶ
ĠëĲĺëĬĶê±° ì§Ģ
ĠìŀĲìĭĿ ëĵ¤
ĠìĹİ ìĸ´
ë ¢
Ġíķ´ ëĭ¹
ë¶Ģ ìĿ¸
Ġë§Ī ìĭľë©´
Ġì¡° ì²ľ
Ġê°Ģì§Ģê³ł ìĿ´
ĠìŀĪìŀĸìķĦ ìĿ´
Ġë¶Ī ìĿ´
Ġê°ķ ìĤ¬
Ġê·¸ëłĩ ì§Ģë§Į
ìłĪ ëĮĢ
Ġíıī ë²Ķ
Ġë» Ĺ
ĠìĿ¼ìĸ´ ëĤł
ĠìĹŃíķł ìĿĦ
Ġìĭľìŀĳíķĺ ê²łìĬµëĭĪëĭ¤
ĠìŀĪ ìĬµëĭĪê¹Į
ìĭł ê±°
Ġê·¸ëŁ¬ ëĤĺ
ĠìĥĿê°ģ íĸĪê±°ëĵł
ĠìĽĲ ë§Į
Ġìĵ ±
ĠìĹĨìĸ´ ì§Ħ
Ġë´¤ ê³ł
íĥĢ ë¦¬
Ġê·¸ëŀ¬ ìŀĸìķĦ
Ġíĺķ ëĭĺìĿ´
ĠëĪĦêµ¬ ëĬĶ
Ġëĭ®ìĿĢ ëį°
Ġë©Ģë¦¬ ìĦľ
Ġëĭ¤ìĸĳ íķľ
ê³ł ë¥¼
ĠìĿ´ ëĿ¼ëĬĶ
ĠëĤ Ģ
ĠìĤ¬ ë§Ŀ
ĠëĲĺ ëįĶëĿ¼
ìĭľ ëıĦ
ë¶Ģ ëĭĪê¹Ĳ
ëŁ¬ ìĦľ
ĠìķĮ ë°Ķê°Ģ
Ġìķ½ ìĿ´
Ġì¢ĭìķĦ íķľëĭ¤
ĠìĻĢ ê·¸ëĦ¤
Ġê³Ħ ì¢Į
Ġìļ° ëĬĶ
ìĥī ìľ¼ë¡ľ
ĠìķĦëĵ¤ íķľíħĮ
ĠìķĦíĶĦ ë¦¬ì¹´
Ġì¶ľ ìĭł
Ġë©Ģ ë¯¸
ĠìŁ ģ
ĠìĽĢì§ģ ìĿ´
ì³¤ ìĸ´
ì£¼ ëĬĶëį°
êµ¬ ëĬĶ
Ġëª» íĸĪìĸ´
ë¥´ ë¥µ
ĠìłĦ íķĻ
ĠìłĦ ëĭ¬
íĸĪ ìĹĪìĸ´
ì¤ĳ ìĿ´
ĠíĸĪëĬĶëį° ëıĦ
Ġìļ´ëıĻ ìĿĢ
Ġì»¤íĶ¼ ìĪį
ìĦłìĥĿ ëĭĺìĿ´
Ġìĺ¤íĽĦ ìĹĲ
ĠëĳĲêº¼ ìļ´
Ġìĺ¤ëŀ« ëıĻìķĪ
ĠìķĦ ìĽĥ
Ġíķ´ ë²Ħë¦¬ë©´
íķ´ ì¤ĺ
Ġëģ Ķ
Ġì¤ĳ ìĹĲìĦľëıĦ
Ġë¬¼ ë¡ľ
Ġëª° ìķĦ
ĠëĿ µ
íİ ´
Ġìµľ ìłĢ
Ġë°ĽìķĦ ëĵ¤
Ġëħ¸ëŀĺ ë°©
Ġì¹´íİĺ ìĹĲìĦľ
ĠëĬĺ ìĸ´ëĤĺ
Ġì¢ģ ìķĦ
Ġë©Ī ì¶°
ĠëĭŃê°ĢìĬ´ ìĤ´
ĠìĿ´ ë§Ī
ĠëĮĢ ëĤĺë¬´
ĠìĦ¸ ë²Ī
ëķĮ ê°Ģ
Ġì£½ ìľ¼ë©´
Ġê°Ĳ ìłķìĿ´
ĠëĤĺìĻĶ ëĭ¤
Ġë°°ìĽĮ ìķ¼
ĠëŁ° ëĭĿ
Ġìĸ´ì°ĮëĲĲ ëĵł
ê²Į ë§¤
ìłĲ ìĿĢ
ê°Ķ ëĭ¤ê°Ģ
Ġì°¾ ìĿĦ
ĠëĤ´ëł¤ ê°ĢëĬĶ
Ġê±ĶëĦ¤ ëıĦ
ì¤¬ ê±°ëĵł
ĠìĽĢì§ģ ìĹ¬
ĠìĦľë°© ìĿĢ
ĠìķłëĭĪ ë©ĶìĿ´ìħĺ
ê° ł
ìĹ ¿
ĠëĤĺ ê°Ķëĭ¤
ĠìķĦëĭĪ ëįĶëĿ¼ëıĦ
ìŀĲ ëĵ¤
Ġë¨¹ ìĿ´
ìĭł ìĿĦ
ĠìķĮ ëŀĮ
ìĪĺ ìĪł
Ġê³ł ë°±
Ġìĸĺ ê¸´
Ġëı¼ ìĹ¬
Ġê²½ ê¸°ëıĦ
ìļ°ë¦¬ ëĤĺëĿ¼
ĠëĪĪ ë¬¼ìĿ´
Ġíĺ¸ ëĤĺ
ê°Ķ ì§Ģ
ĠíķĺëįĶëĿ¼ ëıĦ
ĠëĮĢíĻĶ ê°Ģ
Ġëĭ« ê³ł
Ġë¹¼ê³ł ëĬĶ
íĪ Ń
Ġê¹» ìŀİ
ë¢ °
ëĤĺ ëĭĪê¹Į
Ġë§Ī ì·¨
Ġìĺģ íĺ¼
ĠìĺĪ ìĪł
Ġìķ¼ ìŀĲ
ĠìĦł ê±°
Ġë°° íĦ°ë¦¬
ĠëĲĲ ìĸ´ìļĶ
ĠëĤĺìĻĶ ìŀĸìķĦ
ĠìĤ¼ìĭŃ ìĿ¼
Ġìĸ¸ìłľ ë¶ĢíĦ°
Ġë½ĳ ê³ł
Ġì°© íķ´
ë Ľ
Ġê°Ģ ë´Ĳìķ¼
êµ¬ ë°±
Ġê¸° ê°ĦìĿ´
ĠìłĦ ê¹Įì§ĢëĬĶ
ê²ĥ ëĵ¤
ĠëıĻ ìĦľ
ìĻĢ ìķ¼
ĠìŀĲê¸° ìĿĺ
ĠìĬ¤ íĤ¨
Ġìŀħ ìĸ´ìķ¼
Ġëħ¸ ëŀĳ
Ġìłģ íĺĢ
ĠìĿ´ëª¨ ëĦ¤
Ġì¢ĭìĿĦ ê±°
ĠëĮķ ê¸°ëĬĶ
ĠìĭĿêµ¬ ëĵ¤
ĠíĸīëıĻ ìĿĦ
Ġê°ĢìĬ´ ìĿ´
s ing
ëĤ ®
ĠëĲ ©
Ġë³´ ìĿ´ë©´
ĠìĤ´ ëıĦ
ìĪĺ ê¸°
Ġê°Ķ ëĤĺ
Ġê¹ ¨ìĸ´
ĠìĹ¬ìŀĲ ëıĦ
Ġì»¤ ë²Ħ
Ġê·Ģ ìĹĲ
ëŀĲ ìĸ´
ĠìĤ¬ìĿ´ íĬ¸
Ġë²ĦìĬ¤ ê°Ģ
ĠíĹ¤ìĸ´ ì§Ģ
Ġê²½íĹĺ ìĿĦ
ĠíĿ¬ ë§Ŀ
ĠìľłìĿ¼ íķĺê²Į
sing ing
ìĦ °
ì£¼ íĥĿ
ĠìĿ¼ ìłķ
ìĭľ ëĦ¤
ìĤ¬ ìĹĲìĦľ
ĠíĹĪ ìŀ°
Ġê³µ ê¸°ìĹħ
Ġê²½ ìĥģëıĦ
ĠíĨµ ê³¼
íĿ Ĳ
Ġëľ °
Ġê·¸ë¦ °
Ġë» ĺ
íģ° ê²Į
ĠìķĦë¬´ëłĩ ì§ĢëıĦ
Ġê°Ģ ë²¼
ĠìĤ¬ íĥķ
Ġíķ´ ëĤĺìĭłëĶĶ
ìŀĲ ëĤĺ
Ġì§Ģ ìĸ´ìĦľ
ë£ °
ĠìŀĲê¸° ë§Į
ĠìĪ ¨ìĸ´
Ġìĥģ íķ´
ĠëıĮ ë¦¬ê³ł
ë°ľ ë¡ľ
ĠëıĻëĦ¤ ëĬĶ
Ġìĭľì¼ľ ë¨¹
Ġë²ĦìĬ¤ ë¥¼
Ġë©ĭ ìŀĪëĬĶ
ìķĦë¬´ ë¦¬
ĠìķĪì¢ĭ ìĿĢ
ìķĦ ê³ł
Ġë§Ĳ ì§Ģ
ë³´ ë¯¼
ĠìĤ´ ê±°
Ġì£¼ ëł¤ê³ł
Ġê³ł ê¸°ëıĦ
ĠíĮĶ ë©´
ë°° ê¸°
Ġê¹Į íİĺ
Ġë§Ĳíķĺ ëįĶëĿ¼
Ġë²Ĺ ìĸ´ëĤĺ
Ġë¯¸êµŃ ìĹĲìĦľ
Ġê¸°ì¤Ģ ìĿ´
Ġê°Ģ ìĿ¸
Ġìĺ¤ ë¡ľ
ëĤľ ìĺĪ
ìĻ ģ
Ġë§Ī ìħ¨
ĠíĮ ½
Ġì¢ĭìķĦ íĸĪëįĺ
íĤ¤ ëĬĶ
Ġê·Ģ íķľ
ĠìĿ´ìĦľ ë¶ĢëĤľ
Ġë³ĳìĽĲ ìĿĦ
Ġì¤ĳêµŃ ìĹĲìĦľ
ê²° êµŃ
ĠìĿ´ëŀĺ ê°Ģì§Ģê³ł
ĠìĬ¬ íĶĦ
Ġëĵ¤ìĸ´ê°Ķ ìĸ´
Ġìĺ¤ëĿ¼ ë°©
Ġê³łë§Ī ìļ´
ĠíŀĲ ë§ģ
ê°Ģ ìĿ´ëĬĶ
Ġíķľ ì§Ģ
ĠìķĬ ëĭĪ
ĠìĿ´ê±° ìķ¼
ĠëĮĢ ê³ł
ĠìĽĲ ìĿĢ
Ġë°± íĻĶìłĲ
Ġìĸ´ë¨¸ëĭĪ ëĦ¤
Ġë¬¸ìłľ ì§Ģ
Ġì±Ħ ìĨĮ
Ġì£¼ìłľ ë¥¼
Ġëŀ ©
ĠìĤ¼ì´Į ìĿ´
ĠíĮĶë¡ľ ìļ°
ê¹ į
Ġê°Ģ ë§Ī
ĠíĸĪ ìł¸
ĠíĸĪ ìĹĪëĤĺ
Ġì£¼ ê±°ëĵł
ëĭ¨ ìĹĲ
Ġë²Ħ íĦ°
íĶĦ ê°Ģ
Ġë°ľ ëª©
Ġëª© ìĿ´
Ġë³´ëĤ´ ìķ¼
ìĸ´ê°Ģ ëĬĶ
Ġëª¨ë¥´ê²ł ëĦ¤
ĠìĹ´ëĳĲ ìĭľ
ĠìĬµ ê´ĢìĿ´
ë°¤ ìĹĲ
Ġë§ĪìĿ´ëĦĪ ìĬ¤
ê³ł ë£¨
Ġë§ ĳ
Ġíķĺ ëįĺëĶĶ
ëĤĺ ë§Ī
ê·¸ ëĿ¼
Ġìĺ¤ íķ´
Ġê¹ į
ìķĦëĭĪ ì§Ģ
ĠíĹ ī
ìŀĳ ëħĦìĹĲ
Ġì¢ħ íķ©
ĠíĺĦ ìŀ¥
ĠìĹ¬ë¦Ħ ìĹĲëĬĶ
Ġë³´ë¦¬ ë°¥
ĠëĮĢëĭ¨ íķĺëĭ¤
ì¥¬ ê²Į
Ġì¼Ģ ìĿµ
ê² Ł
ë§ £
ĠìĹĨ ìľ¼ëĭĪê¹Ĳ
Ġë§ŀ ëĭ¤ê³ł
Ġë§Ī êµ¬
Ġì§Ģê¸Ī ë¶ĢíĦ°
Ġë¶Ģ ìŀĳ
ĠëĤ¨ ì£¼
ëıĻ ë¬¼
ëķĮ ë¶ĢíĦ°
ĠìĻĶ ëĮĦ
Ġìĭ« ìĿĢëį°
ĠëĦĪëĦ¤ ëŀĳ
ĠëĪĦêµ¬ ëĦ¤
ĠìĦľìļ¸ ë¡ľ
ĠìĺģíĻĶ ëĬĶ
ĠìĿ´ë²Ī ì£¼
Ġìĺģìĥģ ìĿĦ
Ġì¿ł íĮ¡
Ġì½ĺ íħĮ
Ġíķ´ìķĪ ëıĦë¡ľ
ĠìĿ¸ë¬¸ ê³Ħ
ìĸ´ ìłĢê»ĺ
ìĹĪ ìĸ¸
name ìĿ´ê°Ģ
ëł¤ ëıĦ
ëĵľ ë¦¬
ĠìĨĮ íĴį
ĠìĬ¤ íĮĮ
Ġê³§ ëĬĶ
íĮ¨ ëĶ©
ì« Į
ĠìŀĪ ì£ł
Ġê°Ģ ê±°ëĤĺ
êµ¬ ëıĦ
íħĮ íģ¬
Ġê¸° ìłĪ
ĠìłĦ íĨµ
Ġì¡° ê°ľ
Ġìĺ¬ ë¦¬ë©´
Ġëĭ® ìķĪ
Ġêµ¬ ë¶Ħ
Ġëħ¸ ë¦ĩ
ĠëĨĢ ìķĺ
Ġëĭ¤ìĦ¯ ìĭľ
ĠìłĬ ìĹĪìĿĦ
ìĹĦë§Ī ëĬĶ
ĠìĦŀ ìĸ´ìĦľ
Ġê°ĲìĤ¬ íķ©ëĭĪëĭ¤
ĠëĥīëıĻ ìĭ¤ìĹĲ
Ġìĸĩ ìĿĢ
Ġìķ µ
Ġìķ Ļ
ìĿ´ ëĶĶ
ë¦¬ ìĺ¤
Ġíķ´ ëĨĵ
Ġìĺ¤ ìĦ¸ìļĶ
ĠìĿ¼ ê¸°
ĠìłĢ ëĶĶ
ĠìĹĨ ê²Į
Ġë§İ ìķĪ
Ġìŀĺ íķĺë©´
ĠìĿ¸ ì§Ģ
ì§Ħ ìĿ´
Ġê·¸ëŁ¬ëĭĪê¹Į ìļĶ
ìĺĢ ìĿĦ
Ġë°© ë¬¸
Ġìķłê¸° ëĵ¤ìĿ´
Ġë§ĮëĤĺ ëŁ¬
ĠìķĦíĮĮ ê°Ģì§Ģê³ł
Ġìĸµ ìĸĳ
ĠìĪ¨ ê²¨
ĠìĨĮë¬¸ ìĿ´
ĠíĮį íĮį
íľ ĺ
Ġê°Ļ ìľ¼ëĭĪê¹Į
Ġê³Ħ ìĭľ
Ġìłģ ê³ł
Ġíİ¸ íķĺê³ł
Ġìŀł ìĺ·
ĠìķĪëĲĺ ëĬĶëį°
Ġìŀ¬ë°Į ìĿĦ
ìĮ Ī
ĠìĹĲìĬ¤ ìĹĶìĹĲìĬ¤
ĠìĥĮ ëĵľ
Ġê° Ŀ
Ġê±° ë¦¬ê°Ģ
Ġíķ´ ëĨĶ
ìĤ¬ íļĮ
Ġê·¸ëłĩê²Į íķ´ëıĦ
ĠìĿĮ ìĦ±
ĠìĭĿ íĥģ
Ġê¼ Ī
Ġíŀĺëĵ¤ ëĭ¤ê³ł
ĠëĤĺìĻĢ ìĭłëĶĶ
ĠëĤ´ëł¤ ê°Ī
ĠìķĦì£¼ ë§Ŀ
ĠìŀĦ ëĮĢ
Ġêµ´ ëŁ¬
Ġìķ½ìĨį ìĿĦ
ë© ľ
ìłľ íĴĪ
Ġíķľ ìĭľ
Ġë¶ ī
ìŀĪ ìĸ´ìĦľ
ì§ģ ìĿ´
Ġê³µ ìĽĲ
Ġìĸ¼ ìĿĮ
Ġêµ¬ ëĿ¼
Ġë°ĺ ì§Ŀ
ĠëĨį ìĤ¬ë¥¼
Ġëķħ ì½©
Ġê¸°ëĭ¤ ë¦¬ëĬĶ
ìĭ¸ ìĽĢ
Ġëµ Ī
ìľ¼ ìĭł
Ġë³´ ì¦Ŀ
ê¸Ī ëıĦ
Ġê³ł ê°Ŀ
Ġíķĺê³ł ìĿ´
ĠìĺĪ ë»¤
Ġìŀħ ëĭĪëĭ¤
ĠíķĺëĬĶëį° ëıĦ
ì½ ķ
Ġê±±ìłķ íķĺì§Ģ
ĠíķĻìĥĿ ëĵ¤
ĠëĤ¨ìŀĲì¹ľêµ¬ ëŀĳ
Ġë§ĲìĶĢ ìĿĦ
ĠìĤ¬ ìĭłëĶĶ
Ġë§ī íĺĢ
ĠìĹĨ ëĬĶê±°ìķ¼
Ġname íķĺê³ł
Ġìłķ ë¦¬ë¥¼
íķł ëķĮëıĦ
ĠëĤ¨ íķľíħĮ
ĠêµĲ ìłķ
Ġì£½ ê¸°
Ġìŀ¡ ìķĺ
Ġë§ĽìŀĪ ê¸´
Ġíİ¸ ìĿĢ
Ġì¶Ķ ìĽĮìĦľ
ĠìĿĺ ìĻ¸ë¡ľ
Ġê·¸ëŀ¬ ëĤĺ
Ġê¸Ī ìļĶìĿ¼ëĤł
Ġëĭ¤ëħĢ ìĦľ
Ġëĭ¤ëħĶ ëįĺ
Ġë§ĪìĿ¸ ëĵľ
ê°Ģ ë©į
ĠìĿ´ ì°¨
Ġìŀ ī
ëĭ¤ ëĭ¥
Ġê°Ģ ìĦ¸ìļĶ
ĠíĸĪ ìĬµëĭĪëĭ¤
ìłĦ ìĿ´
ĠìĬ¤ íĦ°
ĠìĥĪ íķ´
ĠíĽ ħ
Ġë§¤ ëħĦ
ĠëĬĲëĤĮ ìĿĢ
ë°ĺ ì°¬
Ġê²°íĺ¼ íķ´ìĦľ
ĠìĿ´ìĭŃ ë§ĮìĽĲ
ìŀ¬ ë¯¸
ĠëĬĻ ìĸ´
Ġì¿ł íı°
Ġë°ĶìĿ´ ëŁ¬ìĬ¤
ļ ê½ĥ
Ġë§ Ļ
Ġíķĺ ëĿ¼ëĬĶ
Ġíķĺ ì§Ģë§ĮìĿĢ
Ġìĺ¤ ë°Ķ
ë§Ī ìĿĮ
ìłĦ ìĿĦ
Ġìłķ ëıĪ
ĠìĹ¬ê¸° ë¥¼
Ġëį° ê¼¬
ëĭ¹ ëıĦ
ĠìĭĿ íĴĪ
Ġìĺ¬ëĿ¼ ìĻĶ
ĠëĤĺìĻĢ ëıĦ
ĠìĽĥ ê²¼
ĠëĤĺìĻĶ ê±°ëĵł
ìĹĪëįĺ ê±°
Ġì²´ ìĿ¸
Ġê¶ Ĥ
ĠíĮĢ ìĿ´
Ġì°Į ëĬĶ
ĠëŁ¬ ìĭľìķĦ
ĠìķĪ ëĭ¤
Ġì¢Ģ ë¹Ħ
ë¶Ģ ì§Ģ
ì° Ŀ
ĠìķĬ ìķ
ëĭĺ íķľíħĮ
ë¯¸ ê¹¡
Ġë¨¹ìĸ´ ìļĶ
ĠìłĢê¸° ìĦľ
ĠëĲľ ê±°ì§Ģ
ĠëĤĺìĺ¤ ê¸°
Ġìŀ¥ ê°ĳ
ĠìĭĿ ì´Ī
Ġëĭ´ ìķĻ
Ġìļ´ëıĻ ìĿ´
ĠìłĪ ìĹĲ
ê¼ ½
Ġíĥľ ê¶ĮëıĦ
Ġëģĵ ìĹ¬ìĦľ
ĠíĬ¸ ëłĪìĿ´
ĠìĺĪìłĦ ìĹĶ
Ġëª½ ëķħ
Ġìĸ´ìĿ´ ìĹĨ
ì¤į ìĦľ
ë¡ ¯
ĠìķĪ ë´Ĳ
ìĺ¤ ì²ľ
ĠìĤ´ ì°Į
ĠíķĻ ê³¼
Ġë¶Ħ ë§Į
ĠíĥĢ ìŀħ
Ġë§Įëĵ¤ ìĹĪ
ëĺ £
Ġëĸł ìĺ¤
Ġê°Ģì¡± ëĵ¤
Ġê¸į ìłķ
¨ į
ĠìĿ¼ ì°¨
Ġì§Ģ íĺľ
ìĤ¬ ëĿ¼
Ġìŀĺ ëĤľ
Ġìŀĺ ëĿ¼ìĦľ
Ġìłľ íķľ
ĠëįĶ ëŁ¬ìĽĮ
ĠìĿ¸ ìĭĿ
ĠìĪ ¯
Ġê°Ħ ëĮĦ
ê·¼ ìĹĲ
Ġë°ľ ìĿĮ
Ġë°ĽìķĦ ëĵ¤ìĿ´
íķ¸ ëĵľíı°
ĠìĥģíĻ© ìĿĦ
ĠìĥĿíĻľ ìĿ´
ĠìĥĿê²¼ ëĬĶëį°
ĠíĻĶìŀ¥ìĭ¤ ìĹĲ
ìŀ ¼
ìĤ¬ íĪ¬
ìĺģ ìĿ´
ĠëıĮ ìĿ´
ĠíĹ ĺ
ìķĺìĸ´ ìļĶ
Ġìŀł ìŀĲ
Ġë¨¹ëĬĶ ê²Į
Ġë¨¹ìľ¼ ë©į
Ġê±°ìŀĸìķĦ ìļĶ
Ġë¯¸ìķĪ íķĺëĭ¤
ê¶Į ìĿ´
ĠëıĦìĻĢ ì£¼ê³ł
Ġë¼Ī ê°Ģ
ĠìĬ¤íĦ° ëĶĶ
ĠìĿ´ íĥĪ
Ġìĺ Ľ
Ġë¬´ ê²Į
Ġëĵ¤ìĸ´ ìĭłëĶĶ
Ġìłľì£¼ ìĭľìĹĲ
ĠìĹ¬ê¸° ëĭ¤
ë¹Ħ íĸī
ĠíĻĶ ëĤľ
Ġìĺ¬ëĿ¼ ìĺ¤ê³ł
íĺ¸ ê°Ģ
ĠìĤ´ìķĦ ìĺ¨
ìľĦ ì¹ĺ
ĠìĿĮìĭĿ ìłĲ
ĠíķĦìļĶ íķł
ĠëĶĶ ìłĢ
ĠëłĪ ìłĦ
Ġìį¼ ëįĺ
ĠìĤ¬ëŀĳ ìĿĦ
Ġíĺķëĭĺ ìĿĢ
ìĿ´ ë§Į
ìł Ŀ
Ġê±° ìĭ¤
Ġë¨¹ ëĦ¤
ì¹ ¸
ëĮĢ ê³ł
ĠìŀĪëĬĶ ëĶĶ
ĠìĬ¤ ëĭĺìĿ´
Ġë³´ìĹ¬ ì¤ĺ
ĠìľłìĤ° ê·ł
ĠíĮ¡ íĮ¡
Ġìķ¨ ë²Ķ
Ġì ¾
ìĿ´ ìĭłëĶĶ
ìĸ´ ìĭłëĶĶ
ìĸ´ ì©Ķ
Ġíķĺ ëĥĲë©´
Ġê±° ìĹĲìĦľ
Ġìĭ £
Ġì¢ĭ ê±°ëĵł
ĠìĺĪ ìĥģ
ĠìĿ¸ íħĮ
Ġë§Ľ ìĹĲ
ĠìĨĲ ëıĦ
Ġcompanyname ëĬĶ
íĺ¸ ëģĶ
ĠìķĪëĲĺ ëĭĪê¹Į
ĠíĦ° ì§Ī
ĠíļĮìĤ¬ ê°Ģ
Ġë°ĶëĢ Įê³ł
Ġìı ´
ĠíĹ¤ìĸ´ ì§Ģê³ł
ĠìĿ´ëĨĪ ìĿĺ
Ġìŀ¥ë¡Ģ ìĭĿ
ìĹĳ ìĬ¤
ë¡ľ ìĹĲ
ëĵ¤ ìĸ´ìĦľ
ĠìķĦëĭĪ ê°Ģ
ĠìĤ´ ìĤ´
ĠíĮ ģ
ĠìĿ¸ ì¢ħ
ìķĪ ìĿ´
ĠíĮĶ ìķĺ
ĠëĦĪëĦ¤ íķľíħĮ
ĠëıĮìķĦ ëĭ¤ëħĢ
Ġê°Ģìł¸ ê°Ħ
ê¶Į ìĿĦ
Ġì§ĵ ìĿĦ
ĠìĿ¼ìĸ´ ëĤĺëĬĶ
Ġìłķíķ´ ì§Ħ
ĠìĪ« ìŀĲ
ĠìĤ¬ ì¤Ģ
Ġìĺ¤ ëĭ¤ê°Ģ
ìĤ¬ ì¹´
Ġëª¨ ëłĪ
ĠìłĦ ìĿ´
ĠìĺĪ ìĿĺ
ĠëĤ¨ ìĽĲ
Ġìĭ¶ ìĸ¸
ë°© ìĨ¡
Ġë°ĺ ë°ĺ
Ġë°ĺ ì£½
Ġìĭ¸ ìĿ´
ìŀĦ ìĿ´
ĠëĲĲ ê±°ëĵł
Ġë³ĳ ìĿ´
Ġë§İìĿĢ ê±°
ĠíķĻìĽĲ ìĿĦ
Ġëª»íķĺ ê²łìĸ´
ìĺ¤ëĬĺ ìĿĢ
Ġìĺ¬ë¦¬ ë¸Į
ĠíĬ¹ìĿ´ íķľ
Ġìĸ´ ìĦł
Ġìŀĺ íķľ
Ġê°Ķ ìĸ´ìļĶ
Ġë¹Ħ ë£Į
ëĭ¨ ì§Ģ
Ġë´Ĳ ì£¼
ĠìĦł ê³¼
ìŀĲê¸° ëĦ¤
íĶĦ ëĿ¼ìĿ´
Ġìļ´ ìĿ´
ëł¸ ëĭ¤ê°Ģ
Ġì°į ìľ¼ë©´
ĠëĿ¼ ëĶĶìĺ¤
ĠìĮ Į
Ġìĭľìŀĳ ìĿĦ
Ġì§ľ ê³ł
Ġê¸Ī ì§Ģ
Ġìľ¡ì§Ģ ë¡ľ
ìħĶ ìķ¼
Ġëľ¨ ë©´
ìĥ ĺ
ĠëĤ¨ìŀĲìķł ê°Ģ
Ġì¶Ķìĸµ ìĿ´
ì²ĺìĿĮìĹĲ ëĬĶ
ê·¸ ë¯Ħ
ĠìĻ ĵ
Ġë§İ ìķĺëĬĶëį°
ìĹ¬ ëŁ¬
ĠìĽĲ ëıĦ
ĠíķĺëĤĺ ë°ĸìĹĲ
Ġìĵ° ëł¤ê³ł
Ġëª° ëŀĳ
ĠìĽĶ ìļĶìĿ¼ëĤł
ĠìĤ° ìĹħ
ĠìķīìķĦ ê°Ģì§Ģê³ł
ĠëĤĺìģĺ ê²Į
Ġë°©ë²ķ ìĿĦ
ĠìĬ¤íħĮ ìĿ´íģ¬
ìĭ ¼
ë° ĸ
êµ¬ ìĦĿ
ĠìķĦìĿ´ ëĿ¼
ĠìĹĦ ë§Į
Ġìķł ëŀĳ
ĠìĺĪ ëĬ¥
Ġë¹Ħ íķ´
Ġë¯¸ ë£¨
ĠìĦ± íĸ¥
Ġìĭ¤ ë§Ŀ
Ġë§Ĳíķĺ ëł¤ê³ł
Ġëĭ¤ë¥´ ìŀĸìķĦ
ĠëģĿëĤ¬ ìĸ´
Ġì°¹ ìĮĢ
ëĽ °
ëĭ ī
ìķĦ ë°©ìĿ´
ĠëĤĺ ëĳĲ
ìĿĢ ìĹĲ
ë¡ľ ì¼Ģ
ĠìĤ¬ ëł¤ê³ł
ĠìĤ¬ ë°ľ
Ġê°Ļ ìĬµëĭĪëĭ¤
êµ¬ ëł¤
Ġì° ¼
Ġì¢ĭìķĦ íĸĪìĸ´
ĠëĤ¨ ìĿĦ
Ġìķ¼ ìķ¼
Ġê³µ ìĿµ
Ġìĭł ìļ©
Ġìŀħ ìľ¼ë¡ľ
ĠëĶ° ì§Ģ
Ġì¹ĺ ìļ°ê³ł
Ġì» ·
Ġë§ĮëĤĺ ê°Ģì§Ģê³ł
ëĤ¨ íİ¸
ìĤ¬ëŀĮ ìĿĢ
Ġê¼¬ ë°ķ
ĠìĹ°ìĬµ ìĿĦ
ĠìĤŃ ìłľ
Ġë§Ĳ íķĺëĭ¤
ĠìĿ¼ íķ´
Ġì§Ģ ê°ģ
Ġì§Ģ ë£¨
ëł¤ ë©´ìĿĢ
ĠìĿ´ê±° ìĹĲ
Ġìĵ° ê±°ëĵł
Ġë°ĺ íĮĶ
ĠìŀĪìĿĦ ê±¸
Ġë³´ëĬĶ ê²Į
ĠëĤ¨íİ¸ ëıĦ
Ġê´ľì°®ìķĦ ìļĶ
ĠìķĬëĬĶ ëĭ¤
ĠíĶ¼ê³¤ íķ´
ĠíĮ¬ íĭ°
Ġë§Ľì¢ĭ ìķĦ
ĠìĿĮë£Į ìĪĺ
ĠìĿ´ ìĽĥ
Ġíķĺ ê²ł
íķĺ ë§¨
Ġíķľ íİ¸
ĠëŃĲ íķł
ĠëŃĲ íķĺëŁ¬
ĠìĿ¼ ì¸µ
ìĭľ ìĺ¤
ë¥´ ê¸°
ìĹ¬ ê²Į
ĠëĮĢ ê¸°ìĹħ
Ġì¤ĳ ë°ĺ
Ġëĭ® ìķĺ
Ġëªħ ìĿĺ
ĠìĿ´ëŁ¬ ëĭ¤ê°Ģ
ĠíĮĮ ìķħ
Ġê°Ķëĭ¤ ìĺ¤ê³ł
ĠíļĮ ìĽĲ
Ġë¨¹ìľ¼ ëŀĺ
ĠìŀĶ ëĶĶ
ì¤¬ ì§Ģ
Ġì§Ī ì§Ī
Ġëĳ Ķ
ĠìķĦë©Ķë¦¬ì¹´ ëħ¸
½ ì§Ģ
Ġì ¯
ĠìĿ´ ëĤĺ
ĠëĤĺ ìĹĲê²Į
ìĺ ¹
Ġê³ł ìļ´
ĠíķĺëĭĪê¹Į ëĬĶ
ì§ĳ ë§Īëĭ¤
Ġìŀ¥ ìĹĲ
ìħ ľ
ìĥĪ ë²½
Ġëĵľ ìĭł
ĠìĿ´ìĥģ íķĺëĭ¤
ê»ĺ ìĦľ
Ġì¡¸ìĹħ ìĭĿ
Ġë¶Ģë¥´ ë©´
Ġê´´ ë¬¼
íĺĪ ìķķ
Ġìĺģíĸ¥ ìĿĦ
ìĽ ¨ìĿ´
ĠìŀĲ ëħĢ
ĠìķĦìĿ´ ìľł
Ġë§Ī ìĤ¬ì§Ģ
ëĬĲ ëĿ¼ê³ł
ìĤ´ ì§Ŀ
Ġëª¸ êµŃ
ĠìķĦëĵ¤ ìĿĦ
ĠëĤ³ ìķĦìĦľ
Ġê» Į
ĠëĦĺìĸ´ê°Ģ ë©´
Ġë©Ī ì¶Ķ
Ġìĸ´ëĶĺ ì§Ģ
ëĭ «
ĠëĲĺ ì£¼ê²Į
ĠìŀĲ ëĭ¤ê°Ģ
Ġìĸ´ë ķ
ìłĦ íŀĪ
ë§Ĳ ëĿ¼
Ġìľ¡ ë§Į
Ġëĸ¨ìĸ´ ìł¸ìĦľ
Ġê²ĥìĿ´ ëĭ¤
Ġë¹µ ì§ĳ
ĠíķľëĿ¼ ëĮĢ
Ġê¾¸ ë©°
Ġê³łì¶Ķ ìŀ¥
Ġìĺ¤ë©Ķê¸° ëĸ¡
ëĤĺ ìĻĢ
Ġíķľ ê±°ì§Ģ
Ġì§Ģ ì§Ģ
Ġë¨¹ìĸ´ ë´Ķ
ë¶Ħ ìĿĺ
Ġë°© ìĹŃ
ĠëĤ¨ìŀĲ ëıĦ
Ġëĵľ ëĬĶëį°
Ġê±°ëĿ¼ ëıĦ
ĠìłĦíĻĶ ëıĦ
Ġëĭ¤ìĿĮ ìĹĶ
Ġê¸°ë³¸ ìłģìĿ¸
Ġì»´ íĻľ
Ġê³µíķŃ ìĹĲìĦľ
Ġìİ Ī
ĠìĮįêº¼ íĴĢ
Ġíķ µ
Ġíķĺ ê²łì§Ģë§Į
ĠëķĮ ìķ¼
ĠëķĮ ìĹĲëĬĶ
Ġëĵ¤ ëįĶëĿ¼ê³ł
Ġëª» íķĺëĬĶëį°
ĠìĤ´ ëĿ¼ê³ł
Ġì°¨ ì§Ģ
ë¦Ħ ìĿĦ
ĠíĥĢ ëŁ¬
Ġì½Ķ ë¡ľ
Ġì» ¬
ĠìĭĿ ìĤ¬
ĠëĦ¤ ìĭľ
Ġë§İìķĦ ë¶ĢëĤľ
Ġíķłë¨¸ëĭĪ íķľíħĮ
ĠëĨį ìķ½
ĠìĹ¬ìŀĲì¹ľêµ¬ ê°Ģ
Ġë§ĲìķĦ ìķ¼ì§Ģ
Ġìĸ´ìļ¸ ëł¤
ĠìıŁ ìķĦ
ê³ §
ìĸ´ ì°Į
ĠìŀĪ ìĿĮ
ĠëŃĲ ìĹ¬
ì£¼ ë§ĪìĶ¸
Ġíķł ê±°ëĿ¼
ĠíķĺëĬĶ ê±´ëį°
Ġìķ½ íķľ
Ġìķł íķľíħĮ
Ġëĭ¬ ë¦°
ĠëĤĺìĺ¤ ê¸´
ìĦ± íĻĶ
Ġëĵľ ë¦´
ĠëĮķ ê¸¸
Ġë©ĭ ì§Ħ
ëłĪìĿ´ íģ¬
ĠëĤĺê°Ķ ìĸ´
Ġëħ¸ëł¥ ìĿĦ
Ġë¶ĪìĮį íķľ
ĠìĬ¤íĶ¼ ì»¤
Ġë¹¼ë¹¼ ë¡ľ
¬ Ĳ
ëĤ Į
ĠìŀĪ ê¸°ëĬĶ
ìłľ ìĿ´
ëŀĺ ìļĶ
Ġëª» íķĺìŀĸìķĦ
ĠìĤ´ ëķĮ
Ġë¶Ģ ë¶Ģê°Ģ
Ġëı¼ ëıĦ
ĠìĦ¸ ëªħ
Ġê°Ħ ëĮĢ
ë°Ķ ë¦¬
Ġì½Ķ ì½Ķ
ìłĲ ìĹĲ
ĠíĸĪìĸ´ ìķ¼
ì¶Ķ ë¥µ
ĠíķľêµŃ ìĤ¬
Ġì»¤íĶ¼ ë¥¼
Ġë¸Į ëĿ¼
Ġì§§ ìķĦ
ìĭľíĤ¤ ëĬĶ
Ġì¤ĳìķĻ ìĹ¬ê³ł
Ġê°¤ëŁŃ ìĭľ
ë ®¤
Ġíķĺ ê¸°ê°Ģ
ë¡ľ ìĽĮ
ĠìķĦëĭĪ ìĺĪìļĶ
Ġë¨¹ ìŀĲê³ł
Ġìĺ¤ ë²Ħ
ëĶĶ ìĸ´
êµ¬ ìĭŃ
Ġìĭľ ê¸°ê°Ģ
ĠìĹĨ ìĹĪìŀĸìķĦ
ê°ģ ìĭľ
Ġì£¼ ë©´ìĿĢ
ĠëĨ ĺ
Ġë°Ķ ë¦¬
ìļ° ê°Ģ
ĠìĦ¸ ë¸Ĳ
ĠìĨĮ ë¹Ħ
ë¯¸ ëĦĲ
ĠìĦ± íĺķ
Ġëĵľ ëĭĪê¹Į
ĠëıĮìķĦ ìĺ¤
Ġíŀĺëĵ¤ ìĹĪìĸ´
Ġì§ĳìĹĲìĦľ ëıĦ
ĠìŀĲì²´ ëıĦ
ĠìĹĲìĿ´ ìķĦìĿ´
ĠìĨĲëĭĺ ëĵ¤
Ġë¿Ĳ ìĿ´ì§Ģ
Ġê¹ĶëģĶ íķĺê²Į
ĠìķĪíĥĢ ê¹Į
Ġê±° ëĭĪê¹Ĳ
Ġíķ´ ë¶Ī
Ġìĺ¤ ëħĦ
ĠìĥĿê°ģ íĸĪëįĺ
ĠìĥĿê°ģ ëĤľëĭ¤
ĠëĮĢ ìłĳ
Ġê°ľ ê·¸
Ġìĸ´ëĶĶ ê¹Įì§Ģ
Ġê°ĻìķĦ ê°Ģì§Ģê³ł
Ġë¨¹ìĸ´ ë³´
ĠëĪĪ ë¹Ľ
ĠìķĦëĭĮ ê²Į
Ġìĸĳ ìĭĿ
Ġcompanyname ìĿ´
Ġëĭ¨ ì§Ģ
Ġìŀł ë§Į
Ġë¹ł ë¥´ê²Į
ĠìĿ´ìĭŃ ëħĦ
ĠìĹ¬íĸī ìĿ´
Ġì¹ł ë§Į
ì¯¤ ìĿĢ
Ġëĵ¤ìĸ´ìĺ¤ ëĭĪê¹Į
Ġê¼¬ ë¦¬
ĠëĤ¬ ëĬĶëį°
ĠíķĻìĥĿ ëĵ¤ìĿ´
Ġìĥ´ íĳ¸
ì§Ģ ë°©
Ġê±° ìĺĢ
ìŀ¥ íĮĲ
Ġê³ł ëŀĲ
ìĥģ ìľ¼ë¡ľ
ìłģ ìĿĢ
ê²½ ìĿĦ
Ġë´¤ ìĸ´ìļĶ
Ġë¶Ī ìĸ´
ĠíĮĮ ìĿ´ë¸Į
Ġê°Ķëĭ¤ ìĺ¤
Ġì°į ìĸ´ìķ¼
ĠëĲĲ ëĤĺ
Ġëĭ´ ê·¸
ĠìłĪ ëĮĢë¡ľ
ĠíĴ ĭ
ë³µ ìĿ´
ĠíĨµ íĨµ
Ġê¹Į ëĭ¤
Ġê±ĶëĦ¤ ëĵ¤ìĿ´
Ġíķ´ì£¼ ì§Ģ
Ġìĸ´ëł¤ ìļ¸
Ġê°Ģë¥´ ì¹ĺ
Ġìŀ¤ ìĸ´
ê³ł ìĥĿ
Ġê±° ê²łì§Ģ
ë¦¬ ëĬĶëį°
ë¡ľ êµ¬ëĤĺ
ĠëĤ´ ì§Ģ
ĠìķĬ ì§Ģë§Į
Ġì°¨ ìĿ´ëĤĺ
ĠíĻĶ ë¶ģ
ì¡° ìĤ¬
Ġë¬¼ìĸ´ ë´¤ëĬĶëį°
Ġë°ĶëĢĮ ëĬĶ
ë§İ ìĿĢ
Ġëľ¬ ê¸Ī
Ġë³´ ì§ĢëıĦ
ĠìłĢ ëŀĺ
ĠíĸĪ ëĬĶ
ĠìłĦ ìĹĶ
Ġë°Ķ ëĭ¤ê°Ģ
ĠëıĦ ëĤ¨
Ġë°© ìĿĦ
ĠìĤ´ìķĦ ìķ¼ì§Ģ
ĠëĨĶ ëıĦ
ĠìĹ°ëĿ½ íķ´
Ġë¹µ ìĿĦ
Ġìłĳ ì¢ħ
ĠìŁ¤ ê°Ģ
Ġêº¾ ìĸ´
Ġìŀ¥íķĻ ê¸Ī
Ġê° ¸
ĠìĤ¬ ê±°ë¦¬
ĠìĹ¬ ëĵľ
ëħ ¹
Ġê³ł ë¥¸
Ġê³ł ê¸°ê°Ģ
Ġìłķ ìĦ±
íĸĪ êµ¬ëĤĺ
ĠëıĪ ê°ĢìĬ¤
ëĲĺ ëĬĶê±°
ê´Ģ ê´ĳ
Ġìķŀ ìĿ´
Ġê¹Ģ ëħķ
Ġì§ĳìĹĲìĦľ ëĬĶ
ĠìĺģíĻĶ ëıĦ
Ġíıī ê°Ģ
ë°Ľ ìķĦìĦľ
Ġë²ł ê°ľ
Ġíķłë§Ŀ ëĵ¤
ĠìĿ¸ìĥĿ ìĿ´
Ġê²ĢìĿĢ ìĥī
Ġë¶Ģì§ĢëŁ° íŀĪ
Ġì°Ŀ ì°Ŀ
1 9
íķ ı
ìķĦ ê¸°
Ġíķĺ ì£¼ê²Į
Ġíķ´ ìł¸
Ġíķ´ ë´Ķ
ĠëŃĲ ìĺģ
ĠëĲĺ ì§Ģë§Į
Ġì¢ĭ ëĭ¤ëĬĶ
ê°ģ ìĿ´
ĠìĥĿê°ģ íķ´ìķ¼
Ġë¬¼ íļĮ
ĠìĹĦë§Ī ëĵ¤ìĿ´
Ġê²½ íķ¸
Ġê°Ī ìĪĺ
ĠìĺĽëĤł ìĹĲëıĦ
ê²½ íĹĮëĶĶ
ìĤ° ëıĦ
ëł¸ ì§Ģ
ë°¥ ëıĦ
Ġë¨¹ìľ¼ë©´ ìĿĢ
ĠìķĦë§Ī ëıĦ
Ġê²ģ ëĭĪëĭ¤
ëĪĪ ìĿ´
ĠëıĻë¬¸ ìĭľìŀ¥
Ġìĸ¸ìłł ê°Ģ
ĠìĿ´ ìª½ìĹĲ
ìķĦ íĶĦ
ê²Į ëģĶ
ĠìķĦ ìĺ¤
ëĿ¼ ëĵłì§Ģ
Ġê°Ģ ì§ĢëĬĶ
Ġì§Ģ ì³Ĳ
Ġìŀĺ íĸĪìĸ´
Ġì¤ Ń
Ġë² ļê½ĥ
íķĺê³ł ìĿ´
ĠìĦ¸ ìļ°ê³ł
ĠëıĮ ë¦¬ëĬĶ
Ġëªħ ìĿ¸ê°Ģ
Ġëĭ¹ ìĭłìĿ´
Ġì£½ ìĿ´ê³ł
Ġê¸°ìĸµ íķ´
ĠëĦĺ ìľ¼ë©´
Ġë°ľ ëł¹
Ġì°¸ ì¹ĺ
Ġìķłê¸° ëĬĶ
ìłģìľ¼ë¡ľ ëĬĶ
Ġë°ķ ë¬¼ê´Ģ
ìĻ¸ êµŃ
Ġê±· ìĸ´
Ġìĺ® ê¸°
Ġë¹¨ê°Ħ ìĥī
ĠíĸĪ ìĪĺëĭ¤
ì° Ķ
Ġì£¼ ë°©
Ġê³µ ê°ľ
Ġíĺķ ë¶Ģê°Ģ
Ġíķłë¨¸ëĭĪ ëĦ¤
ìķĻ ìľ¼ëĦ¤
Ġë¹¼ ìĦľ
Ġë¬¸ìłľ ë¥¼
ëª© ìĿ´
ì¹ľêµ¬ ê°Ģ
ĠíĪ¬ íĳľ
ĠëĨĪ ìĤĲ
Ġë¶ĪìĮį íķ´
ĠìĥģëĮĢ ë°©ìĿ´
ĠìŀĲì¡´ ìĭ¬
Ġê°Ģ ë¶ĢëĤľ
Ġë³´ ìłł
ĠëĲĺ ë©´ìĦľ
ë´ ĩ
ĠëįĶ ìļ´
íķł ê²Į
ĠëĤ¨ ìķĪ
Ġë²Ī ìĿ¸ê°Ģ
Ġìłľì£¼ëıĦ ë¡ľ
Ġìłľì£¼ëıĦ ìĿĺ
ĠëĲł ê±´ëį°
Ġë§Įëĵ¤ ìĹī
ĠêµŃ ìĭľ
Ġëĵ£ ì§Ģ
Ġìº Ħ
Ġíķ¸ëĵľíı° ìĿ´
ëª¸ ìĿ´
ëĭ¤ìĭľ íĶ¼
Ġë§ŀìĿĢ íİ¸
Ġê·¸ ìłĦ
ìĿ´ ì¦Ī
ĠìĤ¬ ëĥ¥
ë¥ Ļ
Ġìĭľ ì¼
ĠìĤ´ ìķĪ
ìĺĪ ìłĦìĹĲ
ì¹ĺ íĤ¨
Ġë¬¼ ìĿĢ
Ġê°Ī ê²Į
ì§ĳ ëĭĪê¹Į
Ġì¡°ê¸Ī ìĿ´ëĿ¼ëıĦ
ĠëĤĺê°Ģ ëĭĪê¹Į
Ġë¬¸ ìĸ´
Ġëĭ´ ê³ł
Ġìļ´ëıĻ ìŀ¥
ĠëŃĶ ë§Ĳ
ĠíĨµ ìĹĲ
ë£Į ê°Ģ
Ġìŀ¬ë¯¸ ë¡ľ
Ġì§ĢëĤĺ ê°Ģë©´
ĠìŀĶ ìŀĶ
ĠëıĮìķĦê°Ģ ë©´ìĦľ
ĠëĬĲê»´ ì§ĢëĬĶ
ĠìĿ¸íĦ° ë·°
Ġê´Ģê´ĳê°Ŀ ëĵ¤
Ġì© Į
Ġë°Ķê¹¥ ìĹĲ
Ġì£¼ìĿ¸ê³µ ìĿ´
Ġìĸ´ëķ ł
ëĤ ³
Ġì§ Ħë¡ľ
ĠëĤ´ ë¦´
ĠëĤ´ ë¦¬ëĬĶ
íĸĪ ëĬĶì§Ģ
Ġê²½ ëł¥
ĠëħĦ ìĥĿ
Ġë¶Ī ìĿĦ
Ġë¶Ī êµ¬íķĺê³ł
Ġì°¾ ìľ¼ëŁ¬
ê²ĮëĤľ ìĿ´
Ġìŀ¬ë°Į ìĹĪìĸ´
ì¤¬ ìľ¼ë©´
ĠíĺĦ íĥĢ
Ġê·¸ë§ Ĳ
ĠìĤ¬ëŀĳ íķĺëĬĶ
ĠëĤ´ìļ© ìĿĦ
Ġëĭ´ë°° ë¥¼
Ġëª¨ë¥¸ ëĭ¤
ĠíħĶ ëłĪ
ĠìĹłë¹Ħíĭ° ìķĦìĿ´
Ġì Ĳ
Ġê±° ëŀĢ
ì£¼ ëıĦ
Ġíĺ Ģ
ĠìĽĲ ìŀ¥
ĠëĳĲ ìĸ´
ê°Ļ ìķł
Ġê³µë¶Ģ ëĬĶ
ëĤ¬ ëĭ¤
Ġíķłë¨¸ëĭĪ ëĵ¤ìĿ´
Ġìķī ìĿĢ
Ġëģ¼ ë¦¬
Ġë¹Ħìĭ¸ ìĦľ
ĠìĹ¬ëŁ¬ ê°ľ
Ġê» Ģ
Ġìĵ´ ëĭ¤
ĠíĬĢ ìĸ´
ë¨¸ë¦¬ ê°Ģ
Ġíĳ¸ ëĬĶ
Ġëĭ¦ ê³ł
Ġëĭ¤ëĭĮ ëĭ¤ê³ł
Ġê²¬ ëĶĶ
Ġíķ ı
ĠìķĦ ëŀ«
ĠëĤĺ ê±°ëĵł
ëŀ ¨
ĠìķĪ ìĺ¤
ĠìķĪ ìĻĢ
Ġë§ŀ ìķĺìĸ´
ĠìłĦ ìĭľ
ĠíķĻ ìĬµ
Ġë¹Ħ ìĽĮ
ìķĦëĭĪ ìķĦëĭĪ
ëķĮ ê¹Įì§Ģ
Ġíķ´ìķ¼ ëĲĺê³ł
ë´Ĳ ìĭłëĶĶ
Ġìŀ¬ íĻľ
ì§Ī ëŀľëĵľ
ĠìľĦ ê°Ģ
Ġë²Į ê¸Ī
Ġë¦¬ ê°Ģ
Ġì¤¬ ê±°ëĵł
Ġë§ĮìĽĲ ìĶ©
íĹĮ ê±°
ĠìĤ´ìķĺ ì§Ģ
ĠíķľëĿ¼ ë´ī
Ġë¸Į ë¡ľ
Ġxxxx xx
Ġë§ĮëĤ¬ ìĸ´
ë°Ķëĭ¥ ìĹĲ
Ġë¯¸ìĹŃ êµŃ
Ġê°ł ê°Ģ
ĠìĿ´ ê³ł
ĠìĿ´ íĥľ
ê¸° ìĹĲëĬĶ
ĠìĤ¬ ì¤Ħ
Ġíķ´ ë¨¹ê³ł
Ġìĺ¤ ëİħ
ĠìĤ¬ëŀĮ ìĹĲ
Ġì¡° íķ©
ĠíĹĪ ëĿ¼
Ġì°¨ ë³Ħ
ĠìĬ¤ íģ¬
ì°¨ ë³Ħ
ìĦł ìĪĺ
Ġê°Ĳ ìłĢ
Ġê°Ĳ ëĭ¹
íĮĮ íĭ°
Ġíģ¬ ë©´
ìĹĨ ê³ł
ĠëĬ¦ ìĸ´
íķŃ ê³µ
ĠìĦ±ê²© ëıĦ
ĠëłĪ ìĬ¨
Ġìĥģíĥľ ê°Ģ
ĠíĦ¸ ìĿ´
Ġë°Ķë¹ł ìĦľ
ĠìŀĲìĦ¸ íŀĪ
Ġì§Ħì§Ģ íķĺê²Į
ì§Ģ ëĭ¤
ëĿ¼ ê°Ģì§Ģê³ł
Ġë¨¹ ê±°ë¦¬
Ġì§Ģ ìĿĦ
ĠìĿ¸ íķ´ìĦľ
ĠëĳĲ ë£¨
Ġëª° ë¥´
Ġë¬¸ ìĿ´
ê²© ìĿ´
ĠìĻ¸ ëıĦ
Ġë§ĮëĤĺ ê¸°ë¡ľ
Ġìĭ¶ìĿĢ ê±°
Ġëĭ¤ìĿĮ ì£¼ìĹĲ
ĠíĬ¸ ëĿ¼ìļ°
Ġë¹Ħìĭ¼ ê±°
ĠìĤ¬ëĿ¼ ìł¸
Ġíķ´ìķ¼ëĲĺ ëĬĶëį°
ĠìĹ¬ìŀĲìķł ê°Ģ
ĠíĻĺê²½ ìĿ´
ĠëĬĲê¼Ī ìĸ´
Ġë¶ķ ìĸ´
ëĬ ¬
Ġíķĺ ëįĺê°Ģ
ìĿĢ íĸī
Ġë§ī íŀĪ
ĠëŃĲ ëĬĶ
ëĮĢ íķľ
Ġë§Į ë§Į
ĠëĦĺ ìĿĢ
ĠìłĦíĻĶ ë¡ľ
ĠìķĪëĲĺ ìĦľ
Ġëĭ¤ëħĶ ì§Ģ
Ġíİĺ ë¶ģ
ĠìķĬìķĺìĸ´ ìļĶ
ĠìĤ¬ìĹħ ìĿĦ
Ġíİľ íĬ¸
Ġìĺ¤ë¥¸ ìª½
ĠìĤ¬ê· Ī
ī ĺ
Ġíķĺ ëł¤ë©´
ëĿ¼ ë¯¸
Ġë³´ ì¡´
Ġì§Ģ ë¶ķ
ĠíĸĪ ëįĶëĿ¼
Ġëª¨ ê¸°
Ġìĸĺ ëĵ¤ìķĦ
ë¹Ħ ìĹĲìĬ¤
Ġëĭ® ê¸´
ĠìķĮìķĦ ëĵ¤
ĠìĤ¬ëŀĮëĵ¤ ëģ¼ë¦¬
ĠíĥĢ ê°Ģì§Ģê³ł
Ġì½Ķ ëĶ©
íĶ¼ ê°Ģ
Ġëĵ¤ìĸ´ê°Ģ ëıĦ
ĠìŀĪìľ¼ë©´ ìĦľ
Ġì³Ĳ ëıĦ
ĠìŀĪëĭ¤ ë©´
ĠìĥģëĮĢ ë°©
Ġëī´ìĬ¤ ìĹĲ
ëĦ Ľ
Ġë¨¹ ê¸°ëıĦ
Ġê·¸ê±° ìŀĸìķĦ
Ġê³ł ì§ĳ
íĸĪ ìľ¼ëĭĪê¹Į
ĠëĤ¨ ë§¤
Ġë¹Ħ ìļ©
Ġë°ĺ ëł¤
Ġë²Ħ íħ
Ġë§Įëĵ¤ ìĹĪìĸ´
ê²ħ íķ´ìĭłëĶĶ
Ġìļ´ëıĻ íĻĶ
Ġë¨¹ìĹĪ ëĦ¤
Ġëĭ¤ëħĢ ëıĦ
ĠêµĲìĪĺ ê°Ģ
Ġëĭ¤ë¥´ ëĭĪê¹Į
ĠìĤ¶ ìĿĢ
Ġìļ°ë¦¬ì§ĳ ìĿ´
ĠìĿ¼ìĸ´ ëĤŃ
Ġë°ĶëĢĮ ìĸ´
ĠìĽĥê¸´ ê²Į
Ġìĸ´ëłµ ì§Ģ
Ġë³´ìĿ¸ ëĭ¤
ìĤ¬ë¬´ ìĨĮ
ê°Ģ ê¸°
ê°Ģ ë¯¼
Ġê·¸ë ©
Ġíķĺ ìĭľê³ł
ìĭ «
Ġë§ī ëĳ¥ìĿ´
ì£¼ ëŀľ
ìŀĲ ëŀĳ
Ġê·¸ëŁ° ê²ĥ
ĠìĤ¬ëŀĮ ëĦ¤
ĠëĲĺ ìĭłëĶĶ
Ġì£¼ ê²łëĭ¤ê³ł
ĠìķĦìĿ´ íķľíħĮ
Ġë°Ľ ìľ¼ë©´ìĦľ
ĠìĹ´ ëł¤
Ġíķľë²Ī ìĿĢ
Ġë§ĽìŀĪ ìĸ¸
ì²´ ë¥¼
Ġê²°íĺ¼ íķĺë©´
ĠìĪľ ê°ĦìĹĲ
Ġì²´ ì§Ī
ĠëĨį êµ¬
Ġë¯¸ìķĪ íķľ
Ġíķĺ ëĬĲëĥĲ
ë§Ī ê·Ģ
ĠëĲĺ ìķ¼
ë¬´ ìĭľ
ë¹ Ĺ
ĠìłĦ ëıĦ
ê±¸ ëŀĳ
Ġë¹Ħ ìĹ¼
Ġëĭ® ìĪĺëĭ¤
Ġëªĩ ìĭľê°Ħ
ĠìĨĲ íĿ¥
ĠíĶ¼ íĶ¼íĭ°
Ġíĺ¸ íĿ¡
ìĽĶ ëĵľ
ĠìĦľê·Ģíı¬ ìĹĲìĦľ
Ġì£¼ì°¨ ìŀ¥
Ġì´Īë¡Ŀ ìĥī
Ġìĭłíĺ¼ ìĹ¬íĸī
ëĬ¦ ê²Į
Ġê¼° ëĮĢ
Ġê¸°ìłĢ ê·Ģ
ê³ł ëĿ¼
Ġê·¸ë ĵ
íĶ Ķ
Ġìĸĺê¸° íķĺëĭ¤
ìĭ¤ ìĿĦ
ë¨¹ ì§Ģ
ëĤ¬ ì£¼ê²Į
ìĹŃ ìĿ´
Ġìĭ«ìĸ´ ê°Ģì§Ģê³ł
Ġíıī ìĿ¼
ê½ ģ
ĠíĪ¬ ëªħ
ì¿ł ê³¼
Ġë¯¸ìķĪ íķĺëĭ¤ê³ł
ĠíĻľ ìļ©
Ġë§ĪíĬ¸ ìĹĲ
ĠíİĺìĿ´ìĬ¤ ë¶ģ
ĠëĲ© ëĭĪê¹Į
ĠìĿ´ ìŀĸìķĦ
Ġíķĺ ê²łìĬµëĭĪëĭ¤
ĠëŃĲ ëįĶëĿ¼
ëĶĶ ëıĦ
Ġìĭľ ì¯¤
ìĺ¤ ë§Į
ìķĺ ëĭ¤ê°Ģ
ì¹ĺ ê²Į
ë¶ĢíĦ° ê°Ģ
Ġë°¥ ë¨¹ê³ł
ĠìĹĲ ë²Ħ
ĠëŃĲëĥĲ ê³ł
Ġë°ľ ìĥĿ
ĠìĹ¬íĸī ì§Ģ
Ġì¡´ ëĮĵ
Ġë¯¿ ìĿĦ
Ġê·¸ìª½ ìĹĲìĦľ
ĠìĬ¬ ë¦¬
ë²Ħë¦° ê±°ìķ¼
Ĭ ìĸ´
Ġìĭľ ëıĦ
Ġê²Į ìĿ´
ë¹ ĦìłĦ
ë³´ ëĵľ
Ġëª» íķ¸
ĠëĶ ľ
Ġë§Į ëĤŃ
Ġìķ½ ëıĦ
ĠìĽĲ ìŀ¥ëĭĺ
ĠìĿ¸ ìĹ°
Ġì¢ĭìķĦ íķľëĭ¤ê³ł
ìłķ ìĿĢ
Ġì°¨ ë¡Ģ
ĠëıĦ ëĬĶ
Ġë°ĺ ëĮĢë¡ľ
ĠìŀĪìĹĪ ëĭ¤ê³ł
Ġê±°ëĿ¼ ëĬĶ
ĠíĨł ë¡ł
ĠíĺĦ ì§Ģ
Ġê²ĮìŀĦ ìĿ´
ĠíĻķìĭ¤ íķĺê²Į
Ġê¹ľ ë¹¡
Ġê´Ģìĭ¬ ìĿĦ
ëłĮ ì§Ģ
Ġê½Ĥ ìķĦ
ĠíĳľíĺĦ ìĿĦ
ê°Ģ ëĬĶëį°
Ġíķľ ê±°ëĿ¼
ĠìķĦëĭĪ ìļ°ê½Ī
Ġìĺ¤ ìĿ´
ìļĶ ê°Ģ
íķĺê³ł ëıĦ
ĠìĥĿê°ģ íĸĪì§Ģ
ĠíķĺëĬĶ ê²ĥ
ìĹ¬ ê¸°ëĬĶ
Ġë§Ī ìĶ¨
Ġíķĺê³ł ëĬĶ
Ġë°Ķ ê¸Ģ
ë´ ¥
ë¹Ħ ìĬ·
Ġì½ ¤
Ġë³´ë©´ ìĿ´
Ġíģ° ëį°
ĠíĻĶ íķĻ
ìĻĶ ëĭ¤
Ġì§ĳìĹĲ ëıĦ
ê´Ģ ê³Ħ
Ġì°¾ìķĦ ë³´ê³ł
ĠìĥĢ ì§Ģ
ĠìĬ¤íĥĢìĿ¼ ìĿĢ
Ġìľłëªħ íķľëį°
ĠëĨĴ ê²Į
Ġê³łë¯¼ ìĿ´
Ġíļ ¡
Ġìį° ìĸ´ìĦľ
Ġìĭľì²Ń ìĹĲìĦľ
Ġì£¼ìĿ¼ ìĹĲ
ê³ł ëĬĶ
ë© Ķê°Ģ
Ġê±° ìĬ¬
ëĿ¼ ê¸°
ĠìķĪ íĹĪ
ĠìĻ ģ
Ġë§Ĳ ë¦°
Ġìĺ¤ íĤ¤
ĠìĿ¸ ì¦Ŀ
ĠìĤ¼ ìĤ¬
ìĽĮ ì¹ĺ
ëĬĶê±° ëĬĶ
Ġë°° ë¥¼
Ġë°ĺ ë§Ĳ
Ġìĸĳ ë°ĺ
Ġìĸ´ëĸµ íĸī
Ġê¸¸ ê³ł
Ġë¹ł ìł¸ìĦľ
ĠìĿ´ìĭŃ ë¶Ħ
Ġê°Ģìķ¼ ëı¼
Ġì²´ ëł¥ìĿ´
Ġíķ© ì³Ĳ
Ġë³µ ì§Ģ
ĠìĤ¶ ìĿĺ
ìŀ¡ ìķĦ
ĠìĪĺìĺģ ìŀ¥
Ġëķ¡ ê²¨
ĠìĹł íĭ°
ĠíĤ ¹
Ġë©ĺ íĥĪ
Ġê·¸ ìłľ
ëĤ Ģ
íķĺ ëıĦ
íķĺ ë¥´
ĠìķĪ ê±¸
ì£¼ ë§Į
ĠìłĢ ë¦¬
ìĭł ê¸°
ĠìĤ´ ìĿĦ
Ġëª¨ ìħĶ
ìĹ¬ ì¤ĳ
Ġë°Ķ ëĤĺëĤĺ
Ġì¡° ê¸°
ĠëĪĦ ë¥´ë©´
ëłĪ ìĿ¸
Ġë°¥ ìĹĲ
ĠìłķëıĦ ë°ĸìĹĲ
ĠíĻĶ ëĤ´
Ġë°± ìĿ´ìĭŃ
Ġìĭ¸ ê°Ģì§Ģ
Ġìĭ¤ ëł¥
ĠìĤ´ìķĦ ëĤ¨
ĠëĿ¼ ìĿ´ë¸Į
ê¸ī ìĿ´
Ġë³´ìĹ¬ ì£¼ê³ł
ĠíĬ¹ ìľłìĿĺ
ĠíĹĮ ê±°
ĠìķĮìķĺ ëĭ¤ê³ł
ĠíķĻìĥĿ ìĿ´
ìŀĶ ì¹ĺ
Ġíĸīë³µ íķ´
Ġê¸ģ ìĸ´
Ġë¬´ë£Į ë¡ľ
Ġíĥľìĸ´ëĤĺ ìĦľ
ĠìĦ¸íĥģ ê¸°
Ġê²Į ìĬ¤íĬ¸
ìĺ¤ ìĿ¼
Ġìķ½ êµŃ
ìĥģ ìĿĢ
ë©į ìĿ´
Ġê²ħ íķ¸
ĠíĥĢ ë¡ľ
ĠìĭĿ ëĭ¨
ë°ĺ ìĹĲ
Ġê·¸ëŀ¬ ìĹĪëĬĶëį°
ĠìķĦë°© ëıĦ
Ġê¸Ģ ìĶ¨
Ġì·¨ë¯¸ ë¡ľ
ëĮķ ê¸°
Ġê·¸ë© ´
ĠìĿ´ íĺ¸
ìĦľ ìĹĲ
ìĸ´ ëĬĶ
ĠìłĢ ê±¸
ĠìĪĺ ìĭľ
ĠìĪĺ ì¹ĺ
Ġíķĺë©´ ìĿ´
ìŀĪ ëĤĺ
Ġë²Ī ìĿ´ëĤĺ
Ġë¹Ħ ìŀĲ
Ġìŀ¬ íħĮíģ¬
ìĿ´ëĿ¼ ë©´
Ġë²Ħ ê±°
ëł¸ ëĭ¤ê³ł
ĠìĺĨ ì§ĳ
Ġê°Ģì§Ģ ë¥¼
ì£¼ëĬĶ ê²Į
Ġì¤Ģë¹Ħ íķ´
ĠìĥģíĻ© ìĹĲ
ĠëĤĺëĿ¼ ìĹĲ
ĠëĦĺìĸ´ ê°Ī
Ġì¹´ëĵľ ë¥¼
Ġê¸°ê³Ħ ê°Ģ
Ġê¹Ĭ ê²Į
ĠìķĦìī¬ ìĽĮ
Ġìŀħë§Ľ ìĿ´
Ġê·¸ë Ħ
Ġíķĺ ëĵ¯ìĿ´
Ġíķľ ìĭĿ
ëĤ´ ëħĦ
Ġë¹Ħ ìĮĢ
Ġëį° ëĤĺ
Ġëªĩ ì²ľ
Ġë§¤ íĬ¸
Ġë¨¹ëĬĶ ëĶĶ
ĠìĻ¸ ìĤ¼ì´Į
ĠìłĪ ê°Ħ
ĠíĽĦ ê¸°
Ġë°Ń ìĹĲìĦľ
ĠìĥĪëģ¼ ëĵ¤
ĠìĮĢ ë°¥
Ġìĺ¬ëł¤ ìķ¼
ĠìĿ¸íĦ°ëĦ· ìĹĲ
ĠìĥĿê²¨ ê°Ģì§Ģê³ł
ĠìķĦë¶Ģ ì§Ģê°Ģ
Ġê¼¼ ê¼¼
Ġëĭ¨ë°± ì§Ī
Ġê±° ìĿ´
Ġê°Ģ ì§ľ
ĠìĿ¼ ìŀĲ
ĠìĿ¼ ì¢ħ
ĠìĺĪ ìĪĺ
Ġë¶Ģ ìĿ¸
Ġìķ¼ ìĻ¸
ìłĢ ë²Ī
Ġì¤ĳ ìĪľ
ìł¸ ëıĦ
Ġìĸ´ëĶĶ ë¥¼
ĠìĹ´ ëĭ¤ìĦ¯
ĠìĻĶ ìľ¼ë©´
Ġëĭ¹ íķľ
Ġë³´ê³ł ìĭ¶
Ġë§ĮëĤĺ ê²Į
Ġë³µ íķĻ
Ġìħĭ ìĿ´ìĦľ
ĠìĹ¬ìŀĲì¹ľêµ¬ ëŀĳ
ĠìķĦë²Ħ ëĭĺ
ĠëĤĺê°Ķ ëĬĶëį°
Ġë³´ëĥĪ ìĸ´
Ġìĭľì¼° ëĬĶëį°
ê³ł ì¶Ķ
ì§ ł
ĠìĪĺ íĸī
Ġìłľ ìŀĳ
Ġë§Ī ìķ½
Ġìĭł ìķĻ
ìĹħ ìĿĦ
Ġìłģ ìĸ´ëıĦ
Ġëĭ¤ìĭľ ëĬĶ
Ġíıī íĻĶ
Ġë°Ģ ëł¤
Ġìŀ¥ëĤľ ê°Ĳ
ĠíĥĪ ì¶ľ
ĠìĿ¸ìĥĿ ìĿĦ
Ġê¸°ëĭ¤ëł¤ ìķ¼
Ġíĥľìĸ´ ëĤ¬
ëĦ ī
ĠëŃĲ ëŀĺ
Ġê°Ļ ì§ĢëĬĶ
ĠëįĶ ëŁ¬ìļ´
ëĵľ ë§Į
Ġê°ľ ìĹĲ
ĠëıĮ ëĭ´
ĠëĨĢ ìĿ´íĦ°
Ġê²° ê³¼ê°Ģ
ê´Ģ ìĹĲìĦľ
Ġëĭ¨ ë°ľ
ĠíķĻëħĦ ìĿ´
Ġìª¼ ê¸Ī
Ġê¸Ģ ìİĦ
Ġë©ĭ ìŀĪìĸ´
ĠíĶ¼ë¶Ģ ê³¼
Ġì¶¥ ê³ł
Ġìĭ± ìĭ±
ì§ĢìķĬ ìķĦ
ĠìķĦ ìĭľìķĦ
íķĺ ê²łëĭ¤ê³ł
ĠìĤ¬ ëħĦ
ĠìķĬ ëĭ¤ê³ł
Ġê·¸ëķĮ ê¹Įì§Ģ
ĠìŀĪìĸ´ ë¶ĢëĤľ
ì¶ ¤
ĠìĹ´ ìĭľ
Ġìŀħ ìĸ´ìĦľ
ìĨĮ ë¦¬ê°Ģ
ĠëĪĪ ìĿĢ
ĠëĤ´ëł¤ ê°ĢìĦľ
ë£Į ë¥¼
Ġíİ Ģ
ĠìŀĪê±°ëĵł ìļĶ
Ġê³³ ìĿĢ
ĠíħĲ íĬ¸
ëłī ìĬ¤
Ġë¯¸ëģĦ ëŁ¬
ëıĦ ìĭľ
Ġê°Ģ ê²łëĭ¤
ì£¼ êµĲ
ìŀĲ ìĻĪ
ìĭľ ì½Ķ
Ġíķł ê²ĮìļĶ
Ġìĸ´ë ľ
Ġì§ĳ ìĿĺ
Ġìĸĺê¸° íķ´ìķ¼
Ġë¬¼ ë§Į
ìĿ´ëĿ¼ ëĬĶê²Į
Ġìļ° ìĹ°íŀĪ
Ġìĸĳ ìĭ¬
ĠëĦ£ ìĸ´ìķ¼
Ġëĵ£ ëĬĶëį°
Ġì¢ĭìķĦíķ´ ìļĶ
ëĪĦ ëĤĺ
ìķĮ ê³ł
ĠìĿ´ë¯¸ ì§Ģ
ĠìŀĲê¸°ëĦ¤ ëĬĶ
ĠëĲľëĭ¤ ëĭĪê¹Į
ĠìķĮìķĺ ëĭ¤
ĠìĬ¤íĬ¸ ëłĪ
ê¼¬ ì¹ĺ
íĩ´ ê·¼
ĠìļĶìĸĳ ìĽĲ
ĠìĬ¤ìľĦ íĬ¸
ĠìķĦ ìĶ¨
Ġíķĺ ë£»
Ġê±° ìĺĢê±°ëĵł
ĠëĤ´ ë¶Ģ
ĠìĿ¼ ëĵ¤ìĿ´
Ġë¹ ½
ĠìŀĲ ê¶ģ
Ġëĵ¤ ìĹĪì§Ģ
ìĿ¼ ê¹Į
ĠëĤľ ìĿ´
Ġê³ł ê°ľ
Ġì§ĳ ëĵ¤ìĿ´
ĠíķĺëĤĺ ëĿ¼ëıĦ
Ġë²Ī ìĿ´
ĠëıĻ ìĸĳ
Ġë°Ľ ëĬĶëį°
ì¤ĳ ìĹĲìĦľ
ĠëĨĢ ìĿ´ê¸°
Ġë§ĽìŀĪ ëĬĶê±°
Ġëª°ëĿ¼ ìļĶ
ĠëıĮìķĦ ìĺ¤ëĬĶ
ĠëĤĺíķľíħĮ ëıĦ
ĠíķĦ ë¦Ħ
Ġìĥ Ľ
Ġìĸµ ìĥĪ
íħĲ ì¸ł
Ġë°ĶëŀĮ ìĹĲ
Ġìļ°ë¦¬ëĤĺëĿ¼ ê°Ģ
Ġê³Ħíļį ìĿ´
Ġìłľì£¼ìĸ´ ë¥¼
Ġì§Īë¬¸ ìĿĦ
ĠìĤ¬ëĮĢ ë¶Ģ
Ġíİĳ íİĳ
íķ´ ì¤Ħ
Ġìĺ¤ ìĽĶ
ĠìłĢ ëŁ¬
Ġê²Į ìĭľ
Ġëª» íķľëĭ¤ê³ł
Ġë§Ī ëł¨
Ġë°Ķ ìĭ¹
Ġìĭł ìĸ´
ìĦ± ëıĦ
Ġëĵľ ë¦¬ê³ł
ì¤ĺ ìķ¼ì§Ģ
Ġê½ Ŀ
ĠìĤ¼ìĭŃ ëĮĢ
Ġê·¸ë§Į ëĳĶ
ìķĦë¬´ ëŀĺëıĦ
ê·¸ëłĩ ëĭ¤ê³ł
ĠëĮĢíķľë¯¼ êµŃ
ĠìĿ´íĥĪ ë¦¬ìķĦ
ĠìĿ´ ë¶Ħ
ĠëĤĺ ê²Į
ĠìĤ¬ íķĻëħĦ
Ġìĺ¤ ëĦ¤
Ġìĺ¤ ëł¤ê³ł
ĠìłĢ ìª½ìĹĲ
Ġì¢ĭìķĦ ëĿ¼
ĠëĤ¨ ìķĦìĦľ
Ġìłľì£¼ëıĦ ë¥¼
ĠëĶ° ë©´
ìĦ± ìĹĲ
Ġìķłëĵ¤ ë§Į
ĠìŀĪìĿĦ ì§Ģ
Ġê°Ģìł¸ ìĦľ
ĠíĭĢ ê³ł
ë³¼ ê²Į
ĠëĬ¦ ìĿĢ
Ġê°Ģì¡± ëģ¼ë¦¬
ìĽĢ ìĿĦ
ë°Ń ìĿ´
ìĽĲëŀĺ ëĬĶ
ĠíĤ¤ìļ° ë©´
ëĪĪ ìį¹
ĠëĦĺìĸ´ê°Ģ ëĬĶ
Ġíķĺ ì§Ħ
ëĤĺ ë¥¼
Ġê°Ģ ê°Ģ
ĠìĤ¬ ìĺ¨
ìĹĪ ì§Ģë§Į
Ġì¢ĭ ì§Ģë§Į
Ġê·¸ê±° ëĿ¼
ĠìĹĨ ìĬµëĭĪëĭ¤
ìĿ¼ ì£¼ìĿ¼
Ġê±´ ë¬¼ìĿ´
íĦ° ê°Ģ
Ġë¹Ħ ìĮ
Ġê°Ī ìĥī
Ġëª°ëĿ¼ ìĭłëĶĶ
íĺ¸ ë°ķ
Ġì¤Ģ ê±°
ĠìĨį ìĺ·
ìŀ¬ ê°Ģ
Ġê·¸ëĤł ìĿĢ
ĠíĹ¤ìĸ´ ì§Ħ
Ġìĭłëŀĳ ìĿĢ
Ġêº¼ëĤ´ ìĦľ
ĠíĿ¬ íķľ
Ġì´Īì½ľ ë¦¿
Ġíķĺ ìĭ¤
Ġê±° ìĹ°
Ġìĸ ĩê²Į
Ġì§Ģ ëĦ¤ê°Ģ
Ġìŀĺ íķľëĭ¤
ë¯ ¸ëĭĪ
ĠëĦĪë¬´ ëĤĺ
ìĶ ĢìĿ´
Ġê°ĻìĿĢ ê²Į
ì§ģ ìĽĲ
ĠëĲľ ëį°
Ġë´¤ ìŀĲ
Ġë¬¸ ê³¼
Ġë§ĲìĿ´ ìĹĲìļĶ
ĠëĦ¤ ê°ľ
Ġë°ķ ìĤ¬
Ġì±Ħ ìļ°
Ġìĸ´ëĶ ¨ìĸ´
Ġì¹¼ êµŃìĪĺ
ĠíĻķìĿ¸ íķ´
Ġë©´ìĦ¸ ìłĲ
ĠìĿ´ ë§ĮìĽĲ
Ġíķľ ìłķ
ë¬´ ìĦľ
Ġë¬´ ê±°ìļ´
Ġëª¨ ìĭľê³ł
ĠìłĦ ê³¼
Ġìĸ¸ëĭĪ ëĵ¤ìĿ´
ë°Ķ ê¸Ģ
Ġë§ĽìŀĪ ê²łëĭ¤
Ġê°Ģìł¸ ê°Ī
ĠìķĮë°Ķ íķł
Ġì§Ī íĪ¬
ê·¸ëŀ Ĺê²Į
Ġìłľì£¼ìĸ´ ë¡ľ
ĠìĤ¬ê±´ ìĿ´
Ġê³łìĸĳ ìĿ´ëĬĶ
ĠíĿ¥ ë¯¸
Ġë®¤ ì§Ģì»¬
Ġê·¸ ì¤ĳìĹĲ
ĠìĿ´ ìĦł
ëĭĪ ëĦ¤
Ġíķĺ ëĵłê°Ģ
Ġëı Ķ
ĠìĿ¼ íļĮ
Ġë§Į ìĿĢ
ĠëĮĢ ê¸°ê³ł
Ġìłķ ìĭĿ
Ġê°ľ ìĽĥ
Ġìĸĺê¸° íĸĪëĬĶëį°
ĠìĦ¸ ëĦ¤
ĠìĹĦë§Ī ë¥¼
Ġìĥģ ìĹĲ
Ġì´ ŀ
ëĵ± ë¡Ŀ
Ġìĸ¼ë§Ī ìĶ©
Ġê·¸ë§Į ëĴĢ
Ġë¡ľ ë§¨
ëĲĲ ìĸ´
ĠìķĮìķĺìĸ´ ìļĶ
ĠëıĮìķĦëĭ¤ëĭĪ ê³ł
Ġëľ» ìĿ´
ìłĬ ìĿĢ
Ġê°Ģ ë¡ľ
Ġëĭ¤ ëĭĪëĭ¤
ĠëŃĲ ë§Į
Ġë³´ ìŀĲë§ĪìŀĲ
ìĤ¬ ê±´
ĠìĥĿ ê°ķ
ĠìķĮ ê²łëĭ¤ê³ł
Ġìĸĺê¸° íķĺì§Ģ
ĠìĨĮ ëĵĿ
Ġëĭ®ìķĦ ìĺĪ
íļĮ ë¥¼
Ġìĸĳ ë°°ì¶Ķ
ëŃĲ ëĿ¼
ĠëĦĺ ëĬĶ
ĠìŀĪëĭ¤ ëĭĪê¹Į
Ġëĸł ìĦľ
ĠìĿ´ëª¨ ëĬĶ
Ġì°© ê°ģ
ĠíĥĪ ìĥī
Ġì°Į ê°ľ
ĠëıĮìķĦëĭ¤ëĭĪ ëĬĶ
ê²Į íĭ°
ìł ¤
ê±° ëŀĺ
Ġíķĺ ê·Ģ
ĠìĤ¬ ìĿ¼
Ġíķ´ ë³ĳ
ê·¸ ë§Į
Ġë³´ íĥľ
ĠëĲĺ ëıĦ
Ġëĵ¤ ìĹĦ
Ġê±°ê¸° ë§Į
Ġê³ł ì§Ģ
ëĲ ¬
ëĭ¹ ìĹ°íŀĪ
Ġë¯¸ ìĽĮ
ë¶Ħ ê±°ëĿ¼
ĠìĭĿ ë¹µ
íĥ ±ìĿ´
Ġëĵ¤ìĸ´ê°Ģ ê¸°
Ġëĭ¤ëĭĪ ìŀĸìķĦ
Ġëĳĺ ë§Į
Ġíķ¸ ê²Į
ĠìĿ´ìĥģ ìĿ´
Ġê·¸ëŀ¬ ìĹĪìĸ´
ĠìŀĶ ìĿ¸
ĠëłĪ ìķĮ
Ġëº ĳ
Ġë§¤ìĿ¼ ë§¤ìĿ¼
Ġì»¨ ëĶĶìħĺ
ĠëıĮìķĦëĭ¤ëĭĪ ë©´ìĦľ
Ġì°Ķ ëŁ¬
Ġê°Ģë³į ê²Į
Ġíķĺ ë©°
íķĺ ëŀľ
Ġë³´ ìĥģ
ìĽ ¨
Ġì§Ģ ìłĢ
Ġëĵ¤ ìľ¼
íĸĪ ëĭ¤ëĬĶ
íĸĪ ì£¼ê²Į
Ġê±¸ ëł¸ìĸ´
ë£ ¡
Ġê³Ħ ìĹ´
ĠìĤ¬ëŀĮìĿ´ ëĿ¼ê³ł
Ġë´¤ ëĦ¤
Ġíķľë²Ī ë§Į
Ġëħ¸ ë£¨
Ġcompanyname ìĿĢ
ĠìĪľ ëĮĢ
Ġë¹Į ëĿ¼
Ġë³Ħ ìĿĺ
Ġë³Ģ íĻĶ
ĠëĤ« ëĭ¤
ĠìĮį ëĳ¥ìĿ´
Ġê³µíķŃ ìĹĲ
Ġëį® ìĸ´
Ġê°ľëħĲ ìĿ´
Ġì ¬Ĳ
Ġíķĺ íĬ¼
ĠëĤĺ ë©´ìĿĢ
ĠìķĪ ëĤ¨
ĠìķĦëĭĪ ìĸ´ëıĦ
Ġë¨¹ ìŀ°
ĠìĿ´ëłĩê²Į ê¹Įì§Ģ
ĠìĪĺ ê³ł
Ġê³ł ëŀĮ
Ġì§ĳ ì§ĳë§Īëĭ¤
Ġê´Ģ ìłĪ
Ġë§¤ ë²Ī
Ġì½Ķë¡ľëĤĺ ëıĦ
ê·¸ê±° ìĹĲ
ì¡Į ìŀĸìķĦ
ìį ¼
ìĤ¼ ì¶ĺ
Ġì§ĢëĤĺ ê°Ī
ĠìĤ¬ê³ł ê°Ģ
ĠíķĻìĽĲ ëıĦ
ĠëĵľëĿ¼ë§Ī ë¥¼
ĠëłĪ ìĭľíĶ¼
Ġëī´ ì§Īëŀľëĵľ
ĠíĥĶ ëĬĶëį°
ĠíĬ¹ë³Ħ íŀĪ
ĠìĿµìĪĻ íķ´
ĠìĬ¤íĭ° ì»¤
ìķĦ ìĿ´ëĬĶ
íķĺ ìĿ´
ĠìķĪ ìį¨
ì£¼ ëł¤ê³ł
Ġìĺ¤ ìĤ¬ì¹´
ĠìĿ¼ ìĿ¸ê°Ģ
name ëŀĳ
Ġìłľ ìĤ¬ë¥¼
ĠëĮĢ íĺķ
Ġê°Ķ ëĮĦ
ĠìĿ¸ ê¸°ê°Ģ
Ġì¶ ĺ
Ġì¤Ħ ì¤Ħ
Ġëªĩ ìĭľìĹĲ
ĠíĸĪìĸ´ ìĭłëĶĶ
Ġë§Įëĵ¤ ê¸°
Ġê³µë¶Ģ ê°Ģ
Ġê³µë¶Ģ íķ´
Ġê±°ëĿ¼ ìĺĪ
Ġê¹Į ë§Į
ĠëıĻìķĪ ìĹĲ
Ġì°¾ìķĦ ê°Ģ
ĠíĪ¬ ìŀĲë¥¼
ìŁ ¤
Ġë¶ĢìĤ° ìĹĲ
Ġíĸ¥ ìĪĺ
ĠëĮĢëĭµ ìĿĦ
ì§Ģ êµ¬
íķľ ëĿ¼
Ġìĺ¤ ë¸Ĳ
ëĤľ ìĹĲ
ë¯ Ģ
Ġê³ł ìĬ¤
êµĲ ìĤ¬
ĠìĨĮ ìĨį
Ġê²½ ê³Ħ
ĠìĬ¤ íĥ
íĹĪ ëĭĪê¹Į
ĠëıĦ ê¹¨
ĠíĻĶ ë¶Ħ
íĶĦ íĬ¸
ëĸ ¨ìĸ´
Ġê¸¸ ëŁ¬
ĠëĤ´ëł¤ ê°Ģë©´
Ġê·Ģ ìĭłìĿ´
ĠëģĿëĤĺ ëĭĪê¹Į
ëĿ¼ëĬĶ ê²Į
Ġë°Ń ëıĦ
ĠìķĦëĵ¤ ë§Į
Ġë³´ìĹ¬ ìĦľ
ĠëıĻìĥĿ ëĵ¤
Ġì¶ľ ìĦĿ
ìĵ ´
ĠíĸĪìŀĸìķĦ ìļĶ
ĠíĻľëıĻ ìĿĦ
Ġíķĺë¥´ ë°©ìĿ´
ĠëłĪìłĦ ëĵľ
ìĸ´ ë§Ī
Ġê°Ģ ìŀĲë§ĪìŀĲ
ĠìķĪ ê·¸ëŀĺëıĦ
ĠìĿ´ëłĩê²Į ë§Į
ĠìĹĨ ëįĺ
íķĺëĬĶ ê±°ìķ¼
ëĭ¤ê°Ģ ëıĦ
ĠëıĦ ìŀ¥
ĠêµĲ ëĮĢ
ê·¸ëķĮ ëıĦ
Ġì¤ĳìļĶ íķĺì§Ģ
íĮĲ ìĿ´
ĠëĤĺë¬´ ê°Ģ
Ġíķ´ì¤Ħ ê²Į
Ġë¶ķìĸ´ ë¹µ
ĠëĤĺ ìĻĲ
íķĺ ëĥĲê³ł
ĠìķĪ ê°Ģê³ł
ìľ Ī
Ġê°Ļ ê¸°ëĬĶ
Ġìĺ¤ ë¥¼
ìĹĪ ëĭ¤ëĬĶ
ìĹĪ ìĬµëĭĪëĭ¤
ĠìĥĿ ìłĦ
ìĿĺ ìĤ¬
Ġë¨¹ìĸ´ ëĤľ
Ġì½ Ķê°Ģ
Ġë§ĽìŀĪ ìĿĦ
íĮĮ ëıĦ
Ġíĺ¸ ëĸ¡
ĠìĽĶ ëĭ¬ìĹĲ
ĠíĻķ íĻķ
ĠìĪł ìĿ´
Ġëª¸ ë§¤
ëĲľ ê±°
Ġê°Ģìł¸ ëĭ¤
Ġê°Ģì§Ģ ê°Ģ
Ġê³³ ìĹĲìĦľ
Ġëĸ¡ ìĿĦ
Ġëģĵ ìĿ´ë©´
ĠìĭĿëĭ¹ ìĹĲìĦľ
Ġíĸīë³µ íķĺê²Į
ê»Ģ ê°Ģ
Ġì¼Ģ ìĸ´
Ġìłĵ ê°ĢëĿ½
Ġê³łë¬´ ì¤Ħ
Ġìº¡ ì³Ĳ
Ġê·¸ë£ ¹
ì ĳ¥
Ġìŀ İ
ĠëķĮ ìĿ´
Ġê³ł ë§Į
Ġë°Ķ ë¹´
Ġìĺ¬ ëł¤ìĦľ
ĠìĹ° ëıĻ
ë¦° ëį°
Ġê°Ħ ìĿ´
Ġê´ľì°® ìĿĢê±°
ëĨĵ ëĬĶ
ĠìĥĿê°ģíķ´ ìĭłëĶĶ
Ġíĥľ ìĸĳ
ìĿĦê¹Į ë´Ĳ
ĠëıĮìķĦê°Ģ ìħĶ
Ġêµ°ëĮĢ ë¥¼
Ġìŀ¬ë¯¸ìŀĪ ìĿĦ
ĠìĪĻ ìłľ
ĠíĻį ìĤ¼
Ġëª©íĳľ ê°Ģ
ĠìĹ ®
Ġíķ´ ëĦ¤
íķľ ê°Ģ
ĠëĲĺ ìĸ´ìĦľ
Ġì§Ģ ë¦¬
Ġìĭľ ìĹĲìĦľ
Ġìĭľ êµŃìĹĲ
Ġëª¨ ìĿ´
Ġê¸° ìĸ´
íĸĪ ìĹĪëĬĶëį°
íĬ¸ ë¦¬
ĠìĦľ ë¸Į
ĠìĦľ ëŀį
ìĭ¤ ë¡ľ
Ġìĵ° ê¸°
Ġë¶Ħ ìĸĳ
Ġë§¨ ëĵ¤
ĠìŀĪìĹĪ ìľ¼ëĭĪê¹Į
ĠëĨĵ ì§Ģ
Ġìĭ¤ ê¸°
ì¡Į ëĦ¤
Ġê·¸ê²ĥ ë³´ëĭ¤
ì» ¹
ĠìĻ¸êµŃ ìĹĲìĦľ
Ġìį° ë§¤
ĠëĮĢë°ķ ìĿ´ëĭ¤
ì¿ Ħ
Ġë¥ ĺ
ëĭ¤ ëĭĲ
ìĿĢ ê²Į
ĠëĤ´ ìĭľê²½
Ġë¨¹ ìĿį
ë¶Ģ ëıĦ
Ġë°Ķ ê°Ģì§Ģ
ìĭŃ ìĿ´
ĠìĺĪ ìĪĺëĭĺ
Ġë¶Ģ ìĹĲ
Ġë¶Ģ ì²ĺ
Ġìĸĺê¸° íĸĪìĸ´
Ġíı ¼
ëĳĲ ê¸°
ëĭ¬ ëŀľ
ĠíĻķ ë¥łìĿ´
ë¶Ī ë¯¼
Ġìķī ìĿĦ
ë³µ ì§Ģ
ĠìķĪëĲĺ ìŀĸìķĦ
ëª» íķ´
Ġëĸ¨ìĸ´ ëľ¨
Ġíĳľ ìłķìĿ´
Ġìĸ´ë©į ëıĦ
Ġë´ī ì§Ģ
ì±ħ ìĿĦ
ĠìĿ´ë²¤ íĬ¸
Ġë¶Ģìŀ£ ì§ĳ
ìĿ ½
ĠìķĦ ìĿ¸
ĠìķĪ ê°Ħ
ĠìķĪ íķĺëĬĶëį°
Ġìļ ¸ë¦¬
Ġë³´ ëŀĺ
Ġìĺ¤ ìŀĲë§ĪìŀĲ
Ġê³ł ìĻĢ
ĠëĮĢ ì¤ĳ
ìĦ± ìĿĢ
ĠìĹĲ íľ´
Ġëĭ¤ëĭĪ ë©į
ê³µ ë¬´ìĽĲ
ĠëĶ¸ ëĤ´ë¯¸
Ġë³´ëĤ´ ì¤ĺ
ĠëĤĺìĻĶ ëĦ¤
ĠëĭĪ ê¹Į
Ġê·¸ëŁ°ê±° ì§Ģ
ë©° ëĬĲ
Ġì¡¸ìĹħ íķł
íį¼ ìĦ¼íĬ¸
ĠìļĶë²ĪìĹĲ ëıĦ
ìļĶì¦ĺ ìĹĲ
Ġë²Ħëł¤ ìķ¼
Ġë²Ķ ë²ħ
ë¿ Ķ
Ġë¬¼ê±´ ìĿĦ
Ġìĭ± ê°Ģ
ĠìĬ¤íİ Ļ
ìĿ´ ì§Ģë§Į
ì§Ģ ëħ¸
ĠëĤĺ ìĿ´ëĬĶ
ëł Ĳ
ëĶ °ë¦¬
ĠìŀĲ ëĿ½
ĠìĹ¬ ìĪĺ
Ġìĸ´ë ĳ
Ġë¹Ħ ë¹Ħ
Ġê°Ī ê³ł
Ġìľł ìķĦ
íĥĢ ëĬĶ
ìª½ ìĿĢ
ê´Ģ ìĿĦ
Ġë§¤ ì£¼
ĠíĬ ¸ë¦¬
ĠëıĮìķĦ ê°Ģê³ł
Ġìķī ìľ¼ë©´
ĠëĨĶ ëĳĶ
Ġì°© íķĺëĭ¤
Ġë°Ľìķĺ ëįĺ
Ġìĸ´ì©Į ëĭ¤ê°Ģ
Ġìĺģìĸĳ ìłľ
ĠíķłìķĦë²Ħ ì§ĢëĬĶ
íķĺ ëŀĺ
ë¥ ľ
Ġíķľ ì¹ĺ
ĠëŃĲ ìĺĪìļĶ
Ġìĭľ ëĮĢìĹĲ
ë³´ ì¹´
Ġê·¸ëłĩê²Į íķ´
ê²ł ì£ł
ĠëĤ¨ ê³ł
Ġêµ¬ ìĽĶ
ìĿ´ëĿ¼ ëĵłê°Ģ
ëĬĲ ëĤĮ
ĠíĻĶ ëł¤
ĠíĻĶ íĪ¬
ĠìŀĪìĹĪ ëĭ¨
Ġíģ¬ ê¸°
ĠìĻ¸ ë¶Ģ
Ġìĸ´ëĸµ íķł
Ġê°ĸ ëĭ¤ê°Ģ
Ġì§Ħ ìŀĳ
Ġë°ķ íĺĢ
ìĻķ ìĿ´
Ġë¦¬ íĦ°
Ġëħ¹ ì°¨
Ġëĭ¤ë¥´ ê¸´
Ġêµ°ëĮĢ ìĹĲìĦľ
ĠìĿ´ëŀ¬ ê±°ëĵł
íĻĺ ìĿ´
Ġíķ´ì¤¬ ìĸ´
Ġê²ª ìĸ´
ì²ĺìĿĮ ìĹĶ
Ġë¨¸ë¦¿ ìĨįìĹĲ
ĠíĬ¼ íĬ¼
ì¾ Į
ĠíİľíĬ¸ íķĺìļ°ìĬ¤
ë¦¬ ëŀĳ
Ġê°Ģ ëĥĲ
ĠìĤ¬ ì¤¬
ëŁ ¿
ĠìķĦëĭĪ ìĹĪëĬĶëį°
ë§Ī ì§Ģë§ī
ĠìĹ¬ ë³´
ĠìĪĺ íĻķ
Ġê·¸ëłĩê²Į íķĺê³ł
Ġìłķ ëĭµ
Ġìłľì£¼ ìĹĲ
Ġë¬¼ ê³łê¸°
Ġìĥģ ì¶Ķ
ì§Ī ëıĦ
ĠëģĿ ëĤŃ
Ġëĵ¤ìĸ´ê°Ģ ê°Ģì§Ģê³ł
ĠëĪĦêµ¬ ëıĦ
ĠêµŃ ë°¥
Ġíı¬ ëıĦ
Ġìŀ¬ë°Į ìĸ¸
Ġë³´ìĹ¬ ì¤Ħ
Ġë§ĲíĸĪ ê±°ëĵł
Ġì¹´íİĺ ê°Ģ
ĠíĹĪëĤľ ìĹĲ
Ġì²« ëĤł
íĦ ±
Ġë§Ŀ ê³ł
ìĸ´ë¨¸ëĭĪ ê°Ģ
ëĵľëĿ¼ ë§Ī
Ġì§ĳìķĪ ìĿ´
Ġíķ´ê°Ģ ë©į
Ġì§ģìĹħ ìĿ´
ê´ľ íŀĪ
ë ·Ķ
ĠìķĪ ìĤ¬
ĠìķĦëĭĪ ìĹĪìľ¼ë©´
Ġìķ½ íķ´
ì¶ Ķê°Ģ
Ġë¶Ħ ëĵ¤ëıĦ
ìĤ° ìĿĢ
Ġë§ĲìĿ´ ëĥĲ
ĠëĴ Ģ
Ġëª© ìĪ¨
ĠëĤ´ëł¤ ìĺ¤ë©´
ĠìķĦì¹¨ ë§Īëĭ¤
ĠëłĪ ìĿ´
Ġì¹ľêµ¬ëĵ¤ ëģ¼ë¦¬
Ġìĥģê´ĢìĹĨ ëĬĶëį°
Ġê°ķìķĦ ì§Ģê°Ģ
ĠìĿ¼ ê¹Įì§Ģ
Ġíķł íħĲëį°
Ġë°Ķ ëĶĶ
Ġê±¸ ìĿĮ
ìĻĢ ëŀĳ
ì²Ń ìĨĮ
Ġëĭ® ì§Ģ
Ġìŀħ ê¸Ī
ĠëıĮ ëł¤ìĦľ
ĠìŀĪê³ł ìĿ´
Ġë°ĺ ìŀ¥
Ġëĭ¤ëĭĪ ê¸°
Ġìĸĳ ìª½
Ġëĵľ ëŁ¼
ĠëĬĲëĤĮ ëıĦ
Ġê²°íĺ¼ ëıĦ
Ġíĺķ ëıĦ
Ġì²ľ ì£¼êµĲ
Ġê°Ģìł¸ ìĻĢìĦľ
Ġê°Ģìķ¼ ëĲĺ
ĠíĬ¹ ìĪĺ
ĠìŀĲì²´ ëĬĶ
ĠíĬ¸ ë¡ľ
ìĪľ ìĿ´
Ġëĭµ ìŀ¥
Ġë°Ķëĭ¤ ìĹĲìĦľ
ĠìłĲìĭ¬ ìĭľê°Ħ
Ġë¹Ħìĭ¼ ëį°
ĠìĿ¸ìĥĿ ìĹĲ
Ġë§¡ ìķĦ
ĠìĿ´ëŀ¬ ìĸ´
ĠìľĦíĹĺ íķ´
ìĸ´ ì¹ĺ
Ġíķ´ ë²Ħëł¤
Ġê°Ļ ëĭ¤ëĬĶ
Ġìĺ¤ ê±°ëĵł
Ġìŀĺ íķĺ
ì¹ ©
ĠìĪĺ ìĪĺ
ĠìķĮ ê¸°
ĠìļĶ ë¡ľì¼Ģ
ëĵľ ë¦´
Ġì¤ĳ ìĤ°
ĠëıĻ ìķĦ
Ġëį° ë§Į
ĠìĨĮ ìĭĿ
ë¯¸ ëĬĶ
Ġë¶Ī ë©´
ĠìķĦë¬´ ëŁ°
ìľł ê°Ģ
Ġëĵľ ë¦¼
ëŃĲ ê°Ģ
ë°ľ ìĿĦ
ëĸ Ħ
ì¦Ŀ ìĿĦ
Ġê°Ģìł¸ ìĺ¨
íİĺ ìĿ´ì§Ģ
ìŀ¬ ê¸°
Ġë°¤ ìĿ´
Ġíķ´ì£¼ ëĭĪê¹Į
ĠíĶĦë¡ľ ìłĿ
Ġë± ĢìĿ´
Ġê±¸ëł¤ ê°Ģì§Ģê³ł
Ġê¹¨ëģĹ íķľ
ĠìŀĲëıĻ ìľ¼ë¡ľ
ĠìĭľìłĪ ìĹĲ
ĠìłĦëĤł ìĹĲ
Ġëĭ¨ì²´ ë¡ľ
ĠìĬ¬ë¦¬ íį¼
ëį° ìļĶ
Ġíķĺ íĬ¸
ĠìķĪ íķĺì§Ģ
ĠìķĪ íĸĦ
ì£¼ ë³Ģ
Ġëĵ¤ ë¦¬ê³ł
Ġê·¸ëŁ¬ ëĬĶê±°
Ġë°Ķ ë¥¸
íĸĪ ìĸ¸
Ġìĭł ì²ľ
Ġëĭ® ìķĺìĸ´
Ġíķ´ìķ¼ ëĲĺëĬĶ
Ġì¤Ħ ê¹Į
ĠëĤĺìĺ¤ ë©´ìĿĢ
ĠíĤ¤ ê³ł
Ġìĭ¬ ë¶Ģ
íĨµ íĻĶ
ĠëŃĲëĥĲ íķĺë©´
Ġìķī ê³ł
ìĹŃ ìĿĦ
ì¶ľ ìĿ´
ĠìĥĪëģ¼ ê°Ģ
ĠìĥĿìĿ¼ ëĤł
Ġëħ¹ìĿĮ ìĿĦ
ĠìĺĪìķ½ ìĿĦ
ëĴ¤ ìĹĲ
ĠíħĶ ëłĪë¹Ħ
Ġìŀłìĭľ ë§Į
Ġê·¸ ìķĦìĿ´
ĠìĿ´ ìĸµ
Ġíķł ëĿ¼
ìĬ¤ ì½Ķ
ìŀ¥ ì°½
ĠìļĶ ë§Į
ĠìĨĮ ìĭ¬
Ġë°° ë¶Ģ
ĠìĹĨìĸ´ ì§ĢëĬĶ
ë¶Ħ ê±°
Ġë¶Ħ ëħ¸
ëģ¼ ê³ł
Ġëĵ¤ìĸ´ê°Ģ ê²Į
ĠìŀĪìĹĪ ëĮĢ
Ġëĭ¨ ëıħ
Ġê²°íĺ¼ ìĿĢ
ĠìĦ¤ ìłķ
ĠìĪľ ëĳĲë¶Ģ
ĠìŀĶ ëľ©
Ġë¹Į ìĸ´
ĠìĮĢ êµŃìĪĺ
Ġë²Ħë¦¬ ì§Ģ
Ġë°Ķìģĺ ê²Į
Ġë¶ĢëŁ½ ëĭ¤
Ġ *
ìķĦ ìĽĥ
ĠìķĪ íĹĪê³ł
Ġíķ´ ë²Ħë¦¬
Ġë§Ĳ ëĿ¼ëĬĶ
ĠìĤ´ ë§Į
ìĹ¬ ìĭłëĶĶ
íķĺëĬĶ ì§Ģ
Ġì¡° ë¦¼
ë£ ¬
ìķĪ íķĺê³ł
ëħĦ ìĿ´
Ġì¤Ħ ëĦĺ
íĹĪ ì§Ģ
ĠìĻĶ ìĹĪìĸ´
Ġê°ķ íķľ
Ġê³¨ ìķĺ
íĺķ ìĿĢ
Ġê°Ģìķ¼ ê²łëĭ¤
Ġê· ł
Ġëľ¨ ê°ľ
Ġê±· ê¸°
ĠìĿ¼ê³± ìĭľ
Ġì²ł íķĻ
ĠìĿ´ë°± ë§Į
ìĸ´ë©į ìĿ´
íķĺ êµ¬ëĤĺ
ìľ¼ ëĥī
ĠëŃĲ íķľ
ĠìĿ¼ ìĿ¼ìĿ´
Ġì§Ģ êº¼
ĠìĥĿê°ģ ìĹĨìĿ´
Ġêµ¬ ìĽĮìĦľ
ê³¼ íķĻ
Ġì±ħ ìĿĢ
ĠìĻķ ë³µ
ĠëģĬ ìĿĦ
Ġíķľëĭ¤ ëĭĪê¹Į
ĠìĿ¼ìĸ´ëĤĺ ê³ł
ĠìĤ¬ìĭŃ ìĺ¤
Ġìļ°ë¦¬ì§ĳ ìĹĲìĦľ
Ġë¶ĢìĤ° ìĹĲìĦľ
ëĨ¨ ëĬĶëį°
Ġëĸ¼ ê³ł
ĠëĨ¨ ëĬĶëį°
ĠìĽĮëĤĻ ìĹĲ
Ġì§ĢëĤĺê°Ģ ëĭ¤ê°Ģ
ë§¹ ìĿ´
Ġëª¨ìĿĺ ê³łìĤ¬
Ġíķ´ìŀ¥ êµŃ
ĠëģĶ ì°į
ĠìĤ¬ ëĤľ
Ġíķ´ ëĤĺìĦľ
Ġë§ī ì°½
Ġìĺ¤ ë¯¼
ĠëĲĺ ìļĶ
Ġìŀĺ íķł
ìĭł ëıĦ
ĠìĿ¸ êµ¬
ĠìĿ¸ ìĭĿìĿ´
Ġìĭ¶ ìĹĪê±°ëĵł
Ġë¹Ħ íķĺë©´
Ġë°Ľ ê¸°
Ġìĸ´ëĶĶ ëĵł
ìłģ ìĿ´ì§Ģ
ĠëıĮ ìķĻ
Ġë¶Ħ ìĦĿ
ëłĪ ê¸°
Ġì¤ĺ ê°Ģì§Ģê³ł
Ġíħ ľ
ĠìĦ¸ìĥģ ìĿĦ
ĠíĬĢ ê²¨
Ġë¶Ģë¶Ħ ìĿĢ
ë²Į ìĿ´
Ġë¨¹ìĹĪìĸ´ ìļĶ
ĠëĤĺìģĺ ì§Ħ
ĠìķĦëŀĺ ë¡ľ
Ġë³´ë¦¬ ìĮĢ
ĠìĭŃìĺ¤ ë§Į
ĠíĿĳ ëı¼ì§Ģ
ìļĶìĥĪ ëĬĶ
Ġëĭ¤ìĸĳ íķĺê²Į
ëĬĶ ì§ĢëıĦ
ĠëĤĺ ëĤľ
ĠìĥĿ ìĤ°
ĠìĿ´ê±° ëŀĳ
ĠëĤĺëĬĶ ê±°
Ġìĭ¶ ì§ĢëĬĶ
ë°© ìļ¸
ĠìĺĽëĤł ìĿĢ
Ġêµ¬ ë¦Ħ
Ġë¶Ī ê³łê¸°
ìļ°ë¦¬ ì§ĳ
ĠìķĦëĭĪëĿ¼ ëıĦ
Ġìŀł ëĵ¤
Ġëĭ´ ê°Ģ
Ġë¬¼ìĸ´ ë´Ķ
Ġìĭ¶ìĸ´ ìļĶ
Ġì§Ħ ìĥģ
ĠíĦ° ë¯¸ëĦĲ
Ġëģ¼ ëĬĶ
Ġìĸµ ìĸĳìĿ´
Ġì¢ĭìķĺ ì§Ģ
ĠìĿ´ëķĮ ê¹Įì§Ģ
ĠìĹĲë²Ħ ëŀľëĵľ
ë ĩĮ
ĠìķĦ ë§¹
Ġê±° ë¶ģ
íķĺ ê¸°ë¡ľ
ëł ·
Ġìĸ´ ìĭľë¯Ħ
Ġìĺ¤ ìĹ¼
Ġì¢Ģ ë§Į
ë³´ ëĭ¤ê°Ģ
ìĺ¤ ëĬĶëį°
ĠìĥĿê°ģ ëĤĺê³ł
Ġìłķ ê¸°
ìŀĪ ëĭ¤ê³ł
Ġê°Ģì§Ģê³ł ëĬĶ
ĠìĤ¼ ë§ĮìĽĲ
ĠíĹĪ ë©´ìĿĢ
Ġëª¨ë¥´ ì¿łëĭ¤
Ġì´Ī ê¸°
ĠíĦ° ì¹ĺ
ĠëıĻìĥĿ íķľíħĮ
ĠìĿ´íķ´ íķł
Ġë´Ĳìķ¼ ê²łëĭ¤
Ġíķ´ë³´ ëł¤ê³ł
ĠêµĲíļĮ ìĹĲìĦľ
ĠìŀĪìľ¼ ëĭĪ
ĠëĮķê¸° ë©į
ĠìĽ¨ìĿ´ íĮħ
ìĸ´ ë¦°
Ġê°Ģ ëŀĺ
Ġëĭ¤ ìĭł
ê·¸ ëĦ¨
Ġíķľ ëķĮ
ĠëĤ´ ë¦°
name ìĿ´ëĬĶ
ĠìŀĲ ëĬĶëį°
ìĬ¤ ë¬¼
ĠìĤ´ ìŀĸìķĦ
Ġê¸° íļį
Ġëĵ¤ìĸ´ ë´¤
ìŀĪ ê±°ëĵł
ĠìĦľ ìĸĳ
ĠìĨĮ ê³ł
ĠìĨĮ ëĤĺë¬´
íĹĪ ê³¡
Ġë°ĺ ê°Ģ
Ġë°ĺ ìĿĦ
ê·¸ëŁ¬ ëĭ¤ê°Ģ
Ġëĳĺ ìĿĢ
Ġëĭ¨ ëĭ¨
Ġíĺķ ìĿ´ëŀĳ
ĠìĨį ëıĦ
ìĿ´ê±° ë¥¼
ĠíħĮ ìĬ¤íĬ¸
Ġëĭ¹ìĹ° íķĺì§Ģ
ĠíĬ¸ ëŁ¼
ìĵ° ëĬĶ
ëİ Į
ã ħ
Ġê·¸ë ¥
ëĤĺ ë§Į
ĠìĤ¬ ìłĦ
Ġëĭ¤ ëħĦ
Ġë° ¸
ì¦ Ļ
ìĭ¤ ê±´ëĶĶ
ĠìĨĮ íĨµ
ìĨĮ ë¦¬ë¥¼
Ġìŀ¬ ìŀĳëħĦ
ĠëĲľ ê±°ìķ¼
ìĺĢ ìľ¼ëĭĪê¹Į
Ġëĳĺ ëĭ¤
Ġëĭ¨ ê¸°
Ġíķ© ì³ĲìĦľ
Ġëª°ëŀĲ ê±°ëĵł
Ġëª°ëŀĲ ëįĺ
ĠëĥĦìĥĪ ëıĦ
Ġê°Ģì¡± ëĵ¤ìĿ´
ĠíķĻìĽĲ ìĹĲìĦľ
ĠìķĬìķĺ ëĥĲ
Ġë¸Į ëłĪìĿ´íģ¬
Ġë¹¡ ë¹¡
Ġë§ŀì¶° ìķ¼
Ġì§ĢëĤ´ ëĬĶ
ĠëĤ¨ìŀĲìķł ëĵ¤
ìĮ¤ ìĿ´
Ġë¶Ģì¡± íķľ
Ġê´Ģê³Ħ ê°Ģ
Ġê»į ëį°ê¸°
ĠëļĿ ëĶ±
ĠìŀĪ ê²łìĸ´
ìĤ ĺ
Ġìĺ¤ ê¸´
ĠìĿ¼ êµ¬
Ġì§Ģ ì¹ĺ
ê¸Ī ìĿĢ
ĠìŀĲ ë³¸
ĠëĺĲ ìĿ´
ì¹ĺ ë§Ī
Ġìłľì£¼ ë§Ĳ
ëıĻ ìĿĦ
ĠìĦ¸ ìĪĺ
Ġê²½ íĹĮëĶĶ
ìĨį ìĹĲìĦľ
ĠíĮĶ ìŀĲ
íĶĦ íĭ°ì½ĺ
Ġê³¼ ê°Ģ
Ġë¨¹ìĿĦ ê²Į
Ġë¬¼ìĸ´ ë´Ĳìķ¼
ĠëĨĶ ê°Ģì§Ģê³ł
Ġìĭľìŀĳ íķĺê³ł
íĨł ë¦¬
ĠìķĪëı¼ ìļĶ
ĠìŀĲë¦¬ ìłĵ
ĠìĿ¸íĦ°ëĦ· ìĹĲìĦľ
ë²Ħëł¸ ì§Ģ
Ġë°Ŀ ìĿĢ
ê°Ģ ëĬ¥
ëŀ ©
Ġê°Ģ ë³¼
ì£¼ ë©´ìĦľ
ìĭľ ìłĪ
Ġê·¸ê±° ëĦ¤
Ġëª» íĸī
Ġê·¸ëŁ¬ íķľ
Ġë´ ł
Ġë§Ī ëĨį
Ġë¹Ħ ìĸ´
ë¹Ħ ë§Į
Ġì¤Ħ ìĹ¬
Ġë´¤ ëĤĺ
Ġë°ĺ ìĹĲìĦľ
ê³Ħ íļį
Ġëĳĺ ëłĪ
Ġìĺ¨ ëıĦ
Ġìŀł ìŀĺ
Ġê·¸ê±´ ëį°
Ġì¶Ķ ìļ´ëį°
Ġì½Ķë¡ľëĤĺ ëķĮë¬¸ìĹĲ
ëĤ¬ ì§Ģ
Ġëĭ¤ìĦ¯ ê°ľ
ìħĺ ìĿ´
Ġê°Ģê²Į ìĹĲ
Ġìłĳ ìĭľ
ĠíĶĦ ëĿ¼ìĿ´
Ġìļ°ë¦¬ëĤĺëĿ¼ ìĹĲìĦľ
Ġìĩ¼íķĳ ëª°
ĠíħĶëłĪ ë¹ĦìłĦ
ê³ł ëª¨
ĠìķĪ ìĹĲëĬĶ
ĠìĿ¼ ìĿ´ìķ¼
ìĿ¸ ì§ĢëĬĶ
Ġìĭľ ëĤĺ
Ġìŀĺ ëŀĲ
Ġíķł ëķĮëıĦ
ĠìĦł ìĿĦ
Ġê°Ī ìķĦìĦľ
ĠìĻĶ ëĮĢ
Ġì£½ ê²Į
ì¢ ģ
ĠëĨĵ ìķĦ
ëĭ´ ìĿĦ
Ġì°© ì°©
Ġë¯¸êµŃ ìĿĢ
Ġê¶ģê¸Ī íķ´ìĦľ
Ġíķ´ìķ¼ëĲĺ ì§Ģ
Ġë°Ķê¾¸ ëĬĶ
Ġë§ŀì¶Ķ ê³ł
ê¸ ĢìĿ´
ìķ¼ ìĿ´ê°Ģ
ĠíĸĪ ëĬĶëĶĶ
ĠìĹĨ ìĹĪìĿĦ
Ġë°Ķ ìĹĲëĬĶ
ĠëĤ¨ ëħķ
ĠìĦ¸ ìļ¸
Ġë´Ĳ ì£¼ê³ł
ĠìĪ Ń
Ġëĭ¹ íķ´
ìĪ ²
ìĺ¨ ëĭ¤
ë¶Ī ì§Ģ
Ġêµ°ëĮĢ ìĹĲ
ĠëĤ® ìķĦ
ĠëĤ´ëħĦ ìĹĲëĬĶ
Ġìĸ´ìļ¸ ë¦´
Ġë³´ëĥĪ ëĬĶëį°
ĠìĦ±ëĭĺ ìĿĢ
Ġìĸ´ëĶĺ ê°Ģ
ĠìĻ¼ ìª½
¾ °
ë©´ ìĹĲ
ĠìŀĪ ëĵľëĿ¼ê³ł
ĠëĤ´ ìŀ¥
ĠìĹĨ ëĥĲ
ĠìĹ¬ ì¹ľ
Ġíķł ê±¸
ìĪĺ íĻĶ
Ġë°Ķ ìģł
Ġê·¸ëķĮ ë§Į
ëĵľ ëıĦ
Ġê°ĻìķĦ ëıĦ
ĠíĮĮ íĬ¸
ĠëĿ ½
Ġì¦Ĳ ê¸°
Ġìĭ± íģ¬
ĠëĪĦê²Į ê°Ģ
ĠìĥĮëĵľ ìľĦì¹ĺ
Ī ìĿ´
Ġê±° ê¸¸
ĠëĤĺ ëĿ¼ëıĦ
ë¦¬ ëĬĶê±°
ìĭ ¯
ëĤĺ ê°Ģì§Ģê³ł
Ġíķ´ ë³Ģ
Ġíķľ ìĪ¨
ĠëĤ´ ë¦¬ë©´
Ġìŀĺ íķ´ìķ¼
ëĮĢ ìĭł
Ġëĵ¤ ë©´ìĿĢ
ĠìķĬ ìĿįëĭĪê¹Į
ê±´ ìĿ´
Ġë¹Ħ ìĥģ
ĠìĹĨìĸ´ ì§Ģê³ł
ĠëħĦ ë§Į
ĠìķĮìķĦ ìł¸
Ġë´¤ ìĹĪëĬĶëį°
ĠíĨ ³
Ġìŀ¥ ìĤ¬ê°Ģ
Ġìŀ¥ ë©´ìĿ´
ĠìĹ¬ìŀĲ ìķĦìĿ´
Ġìŀ¡ ì´Ī
Ġìª½ íĮĶ
ĠìķĦì§ģ ê¹Įì§ĢëĬĶ
Ġì¹ł ìĦ±
Ġê³¨ ê³łë£¨
Ġìĸ¼êµ´ ë§Į
ĠëĤ³ ëĬĶ
ìĸĺ ëĬĶ
Ġë²ķ ìĿ´
ĠìĤ¬ê·Ģ ëĬĶ
Ġì§¤ ëĿ¼
Ġë¶ĪìķĪ íķ´
Ġìĺ¤íĨł ë°Ķ
ĠìĤ¼ëĭ¤ ìĪĺ
ĠìĿ´ ìłĦ
ì§Ģ ìĽĲ
Ġì§ Ń
Ġëĭ¤ íķ´
Ġìĺ¤ ëĤĺ
Ġë§İ ëĮĦ
Ġê³ł ìĤ°
ĠìĽĲ ìĿ¸ëį°
ĠìĿ¸ ìĽĲ
ìĻĢ ìĭłëĶĶ
ĠëĳĲ ê»į
Ġëª¨ë¥´ ëĦ¤
Ġêµ¬ ë§¤
Ġëªħ ìĿ´ëŀĳ
ë¶Ħ ëĵ¤ìĿ´
Ġë°ĺ ê¹Įì§Ģ
ëĤĺëĬĶ ìĿ´
ê°Ķ ìĿĦ
íĺĢ ê°Ģì§Ģê³ł
Ġë¦¬ ìĸ¼
Ġì±Ħ ëĦĲ
ë²ķ ìĿ´
ĠìĤ¬ìĭŃ ë¶Ħ
ĠëĶ°ëĿ¼ ê°Ģ
Ġìĸ´ìłĢê»ĺ ëıĦ
ĠìĪľê°Ħ ë¶ĢíĦ°
Ġê°Ģê²© ëıĦ
ĠëĨĢëŀ¬ ìĸ´
Ġíķ´ìĪĺìļķ ìŀ¥
ĠìĿ´ ë¡ł
íķ´ ì§Ī
ĠìĿ¼ ëĮĢ
Ġëĵ ¬
Ġname ìĿĺ
Ġê¸° ë¶Ģ
ĠìĿ´ëŁ° ìłĢëŁ°
ìļ° ìĻĢ
ë¯¸ êµŃ
ì§ĳ ëĭĪëĭ¤
Ġìŀħ ìĹĲìĦľ
Ġë¯¸ ëł¨
Ġìľł ëıħ
ê²½ íķĺëĤľ
Ġìĺ¤ëĬĺ ë¶ĢíĦ°
ĠìĨĶ ìŀİ
ĠìĪł ìĿĢ
ë°° ìļ°
Ġê°Ģìł¸ ìĺ¤
Ġë³ĳìĽĲ ëıĦ
Ġê· ĵ
ë» ĺ
Ġê¿Ī ìĹĲ
Ġê¿Ī ìĿĢ
ĠìĥĿíĻľ ë¹Ħ
Ġì¢ĭìķĺ ìĿĦ
Ġëħ¼ ëŀĢ
Ġìĸ´ëłµ ê³ł
ĠìĮį ìĪĺ
ĠìĶ¹ ìĸ´
Ġì¢ĭ ê²ł
Ġëª» ê°Ģê³ł
Ġêµ ¼
Ġë§Ī ìļĶ
Ġë§Ľ ìľ¼ë¡ľ
Ġìĸ¼ ìĸ´
Ġë¨¹ìĸ´ ë´¤ëĬĶëį°
Ġë¶Ħ ìĿĦ
ìĶ¨ ëĬĶ
íĪ¬ ìĬ¤
ĠìĿ´ìĦľ ìķ¼
Ġë¬¸ìłľ ìķ¼
ìħĶ ì¸ł
Ġë¿ Ķ
íĳľ ë¥¼
ë§Įíģ¼ ìĿĢ
ëıħ êµĲ
Ġìłķë¦¬ íķĺê³ł
ĠíĻĪ ìĩ¼íķĳ
ĠìĤ¬ ë©´ìĿĢ
ë³´ ëĬĶëį°
ëĥĲ ë©´ìĿĢ
Ġë°Ķ ëĬĺ
Ġìĸ´ëĶĶ ëĭ¤
Ġì°¨ ë¶Ħ
Ġê°Ī ëĿ¼ê³ł
Ġíĥ ±
ĠìĤ° ìĿ´
Ġìļ´ëıĻ íļĮ
ìį ½
Ġê°Ģì§Ģ ëŁ¬
ĠìĹ¬ê¸°ìĦľ ëĬĶ
ĠëķĮê¹Įì§Ģ ë§Į
Ġê°ģìĭľ ê°Ģ
Ġì§Ģì¼ľ ìķ¼
íķĺë£¨ ìĹĲ
ĠìµľìĨĮ íķľ
ìĪŃ ìķĦ
Ġìĺ¤ë¡ľ ì§Ģ
ĠìĨĲíĿ¥ ë¯¼
ĠëĲĺ ë¶ĢëĤľ
ĠìŀĲ ìľ¨
ëĮĢ ìŀ¥
Ġë§ŀ ìŀĸìķĦ
Ġê¸° ì§Ģ
ĠëįĶ ëŁ½
ëĵľ ëŀĳ
Ġëĭ¬ ìĿĢ
Ġìłľì£¼ëıĦ ìĹĲìĦľëĬĶ
Ġëªħ ë°ĸìĹĲ
Ġì£½ ìĹĪìĸ´
ì¡° ë¦¼
ì²´ ìłģìľ¼ë¡ľ
Ġê·¸ëłĩ ì£ł
Ġìķłê¸° ëĵ¤ìĿĢ
Ġë§ĮëĤĺ ëıĦ
Ġì¤Ģ ëĮĢ
êµ° ëĮĢ
Ġì³Ĳ ìĦľ
ĠìłĢëħģ ìĿĦ
ìĹ´ ìĭ¬íŀĪ
Ġê¸ī íķľ
Ġë°Ľìķĺ ê±°ëĵł
ĠìĹ¬ëįŁ ìĭľ
Ġê¸°ë¦Ħ ìĿ´
ĠìķĮëł¤ ì£¼
ê°Ĵ ëıĦ
ĠìĦŀ ìĹ¬
Ġìµľê³ł ìĿĺ
Ġìłľì£¼ìĭľ ìĹĲìĦľ
ĠíĤ¤ìĽĮ ìķ¼
Ġí Ģ´
ë¦¬ ìĬ¤íĬ¸
ĠìĤ¬ ëĿ¼ê³ł
ìĹĪ ì£¼ê²Į
ĠìłĢ ì§Ģ
Ġë² Ļ
Ġê·¸ëłĩê²Į ëĬĶ
Ġname ìĿ¸
ìłĦ ëıĦ
Ġëª¨ ìĿ´ëĬĶ
ìķĺ ê³ł
Ġê²½ íķĺëĤľ
Ġì°¨ ë¦¬ê³ł
ë§Ĳ ìĹĲ
Ġë°° ëıĦ
Ġë°° ìĽĮìĦľ
ĠìĹ´ ë©´
ĠìĹ´ ìĸ´ìĦľ
Ġìĵ° ë©´ìĿĢ
ë¯Ħ ìĿ´
Ġê·¸ë¦¬ ëĬĶ
ĠëĤł ëł¤
ĠëıĦ ëĿ¼
Ġìŀ¥ ìĤ¬ë¥¼
ĠêµĲ ê³¼
ĠìĹĲ íĶ¼
ëŃĲ ìķ¼
ĠëĿ¼ ëĸ¼
ìĨĲ ìľ¼ë¡ľ
Ġê·¸ë¶Ħ ìĿĢ
Ġëĭµëĭµ íķľ
ĠìłĦì²´ ìłģìľ¼ë¡ľ
ĠíĶ¼ìĶ¨ ë°©
Ġê³łê¹ĥ ì§ĳ
Ġì§ĢìłĢ ë¶Ħ
ê³ °
ìĿ´ ëħģ
íķĺ ìŀĲë§ĪìŀĲ
ĠëĤ´ ê¸°
Ġë¨¹ ì§Ħ
ĠìĿ¼ íķĺë©´
êµ¬ ìĿ´
Ġìĭľ ì¯¤ìĹĲ
ì¤ ı
ĠìĥĿê°ģ íķĺê¸°
ĠìĤ´ ìķĻ
Ġë¬´ ëĤľ
Ġì§Ģê¸Ī ì²ĺëŁ¼
Ġê±¸ ìĸ´ìķ¼
ëĵľ ëł¤
Ġì¤ĳ ìĹĲëĬĶ
Ġìĺ¬ ê±°
ìķł íĶĮ
ĠìĨĮ ë§¤
ĠëĪĦ ë¥´
Ġëĭ¬ ë§Į
ĠëħĦ ìĿ¸ê°Ģ
ĠëĤł ìĹĲëĬĶ
ĠìķĮìķĦ ê°Ģì§Ģê³ł
ĠëĤĺìĺ¤ ëįĶëĿ¼
Ġë°± ì¹łìĭŃ
ĠëŃĲëĥĲ ë©´ìĿĢ
Ġìª½ íĮĮ
Ġê·Ģ ê°Ģ
Ġë¶Ļ ìľ¼ë©´
ĠìĿĮìĭĿ ë¬¼
ĠìĬ¤íĥĢ íĬ¸
Ġê±´ê°ķ ìĿ´
Ġê²¨ìļ¸ ìĿ´
ì¼Ģ íĮħ
ĠëĨĴ ìĿ´
Ġê¹Ģì¹ĺ ë¥¼
ê¼¬ ë°ķ
Ġë°Ľìķĺ ì§Ģ
ĠìĽĢì§ģ ìĿ´ì§Ģ
Ġë°Ķê¿Ķ ìĦľ
Ġìĺ¥ ìĪĺìĪĺ
ĠìķĦëĭĻ ëĭĪëĭ¤
ĠìĪĺì¤Ģ ìĿ´
Ġê²°ë¡ł ìĿĢ
ĠìĬ¤ì¹´ ìĿ´
ĠìĤ¬ì¶ĺ ê¸°
. #
Ġ XX
Ġê±° ë¦Ħ
ëĭ¤ ë©°
íķĺ ë©°
ĠìķĪ íķĺëĭĪê¹Į
ê·¸ ìŀĲ
ĠëĤ´ ë©´ìĦľ
ĠìŀĲ ìĨĮ
Ġìķ½ê°Ħ ìĿĺ
ĠëĤ¨ ìķĺëĬĶëį°
Ġê°ľ ìĿĺ
Ġë¯ ¹
Ġëªĩ ëªħ
ĠëħĦ ì§¸
Ġë¬¸ ìŀĲê°Ģ
ëł¸ ê±°ëĵł
Ġìĺ¨ ì²ľ
ĠìĤ° ë¶ĢìĿ¸
ë°° ë¥¼
Ġë°Ķë¡ľ ë°Ķë¡ľ
Ġë³¼ ê²Į
Ġì¤Ģë¹Ħ íķ´ìķ¼
Ġì¹´ëĵľ ë¡ľ
ĠìĨĲëĭĺ ëĵ¤ìĿ´
Ġë§ĺ ëĮĢë¡ľ
Ġìĵ¸ëį° ìĹĨëĬĶ
2 0
ì Ń
Ġ ~
ĠìĿ´ ê±°ëĵł
ĠìĿ´ ìĭłê°Ģ
Ġê±° ìļ°ëĭ¤
Ġê·¸ê±° ê°Ģ
Ġê²ĥ ìĿ¸ê°Ģ
ĠìĪĺ ë¦¬
Ġê·¸ëŁ¬ ëįĶëĿ¼
ĠìķĬ íķ´
Ġì£¼ ì¼Ħ
Ġê±¸ ëł¨
ĠìĺĪ ìĺĪ
ìĭ¤ ìĿĢ
ĠìĦł ìŀĦ
ĠìłĢê¸° ëıĦ
ĠìĦ± íĸ¥ìĿ´
ê°ľ ìĿ¸
Ġì£½ ìĸ´ìĦľ
ìĦł ë¬¼
Ġê°ĳ ëĭĪëĭ¤
ĠëĲĲ ìľ¼ë©´
ì§¸ ë¡ľ
Ġëģ¼ ë©´
Ġì¤ĳêµŃ ìĹĲ
ĠíĹ¤ ìĹĦ
Ġìļ°ë¦¬ì§ĳ ìĿĢ
ĠêµĲíļĮ ë¥¼
Ġíķłê±° ë©´
ĠëĪĮ ëłĢ
Ġíķĺìĸ Ĺê²Į
ĠìĭľëģĦ ëŁ¬ìĽĮ
í į½
Ġê·¸ ê³³
ì§ ¤
ëł ¬
Ġëĭ¤ ë¦¬ë¥¼
Ġë³´ ìĤ´
Ġë§Ĳ ìĶĢìĿ´
Ġê°Ļ ëĮĢ
Ġìĺ¤ ì§Ģê²Į
Ġë² ĦìłĦ
ĠìĪĺ ëª©
ĠìłĦ ì£¼
ĠëĤ¨ ëĵ¤ìĿ´
ĠëıĻ ê·¸ëŀĹê²Į
ĠëıĦ ì¿Ħ
ĠìĻĶ êµ¬ëĤĺ
ĠëĦĺ ê¸°
ê³µ ìĿ´
ĠìĤ¬ëĬĶ ëĶĶ
Ġë©Ķ ë¦¬
Ġë©Ķ ëª¨
Ġìĥ µ
ĠìĿ´ìľł ë¥¼
ĠëĵľëĿ¼ë§Ī ëĬĶ
Ġíľ´ ì§Ģ
ĠìķīìķĦ ìŀĪëĬĶ
Ġë¿Į ë¦¬ê³ł
Ġë¯¼ ì¡±
Ġì¹´íĨ¡ ìĿĦ
Ġë§ĲíĪ¬ ê°Ģ
Ġê¼¼ ì§Ŀ
ëį° ê°Ģ
Ġíķĺ ëĵłì§Ģ
ĠëĤĺ íķľíħĲ
Ġê°Ģ ì§Ģë§Į
ĠìķĪ ë°Ľ
ĠìĤ¬ ë£Į
Ġíķ´ ì§Ī
ê·¸ ëĭ¤ìĿĮ
íķ´ ë´Ĳ
Ġìĺ¤ ë¹¤
ê± ·
ë¶Ģ ìĤ°
Ġëĵ¤ ê¸´
Ġë§Ī ì¹ĺ
Ġë¶Ģ ëĳĲ
íĸī ìĿ´
íĮ Ŀ
Ġëªħ ìĿ¸ëį°
Ġë§¤ ì§ģ
ĠëĦ¤ ìĿ¼
ë°° ê°Ģ
ê¸¸ ìĿ´
Ġê¿ ĩ
ìŀħ ìĿĦ
Ġë§İìĿĢ ëĶĶ
íĴĪ ìĿ´
ëľ °
ëĵ¤íķľíħĮ ëıĦ
ìłľì£¼ëıĦ ìĹĲ
ëĨĪ ìĿ´
Ġê°ĢëĬ¥ íķľ
Ġì´Īë°ĺ ìĹĲëĬĶ
Ġê¸°ì¤Ģ ìľ¼ë¡ľ
ê°Ģ ë°©
ĠìĿ´ ìĤ¬ë¥¼
ĠìĤ¬ ìĭľ
Ġìĸ Į
Ġìĺ¤ ëĶĶìĺ¤
ĠëĲĺ ê²łêµ¬ëĤĺ
ìĭľ íĤ¬
Ġìŀĺ ìĤ´
Ġëĵ¤ ìĹĪëĭ¤
ìĿ¼ ê±¸
Ġê²Į ìľ¼
ë¹ ħ
Ġëª¨ ìĭľ
Ġë§Ī ì¹´
Ġë§Ī ë¦¬ê°Ģ
ìĭŃ ëĶĶëĭ¤
Ġì¢ĭìķĦ íĸĪëĬĶëį°
ĠìŀĪëĬĶ ê±°ì§Ģ
Ġê²½ íĹĪë©į
ĠìĻĶ ìľ¼ëĭĪê¹Į
ì¡° ê°Ģ
ìłĲ ëıĦ
ĠìĽĶ ëĵľ
ĠíĿ ł
ĠìĿ´ìĭŃ ìľ¡
ĠêµŃ ë¦½
Ġê³¨ ëĿ¼ìĦľ
ĠíĴĢ ëł¤
ĠíĭĢ ë¦¬ê³ł
ê¸Ģ ëĿ½
ê¿ Ķ
Ġë³µ ìĪĺ
ĠìĶ¨ ê°Ģ
ìħĺ ìĿĦ
Ġíķľëĭ¤ ë©´
Ġíķ´ê°Ģ ëĤľ
Ġê°Ħíĺ¸ íķĻê³¼
Ġìķłë§¤ íķľ
ĠëıĻê·¸ ëŀĢ
Ġíıīìĥģ ìĭľ
Ĺ ê³ł
ìķĦ ëŀĺ
Ġìĸ´ ìĪĺëĭ¤
Ġëĭ¤ ì¹ľ
ë° ´
ì£¼ êµ¬
ê¸Ī ë°©
ìĹĲìĦľ ë¶ĢíĦ°
ë¶Ģ ë¶Ģ
ë³´ ìłł
Ġì£¼ ê²Į
ĠìķĦìĿ´ íħľ
Ġë§Ī ëŀĳ
Ġìĺģ íķĺ
Ġê±¸ ìľ¼ë©´
ĠìĹĦë§Ī ëĵ¤
ĠìĤ¬ëŀĮìĿ´ ëĤĺ
Ġë¯¸ ë¤Ħ
ĠëıĦ ëĳĲ
ĠíĮĶ ìĽĶ
Ġëĭ®ìķĦ ë§ĪìĶ¨
ìģ ¨
Ġëĭ¨ ê³¨
Ġíŀĺëĵ¤ ìŀĸìķĦ
Ġì²ľ ì§Ģ
Ġë¶Ļ ìĿ´
Ġìŀ¬ë¯¸ ëıĦ
ìĪł ìĿĦ
ìĻ¸ ê³¼
Ġê·¸ë§Į ëĳ¬
ĠìĶ¨ ë°ľ
ë¥ĺ ê°Ģ
ĠíļĮìĤ¬ ë¥¼
ëĲł ê±°
Ġíķ´ë³´ ëĬĶ
ìĬ¤ëŁ½ ê³ł
Ġì© Ķ
ĠìĽĥê¸° ëĭ¤
Ġì§ķ ê·¸ëŁ¬
Ġë¦ ½
Ġë°Ķê¸Ģ ë°Ķê¸Ģ
ê°Ģ ìł¸
Ġí į½
ì§Ģ ìĹŃ
ë¦¬ ëĤĺ
ĠìĤ¬ ê°Ģ
Ġë¨¹ ê±°ëĤĺ
ĠìĤ¬ëŀĮ ì²ĺëŁ¼
Ġìĭľ ë¯¼
Ġìĭľ ê¸°ìĹĲ
ĠìķĮ ê±°
ĠìķĦìĿ´ ëŀĳ
Ġê¸° ê´Ģ
Ġê¸° íĶĦíĭ°ì½ĺ
ëĤ´ ìķ¼
ĠìĿ¸ ê³µ
Ġë¶Ģ ì£¼
Ġê°ľ ë¡ľ
ì²Ń ëıĦ
Ġëį° ìĿ´
xx xxx
Ġì°¨ ëł¤ìĦľ
ĠìĦł íĺ¸
ĠìĹ´ ìķĦíĻī
ĠìĹ° ìĦ¸
Ġêµ¬ ê¸Ģ
ìĤ° ëĶĶ
ê°Ļ ìĿĢëį°
ĠìķĦê¹Į ìĽĮìĦľ
íı¬ ê°Ģ
ëĪ Į
Ġëĭ¤ìĿĮ ìĿĢ
Ġìļ´ëıĻ íķł
ĠëĭĪ íĬ¸
Ġëħ¸ëŀĺ ëĬĶ
ĠíĺĦ ê´Ģ
Ġë²ł ìĬ¤íĬ¸
ĠìłĢê±° ëĬĶ
Ġê·¤ ìĿ´
ìĿ¼ëĭ¨ ìĿĢ
Ġê°Ģë°© ìĹĲ
ë± ĥ
Ġê½ģ ì§ľ
Ġë°©íĸ¥ ìľ¼ë¡ľ
Ġë£¸ ë©Ķ
Ġê·¸ëĵ ¤
Ĳ ì§Ģ
ĠìĿ´ ìĪĺëĭ¤
Ġê·¸ë ¬
Ġìĺ ³
Ġë°Ľ ê²Į
ìķł ëĵ¤ìĿĢ
ëĭ¹ ìľ¼ëĦ¤
Ġìľ¡ ê°ľ
Ġì¹ĺ ë©´ìĿĢ
Ġê°Ĳ ê³ł
Ġë§Įëĵ¤ ëł¤ê³ł
Ġìĺ¨ ëĮĢ
ĠëĤĺìĻĢ ìļĶ
ĠìŀĶ ì¹«
Ġëĵ± êµĲ
ĠìĹĲìĿ´ ì¹ĺ
ĠëĨĢëŁ¬ ê°Ģ
ĠìķĮëł¤ ì£¼ê³ł
ĠëĦĲ ìĸ´
Ġë§ŀì¶Ķ ëĬĶ
Ġìį© ìĿĢ
Ġëºı ìĸ´
ĠëıĮë©© ìĿ´
ĠìĿ´ ëĬĶ
ìĦľ ë°©
ë¦¬ ë©į
Ġê°Ģ ëįĶëĿ¼ê³ł
Ġëĭ¤ ëĬĶ
Ġë§ī ëĳ¥
ĠëŃĲ ëĭ¤
Ġìĸ Ħ
ìĭľ íĤ¨
ĠìŀĲ ê°Ī
ë¶Ģ ìĹĲ
ê²ł ìĬµëĭĪê¹Į
Ġëª¨ ìľ¼
ëĭĺ ëĵ¤
ĠìĿ¸ ê±´
ĠìĦ¸ ìĭľ
ìĺģ ìĸ´
Ġë°° ìĹĲ
Ġêµ¬ ìļ´
ĠëĤĺìĺ¤ ê²Į
Ġëħ¸ ê°Ģëĭ¤
ë£¨ ë§Ī
Ġìŀ¥ ìĪĺ
ĠëĨĢ ëĭ¤
Ġë§ĽìŀĪ ìĹĪëĬĶëį°
Ġìī Ĳ
Ġì½Ķë¡ľëĤĺ ë¡ľ
ĠìłĪ ìķ½
ì¢ĭ ê²Į
Ġì»¤íĶ¼ ëıĦ
ëĲĲ ëĭ¤
Ġì¦Ĳ ê²ģê²Į
ĠíķĺìĸĢ ìĥī
Ġê³łë§Ļ ëĭ¤ê³ł
ì¡¸ ìĹħ
ë´ħ ìį¨
Ġì¤Ħìĸ´ ëĵ¤
Ġë¹ĦìĮ Į
. )
. .
ĠëĤ´ ìĹĲ
ĠëķĮ ë³´ëĭ¤
ìŀĲ ìĭĿ
Ġìĭľ ìĻ¸
Ġë§İ ëįĺëį°
Ġë§Į ì§Ģ
Ġì£¼ ë¦Ħ
ëįĺ ê²Į
ìĭŃ ëĭĪê¹Į
Ġê±¸ ë¦¬ì§Ģ
Ġë¹Ħ íĬ¸
Ġê°Ī ì§Ģ
ĠìĤ¬ëŀĮìĿ´ ë©´
Ġëªħ ìĿ´ëĤĺ
ë¶Ħ ê°Ħ
ĠëĲł ê±¸
íĥĢ ìŀĦ
Ġíģ° ìķĦëĵ¤
Ġìļ° ìĤ°
Ġì£½ ì§Ģ
ĠíĤ¤ ìĽĮìĦľ
ìłĲ ìĭ¬
ĠìŀĪìĹĪ êµ¬ëĤĺ
ĠëĲĲ ìľ¼ëĭĪê¹Į
ëĤ¬ ìł¸
Ġëª¸ ìľ¼ë¡ľ
Ġì¤Ģ ëĮĦ
ĠìĬ¤íĥĢ ë²ħ
Ġë¬´ìĦľ ìļ¸
Ġìŀ¡ìķĦ ê°Ģì§Ģê³ł
Ġë°Ľìķĺ ìĿĦ
Ġë°ĽëĬĶ ëĭ¤ê³ł
Ġë²½ ìĹĲ
Ġìĵ°ëŁ¬ ìł¸
Ġê³° íĮ¡ìĿ´
Ġë°ĺìĿĳ ìĿ´
Ġì´Īì½ľ ëłĽ
ĠëĶĶìłĢ íĬ¸
ëĭĪ ìĬ¤
ê²Į ê²Į
ë© ¸
íķľ ê±´
Ġìļ°ë¦¬ ì²ĺëŁ¼
ĠëķĮ ê³ł
Ġë¨¹ ê²łëĭ¤ê³ł
ĠìłĢ ì¶ķ
Ġìłľ ìĻķ
Ġìłľ ìĤ¿
ĠìķĮ ê¸°ë¡ľëĬĶ
ĠìłĦ ìŀĲê¸°
ĠìĤ¼ íĻĶ
Ġìĭ¶ ëĮĦ
Ġë°Ľ ìŀĸìķĦ
ë§ī ìĥģ
Ġìĺ¨ ê±°ìķ¼
Ġë²Į ìĸ´ìķ¼
ê²ħ íĹĮëĶĶ
Ġì§ģ ìŀ¥ìĿĦ
Ġë¶Ļ ìĿĦ
Ġê°Ģìł¸ ê°Ķ
ĠìķĪëĲĺ ëĬĶê±°
Ġíı¬ ë¥´
ì» ¥
Ġì§Ħ íĨµ
ì¤¬ ìŀĸìķĦ
Ġëª¨ë¥´ê²ł ëĬĶ
Ġì¤ĳêµŃ ìĿĢ
Ġì¡´ ì¤ĳ
Ġê·¤ ìĿĦ
ĠëĵľëĿ¼ë§Ī ê°Ģ
Ġì±Ļê²¨ ì£¼ê³ł
ëļ ¤
ĠìĿ¸ìĬ¤íĥĢ ê·¸ëŀ¨
Ġíħĥ ë°Ń
Ġê³¶ ìŀĲìĻĪ
ĠìĿ¸íħĮ ë¦¬ìĸ´
ê° ±ìĿ´
ê¸° ìĹĶ
ë¦¬ ëĦ¤
ìłľ ìĤ¬
ĠëĦĪ ì²ĺëŁ¼
Ġìĺ¤ ëĿ½
Ġìĺ¤ íĶĦ
name ìĿ´ëŀĳ
ìľ¼ë¡ľ ìį¨
ĠìĥĿê°ģ íĸĪìĿĦ
Ġë§ŀ ì·Ħ
Ġë¶Ģ ì¶Ķ
ĠìĹ¬ê¸° ë§Į
Ġìĭł ëĶĶ
Ġìŀħ ìĸ´ëıĦ
Ġêµ¬ ëįķ
Ġì¡°ê¸Ī ìĿĢ
íĹĪ ëĭ¤
ĠìĨĲ ëª©
Ġíĺ¸ ê¸°
ëĭ¬ ëŀĺ
Ġìĺ¬ëĿ¼ ìĺ¬
ì³Ĳ ëıĦ
ĠìķĮë°Ķ ëĬĶ
Ġìµľ ì¢ħ
ìĤ¼ ë°±
Ġê·¼ ë¡ľ
ìĸ´ê°Ģ ë©´
ê²¼ ëĬĶëį°
êµ° ìļĶ
Ġëĸł ëĵ¤
Ġë°Ģ íģ¬
Ġì±Ħ íĮħ
ĠíĬ¸ ëłĮ
íıī ê°Ģ
ĠìĦ¤ëªħ íķ´
Ġì§ĢëĤĺê°Ģ ë©´ìĦľ
ĠëĥĪ ìĸ´
Ġê·ĢìĹ½ ëĭ¤
Ġìłķë³´ ë¥¼
ĠíĪŃ íĪŃ
Ġë¡± íĮ¨ëĶ©
ĠìĿ´ ë¤Ħ
Ġìĺ ¹
ĠìĤ¬ ìĽĶ
êµ ½
íķ´ ëĤľ
Ġë§Ĳ ëŀĲ
ìĹĪ ìĹĪìĸ´
ĠìĿ¼ íķĺëĭ¤ê°Ģ
Ġê·¼ëį° ëıĦ
Ġìĭľ ë£¨
ĠìĪĺ ëıĹ
ë³´ ê°Ģ
ìĿĮ ìķħ
Ġëª¨ ìĹ¬ê°Ģì§Ģê³ł
Ġìłķ ì§Ģ
Ġì¤ĳ ìĿ´
Ġìŀħ ìĭľ
Ġë°± ìĿ¼
Ġìĸĳ ëıĦ
ĠìĪł ë§Į
ì¤Ģ ë¹Ħ
Ġë³´ëĤ´ ì¤Ģ
ê½ ī
ĠíĦ° ì§ĢëĬĶ
ĠíĦ° ì§Ģê¸°
Ġë©´ ëıĦ
Ġì§Ī ëŁ¬
Ġë½ĳ ìĿĦ
Ġë¹µ ìĿ´
Ġê¹ľ ê¹ľ
ë´ī ìĿ´
ĠìķĪëĤĺ ìĻĢ
ì¶ķ êµ¬
ĠìķĮëł¤ ì¤ĺ
ĠìľłíĪ¬ë¸Į ìĹĲ
Ġë§ĲìķĦ ëĿ¼
ê³ ½
Ġëª «
ĠëŃĲ ê½Ī
ì£¼ ìŀĸìķĦ
Ġìĺ¤ ìĭł
íĺ Ĳ
ĠìĿ¸ ê°ĦìĿ´
Ġìĸĺê¸° íķ´ëıĦ
Ġìłľì£¼ ëĮĢíķĻêµĲ
ëĭ¹ íķĺê²Į
Ġìĥģ ìŀĲ
ĠìĻĶ ëĤĺ
ìħ ©
ĠìĭĿ ë¬¼
ĠìĻ¸ ë¡Ń
Ġë¶Ļ ìĹ¬ìĦľ
ĠìĦ¤ ë¬¸
Ġìļ¸ ìĹĪìĸ´
Ġë©´ ìĿ´
Ġëĵ¤ìĸ´ìĺ¤ ì§Ģ
ëĭ¤ëĭĪ ë©´ìĦľ
ĠìĿ´ì²ľ ìĽĲ
ĠìłĲìĭ¬ ìĿĦ
Ġêµ¬ê²½ íķĺê³ł
Ġìĺ¥ ìĥģ
Ġì³Ĳëĭ¤ ë³´ê³ł
Ġëª¨ë¥¸ ëĭ¤ê³ł
Ġë©ĶìĿ´ íĶĮ
Ġíķ´ìĤ° ë¬¼
Ġê° ¯
Ġê±° ì§Ģë§Į
ì£¼ ëĬĶê±°
Ġë§Ĳ ëĵł
ĠìŀĲ ë¥¼
ĠìŀĲ ëŀĢ
ìĪĺ ìĹĲ
Ġì£¼ ìĭľ
Ġì£¼ ê²łëĭ¤
ĠìĺĪ ìłķ
ë£ ¹
ĠìĤ¬ëŀĮìĿ´ ëĭ¤
Ġì¹ľêµ¬ ìĿĺ
Ġìłľì£¼ëıĦ ë§Į
ĠìķĮìķĦ ëĵ¤ìĸ´
Ġë´¤ ìľ¼ë©´
Ġëĭ®ìķĦ ìĦľ
Ġê°Ĳ ìĿ´
Ġì¹´ ìļ´
ĠìĤ¬ì§Ħ ìĿĢ
Ġíı¬ ìĿ¸
Ġê·¼ ëł¥
Ġê±±ìłķ ìĿĦ
ĠíħĮ ìĿ´íģ¬
ìĻľëĥĲ ë©´ìĿĢ
ĠëıĦìĻĢ ì£¼ëĬĶ
Ġëī´ ìļķ
ĠìĦľë°© ëıĦ
Ġëħ¼ ë¬¸
ĠìĺĪìģľ ëį°
Ġì¦Ĳ ê²¨
Ġë§¹ ì§Ī
ë¨¼ ìłĢ
Ġê·ľ ì¹Ļ
ĠìĭľìķĦë²Ħì§Ģ ê°Ģ
ëıĦ ê·¸
Ġê±° ë¶Ģ
ĠëĤĺ ë¹´
ĠìĤ¬ ìĿ¸
Ġëĭ¤ ì³¤
Ġíķ´ ë¶ĢëŁ¬
Ġê·¸ê±° íķĺê³ł
ìŀĪ ìĹĪìĸ´
Ġë¯¸ ìĦ¸
ëĵ± ìĿ´
ĠíĹ ¹
Ġìĸĳ ìķĦ
êº¼ ëĬĶ
Ġì°į ìĹĪìĸ´
Ġë²Į ë©´
ĠìĤ´ìķĦ ìĭłëĶĶ
Ġë¨¸ë¦¬ ëĬĶ
ĠìŀĪì§Ģ ìķĬ
ĠíķľêµŃ ìĸ´
Ġë§Įëĵ¤ìĸ´ ì§Ħ
ĠëĶ°ë¡ľ ëĶ°ë¡ľ
Ġì¹´íİĺ ë¥¼
Ġë¶Ģë¶Ħ ìĿĦ
ĠìŁ¤ ëĦ¤
ĠìĥĿê¸° ëĭĪê¹Į
ì ĳ¤
ì§Ģ ê±°ëĵł
ĠìķĦ êµ¬
Ġëĭ Į
íķĺ ëĵ¯ìĿ´
ĠëĤ´ ì°½
Ġìĸ ľ
ĠíĸĪ ìĿĦê¹Į
ĠìŀĲ ì¼ĵ
ĠìĪĺ ìłķ
Ġname ìĺ¤ë¹ł
Ġëª¨ ì§ĳ
Ġê³ł ëŀĳ
Ġë§ŀ ìķĪ
ìĭ¤ ëıĦ
ë¯¸ ëıĦ
Ġë°° ë¡ľ
Ġì½Ķ ì¹ĺ
ê°ľ ëıĦ
ìª½ ìĹĲìĦľ
Ġíķĺì§Ģ ë§Ĳ
Ġìĭ¤ ëł¥ìĿ´
ĠíļĮ ìŀ¥ëĭĺ
Ġëª© ìĹĲ
ĠíĨµ ìłľ
Ġìĸ´ëĬĲ ìĪľê°Ħ
Ġì³Ĳ ìķ¼
ĠëĤ¨íİ¸ ìĿ´ëŀĳ
ĠìķĬìķĺ ê³ł
ĠíĶĦ ìĤ¬
Ġê³± ëĭ¥
ĠíĹ¤ìĸ´ ì§Ī
ĠìĨĮê°ľ íĮħ
ĠìĤ¬ì´Į ëıĻìĥĿ
Ġë°Ķìģĺ ê³ł
ê³ł ëıĦ
ĠìĿ´ ëĦ¤
ĠìĿ´ ì¤ĳ
Ġê° ¬
ê±° ëĥĲ
íķĺ ìħ¨
ĠìĤ¬ ìķ¼ì§Ģ
ë¥ Ń
Ġë° §
ê·¸ ëĤĺë§Ī
íķľ ê±°ëĿ¼
ìĬ ĺ
ìĤ¬ ì£¼ê²Į
Ġìŀĺ íķ´ìĦľ
Ġì¤ ı
Ġê·¸ëŁ¬ ëĥĲ
Ġë¬´ ìĸ¸
ë³ ĢìĿ´
ĠìĿ¸ ê±°
íķł ëķĮëĬĶ
Ġë¹Ħ ëĶĶìĺ¤
ĠìĻĢ ìķ¼ì§Ģ
ĠìĦľ ë¹Ļ
ë¹Ħ ìĭ¸
ĠìĹ´ ë°Ľ
Ġì²ĺ ëħĢ
Ġë°ĺ ëıĦ
ĠìķĦìĿ´ê³ł ìķ¼
Ġëķ ĢìĿ´
ĠíĻĶ ìĥģ
Ġíİ¸ íķł
ëĤ¬ ê±°ëĵł
ì± Ħë¡ľ
íķĺë©´ìĦľ ëıĦ
Ġë¯¿ ìĿĮ
Ġì²ŃìĨĮ ëħĦ
Ġì´Ŀ ë¬´
ĠìĿ´íĽĦë¡ľ ëĬĶ
ìĿ´ë¡ľ ê·¸
Ġì¤ĳìķĻ ë¡ľ
Ġìĥģê´ĢìĹĨ ìĸ´
Ġíĭ ±
ìķĦì§ģ ëıĦ
ĠëŃĲìĺĢ ëįĶëĿ¼
Ġì¯ §
ĠìĹĲíĶ¼ ìĨĮ
ê°Ģ ë¦¬
ĠëĤĺ ìļĶ
ĠìķĪ ë³´ê³ł
ìķ¼ ìĿ´ëĬĶ
Ġíķľ ìĿ´
Ġíķľ ê³Ħê°Ģ
Ġë³´ ì¶©
ĠìŀĲ ë§ī
ĠìŀĲ ë¥´ê³ł
Ġì£¼ ìĭł
Ġëª¨ ìĿĢ
Ġë§Ī ë¸Ķ
ĠëĮĢ ë¬¸
Ġê³Ħ ìĭł
ê²½ íķ¸
Ġì²ĺ ë°©
ìĿ´ëĿ¼ ê°Ģì§Ģê³ł
ìĺĢ êµ¬ëĤĺ
ĠëĪĪ ë§Į
Ġìļ° ëıĻ
Ġìĸ¼ë§Ī ìĹĲ
Ġê¸¸ ëıĦ
Ġíķĺë£¨ ë¥¼
Ġê·¸ê²ĥ ê¹Įì§Ģ
Ġì§Ħ ë£Į
Ġë¬¸ìłľ ìĿ¸
ĠìĹ°ëĿ½ ëıĦ
ĠìķĮìķĺ ìľ¼ë©´
ĠëĤ¬ ìĿĦ
Ġìĭłëŀĳ ëıĦ
ĠìĤ¬íļĮ ìĥĿíĻľ
ĠëĨįìĤ¬ ì§ĵ
Ġìĸ´ìĿ´ êµ¬
Ġì§ĢíĤ¤ ëĬĶ
Ġë¹ĦëĮĢë©´ ìľ¼ë¡ľ
Ġì§Ħìĭ¬ ìľ¼ë¡ľ
Ġìĸ´ë§Ī ìĸ´ë§Ī
Ġì£¼ë¨¸ëĭĪ ìĹĲ
ĠìĹ¬ëĵľ ë¦Ħ
ê°Ģ ëĿ¼
ĠìĿ´ ìĬ¬
íķĺ ìŀ°
Ġëĭ¤ ëħĲ
Ġì¢ĭ ìķĻ
Ġì¢ĭ ê²łëĭ¤ê³ł
ĠíĸĪ ì§Ģë§ĮìĿĢ
ĠìŀĲ ìĦľ
ĠìķĮ ëłĪ
Ġë¬´ ê±°
ë¬¸ ìłľ
Ġì°¨ ë¦¬
ĠëĪĦ ëĤĺëĬĶ
Ġë§ŀìķĦ ë§ŀìķĦ
Ġë¨¹ìĸ´ ë¶ĢëĤľ
Ġëĭ¬ ë¦¬ê¸°
Ġê²ħ íķĺê³ł
Ġêµ¬ ë§Į
ìĦ¸ ë¥¼
ë¶Ħ ìĿĦ
ëĳĲ ë¦¬
ĠìĿ´ëŁ¬ ì§Ģ
Ġê³¼ ìłķìĿ´
Ġëª© ìłģìĿ´
Ġìĺ¤ëŀĺ ëĲĺ
ĠìĿ¼ë³¸ ìĿ´
Ġë©Ķ ìĿ¸
Ġì¤¬ ì§Ģ
ĠìĺĪìģĺ ì§Ģ
Ġê¸°ë³¸ ìĿ´
ĠìĪĻ ë°ķ
ĠìķĦíĶĪ ëį°
ĠìŃī ìŃī
ĠëĴ· ëĤł
Ġê³ĦìĤ° ìĿĦ
ĠíĻĶëĤĺ ê°Ģì§Ģê³ł
ĠìĿ¸ì¢ħ ì°¨ë³Ħ
Ġíķĺ ëł¤
Ġíķĺ ìħĶ
ĠìŀĲ ëıĦ
ĠìŀĲ ì§Ģ
Ġì§ĳ ìĿ´ëŀĳ
Ġíķĺê³ł ìŀĪìĸ´
Ġê°Ķ ìľ¼ëĭĪê¹Į
ì¦ Ĳ
Ġìķ¼ ìĿ´ëıĦ
Ġê³µ íĨµ
ĠìĹ° ê¸°ë¥¼
ìĿ´ëĿ¼ ëĭĪê¹Į
Ġë°ĺ ê°ĳ
ĠëĶ° ì§Ģê³ł
ĠìĦ± ê°Ģ
Ġìŀĳ ê°Ģê°Ģ
ĠìĿ´ëŁ¬ ëĬĶê±°
ĠìĿ´ëŁ¬ ë©´ìĿĢ
ĠíķĦìļĶ ìĹĨ
Ġì§Ħ ìłķ
ìĸ´ê°Ģ ê³ł
Ġë¿Į ëĵ¯
Ġìŀ¥ëĤľ ìĿ´
ĠëĲĺëĬĶê±° ëĿ¼
ĠìĹĨìľ¼ë©´ ìĿĢ
Ġíķ´ì¤ĺ ìķ¼ì§Ģ
Ġë§İìķĺ ê±°ëĵł
Ġì¡°ì¹´ ê°Ģ
Ġìį© ìĸ´
ĠíķĺëĬĲ ëĭĺ
íĬĢ ê¹Ģ
Ġë¬¼ë¦¬ ì¹ĺë£Į
Ġê¼¬ë°ķ ê¼¬ë°ķ
ĠìĬ¤íĬ¸ëłĪ ì¹Ń
ì ĥĢ
ìł ¯
ê±° ê¸´
ĠìķĪ íķľëĭ¤
Ġë§Ĳ ëŀĳ
ëŁ¬ ëıĦ
Ġê·¸ëŁ¬ ê±°ëĵł
ĠìĤ´ ìªĦ
ë¥´ ëª¬
Ġë§ŀ ìľ¼ëĭĪê¹Į
Ġìĺģ ìĪĺ
ĠìĿ¸ ìĦ±
ĠìĨĮ ë¦¬ëĬĶ
ĠìĨĮ ëª»
Ġìłľì£¼ëıĦ ìĹĲëĬĶ
Ġê°Ħ ê±°ìķ¼
ë¶Ħ ë§Į
íĹ ¨
ĠëĲł íħĲëį°
íĶ¼ ëĬĶ
ëĳĲ ëĬĶ
ê°ķ ìĿ´
Ġë°ľ ìĿĦ
íĭ° ìĬĪ
íĥľ ê°Ģ
Ġì¤ĳìļĶ íķĺëĭ¤ê³ł
ĠìĥĢ ëĭ¤ê³ł
Ġë½ĳ ìķĦìĦľ
ĠëĤĺìĦľ ëĬĶ
ëĲĲ ëĭ¤ê³ł
ĠíĮ¨ íĦ´
ĠìĪ¨ ìĿĦ
ĠìĹħ ì²´
Ġë¬´ìĦľìĽĮ ê°Ģì§Ģê³ł
Ġë°°ê³ł íĶĪ
ĠìĭľëģĦ ëŁ¬
ë¹Ħíĸī ê¸°
ìĿ´ ìĺ¤
ê°Ģ ìĿ´ëıĦ
ĠìĿ´ íķĺ
ĠìĿ´ ëł¥
Ġê±° ë°ĸìĹĲ
ĠìĤ¬ ê²Į
ĠëķĮ ë¦¬ëĬĶ
Ġë¨¹ ìĿĢê±°
ê± ±ìłķ
ìĤ¬ ì¼ľ
ĠìĪĺ ìĽĶ
ĠìķĮ ê±°ëĵł
Ġëª¨ ë°Ģ
Ġë§Ī ëĪĦ
ëĵľ ë¦¬ê³ł
Ġê°ľ êµ¬ë¦¬
ëĭ¹ ë³´ëĤľ
Ġëªĩ ìĤ´
ìĨĮ ìĹ°
Ġë´¤ ëįĶëĭĪ
ĠëĬĲ ê»¸
ĠëĤĺê°Ģ ê²Į
Ġìŀ¥ ë¹Ħ
ĠëĨĢ ë©´
Ġë°© íķ´
Ġíģ° ëĶ¸
Ġì£½ ìĿ´
ĠìĹ¬ìŀĲ íķľíħĮ
Ġìĸĳ ìĿĦ
Ġìĺ¨ ëĮĦ
Ġëª© ê±¸ìĿ´
ĠìĿ´ìĭŃ ìĿ´
ìŀ¬ ë¥¼
Ġëıħ íķľ
Ġë§ĪìĬ¤íģ¬ ëıĦ
Ġì¹´íİĺ ëıĦ
ĠíĸĪìĿĦ ëķĮ
Ġë¡ľ ë§Ŀ
Ġê³łìĥĿ ìĿĦ
Ġìĭľì§ĳ ìĿĦ
Ġì²ŃìĨĮ ë¥¼
ëĨĪ ìĿĺ
ĠìĽĶê¸ī ìĿ´
ìĥĿê°ģ íķ´
Ġìĸ´ê¹¨ ê°Ģ
Ġê°± ëħĦ
Ġë´īìĤ¬ íĻľëıĻ
Ġìŀħêµ¬ ìĹĲ
ë§£ ê²Į
ĠìķĦ ë¹¤
ëĤĺ ì¤ĳ
ĠìĤ¬ ëŃĩ
ìľ¼ ëĤĺ
ë² µ
ĠìŀĲ ëĿ¼ê³ł
ĠìĪĺ ìļĶìĿ¼ëĤł
Ġê¸° ëıħêµĲ
ĠìłĦ ìĭł
Ġì¢ĭìķĦ ìķ¼
Ġì¢ĭìķĦ ì§Ħ
ĠëıĪ ìĹĲ
Ġìĵ° ê¸´
Ġë²Ħ íĬ¼
Ġë§ĽìŀĪ ëĮĢ
ìłģìľ¼ë¡ľ ëıĦ
Ġê¹Į ë¨¹ê³ł
Ġíķĺë£¨ ë§Į
ĠìĿ´ë¦Ħ ë§Į
ĠìĿ½ ìľ¼ë©´
Ġëģ¼ ìĸ´
ê³¡ ìĿ´
Ġë¹Ħíĸī ê¸°ê°Ģ
Ġì±Ļê²¨ ìķ¼
ìĥ ·
Ġíĺ¸íħĶ ìĹĲìĦľ
Ġì£¼ë¬¸ ìĿĦ
ĠíĥĶ ìĸ´
ĠíĿ° ìĥī
ĠìĤ¬ëª¨ ëĭĺìĿ´
Ħë¦¬ ëĭĿ
Ġíķĺë£» ë°¤
ìĿ´ ëĭĪê¹Ĳ
Ġë§Ĳ ëĵ¤
ĠìĿ¼ ë¶ĢíĦ°
ĠìĿ¼ íķĺëŁ¬
ĠìĪĺ ìĭľë¡ľ
ìľ¼ë¡ľ ìĦľ
ìŀ¥ ëĤľ
Ġê¸° ìĥĿ
Ġë§Ī ì¼ĢíĮħ
íķĺëĬĶ ê±°ëĿ¼
Ġì¡° íļĮ
ë¶ ĳ
Ġë°° ëĬĶ
Ġê°Ħ íĮĲ
Ġê²ħ íĹĮëĶĶ
ìĹ° ëĿ½
ìĺĢ ëĭ¤ê³ł
Ġë°± ìľ¡ìĭŃ
ĠëıĮìķĦ ê°Ī
Ġíŀĺëĵ¤ ê¸´
ĠíļĮ ë³µ
Ġë§ĮëĤĺ ëĭĪê¹Į
Ġìĺ· ìĹĲ
Ġìŀ¬ë¯¸ ëĤľ
Ġëĸ¨ìĸ´ ì¡Įìĸ´
ìĽł ì§Ģ
ĠìŀĲê¸°ëĦ¤ ëģ¼ë¦¬
ĠìĦľê·Ģíı¬ ëĬĶ
Ġë¯¸êµŃ ìĹĲ
Ġì§ĢìĽĲ ìĿĦ
ëģĮ ëĿ½
ìĿ´ ìŀĲ
ĠëĤ Ħ
Ġë§ī ê³ł
ìĬ Ĳ
Ġìĺ¤ ë¦¬ì§Ģ
ìĽ ¬
ìĭľ ëħł
ĠìĹĨ ìĹĪìľ¼ë©´
Ġìŀĺ ëĲĺ
ĠìĹ¬ ê¶Į
Ġì° ¡
íħ ħ
Ġëª¨ ìĿ¸
Ġëª¨ ëĭĿ
ĠìķĦìĿ´ ìķ¼
Ġê¸° ê³Ħë¡ľ
Ġë°Ķ ìĤŃ
Ġë¶Ģ ëł¤
íĦ° ì¹´
ĠëıĻ íĻĶ
Ġìĺ¬ ëķĮ
Ġìĭł ë¢°
ë´Ĳ ëĿ¼
Ġìľł ëıĦ
Ġìľ¡ ìĪĺ
Ġìŀ¥ ìĿ´
Ġë¬¸ ìĭł
ê·¼ ë¬´
ĠìĽĶ ë¶ĢíĦ°
Ġìĺ¬ëĿ¼ ìĻĢìĦľ
ëŃĲ ëĿ¼ê³ł
ĠìķĦëĭĪëĿ¼ ëĬĶ
ë¶Ī ëĿ¼
Ġê·¸ëŀ¬ ìĿĦ
ì¡Į ìĸ´ìļĶ
ĠìĪľ ìĦľ
ĠìķĦíĮĮ ëıĦ
Ġê²ĮìŀĦ ìĿĢ
Ġì±Ħ ìļ°ê³ł
ĠìĿ¼ìĸ´ëĤĺ ê°Ģì§Ģê³ł
Ġëĭ¤ë¥´ ëĭ¤ê³ł
Ġìį¼ ê±°ëĵł
Ġìłĳ ìĪĺ
ĠíĥĦ ìĪĺíĻĶ
Ġê°ĢëĬ¥ ìĦ±ìĿ´
ĠìĹ°ìĺĪìĿ¸ ëĵ¤
Ġìł¤ ë¦¬
ĠëģĦ ê³ł
ì¿ µ
Ġìĭľì¼° ìĸ´
ĠìĭľìĽĲ íķľ
Ġëĵ±ë¡Ŀ ê¸Ī
Ġíķľë§ĪëĶĶ ë¡ľ
ĠíĺĦê¸Ī ìľ¼ë¡ľ
ĠìĺģíĻĶê´Ģ ìĹĲìĦľ
ĠëĦī ëĦī
ë¡ľ ìĦľ
Ġë³´ ëŀĮ
ĠìĿ¼ ìłľ
ëĤľ ëĭ¤ê³ł
Ġë²Ī ìĹŃ
Ġëĭ¬ ëŀľ
ĠëĤĺê°Ģ ëıĦ
Ġëĵ¤ìĸ´ê°Ģ ëĬĶëį°
Ġíİ¸ íķĺì§Ģ
ĠìĺĨ ìĿ´
ĠëĲĲ ëįĺ
Ġìª½ ìĹĲëĬĶ
ĠëĬĲëĤĮ ìĿ¸ì§Ģ
ĠëĶ¸ ìĿĦ
Ġì²ľ ìĺ¤ë°±
Ġë¨¹ìľ¼ ë¯Ħ
ĠìĪľ ìľĦ
íĸ ĩ
Ġë³´ìĹ¬ ì£¼ëĬĶ
ĠëĤ³ ìķĺ
Ġë³´ëĤľ ìĿ´
ĠëıĮìķĦê°Ģ ìĭľê³ł
Ġíķ´ë³´ ê²Į
Ġìľ¼ ìĿĳ
Ġíŀ Ļ
ëĮķ ìĿ´
ĠíĿĳ ìĿ¸
Ġê°ĢìĿĦ ìĹĲ
ì¿ ¼
ìķŀ ìľ¼ë¡ľ
ĠíĥľìĽĮ ëĭ¤
íķĺ ìŀĲê³ł
ĠìŀĪ ì§Ģë§ĮìĿĢ
Ġê°Ģ ëĭĪ
ĠìĤ¬ ìŀĲ
ìķ¼ ê²łëĭ¤
ĠëĦĪ ëĤĺ
ĠìĽĲ ìľ¼ë¡ľ
Ġëĵ¤ìĸ´ ìļĶ
Ġìłķ ìĿĺ
ĠìĺĪ ë¹Ħ
ĠìĿ¸ ëĭ¹
Ġì¢ĭìķĦ íķĺë©´
íĮ ¥
Ġëª¨ë¥´ ë©´
Ġëªĩ ìĭľ
Ġê°ķ ìļĶ
Ġìŀ¡ ì§Ģ
ĠìĻ¸ ìļ°
Ġëª© ìłģ
Ġì·¨ íķ´
Ġê°Ģìł¸ ê°Ģê³ł
Ġë©Ķ ê³ł
Ġì§ĢëĤĺ ëĭĪê¹Į
ĠëĲľëĭ¤ ë©´
ĠëıĮìķĦê°Ģ ìĭ¤
ĠëĨĪ ìĿĢ
Ġê·¸ëĶĶ ìĦľ
ĠëĪĪì¹ĺ ë¥¼
ĠìĺĪìłĦ ë¶ĢíĦ°
Ġì§ģìĽĲ ëĵ¤
ĠìĭľëģĦ ëŁ½
Ġì© ľ
ĠëŁ¬ ë¸Į
Ġì¤ĳìĤ° ê°Ħ
ëĭ ¿
ĠìŀĪ ëį´
Ġê°Ģ ê¸°ëıĦ
Ġê°Ģ ê¸°ê°Ģ
êµ¬ ë¡ľ
Ġê·¸ê±° ëĿ¼ëıĦ
ëŁ¬ ë¸Ķ
ĠëĮĢ ë¹Ħ
ĠìłĦ ìĿ¸ê°Ģ
ĠìĿ´ëŁ° ê²ĥ
ëĤ´ ë©´
Ġê°Ķ ëĭ¨
ìłĢ ê²Į
ëķĮ ëĤĺ
Ġìĥģ ê°Ģ
Ġëĭ¬ ìĿ´
ê²½ ì°°
ĠíĮĶ ìķĦìķ¼
Ġìŀ¥ ìķĦì°Į
ĠíĹ Ŀ
ĠíĻĶ ë©´ìĿ´
ĠíĤ¤ ëĬĶ
ì´ Ĳ
Ġìĸĳ ì¹ĺ
ĠìĤ° ì§Ģ
Ġíŀĺëĵ¤ ìĹĪëįĺ
Ġê·¸ëŀ Į
ĠìĭľíĹĺ ëıĦ
ĠíĸĦ ìĭłê°Ģ
ĠëĶĶ ìĹł
Ġê±±ìłķ ëĲĺ
ì¿ł ê°Ģ
Ġê¸Ģ ìŀĲ
Ġì£½ìĸ´ ì§Ģ
Ġê³łëª¨ ëĦ¤
Ġíĺķëĭĺ ëĦ¤
ĠìŀĲê²©ì¦Ŀ ìĿĦ
ĠíĻķìĿ¸ íķĺê³ł
Ġê´Ģê´ĳê°Ŀ ëĵ¤ìĿ´
Ġëĭ¹ìĭł ìĿĢ
ĠìĻĢìĿ´ íĮĮìĿ´
ëļĿ ëļĿ
ìķĦíĮĮ íĬ¸
ĠìĿ´ ìĪĺ
ĠìķĦ íĮĲ
ê¸° ëĭ¤
ê¸° ëĤĺ
ĠìĤ ¥
ĠìĦ °
ëĥ ¬
Ġëª» íĸĪëĬĶëį°
Ġê±°ê¸° ê°ĢìĦľ
ĠëıĻ ìĤ°
Ġìĸĺê¸° íķĺëĬĶê±°
ĠíķĺëĭĪê¹Į ìļĶ
íģ¬ ê°Ģ
íļĮ ê°Ģ
ĠìĽĶ ìłķ
ĠíĨµ ìĭł
ĠíĽĦ ëĵľ
Ġìļķ íķĺê³ł
ì´Į ìĹĲ
Ġê²ĮìŀĦ ëıĦ
ĠíĹĮ ëĮĦ
Ġìłĳ ê·¼
ê·¸ëŀ ¨ìĿ´
Ġì¹ľíķ´ ì§Ģê³ł
ĠìķĬìľ¼ ëĥĲ
ĠêµĲíĨµ ìĤ¬ê³ł
ĠíĹĪë²ħ ì§Ģ
ĠíĬ¸ëĿ¼ìļ° ë§Ī
2 1
ĠìķĦ ì§Ģ
Ġìĺ¤ ë©į
Ġìĺ¤ ëĭĪê¹Ĳ
ĠìĤ¬ëŀĮ ìĿ¸ì§Ģ
ĠìĿ´ëłĩê²Į ëıĦ
ë¯ ¹
Ġê³ł ê¸°ëĬĶ
ĠìĽĲ ë°ĸìĹĲ
Ġìĺģ íķ´ìĭłëĶĶ
Ġë°° ë¶Ī
ĠíĮĶ ì§Ģ
ĠëģĿ ëĤ´ê³ł
ĠíĻĶ ìĿ´íĬ¸
ëģ¼ ë¦¬ëĬĶ
ĠìķĦëĭĮ ì§Ģ
Ġëĵľ ëłĪìĬ¤
Ġê²°íĺ¼ íķĺê¸°
ĠìĤ´ìķĦ ëĤľ
Ġì»¤ ê°Ģì§Ģê³ł
Ġë¶Ļ ìĿ´ë©´
Ġì¤ĺ ìĭłëĶĶ
Ġì±ħ ìĹĲ
Ġê²¨ìļ¸ ìĹĶ
ĠìĿ´ë¯¸ ì§Ģê°Ģ
ĠíıŃ ë°ľ
ĠìłĢíĿ¬ ê°Ģ
Ġë¶ī ìĿĢ
ĠíħĶëłĪë¹Ħ ìł¼
ìķĦ ëĭĺ
ëĤĺ ìĺ¤
ĠìĤ¬ ë§ī
ĠìĤ¬ ë¦½
Ġíķ´ ëħ¸ëĤľ
ĠìĿ¼ íķĺëĬĶëį°
ìĭľ ì¼°
ëŀĺ ê°Ģ
Ġê²ĥ ë³´ëĭ¨
ìĿ¼ ë¶ĢëŁ¬
ì¤ Ń
íħĮ ìĿ´
ë³ ķ
Ġë°Ķ ìľĦ
Ġì¡° ì§ģ
Ġê°Ķ ëĮĢ
íķł ì§Ģ
ĠìĻĢ ëŀĳ
Ġë§Ľ ìĹĨëĬĶ
ĠìĹĦë§Ī ìĿĺ
Ġìĭł ìĦ±
Ġêµ¬ ëıħ
ĠëĲľ ëĭ¨
ëª¨ ìĸĳ
ì°¨ ë¡ľ
ĠíĶ¼ ëĵľ
Ġìĺ¤ë¹ł ë¥¼
Ġìĭ¸ ëĭĪê¹Į
Ġê³¼ ìŀ¥
íĪ¬ ë§¨
ĠëĦ£ ìĸ´ëıĦ
ĠìĹĨëĬĶ ê²Į
ĠìĽĥ ê¸°ì§Ģ
íķ´ìķ¼ ëı¼
ĠíĨµ ìŀ¥ìĹĲ
Ġìĭ¶ìĸ´ ìĭłëĶĶ
Ġë°Ń ìĿĢ
íĶĮ ëŀĢ
ê¿ į
ĠìķĦë²Ħì§Ģ íķľíħĮ
Ġë°Ģ ê³ł
ĠëĽ ¸
ĠìĤ´ìķĺ ìĿĦ
ĠíĮ¨ ìĬ¤
ìĹĪëĤĺ ë´Ĳ
Ġì°¬ ìĸĳ
ĠëģĮ ëł¤
Ġê°ĢëĿ¼ ìķī
Ġë³´ê±´ ìĨĮ
Ġê¸°ìļ´ ìĿ´
Ġì½ĺíħĮ ëĤĺ
ëĬĶ ì§ĢëĬĶ
ê±° ëł¤
ĠìŀĪ ê¸¸ëŀĺ
ìĿ¸ ì§ĢëıĦ
Ġë¬´ ëį¤
Ġì£¼ ëĤľ
Ġì§ĳ ìĹĲëĬĶ
ĠìłĦ ìĹ¼
íĸĪ ìł¸
ì¹ĺ ëĭĪê¹Į
Ġë¶Ģ ëĭĪê¹Į
ìłķ ë³´
Ġìłľì£¼ ìĹĲìĦľ
Ġì°¨ ëŁī
Ġëª¨ë¥´ ê²łëĭ¤ê³ł
ê³¼ ìłľ
Ġë²Ħ ì¦Ī
Ġìľ¡ íķĻëħĦ
ìĸ¸ ìĿĦ
ĠêµĲ ë¬´
ìŀĳ ìĿ´
Ġìĺ¨ ê°ĸ
ĠìĿ´ëŁ¬ ìŀĸìķĦ
Ġíķ¸ ëĵľ
Ġëĭ¨ ìĸ´ê°Ģ
ë§ŀ ìĸ´
íİ ł
Ġì·¨ íķľ
ĠíĨµ ì§¸ë¡ľ
ĠìĤ¬ì§Ħ ë§Į
Ġê°Ģìł¸ ìĻĶ
ëĤ¨ ìĿ´
ĠíĨł ì¢ħ
ìĸ¸ëĭĪ ëıĦ
ĠìŀĳìĿĢ ê±°
Ġë¸Į ìĿ´ë¡ľê·¸
ĠìŀĲìĭĿ ëĵ¤ìĿ´
Ġíĩ´ ìĽĲ
ëłĪìĿ´ ëĵľ
Ġìĸ´ì©Į ë©´
Ġë§ĪìĿĦ ìĹĲ
ĠìĹ´íķľ ìĭľ
ĠìŀĲìľł ë¡Ńê²Į
ĠëĤĺíĥĢ ëĤĺ
ë¿Ĳ ë§Į
ĠíĽĦëĿ¼ìĿ´ íĮ¬
ĠìķĦë¦Ħ ëĭ¤ìļ´
ĠíĽĮ ë¥Ń
Ġë¹Ħë¦° ëĤ´
ĠìĿ´ ëĿ¼ëıĦ
ĠìķĪ ëĭ¤ê³ł
ĠìķĦëĭĪ ê²łì§Ģ
ìĭľ ê²Į
Ġì¢ĭ ëįĺëį°
Ġëĵ¤ìĸ´ ìŀĪëĬĶ
ëĵľ ëŀĺ
Ġë¹Ħ ëĪĦ
ìķĪ ëı¼
ĠìĻĢ íĶĮ
ĠìĦ¸ ë²Īì§¸
ë¯¸ ë¡ľ
Ġëĭ® ìķĻ
ê·¸ëŀĺ ê°ĸê³ł
ĠëıĮ ë¦´
ë°Ķ ëĶĶ
ĠìļĶì¦ĺ ëıĦ
Ġíŀĺ ëıĦ
Ġì£½ ìĿ¼
ĠëĦĺ ì³Ĳ
Ġë¹¼ ëĸ¼ê¸°
ë°¥ ìĿ´
Ġë°¤ ìĹĲëĬĶ
íķ© ìĿ´
ĠëĨį ëĭ´
Ġì±Ļ ê¸°ëĬĶ
Ġëģĵ ìĿ´
ìĹĦë§Ī ëıĦ
Ġëĥī ë©´
Ġì·¨ë¯¸ ìĥĿíĻľ
Ġì£¼ìłľ ë¡ľ
Ġì§Ĳ ìĿĦ
ëªħìĿ´ ìĦľ
Ġì¥Ĳ ìĸ´
Ġë³´ëĿ¼ ìĥī
Ġì»µ ëĿ¼ë©´
ìŃĪ ê²Į
ĠìħĶ ì¸ł
Ġë¸Įë¡ľ ì½ľ
ĠìĿ´ ëĤł
ĠìĿ´ ìĺģ
ê²Į íĬ¸
ĠìĹ Ī
Ġíķ´ ë¶ĢëĭĪê¹Į
ĠëĦĪ ë³´ëĭ¤
Ġë¨¹ ë°©
ëŀĳ ëıĦ
Ġê²ĥ ìĿ´ê³ł
ìĬ¤ ìĹĲ
Ġì£¼ íĻ©
ë²Ħ ëł¨
Ġìķ¼ ê·¼
ĠëĲľ ëį´
ìķ½ ìĿ´
Ġì°į ìĹī
ê²ħ íķ´ê°Ģì§Ģê³ł
Ġë¶Ļ ìĿ´ëĬĶ
ĠìĿĮìĭĿ ìĹĲ
Ġë°Ń ëĶĶ
Ġë°ķ ë°ķ
ĠëĤĺìĺ¨ ëĮĢ
Ġë³Ħ ë¡ł
ĠëĤ¨íİ¸ íķľíħĮ
ĠíķĺìĹ¬íĬ¼ ê°Ħ
Ġë³Ģ íķ´
íĺĦ ìĿ´
ĠëĤ® ìĹĲëĬĶ
Ġê¸°ëıĦ íķĺê³ł
Ġê°ľìĿ¸ ìłģìĿ¸
Ġíİĺ ìĿ´
Ġë°Ķê¾¸ ë©´
Ġëĵ¯ íķľ
Ġë§Īì°¬ ê°Ģì§Ģê³ł
Ġê¹Ĭ ìĿ´
íķłë¨¸ëĭĪ ê°Ģ
ĠíĮ¥ ì£½
Ġíļ¡ ëĭ¨
Ġë³ĦìĿĺ ë³Ħ
ëĿ¼ ëĵłê°Ģ
ëĤĺ ë¦¬
Ġíķ´ ê°Ģë©´
Ġë§Ĳ ëĵ¤ìĿ´
ìĭľ ì²Ń
Ġíķł ê±´ëĶĶ
Ġìĭ¶ ìľ¼ëĭĪê¹Į
ìĨĮ ê°ľ
Ġêµ¬ íķł
Ġìĭ¬ ê³ł
Ġìŀĳ ìĦ±
Ġê°Ķëĭ¤ ìĺ¨
Ġëª© íı¬
Ġìĭ«ìĸ´ íķĺê³ł
íĨł íĶ¼
ĠíĦ° ìł¸ê°Ģì§Ģê³ł
êµ° ìĿ´
ĠëłĪ ë²¨
Ġê±· ì§Ģ
ĠìĥĿê²¼ ëĭ¤ê³ł
ĠìĽĢì§ģ ìĿ¼
Ġê³łêµ¬ë§Ī ë¥¼
ĠìŀĳëħĦ ìĹĲëĬĶ
ĠìłķíĻķ íķľ
Ġë¶ĪëłĢ ìĸ´
Ġêµ½ ëĬĶ
Ġë¶ĢìĹĮ ìĹĲ
Ġì Ĵ
ê° Ľ
Ġê±° ìĿ¼
ëŀ Ĺê²Į
ĠëĦĪ ë¯¸
ê± Ģ
ĠìĥĿê°ģ ëĤ¨
íķĺëĬĶ ê±´
Ġìĭł ì¤ĳ
Ġìŀħ ìŀ¥ìĿ´
ĠëĤĺìĺ¤ ëĤľ
ìĿ´ëŀĳ ìĿĢ
ĠìĤ¬ëŀĮëĵ¤ íķĺê³ł
ëł¥ ìľ¼ë¡ľ
ê¸¸ ìĿĦ
ìŀ¬ ë°Į
ëĭ´ ë°°
ĠíĻĶìŀ¥ ìĿĦ
Ġìĺ¤ìĭŃ ë§ĮìĽĲ
ĠíĻĺ ìŀ¥
Ġê°ĶìĿĦ ëķĮ
Ġìĺģìĸ´ ëĬĶ
Ġìī½ ì§Ģê°Ģ
Ġì±Ļê²¨ ìĦľ
Ġìĥģê´Ģ ìĹĨìĿ´
ĠìĬ¤íĬ¸ëłĪìĬ¤ ê°Ģ
ĠëĲľìŀ¥ êµŃ
ĠíĻ© ê¸Ī
ì£¼ê¸° ê²Į
ĠëĨĶëĴĢ ëĭ¤ê°Ģ
Ġê°Ģ ìĦ±
Ġìĸ´ ë¬µ
Ġë³´ ëįĶëĭĪ
ĠìĿ¼ íķĺë©´ìĦľ
Ġì§Ģ ìłģ
ĠìĹĨ ì£¼ê²Į
ë¶Ģ ëłģ
ìĭŃ ìĿ¼
Ġì¡° ëªħ
Ġìĭ¶ ëĮĢ
ì§Ħ ëį°
ĠìĦľ íķĳ
ĠëıĮ ë¦¬ë©´
ë°Ķ êµ¬ëĭĪ
ĠíĮĶ ìŀĸìķĦ
Ġì£½ ìĿ¸
Ġìŀł ë°Ķ
Ġì°¸ ìĦĿ
Ġìĭ¤ ìĭľê°Ħ
Ġë³¼ ë§ģ
Ġê¹Į ë¨¹ìĸ´
ìķĦìĿ´ ëĵ¤ìĿ´
Ġìľ¡ì§Ģ ìĦľ
ëĪĦ ê²Į
ĠìĤ¬ìĭŃ ë§Į
ĠìķĬìķĺ ëįĺ
Ġê°Ģë¥´ ì¹ĺëĬĶ
ĠíĶĦ ë¦°
ĠìĪĺìĺģ ìĿĦ
Ġìĭ£ ê³ł
Ġíķĺ ì£¼
Ġíķĺ ì£ł
Ġë³´ ìĮĪ
Ġë³´ ëĶ°ë¦¬
ĠìĿ¼ ì¶ľ
ĠëĲĺ ì£¼
ìĤ¬ ìĹħ
ĠìŀĲ íĩ´
ĠìķĬ ëįĶëĿ¼ê³ł
Ġìĺģ ìĸ´ëıĦ
êµĲ ìĪĺëĭĺ
Ġì¡° ëģ¼
ĠìĹĦë§Ī ìķĦë¹ł
Ġìĸ´ëĶĶ ê°ķ
Ġë¬´ìĬ¨ ê±°
ìłł ê°Ģ
Ġë´¤ ìĹĪê±°ëĵł
ìĹ° ìķł
ĠëĤĺê°Ģ ê°Ģì§Ģê³ł
ìŀĳ ìĿĦ
Ġë§Įëĵ¤ ì§Ģ
Ġíŀĺëĵ¤ ìĸ´ê°Ģì§Ģê³ł
ì¡Į ëĮĦ
Ġìĭľìŀĳ íķĺëĭĪê¹Į
ĠëĤĺëŀĳ ìĿĢ
Ġë²ł ëĿ¼
Ġë¹Į ë¦¬
ë» ĳ
Ġìłķìĭł ìĿĦ
Ġì°½ ìĹħ
ëĵ¤íķľíħĮ ëĬĶ
Ġë²ķ ìĿĦ
Ġì²ŃìĨĮ íķĺê³ł
ìĸ´ëĶĶ ìĦľ
íĭ ¸
Ġì¡°ìļ© íķľ
Ġì¦Ŀ ëªħ
Ġìŀĥìĸ´ ë²Ħë¦°
ëĦ£ ê³ł
Ġìŀħë§Ľ ìĹĲ
íĽĪ ëł¨
ĠìĤ°ë¶ĢìĿ¸ ê³¼
ì§ ļ
ëı ĭ
ê±° ë¦¬ê³ł
Ġëĭ ĺ
ĠìķĪ ìĭ¬
Ġíķľ ìķ½
Ħì§ľ ë¦¬
Ġìŀĺ ëĲĺëĬĶ
ëŁ¬ ìĬ¤ê°Ģ
Ġë°Ķ ëĿ¼ëĬĶ
Ġìłķ ì±ħ
Ġê°ľ ë°ĸìĹĲ
Ġê³Ħ ìłķ
Ġê³µ ìĭĿ
Ġë¶Ħ ìĿ´ë©´
Ġë¶Ī ëĭŃ
Ġìŀ¥ ìĿĦ
ĠìĹĲ ëĭ¤ê°Ģ
Ġìłģ ê·¹
Ġì¹´ íĬ¸
ĠëĤ´ëł¤ ê°Ħ
Ġê³¨ ëĵľ
ĠìĨį ëĪĪìį¹
ĠìĦ¤ ìĤ¬
Ġì¶ľ ìŀ¥
Ġì±Ļ íĶ¼
Ġë¦¬ ê·¸
ĠíĪ¬ ìĸ´
ìķĮ ì§Ģ
Ġëģĵ ìĿ¸
Ġëģĵ ìĿ¼
ĠìĦ¸ìĥģ ìĹĲìĦľ
ĠëĤ´ìļ© ìĿĢ
ĠìĹ¼ ì¦Ŀ
ë§İ ìķĦ
Ġë°ĺì°¬ ìĿ´
Ġêº ½
Ġë§ĪíĬ¸ ìĹĲìĦľ
ĠìĿ´ìģĺ ëĭ¤
Ġíİ¸ìĿĺìłĲ ìĹĲìĦľ
Ġêº¾ ìľ¼ëŁ¬
Ġì«ĵ ê²¨
ëĵ£ ê³ł
ĠìĦŃ ì·¨
Ġë§ĮíĻĶ ì±ħ
Ġì§± êµ¬
Ġì¡´ëĮĵ ë§Ĳ
? )
Ġê·¸ ìłĦìĹĲëĬĶ
ëĤ ļ
ìķĦ ëĿ¼
ëĭ¤ ë¦¬ê°Ģ
ĠìķĪ ê°Ī
Ġë¨¹ ìĿĮ
Ġìĺ¤ ëĥĲ
Ġìĺ¤ ëłĮì§Ģ
ĠìĿ¼ ëĭ¹
Ġìĭľ ê°Ģ
Ġìŀĺ ëĲĺê³ł
ĠìĥĿê°ģ íĸī
ĠìĤ´ ìĿ¸ê°Ģ
ĠìĤ´ ì°Ĳ
Ġì£¼ ìĦľ
Ġì£¼ ìłĦ
Ġë§İìĿ´ ëĵ¤
ĠëĮĢ ë³¸
Ġê±¸ ëŁ¬
ĠìĤ¼ ê°ģ
ĠìĹ¬ê¸° ëĭ¤ê°Ģ
Ġê³µ ê³µ
ê²½ íķ´ë¶ĢëĤľ
ê°ľ ëĬĶ
ëĭ¬ ìĿ´
Ġìĭ¤ ìĿĢ
Ġì¢ħ ì¢ħ
Ġíĭ° ë¸ĮìĿ´
Ġëĭ¤ë¥´ ëĭ¤
íĸĪëįĺ ê±°
Ġë¿Į ë¦¬ëĬĶ
Ġê¹Ķ ëł¤
Ġìŀ¬ë¯¸ìŀĪ ê³ł
Ġë¯¼ ìĽĲ
ĠìĥĿìĿ¼ ìĿ´
Ġíĺ¸íħĶ ìĹĲ
Ġì§ĢìĹŃ ìĹĲ
Ġë¬´ìĦŃ ê³ł
ĠíĴį ê²½
ĠìĭĿêµ¬ ê°Ģ
ĠìĹ¬ìŀĲìķł ëĵ¤
Ġëª©íĳľ ë¥¼
Ġëĭ¤ìĿ´ ìĨĮ
Ġì¿ µ
ĠëıĻë°± ê½ĥ
ĠìĻĦë²½ íķĺê²Į
Ġë²Ħíħ ¨
Ġìĭ¬ë¶Ģ ë¦Ħ
¡ ëĭĪê¹Į
ê°Ģ ìĭłëĶĶ
ìķĦ ëĵ¤ìĿĢ
Ġëĭ¤ ë£¨
Ġìĺ¤ ë¥´ê³ł
ĠìĿ¼ ìĿ´ê³ł
Ġìĭľ ê¸Ī
ĠìŀĲ ë¥¸
ìĬ¤ íĦ´
ìĬ¤ íĭ±
Ġê±´ ìĦ¤
Ġìłķ ë¦¬ê°Ģ
Ġê·¸ëķĮ ìķ¼
Ġì¢ĭìķĦ íķĺëĦ¤
ĠëıĻ ìĦł
Ġìĸĺê¸° íĸĪì§Ģ
ĠíĹĪ ì£¼ê²Į
Ġë¬¼ íĭ°ìĬĪ
Ġìĸ¸ëĭĪ ë¥¼
ĠëĪĦ êµ´
ĠëĪĦ ë¥´ê³ł
ĠëĨĢ ì§Ģ
ĠìĦ± ìĿ´
ĠêµĲ ê°Ĳ
Ġê°Ĳ ìłķìĿĦ
Ġê²°íĺ¼ íķĺëĬĶ
Ġê·¸ëŀ¬ ëĭ¤
ë³µ ìĿĦ
Ġì°¾ìķĦ ìķ¼
Ġíĳľ ìĭľ
Ġì§Ī ìĿ´
ĠíķľíħĮ ëıĦ
ĠíĻķìĿ¸ ìĿĦ
ĠìĦłë°° ê°Ģ
Ġíķ´ì¤Ģ ëĭ¤ê³ł
Ġíľ ł
íĳ ¹
ĠìķĪíĥĢ ê¹Ŀ
Ġì ¨į
ì§Ģ ìĤ¬
ëĤ Ħ
Ġíķĺ ìĪĺ
ëĭ¤ íĸī
ëĭ¤ ê·¸ëĦ¤
ĠëĤ´ ìĹĲìĦľ
ĠëĤ´ ìĭł
ĠëķĮ ë©´
ìĹĪ ëĥĲ
ìĿ¸ ê±°ëĿ¼
ĠìĹĨ ëįĺëį°
Ġìŀĺ ë§Į
ëĵ¤ìĿ´ ìĺģ
ĠìĤ´ ìĿĢ
Ġë¬´ ê²ģ
íħĮ ì£¼
ĠëĮĢ ëĬĶ
ìļ° ì§Ģ
ĠìĿ¸ ìĹ°ìĿ´
Ġê²½ íĹĮ
ìĺģ ìĹħ
Ġê²ħ íķĺë©´
ë°Ķ ìľĦ
ĠëıĦ ì²Ń
ĠìķĦë¬´ ëį°
Ġìŀ¥ ë§Į
Ġìļ° ìĬ¤
Ġìļ° ì²´
Ġìĸĳ ë³´
ĠìĤ° íĥĢ
ĠìĻ¸ ì¶ľ
ĠíĨµ íķ´
ĠìĤ¬ìĿ´ ìĹĲìĦľ
ëĨĶ ëıĦ
ĠëłĪ ëª¬
Ġì¸ Ħë¦¬ëĭĿ
Ġíķĺê¸° ìĹĲëĬĶ
Ġìĺ¬ëĿ¼ê°Ģ ìķ¼
Ġë°°ìļ° ë©´
íĻĺ ê²½
Ġíĸ¥ ìĭł
ì« Ļ
Ġê»´ ìĦľ
Ġìĭ¬ê°ģ íķľ
ĠíĶ¼íķ´ ë¥¼
Ġêµ¬ë©į ìĿ´
ĠìķĦë¬´ëłĩ ì§Ģ
¹ êµ´
Ã Ĺ
ê³ł ìĸĳìĿ´
ê°Ģ ìĿ¸
ê¸° ë³¸
ìĿ¸ íĦ°
ëŀĺ ë¯¸
ìĺ¤ ë¦¬
Ġëĵ¤ìĸ´ ìĻĶìĸ´
íĸĪ ìĹĪê±°ëĵł
íĮ ½
Ġë¬¼ íĨµ
ĠìĨĮ ëĤĺ
Ġë´Ĳ ì¤Ħ
ë¶Ħ ëıĦ
ĠëĤĺìĺ¤ ë©´ìĦľ
ìĺĢ ìĸ´ìļĶ
ĠëģĿ ëıĦ
Ġìŀ¥ ë¡ľ
Ġë§ĽìŀĪ ëįĶëĿ¼ê³ł
Ġëĭ¤ëĭĪ ëįĺ
ĠìłĦíĻĶ íķĺê³ł
Ġë³´ëĤ´ ì£¼ê³ł
Ġê°Ģì§Ģ ë©´
íĴĪ ìĿĦ
íķĺìŀĸìķĦ ìļĶ
ĠìĶ» ìĸ´ìĦľ
ĠíĻĶìŀ¥ìĭ¤ ìĿ´
Ġë¶Ģë¶Ħ ìĹĲ
ĠìŀĬ ìĿĦ
ĠíĸĪìĹĪìĸ´ ìļĶ
ĠëĮĢëĭ¨ íķ´
Ġê³łë§Ļ ëĭ¤
Ġë§Ľì¢ĭ ìĿĢ
Ġì»¸ ìĸ´
ĠíĥĲ ëĿ¼
ĠëıĦìĽĢ ìĿĦ
ĠíĮĮëŀĢ ìĥī
Ġê¾¸ë¯¸ ê³ł
Ġíıīìĥģ ìĭľìĹĲ
Ġì§ °
ĠìķĪ ë¨¹ëĬĶ
ĠìĤ¬ ì£¼ëĬĶ
Ġíķ´ ë¶Ģ
íķ´ ì§Ģë©´
Ġë³´ ë¦¿
Ġìłľ ê³µ
Ġì§ĳ ë§Į
êµĲ ìĪĺ
Ġê±¸ ê¹Į
Ġì¡° ë³Ħ
ìłĢ ëĤĺ
Ġë°Ľ ìľ¼ëł¤ê³ł
ĠìĬ¤ íĶĦ
Ġê°Ħ ëĭ¤ëĬĶ
Ġêµ¬ ìĹŃ
ëª¨ ìŀĦ
íļĮ ëıĦ
Ġìĭ« ìľ¼ë©´
Ġë¨¹ìĿĦ êº¼
ĠìĻ¸ ìĪĻ
ĠëĤ´ëł¤ ìĺ¤ê³ł
ĠíĸĦ ëĮĦ
ê¿ ©
ĠìĥĢ ëĭ¤
ĠíķĻìĽĲ ìĹĲ
ĠìĿ´ìĭľ ë¯¼
ĠìĥĿê°ģíķĺë©´ ìĿĢ
Ġíķ´ë´Ĳ ëıĦ
Ġìĩ¼ íĮĮ
ĠíĬ¹íŀĪ ëĤĺ
Ġì¹ľíķ´ ì§Ħ
ëª¸ ìĹĲ
Ġê°Ħëĭ¨ íķľ
Ġë ¾°
ĠìĿ´ ìĿ¼
ĠìŀĪ ëį°
ĠëĤ´ ë¶ĢëŁ¬
Ġìļ°ë¦¬ ê³¼
ìĹĪ ìĹĪëĬĶëį°
ë§Ī ëĨį
Ġê·¸ê±° ê³ł
Ġê·¸ê±° ë°ĸìĹĲ
ĠìŀĲ ëŀĲ
Ġì£¼ ì§ĵ
Ġê¸° êµ¬
ìĺĪ ê²Į
Ġëĵ¤ìĸ´ ê°Ķëĭ¤
ĠëĤ¨ ëĵ¤ìĿĢ
Ġìĭł ìĦł
Ġìĭľê°Ħ ìĿ´ë©´
Ġíĸī ê²Į
Ġíĸī ìľ¼ëĦ¹
Ġìĭ« ìĿĦ
ĠíĻķ ë¥ł
ĠìłĲ ìĪĺê°Ģ
ĠìĿ´ìĭŃ êµ¬
Ġê¿ ¨
ëıĪ ëıĦ
Ġê³³ ìĿĦ
Ġëĭ®ìĿĢ ê±°
ìĹ´ ìĿ´
Ġì¹¨ ëĮĢìĹĲ
Ġì¶ķêµ¬ ë¥¼
ĠëĤłìĶ¨ ëıĦ
Ġì°¨ê°Ģ ìļ´
ĠìłĦë¬¸ ê°Ģ
Ġìĸ´ëĳĲ ìĽĮ
ĠëĤ¨ëħķ ê³ł
ê°Ģ ê¼¬
ìŀĲ ê²©
Ġì¢ĭ ìĿĦê¹Į
ë³´ ëŀľ
Ġì£¼ ìĬ¤
ì¹ĺ ë©´ìĦľ
Ġì¢ĭìķĦ íķĺê¸´
Ġê´ ¸
ĠìŀĲê¸° ëŀĳ
Ġê³µ ìĿĦ
Ġë´Ĳ ë°Ķ
ë¹Ħ ìĹĲ
Ġìŀħ ìŀ¥ìĹĲ
Ġìľł íĨµ
Ġê°ķ ë¦ī
Ġë§¨ íĪ¬ë§¨
Ġì¡ ¸ë¦¬
Ġíĺ¸ ìıł
ĠíĮĮ ëıĦ
Ġíŀĺëĵ¤ ë©´
Ġì°¸ ìĿĦ
ì¤Ģ ê±°
ĠëĦ£ ìĸ´ê°Ģì§Ģê³ł
Ġëª© ìļĶìĿ¼ëĤł
ĠìĿ´ìĭŃ ì¹ł
ìłĪ ë¡ľ
ĠìķĮë°Ķ íķĺëĬĶ
ĠëģĿëĤĺ ìŀĲë§ĪìŀĲ
Ġì§ĢëĤĺ ê°Ħ
ĠëĤ´ìĿ¼ ë¶ĢíĦ°
ĠíĶĦë¡ľ ê°Ģ
ĠìķĬìķĺ ìĿĦ
ĠëĮķ ê²¼
Ġë¹Ħíĸī ê¸°ë¥¼
ĠìĤ¬ëŀĳ ìĿ´
ĠíĸĪëĭ¤ ëĭĪê¹Į
Ġê·Ģì°® ê³ł
Ġìķŀìľ¼ë¡ľ ëĬĶ
ĠëĿ¼ë©´ ìĿĦ
Ġì¤ĳê°Ħ ê³łìĤ¬
Ġê´Ģëł¨ íķ´ìĦľ
Ġë°Ķìģĺ ëĭĪê¹Į
Ġíİ¼ ì³Ĳ
Ģ ëĵĿ
ìĿ´ ìĺĢìĸ´
íķĺ ê²łì§Ģ
Ġíķ´ ë§Īëĭ¤
íķ´ ê·¸ëĥī
Ġìĺ¤ ê¸Ģ
ë§Ī ëĬĺ
ë² ³
Ġì§Ģ ë¦Ħ
ĠíĸĪ ëį´
ë³´ ëıĦ
Ġë¬´ ëĮĢ
Ġëª¨ ë°Ķ
Ġê³ł ìĨį
ìĥĿ ìĿ´ëĿ¼
ĠëįĶ ë¸Ķ
Ġì¢ĭìķĦ ì§Ģê³ł
ìķĪ ìĿĦ
Ġìłľì£¼ëıĦ ìĹĲëıĦ
Ġê²ħ íķ´ê°Ģì§Ģê³ł
Ġê²ħ íĹĪê³ł
ĠëıĦ ë§Ī
Ġê±Ķ ëĦ¨
Ġëĭ¹ ë¶Ħê°Ħ
Ġë°ľ íļ¨
Ġìķłê¸° ëĵ¤ëıĦ
ĠìĻ¸ ìĹĲëĬĶ
Ġìĸ´ë¨¸ëĭĪ ëŀĳ
ĠìĤ´ìķĦ ê³Ħ
Ġê·¸ëŀ¬ ëĭ¤ê³ł
Ġë¶Ļ ëĬĶ
ìłĪ ìĿ´
Ġíķ© ìĿĺ
ĠìĤ¬ê³ł ìĭ¶
Ġë¹Ħìĭ¸ ëĭ¤
Ġëıħ íĬ¹
Ġê²¨ìļ¸ ë°©íķĻ
Ġëħ¹ ìķĦ
Ġë§Ĳíķĺ ìŀĸìķĦ
ĠìĻĦ ìĦ±
Ġë¶ĪëŁ¬ ìķ¼
ë¦½ ëĭĪëĭ¤
ĠêµĲìľ¡ ì²Ń
íĸĦ ìĦľ
Ġìĸ´ëĸ¡ íķł
íĮ¨ ìĬ¤
ìĺ¤ë¹ł ëĬĶ
Ġíķłê¹Į ë´Ĳ
Ġìĺ¤ëŀľ ë§Į
Ġìĺ¤ìĿ¼ ìŀ¥ìĹĲ
Ġì¡°ê·¸ ë§Įíķľ
ĠìľłíĬľ ë²Ħ
Ġê¸°ìĪł ìĿ´
Ġì¤Į ìľ¼ë¡ľ
Ġê¸Īìķ¡ ìĿ´
ĠìĹĬê·¸ ìłĢê»ĺ
Ġê·¸ ê¹Į
ì§Ģ ëįĶëĿ¼ê³ł
ëĭ¤ ëħĶ
ĠëĤĺ ê¸´
ĠìĤ¬ ìłķ
ëĦ¤ ìĿ´
ì£¼ ë¯¼
ë² Ļ
ĠìłĢ ê¸Ī
Ġìŀĺ íķľëĭ¤ê³ł
ĠëĤ´ê°Ģ ì§Ģê³ł
ìĬ¤ ë¬´
Ġê·¸ëŁ¬ ëįĺëį°
ìĨ ľ
ĠìĥĿê°ģ ë°ĸìĹĲ
ĠìłĦ íĪ¬
Ġìĸĺê¸° íķ´ìĦľ
Ġìĺ¬ íķ´ëıĦ
Ġìŀħ ëıĦ
ĠìĹĨìĸ´ ì¡Įìĸ´
Ġëªħ ìĥģ
ì²ĺ ë¦¬
íļĮ ìłĦ
Ġìļ° ìĬ¹
ĠìĨĲ ë°Ķëĭ¥
ĠíĮĮ ìĿ¼
Ġíķĺë£¨ ê°Ģ
Ġíķĺë£¨ íķĺë£¨
ìį ¸
ëĳ °
Ġê¹¨ ìĽĮ
ĠìĤ¬ìĿ´ ëĭ¤
ĠìĤ¬ìĭŃ êµ¬
ĠíĻķìĭ¤ íķľ
ì¶© ìĿ´
Ġíķ´ë³´ ëĿ¼
Ġìŀ¥ëĤľ ìľ¼ë¡ľ
ĠìĸĺëĦ¤ ëĵ¤ìĿ´
íķĦ ìļĶ
Ġìĭłê³ł ë¥¼
Ġëĵ¤ìĸ´ìĻĢ ê°Ģì§Ģê³ł
Ġíķ« ëıĦê·¸
ĠëĤ© ìŀĳ
Ġê·¸ëĨĪ ìĿĺ
Ġíı¬ë¥´ íĪ¬
ĠìĿ´ ëĿ¼ìĦľ
ìĸ´ ìĭľ
ĠìĤ ¿
Ġìĺ¤ ë©Ķê°Ģ
name ìĿĢ
ìĿ¸ ìĹĲ
ìĿ¸ ëĵ¤ìĿĢ
Ġíķ´ìĦľ ìļĶ
Ġì¡° ìłķ
ĠìĹ¬ê¸° ìĹĲìĦľ
Ġë§ŀìķĦ ê°Ģì§Ģê³ł
ĠìĦ± ìłģìĿ´
Ġëĭ¹ íķĺê³ł
Ġëĭ¹ íķĺëĬĶ
Ġë¹¨ ê°Ľ
Ġë§ĲìĿ´ ìĹ¬
ĠëıĮìķĦ ìĺ¬
ĠëıĮìķĦ ê°Ģë©´
íı¬ ë¡ľ
Ġíĺķ ìłľê°Ģ
ë°ķ íķľ
ĠíĴ ĢìĿ´
Ġìŀ¬ë°Į ëĭ¤
ĠìĤ¬ìĿ´ ëĵľ
Ġìĺ¤ëĬĶ ëĶĶ
ìĻķ ìľ¼ëĦ¤
Ġíķ¸ëĵľíı° ìĹĲ
ĠìĹ¬ë¦Ħ ìĹĶ
ĠìĹ¬ë¦Ħ ë°©íķĻ
Ġëĭ¤ëħĶ ê±°ëĵł
Ġë¯¿ ìĿĮìĿ´
Ġíİĺ ìĿ´ì§Ģ
ìĹĲìĬ¤ íĭ°
Ġë¹łìł¸ ê°Ģì§Ģê³ł
Ġë§İìķĺ ëįĺ
ëĦĪëĦ¤ ëĬĶ
Ġê¹¨ëģĹ íķ´
ĠíĻĪ íİĺìĿ´ì§Ģ
ĠìĬ¤íĨł ë¦¬ê°Ģ
ĠìĿ¼íļĮ ìļ©
Ġë§Īì¹´ ë¡±
Ġê·¸ ì²ĺëŁ¼
Ġìķ Ĺ
ê³ł ìĭľ
ëĭĪ ëĬĶ
íķĺ ëł¤ë©´
Ġê°Ģ ëįĶëĿ¼
Ġëı Ĺ
Ġê³ ģ
ĠìķĦëĭĪ ìĹĪê³ł
Ġë³´ ëŀľ
Ġë³´ ìĿ´ëĦ¤
ĠìĿ¼ íķľ
ĠìĿ¼ ìĿ¸ëį°
Ġì§Ģ ìĭĿ
ìĪĺ ìľ¡
Ġì£¼ ëįĶëĿ¼ê³ł
ĠìĿ¸ ìĪĺ
íĦ° ë¥¼
Ġê°ľ ë´ī
Ġê³Ħ ê¸°ê°Ģ
ĠìĦł íĿĺ
Ġìĥģ ìĥģëıĦ
ì²ľ ìĹĲ
êµ¬ëĤĺ ê²Į
ì°¨ ê²Į
ĠìĹĲ ê·¸
Ġì´Ī ì°½
ĠëĬĲëĤĮ ìĿ¸ëį°
ëĤ¬ ìŀĸìķĦ
Ġë³´ëĤ´ ì§Ģ
ĠìĮ Ķ
Ġê°Ģìł¸ ëĭ¤ê°Ģ
Ġìĭľìŀĳ íĸĪìĸ´
ëĭ´ ìĹĲ
Ġê°ģ ê°ģ
ĠìĿ´ìĭľ ëĥĲ
Ġë¡ľ ìħĺ
Ġë§Ŀ íķł
ìĻĦìłĦ íŀĪ
ĠìĿ¸ìĥĿ ìĿĺ
Ġëĭ¤ìĿĮëĤł ìĹĲ
Ġëĭ¹ìĭľ ìĹĶ
Ġì»´íĵ¨íĦ° ë¡ľ
ĠíıĲ ìĩĦ
ĠìĦ¸ìĽĶ ìĿ´
ĠìĲ ¬
Ġì½¤ íĶĮ
ìĿ´ ìĹĪì§Ģ
ê¸ į
Ġê±° ìĹ¬ìĦľ
ë¦¬ ì¦ĺ
ëĤĺ ë¨¸
ê·¸ ëĿ½
ìŀĲ ìĿ´
ìĿ¸ ê±°ì§Ģ
ìĽĲ ìľ¼ë¡ľ
íķĺëĬĶ ê²ĥëıĦ
ĠëįĶ ëŁ¬
Ġê°Ķ ìĸ¸
ĠëıĻ ìĿĺ
ĠìĻĢ ê·¸ëĥī
Ġê²½ íĹĪë¯Ħ
Ġë© Ķê°Ģ
Ġë°° ê·¸
Ġìŀħ ì§Ģ
ë¨¹ ìĸ¸
ĠìłķëıĦ ìĹĲ
ĠíĻĶ ìĤ°
ĠëıĮìķĦ ìĻĢ
ĠìĮ ī
Ġê³¨ ìķĶ
Ġê¹Į ëĬĶ
Ġê¹Į ë§Īê·Ģ
Ġëĸ¡ êµŃ
ĠìŀĦ íĶĮëŀĢ
ĠìĹĨìŀĸìķĦ ìļĶ
ĠìĬ¤ë¬¼ ëĭ¤ìĦ¯
Ġìĥīê¹Ķ ëıĦ
Ġê¸°ë³¸ ìľ¼ë¡ľ
ĠìĥĿê¸° ì§Ģ
Ġìĸ´ëłµ ëĭ¤
Ġì¹ľìłķ ìĹĲ
Ġê·ĢìĹ½ ê²Į
Ġìĥģëĭ´ ìĿĦ
ĠìķĦìĿ´ëĶĶ ìĸ´
ĠìľłìĤ° ìĨĮ
ê¹ľ ì§Ŀ
Ġì»¬ ëŁ¬
ĠìĸĳìķĦ ì¹ĺ
Ġë ŀĺ
ê³ł ëĵ±
ĠëĤĺ ìĹĲ
ĠëĤĺ ëĿ¼ëĬĶ
Ġìĺ¤ íĺĦ
ĠìĤ¬ëŀĮ ë³´ëĭ¤
Ġì° Įê³ł
ìŀ¥ íķĺê³ł
ĠíķĺëĬĶ ê±¸
Ġë¬´ ì§Ģ
ĠëĮĢ ìĹ¬
Ġëĵ¤ìĸ´ ë´¤ìĸ´
ĠìŀĪëĬĶ ê°Ģ
ĠìŀĲê¸° ëĵ¤
ĠìĦľ ê³ł
Ġëĭ¬ ê±Ģ
ê²½ íĹĪê³ł
Ġìļ° ì£¼
ì¡° ì°¨
Ġíĺ¸ ëŀĳìĿ´
Ġì°į ìľ¼ëŁ¬
ê²ħ íĹĪê³ł
Ġëª© ìĤ¬ëĭĺìĿ´
Ġë§ĮëĤĺ ìŀĲê³ł
ĠìĽĥ ê¸°ëĬĶ
Ġê¹Ģ ìĦł
Ġê¹Į ê³ł
Ġìī¬ ì§Ģ
Ġê²ĮëĤľ ìĿ´
Ġìŀĺëª» íķĺë©´
ĠìĦ±ê²© ìĿĦ
Ġìª¼ ê¼¼
ĠëĤ¬ ëĭ¤
ĠëĦĺìĸ´ ê°Ħ
ëĥĪ ìĸ´
ì¸µ ìĹĲ
Ġê·¸ë¦¼ ìĿĦ
Ġê´Ģë¦¬ íķĺëĬĶ
Ġìĸ´ë¨¸ ëĭĮ
ĠíĿĲ ë¦Ħ
ĠíĨµíĻĶ ë¥¼
ĠìķĪë³´ ìĹ¬
ĠëłĮ íĦ°ì¹´
ëļľ ê»ĳ
ìĤ¬íĪ¬ ë¦¬
ìĿĦ ê±°ìķ¼
Ġíķ´ ìĤ¬ì£¼
ĠëķĮ ë¦´
Ġë§Ĳ ìĿ´ëĿ¼ëıĦ
ĠìĿ¼ ìĿ´ëĿ¼
ìĿ¸ ìĿĺ
ĠìĥĿ íģ¬ë¦¼
ĠìĹ¬ íĬ¼
ĠìĪĺ ìĤ°
ìŀ¥ ìķł
Ġë¬´ ê¸°
Ġìłķ ë¥ĺ
Ġë¹Ħ ëĬĶ
Ġë¹Ħ ë§Į
ë°© ìľ¼ë¡ľ
ĠìĬ¤ ìľ
ë§Ĳ ë§Į
Ġìŀħ ìĹĪëįĺ
Ġë¯¸ ìļ´
Ġìĵ° ëĭ¤
Ġë´¤ ìĹĪìĸ´
ì§Ī ëŁ¬
ëĦĪ ëŀĳ
ê°ľ ë¡ľ
Ġíĺ¼ ë²Ī
Ġë°± ìĪĺ
Ġê°Ĳ ìĪĺ
Ġë§¤ ìłĲ
ĠíĮĮ ìĿ´
ë°¥ ìĿĢ
Ġíķ¸ëĵľíı° ëıĦ
ĠíĶĦë¡ľ ê·¸ëŀ¨ìĿ´
ëłģ ìĿ´
ĠíĻĶìŀ¥ìĭ¤ ìĿĦ
íĴį ê¸°
ĠíĹ¤ìĸ´ ì¡Į
ĠíĶĮ ëłĪìĿ´
ĠëĦĵ ê³ł
Ġíĭ°ë¹Ħ ìĹĲ
Ġì¦Ŀ ìĥģìĿ´
ìĥ¤ ë¸Į
ĠíĹ·ê°Ī ëł¤
ĠëŃĲìĺĢ ëĥĲë©´
ĠìĿ´ë£¨ ìĸ´
Ġìĸ´ëľ ¨
ìĿ´ ìĭł
ĠìĿ´ ìĤ¬ëŀĮ
ìķĦ ëĥĲ
ĠëĤĺ ìģł
ìŀĲ ëıĻ
ëŀĺ ê¸°
Ġname ë§Į
Ġê¸° ë»Ĳ
Ġê¸° ë§Ĳê³ł
ĠìĿ´ëŁ° ê±¸ë¡ľ
Ġìłķ ìŀĳ
Ġì¡° ëĵ¤
Ġë¹Ħ íķĺ
Ġê³µ ê¸°ê°Ģ
Ġë°° ëĤŃ
ĠìłĢê¸° ê°Ģ
ë¶Ħ ëªħ
ĠìĻĶ ê³ł
Ġë°© ìĿĢ
ĠìĨĲ ì§Ī
ìĥĪ ìļ°
ĠíĶ¼ ë¡ľ
ĠìľĦ ìĹĲëĬĶ
íı¬ íĬ¸
ĠìłĪ ë°ĺ
Ġìĺ· ê°Ģê²Į
Ġê¹Į ì§Ģë§Į
ĠìĦłìĥĿëĭĺ ëĵ¤ëıĦ
Ġíħ Ģ
ìłĳ ì¢ħ
ĠìĿ´íķ´ ëĬĶ
íĮĲ ìĿĦ
Ġëĭ¤ë¥´ ëĦ¤
ëŁī ìĿĦ
ìŀĶ ëį°
ëĨ¨ ëĭ¤ê°Ģ
Ġíķłê±° ëĥĲ
ëĨį ìĤ¬
Ġë§Īìĭľ ë©´ìĦľ
ĠíķĺëĤĺëĭĺ ìĿĺ
Ġê°ķìĿĺ ë¥¼
ĠìĤ¬ìĿ´ì¦Ī ê°Ģ
Ġêµµ ìĿĢ
ìĿ´ ë¶Ī
ê°Ģ ëĦ¤
ë¡ľ ìļ°
ĠìĤ¬ ìĨĮíķľ
Ġíķľ ëį´
ĠìķĦëĭĪ ê²Į
ĠìĥĿ ìĥĿ
Ġê²ĥ ë¶ĢíĦ°
Ġëª» íķĺëĦ¤
ĠìĤ´ ìŀĲ
ìĪĺ íķĻ
ĠìķĦìĿ´ ìĸ¸
Ġë§ŀ ì¶ĺ
Ġë§Ī ìŀĲ
ĠìĿ¸ ë¬¼
Ġë¶Ģ ì¡°
Ġìĸĺê¸° íĸĪëįĺ
ĠíĹĪ ì£¼
ëģ Ķê°Ģ
ë¶Ħ ìĿĢ
íĹĪ ëĬĶëĶĶ
ë£¨ ë£©
ë°ĺ ì§Ŀ
Ġìĸ´ëĸµ íĹĪ
Ġìĸ´ìĦľ ìł¸
Ġì¶ľ íĩ´ê·¼
ëł¹ ìĿ´
Ġëķħ ìĿĢ
ĠìĿ´ëª¨ ëıĦ
ĠìŀĪëĤĺ ìļĶ
ĠëıĦìĻĢ ì¤Ħ
Ġê°Ģë°© ìĿĦ
Ġìĥ¤ ë¸Į
Ġëĵ¤ìĸ´ìĻĶ ëĬĶëį°
ĠíĹĻ ëĶĶëĭ¤
Ġìĺ¨ëĿ¼ìĿ¸ ìľ¼ë¡ľ
Ġìĭłìŀħ ìĥĿ
ìķ µ
ëĭĪ ìķĦ
Ġê°Ģ ë¶Ī
Ġë³´ ìĪĺ
ĠìĿ¼ ì£¼
Ġìŀĺ ëĤĺ
ĠìĤ´ ìłł
Ġë¬´ ëĭ¹
ĠëĤľ ë¦¬ëıĦ
Ġë§ŀ ì¶ľ
Ġìĺģ ìĽĲ
ìĶ »
Ġìķ¼ ìĿ¸
ĠëıĻ íĺ¸
ĠëıĻ ë£Į
Ġëį° ëĭ¤ê°Ģ
Ġëį° ë·Ķ
Ġê²½ íķ´ë¶ĢëĤľ
Ġë¯¸ íĮħ
ëł¸ ìŀĸìķĦ
Ġíĺ¸ ë¥´ëª¬
Ġìĭ« ìĹĪìĸ´
Ġíŀĺëĵ¤ ìĸ¸
Ġíģ¬ ìŀĸìķĦ
Ġìµľ ìķł
íĤ ¥
Ġê·¸ëŁ°ê±° ëĬĶ
Ġë³ĳìĽĲ ìĿ´
ĠíĦ° ìł¸ìĦľ
Ġëĵ± ìĹĲ
ĠìķĬìķĺ ê±°ëĵł
Ġê·¸ë¦ ½
Ġë°Ľìķĺ ëĭ¤ê³ł
ĠìŀĲìĭĿ ìĿĦ
ĠìĺĢ ê±°ëĵł
ĠëĦĺìĸ´ê°Ģ ê³ł
Ġì¹ľì²Ļ ëĵ¤
Ġìĸ´ì¨Į ê±°ëĤĺ
ĠìĦłê³¼ ìŀ¥
Ġê·¸ ìĿ´
Ġê·¸ ê°Ģ
ê°Ģ ë©´ìĿĢ
ĠìĿ´ ìĪĺê³¼
Ġê±° ê°ĻìķĦ
Ġê·¸ëŁ° ê±°ìķ¼
ĠìĤ¬ëŀĮ ìĿ¸ê°Ģ
ĠìĹĨ ëĥĲê³ł
ìĿ¼ ë°ĺ
ìĻ ĵ
ìłĦ ê¸°
Ġê±°ê¸° ìĹĲëĬĶ
Ġì§ĳ ê¹Įì§Ģ
Ġëħ Ģ
ĠìĪ ı
Ġì½ ķ
Ġì¤Ħ ëł¤ê³ł
Ġìŀ¬ ë°ľ
Ġìŀ¬ ëĬ¥
Ġëª° ìķĦìĦľ
ĠëĤĺìĺ¤ ëįĶëĿ¼ê³ł
Ġëħ¸ íĽĦ
ìŀĲê¸° ëıĦ
ĠíĥĢ ëĭĪê¹Į
ĠíĥĢ íĪ¬
íĥĢ ìĽĮ
íļĮ ìĹĲìĦľ
ĠíĻĶ ëĤĺìĦľ
ê²¨ ìļ°
ê³Ħ ëŀĢ
ĠíĮĮ ìĿ¸
Ġê³¼ ìłķìĿĦ
Ġìŀł ìĪĺ
ĠëĤĺíķľíħĮ ë§Į
Ġê·¸ê±´ ê°Ģ
Ġë²Į ìĹī
Ġì¶Ķ ìļ°ëĭĪê¹Į
ê¸¸ ë¡ľ
íķ´ìķ¼ ëĲĺ
Ġë¶Ļ ìĿ¸
Ġíĥľ ìļ°ê³ł
Ġë©Ķ ì£¼
Ġê²½ìļ° ìĹĲ
ĠìłĲìĭ¬ ìĹĲ
ĠìĿ¼ìĸ´ ëĤ¬ëĬĶëį°
Ġíĭ°ë¹Ħ ìĹĲìĦľ
Ġê²½ì°° ìĿ´
ê·¸ê²ĥ ìĿ´
íŀĺ ëĵ¤
Ġì´Īê°Ģ ì§ĳ
ĠìĿ´ ë¸Į
ĠìĿ´ ëģĮ
ìŀ Į
ë¡ľ ë¡Ŀ
ĠìķĪ ë§Ī
Ġíķ´ ë²Ħëł¤ìĦľ
ĠëŃ ¡ëĭĪê¹Į
ê·¸ ë£¹
ĠëŃĲ ìĭľê¸°
Ġë§Ĳ ê²Į
Ġê°Ļ ìķĺëĬĶëį°
ĠìĤ¬ëŀĮ ìĿ¸ëĶĶ
ë³´ ìĿ´ëĬĶ
Ġíķł ëł¤
ĠìĽĲ ìŀ¥ìĿ´
íĬ¸ ë¡¤
Ġëį° ìĹĲ
ëķĮ ê¸°
Ġìĭł ëĿ¼
Ġë°ĺ ë§Į
ĠëĤĺê°Ģ ëĿ¼ê³ł
Ġë¬¸ êµ¬
íļĮ ê´Ģ
Ġíĺ¸ ìĪĺ
Ġê´ľì°® ìķĺìĸ´
ë°° ìĨ¡
ĠìłĪ ë¡ľ
ĠìĿ´ìĦľ ëĤľ
ĠìĤ¬ì§Ħ ìľ¼ë¡ľ
Ġê·¸ê²ĥ ìĿĢ
Ġë½ Ī
ĠìĥĢ ìŀĸìķĦ
ĠìĶ¨ ìľł
ĠìŀĲê¸°ëĦ¤ ëıĦ
ĠìĿ´íķ´ íķ´
Ġëľ¨ ê±°
ĠìĻ¸êµŃ ìĹĲ
Ġê¹Ģì¹ĺ ê°Ģ
ìªĦ ê²Į
Ġëķ¡ ëķ¡
Ġìķ½ìĨį ìĿ´
ĠìłĢëŁ° ê±°
ĠíĤ ¥
ĠëĲ¬ ìĸ´
Ġì½ľëĿ¼ ê²Ĳ
ë°ĳ ìĹĲ
ìĿ´ ì£¼
ĠìķĦ ìĬ¤
ëĵ¤ ëŀĳ
ì£¼ ëĤľ
Ġë¨¹ ëĭ¹
Ġë§Ĳ ìĿ¸
Ġë§Ĳ ëł¤ìĦľ
ĠëĲĺ ì§ĢëıĦ
Ġì§Ģ ë¥´
ë¶Ģ ìŀ¥
ĠìĽ °
Ġëª¨ ìľ¼ê³ł
ĠìķĦìĿ´ ëĵ¤ìĿ´ëŀĳ
ìļ° ìľł
Ġê°Ķ ëįĶëĭĪ
ëĵľ ìĭľ
Ġê¹ ¬
ì§ģ íķľ
ĠìĨĮ ìĨ¡
ë¦° ê°Ģ
Ġëªħ ìĭ¬
ĠëıĦ ì¤ĳìĹĲ
Ġì¢ĭìĿĢ ì§Ģ
ì°¨ ìĹĲ
Ġì½Ķ ìĬ¤ê°Ģ
Ġì£½ ìĹĪ
Ġìŀĳ ìķĦìĦľ
Ġë§¤ ì½¤
Ġë°ľ ìĿĮìĿ´
ĠëĬĲëĤĮ ìĿ¸
Ġëĭ´ ìļĶ
Ġíķłë¨¸ëĭĪ ëĵ¤ìĿĢ
ë°ķ ìĿĦ
Ġìķī ëĬĶ
ìķĦìĿ´ ëĵ¤ìĿĢ
Ġìŀ¬ë°Į ì§Ģ
ĠíĸĦ ìł¸
ĠëĨĴ ê³ł
ĠíĬ¸ ëŁ¬ë¸Ķ
ĠìĭľíĤ¤ ì§Ģ
Ġê¹Ģì¹ĺ ëıĦ
ĠìŀĪëĤĺ ë´Ĳ
Ġë¯¼ íĬ¸
Ġê³Ħíļį ìĿĢ
ë²Ħë¦° ê±°
Ġë¹łìł¸ ëĤĺ
ĠìĹ½ ëĸ¡
ê º
ê±° ëŀľ
ĠìŀĪ ê²łëĦ¤
Ġìĸ´ ì¹ĺ
ĠëŃĲ íķ´ìĦľ
Ġê°Ļ ìķĺìĸ´
Ġìĺ¤ ìłł
ë§Ī ìĿ´
ë§Ī ëĥ¥
ë¶Ģ ë¦¬
ĠëĶ Ķê°Ģ
Ġì£¼ ëıĦ
Ġë§Ī ë²ķ
ìļ° ëŁ¬
ì¹ĺ ì¦Ī
ĠìĿ¸ ë§¥
Ġë°° ìĹĲìĦľ
Ġìĥģ ìĥģìĿ´
ë¶Ħ ëĵ¤
ĠëĬĲ ëĦ¤
ĠìĿĳ ìĿĳ
ì§ĢëĬĶ ê²Į
ĠíĻĶ íķ´
ĠìłĲ ëıĦ
ìĤ´ ìĹĲ
Ġìį¨ ìķ¼ì§Ģ
Ġì§ģ ìłĦ
ĠëĶ¸ ë§Į
ĠìĦłìĥĿëĭĺ ìĿĦ
ĠìĦ¤ ê±°
Ġìĵ¸ ìĸ´
ĠìĤ¬ìĿ´ ë¡ľ
Ġëĸł ê°Ģì§Ģê³ł
ìĸ¸ëĭĪ ëĦ¤
Ġë§ĲíĸĪ ëĭ¤
ĠìķĪëı¼ ìĦľ
Ġì°© íķĺê²Į
Ġíķĺê±°ëĵł ìļĶ
ĠìłľìĤ¬ ëıĦ
ĠìĥĿê²¼ ëĭ¤
Ġíķłë§Ŀ ìĿĢ
Ġëª¨ìĸĳ ìľ¼ë¡ľ
Ġì¢ĭìķĺ ê³ł
ĠíĿĺ ëł¤
Ġë¶Ģëª¨ëĭĺ íķľíħĮ
ë½ ĳ
ĠëĦĪíĿ¬ ëĵ¤
Ġëĭ¹ê·¼ ë§Īì¼ĵ
ĠíĶ½ ìĹħ
Ġêµ¼ ë²µ
ĠìĿ´ ê¸´
ĠìķĦ ëıĻ
Ġíķĺ ëĮĢ
Ġìĸ´ ê²Į
ĠìĤ¬ ê³Ħ
Ġë³´ ê¸ī
ìŀĲ ìĹ°
Ġë§Ĳ ë¦¬
Ġìĺ¤ ì§ĢëıĦ
ë§Ī ì·¨
ĠëĲĺ ê°Ģë©´
Ġê·¸ëŀĺ ìķ¼ì§Ģ
Ġê²Į ë§¤
Ġëª» ìŀĲ
ĠëĺĲ ëĺ£
ĠìķĦìĿ´ ìĶ¨
Ġì§ĳ íķ©
ĠìĻĢ ìĤ¬
ĠìĨĮ ê°Ģ
ë§Ĳ ìĿ´ìķ¼
ìļ´ ëĵľ
ìĸĳ ëıĦ
ĠìķĦëĭĪê³ł ìĿ´
Ġë¹¨ ëŀĺëıĦ
ê·¸ëŁ¬ ëĤĺ
ĠìĿ´ëŁ¬ ëĭĪê¹Ĳ
ĠíĮĮ ëŀĳ
Ġê´ľì°® ê²Į
Ġíģ¬ ë£¨
ĠìłĦíĻĶ ìĻĢìĦľ
Ġëĭ´ ìĿĦ
Ġê¹Į ì§Ħ
Ġìļķ íķĺëĬĶ
ĠìĿ¼ë³¸ ëıĦ
Ġë¨¹ìĹĪ ê³ł
Ġë¹Į ëĶ©
ĠìĶ¨ ëĶĶ
Ġë§ĲíĸĪ ëĵ¯ìĿ´
Ġì¤¬ ëĭ¤ê³ł
Ġê¿Ī ëıĦ
Ġë§Ŀ íķ´
ìº Ħ
Ġë³´ìĿ´ ê¸´
ìķĦë¬´ ê²ĥëıĦ
Ġëĭ¤íĸī ìĿ¸
Ġëĵ¤ìĸ´ê°Ķ ìĿĦ
ĠìĿ´ë°± ìĺ¤ìĭŃ
Ġì·¨ìĹħ ìĿĦ
Ġì§ĢëĦ¤ ëģ¼ë¦¬
ĠìĿ´ìģĺ ê³ł
Ġì§ģìĹħ ìĿĦ
Ġíľ Ļ
ĠíķłìķĦë²Ħ ì§ĢëıĦ
ĠìķĦ ê¸°ê°Ģ
ĠìŀĪ ëıĦë¡Ŀ
Ġìļ°ë¦¬ ë°ĺ
ĠìŀĲ ë¹ł
Ġëª» ë¨¹ê³ł
ë¯ ¿
Ġê°Ķ ìĹĪìŀĸìķĦ
ĠíķĻ ì°½
ĠìĻĢ ìļ°
ĠìĹĦë§Ī ëĵ¤ìĿĢ
Ġìĭł ìĿ´
ĠìĦł êµĲ
Ġì¹ľêµ¬ ëĵ¤ìĿĦ
Ġë¯¸ ëĵľ
Ġìŀ¬ ëĤľ
ëłĪ ìĿ¸ì§Ģ
Ġë§ĽìŀĪ ëĮĦ
Ġìĸ¸ ë¡ł
Ġíģ¬ ëĭ¤
Ġë²Į ëł¤ê³ł
ĠìĿĺ ëĮĢ
ê°Ĳ ìŀĲ
ĠëĪĦêµ¬ ëĪĦêµ¬
ì³Ĳ ìķ¼
Ġê°Ģìł¸ ê°Ģë©´
Ġíı¬ íģ¬
ëĤ¨ ì¹ľ
ê·¸ëķĮ ë¶ĢíĦ°
Ġëĭ¤ìĦ¯ ëªħ
ĠìĿ½ ìĸ´ìķ¼
Ġìļ¸ ìĸ¸
Ġìĺ¤ìĭŃ ëĮĢ
Ġë³µ ìĭ±
Ġê±±ìłķ ìĿĢ
Ġê±°ê¸°ìĹĲ ëĭ¤ê°Ģ
Ġìľłëªħ íķĺì§Ģ
íĿ¬ ê°Ģ
íķĳ íģ¬
ìĸĺ ëĦ¤
ì¶ķ ìłľ
Ġìĸ´ìłĢê»ĺ ëĬĶ
ìº ī
Ġê·Ģì°® ìĿĢ
ĠìĤ¬ëĿ¼ ì§Ħ
ĠíıŃ íı¬
ĠìķĦì¤Įë§Ī ëĵ¤
ĠëĲľìŀ¥ ì°Įê°ľ
Ġëĵ¤ìĹĪìĸ´ ìļĶ
Ġê¸°ëĬ¥ ìĿ´
ĠìĹ°ë§Ĳ ìĹĲ
Ġìļ°ë¦¬ëĤĺ ëĿ¼ëıĦ
Ġê³łìĬ¤ íĨ±
® ¬
Ġíķ´ ëĭ¤ê°Ģ
ì§ľ íĶ¼
ë§Ī ëĿ¼
Ġì§Ģ ìĬ¬
ĠìĹ¬ ëĬĶ
ê°Ģì§Ģê³ł ìĿ´
Ġìľ Ļ
ĠìķĬ ìĿĢê±°
Ġë§Ī ëĿ¼ëıĦ
ĠëĮĢ ìĤ¬
ìĺĪ ìłĦ
íĸĪ ëĭ¨
Ġê°Ķ ëĬĶì§Ģ
ëĬĶê±° ê³ł
ĠëĪĦ ë£
ĠëĪĦ ëĤĺëıĦ
ĠìĹĨìĸ´ ì¡Į
ĠëħĦ ìĿ´ë©´
Ġíı Ī
ĠíĮĶ ìķĺìĸ´
ĠíĮĶ ì°Į
ĠíĶ¼ ìĸ´
ĠìŀĪëĬĶëį° ëıĦ
Ġìĸ¸ ëįķ
Ġìĺ¬ëĿ¼ ê°Ķëĭ¤
Ġëĭ¨ ìĸ´ë¥¼
ĠìĪĺëıĦ ê¶Į
ĠëŃĶ ì§ĢëıĦ
Ġê¼Ń ëĮĢê¸°
Ġì§Ħ ëĭ¨
Ġë¬¸ìłľ ëĿ¼
Ġëĺĳê°Ļ ì§Ģ
Ġìŀ¬ë°Į ëĬĶëį°
Ġë¨¹ìĹĪ ëĤĺ
Ġêº¼ ìł¸
ê°ĢëĬĶ ê²Į
Ġì¤Ģë¹Ħ íķł
Ġë²ĦìĬ¤ ìĹĲìĦľ
Ġë§Ĳíķĺ ëĭ¤ê°Ģ
ĠìĤ¬íĪ¬ë¦¬ ëıĦ
Ġì²« ìĤ¬ëŀĳ
Ġê·¤ ëıĦ
Ġëĭ¤ëĭĲ ëķĮ
ìłľì£¼ëıĦ ìĹĲìĦľ
ĠêµĲíļĮ ê°Ģ
Ġë¹Ħíĸīê¸° íĳľ
ëĭ¤ìĿĮ ëĤł
Ġìĭľìĸ´ë¨¸ëĭĪ ëĬĶ
ĠìłĦê¸° ìŀ¥íĮĲ
Ġíĸĩë¹Ľ ìĿ´
Ġë§Īëĭ¹ ìĹĲìĦľ
ì· ħ
ê²¨ìļ¸ ìĹĲ
Ġê·¸ë¥ ´
Ġê±° ëıĦ
Ġê±° ë¦¬ëĬĶ
ê¸° ëŀĳ
ĠëĤĺ ìĤ¬
ĠìŀĪ ëįĶëĿ¼ê³łìļĶ
Ġê°Ģ ë³¼ê¹Į
ĠìĤ¬ ìłł
Ġìļ ±
Ġíķ´ ìĭľ
ĠëŃĲ íķĺë©´
ìĽ ģ
Ġìĭľ ë°ľ
ĠìŀĲ ë¶Ģ
ĠìĥĿ ìľ¼ë¡ľ
ĠëĺĲ ëĿ¼ìĿ´
Ġìľ µ
íŀĪ ì§Ģ
Ġì£¼ ë©į
Ġê³ł ìĭľ
Ġê±´ ìł¸
ĠìĺĪ ê³ł
Ġë¹Ħ ëĭĪ
Ġëĭ¬ ëıĦ
ë´Ĳ ìķ¼ì§Ģ
Ġëªĩ ìĿ¼
ëª¨ ë¥¼
ĠíĮĶ íĮĶ
ĠìĹĲ ë°Ķ
ìĦł ìľ¼ë¡ľ
Ġìŀ¡ íŀĮ
Ġë°± ë¡Ŀ
Ġíİ¸ ìĿ¸ëį°
Ġíİ¸ ì§Ģë¥¼
Ġìĺ¬ëĿ¼ ìĺ¤ë©´
Ġìª½ ëıĦ
ìĤ´ ìĿĦ
Ġê²°íĺ¼ íķ´
ĠìĿĺ ëħ¼
ë²Ħë¦¬ ëĭĪê¹Ĳ
ìķĦë²Ħì§Ģ ê°Ģ
Ġë¹Ħìĭ¸ ìŀĸìķĦ
Ġìĵ°ëĬĶ ê²Į
ĠìĪĺìĹħ ëıĦ
Ġëĭ¬ëĿ¼ ì§Ħ
ĠìķĶ ë§Į
ĠìĤ¬ìĭŃ ëĮĢ
Ġê²ģ ìĿ´
Ġì¹ľêµ¬ëĵ¤ íķĺê³ł
ĠíĬĢ ê¸´
Ġë§ĮëĤ¬ ëįĺ
ëĬĲëĥĲ ìĹĲ
Ġê°Ĵ ëıĦ
ĠìĦłíĥĿ ìĿĦ
Ġë§Īìĭľ ëŁ¬
Ġíĥľìĸ´ ëĤł
ìķĦë²Ħ ì§ĢëĬĶ
ĠëĿĦ ìĽĮ
Ġêµ¬ìĦĿ ìĹĲ
Ġê±° ìĭ¤ìĹĲ
Ġê°Ģ ìĿ´ëŀĳ
ìľ µ
Ġëª °ë¦¬
Ġë§Ĳ ë¦¬ê³ł
ê°Ħ ê±°
Ġì§Ģ ìļ°
ìĭľ ìĦ¤
Ġëĵ¤ ìĹ¬ìĦľ
Ġê·¸ëŁ¬ ëł¤ëĭĪ
Ġì£¼ ìĸ´
Ġì£¼ ìĭĿìĿĦ
Ġëª¨ ìĿ´ë©´
Ġê³ł íĺĪìķķ
Ġì§ĳ ëĭ¨
Ġì¢ĭìķĦ íķľ
ìłģ ëıĦ
Ġìĥģ ìĭĿ
Ġëĭ¬ ëĿ¼ìĦľ
Ġìŀħ ìĹĪìĸ´
ĠìĺĽëĤł ì²ĺëŁ¼
ìĨĮ ë¦¬ëıĦ
Ġìŀ¬ ê³ł
Ġìŀĳ ê³¡
Ġëĵľ ìĭľ
Ġì°į ìĹĪëĬĶëį°
ê°Ķ ê³ł
Ġë³ĳ ìķĦë¦¬
ê·¸ê±° ëŀĳ
ĠìĦľìļ¸ ëıĦ
ĠêµŃ ë¬¼ìĿ´
íİ Ģ
ì§Ħì§ľ ë¡ľ
Ġë¶Ļ ê³ł
Ġíı¬ íĨł
ĠìĿĮìĭĿ ëĵ¤
ĠìĨĮë¦¬ ìķ¼
Ġíĭ° ë¥¼
ĠìķĪíķ´ ìļĶ
ĠíĸĪê±°ëĵł ìļĶ
Ġì¤¬ ìŀĸìķĦ
ĠíĶĦë¡ľ íķĦ
ĠìĤ´ìķĺ ê±°ëĵł
Ġë¨¸ ëŀľ
ĠìĤ¬ëŀĳ íķ´
ĠìºĲ ë¦¬ìĸ´
ĠëĤĺë¬´ ìĹĲ
Ġë©°ëĬĲ ë¦¬ëĬĶ
Ġì¦Ĳ ê±°
ĠìĤ¼ë°± ìľ¡ìĭŃ
Ġê¶Į ìĤ¬ëĭĺ
ĠëĤŃ ë¹Ħ
Ġê½ī ê½ī
ëį© ìĿ´
ĠìŀĲìĭł ìĿĦ
Ġëª¨ëĳĲ ê°Ģ
ĠìķĦíĮł ìĸ´
Ġìĸ´ìĥī íķ´
ĠëıĮìķĦëĭ¤ ëħĶ
ĠíĿ¡ ìĪĺ
ĠìĨĶì§ģ íķĺê²Į
Ġê¶Ĥ ìĿĢ
íķĺë¥´ ë°©
Ġëľ¨ê°ľ ì§Ī
ê±° ë¦¬ë¥¼
ĠëĤĺ ëŃĩ
Ġê°Ģ ëĬĶê±°ìķ¼
Ġìĸ´ íķĻ
Ġìĸ´ ë¦¬ê³ł
ĠìķĪ ìĹĲìĦľëıĦ
ìķ¼ ìķ¼
ĠëŃĲ íķĺì§Ģ
ĠìĿ¼ ìĸ´ìĦľ
ĠìłĢ ì¶Ķë£©
Ġë§İ ì§ĢëĬĶ
ĠìĹ¬ ìĥģ
ë³´ íĺ¸
ĠëĤĺëĬĶ ëĶĶ
ĠìłĦ êµĲ
Ġê°Ķ ìĸ´ìķ¼
ĠìĨĮ ëŃĩ
ìĺģ ìĺģ
Ġìłľì£¼ëıĦ ë¯¼
ĠìłĢê¸° ëĬĶ
Ġê²ħ íĹĪë¯Ħ
ĠëĦĺ ìĹī
ĠíļĮ ë¥¼
Ġë³¼ ëŀĺ
Ġê·¸ëŀ¬ ìľ¼ë©´
ìį ¬
ĠíĻĺ ìĬ¹
Ġì§ľì¦Ŀ ìĿ´
ìļĶì¦ĺ ìĹĲëĬĶ
ë²Į ìį¨
Ġë°©ë²ķ ëıĦ
ĠìŀĳëħĦ ìĹĲëıĦ
Ġê´Ģê³Ħ ë¥¼
ĠìĿ´ë¹¨ ìĿ´
ìĹ¬ë¦Ħ ìĹĲ
ìĪ« ê°Ģë£¨
Ġìĸ´ëľ¨ ì¼Ģ
) /(
ìĿ´ ìĸ¸
ì§Ģ ëŀĳ
ì§Ģ ë¯Ħ
ĠìĤ¬ ê¸´
Ġíķ´ ìĭľë¯Ħ
ĠëĤ´ ë¡ľ
Ġë³´ ëįĺ
ì£¼ ìĸ¼
Ġë¨¹ ëĤĺ
Ġê·¸ëŁ° ëĶĶ
ëĮĢ ëŀĳ
ĠëĺĲ íķľ
Ġê·¸ëłĩê²Į ë§Į
ê²ł ëĤĺ
ìĺ¤ ì²ľìĽĲ
ĠìĤ´ ê¹Įì§Ģ
Ġëª¨ ìĿĦ
Ġë§Ī ë¦¬ë¥¼
Ġìĺģ íķĺëĤľ
ë¶ ĵ
Ġìĭ¶ ì§Ħ
Ġê°ľ ê°ķ
Ġìĺ¬ ê²Į
ĠìĦľ ë¬¸
ĠìĦľ ê·Ģ
Ġëį° ìĹĲìĦľ
ĠìĨĮ ìĦ¸ì§Ģ
ë¹Ħ ëŀĳ
Ġìĥģ ìĿĦ
ë¨¹ ìĹĪìĸ´
ĠìĦ± ìĭ¤
ĠêµĲ ìĭľ
Ġíŀĺëĵ¤ ìĹĪ
Ġíĺķ íİ¸
ĠëĪĦêµ¬ ë¥¼
ë§ŀ ìĪĺëĭ¤
Ġìī¬ ìĸ´ìķ¼
ë¦¼ ìĿ´
ìĽł ê±°ëĵł
ĠìĹ°ëĿ½ íķĺê³ł
ĠìķĦíĶĦ ê²Į
Ġê·¸ëŁ´ ê¹Į
Ġìļ¸ ë©į
Ġë¹Ħìĭ¸ ê¸´
ĠëĳĺìĿ´ ë§Į
ĠëĤ´ìĿ¼ ëıĦ
Ġë½ĳ ìĿĢ
ĠíĻĺ ìŀĲê°Ģ
Ġë§Ŀ íķľ
ĠìĿ´ìķ¼ ê¸°ê°Ģ
Ġë´¤ìĿĦ ëķĮ
ĠíĿĶ íķľ
ĠìŀĲê²©ì¦Ŀ ìĿ´
ë©ĺ íĬ¸
Ġê·¸ìŀĲ ëĿ½
Ġìķłë§¤ íķ´
ê³µë¶Ģ ë¥¼
Ġë°°ê³łíĮĮ ìĦľ
Ġë¹Ħë°Ģ ë²Īíĺ¸
Ġê¾ ¹
ĠìĹĬê·¸ ìłľ
ĠíĶĦë¡ľìłĿ íĬ¸
ìĿ´ ê¸°ëıĦ
ĠìĿ´ ëĵ±
Ġí Ĳģ
ê±° ê°Ģ
ëĵ¤ ë©´
ìłľ íķľ
íķ´ ë³´ê³ł
Ġë¨¹ ëįĶëĿ¼ê³ł
Ġë§Ĳ íķľê±°
ĠìĹ¬ ìĭłëĶĶ
Ġëª» íķłê±°
ĠìķĮ ê²łëĬĶëį°
ĠìĤ´ ìĪĺ
ĠìķĬ ìĹĲ
Ġê³ł ìķĦ
ĠëĮĢ ìļ°
Ġëĵ¤ìĸ´ ìĻĦ
ĠíķĻ ê¸°ìĹĲ
ĠìĦ¸ ëĮĢê°Ģ
ëĭ¹ ìĭł
ëĭ¹ ìĹ°
ĠëĤĺê°Ģ ìŀĸìķĦ
ĠëĤĺê°Ģ ì§ĢëıĦ
Ġìľ¡ ê°ľìĽĶ
Ġìŀ¥ ë§Ī
Ġíŀĺ ìľ¼ë¡ľ
Ġì¹ĺ ë©´ìĦľ
Ġìŀ¡ ìķĺìĸ´
Ġë°± ì¢ħ
Ġê³¼ ìĹĲ
Ġê´ľì°® ëĦ¤
ĠìĤ¬ëĬĶ ì§Ģ
Ġëĺĳê°Ļ ìĿĢëį°
ĠìĨĮë¦¬ ì§Ģ
ëĥī ìŀ¥ê³ł
ĠìłĢëħģ ìĿĢ
ëĨĶ ê°Ģì§Ģê³ł
Ġê¼¬ ì¹ĺ
Ġë¶ĪëŁ¬ ê°Ģì§Ģê³ł
Ġë°ĶëŀĮ ëıĦ
ĠíĮĢ ìŀ¥ëĭĺ
ĠêµĲìĪĺëĭĺ íķľíħĮ
ĠìķĪëĲľ ëĮĦ
Ġìĭłë°ľ ìĿĦ
Ġëķ¡ ê¸°
ĠìŀĪê²Į ëģĶ
Ġìĸ¸ìłł ê°Ħ
Ġëľ¬ê¸Ī ìĹĨìĿ´
ĠëĨĢìĿ´ê¸° êµ¬
íķĺ ìĭľê³ł
Ġìĸ´ ìĭľë©´
ĠìĤ¬ ëĭ¨
ĠìĤ¬ ê²¼
Ġíķ´ ìĪĺëĭ¤
Ġíķ´ ê·¸ëĤ´
ìľ¼ ë©°
Ġë³´ ìŀ¥
Ġìĺ¤ íĶ¼ìĬ¤
ĠìĤ¬ëŀĮ ê³¼
name íķľíħĮ
ìĭľ ëłģ
Ġìĭľ ì²´
Ġë¬´ ìĭĿ
Ġì£¼ êµ¬
Ġìłķ ëħĦ
ĠìĻľ ìļĶ
Ġì¡° ê·¼
ĠìĦ¸ ëł¨
Ġìĭł íĻĶ
Ġê²ħ íķĺ
Ġë²Ħ ë¬´
ĠëĨĢ ë©´ìĦľ
ëªħ ìĿĢ
ìĦ± ëĭĺ
ìĻĶ ëįĺ
Ġë°± ìĭłìĿ´
Ġìĭ¬ ìŀ¥ìĿ´
Ġìĭ¸ ì§Ģ
Ġê³µë¶Ģ íķ´ìĦľ
Ġíģ¬ ë¦¬ìĬ¤
Ġë§ĮëĤĺ ê¸°
Ġëĭ¤ìĿĮ ëĭ¬
Ġì§ģ ìłĦìĹĲ
ì´Ī ê°Ģ
Ġìļķ ëıĦ
Ġìŀ¬ë°Į ëĭ¤ê³ł
ĠìĹ¬ê¸°ìĦľ ëıĦ
Ġìĭľì¼ľ ê°Ģì§Ģê³ł
ĠëĽ° ìĸ´ê°Ģ
Ġëį°ëł¤ ê°ĢìĦľ
ë¸Ķ ë¦¿
ĠëĤ« ëĭ¤ê³ł
Ġê½ĥ ìĿ´
Ġê°Ħíĺ¸ ìĤ¬ê°Ģ
Ġë³¸ìĿ¸ ìĿĢ
Ġëĭ¤ìĿ´ ë¹Ļ
ĠìĬ¤ìľĦ ìĬ¤
ëĿ¼ ëĿ¼
Ġê°Ģ ì¡Į
Ġë³´ ìŀĲê³ł
Ġë³´ ê¸°ë§Į
Ġìĺ¤ ëįĶëĿ¼
ĠìłĢ ê°Ģ
name ìķĦ
Ġìĭľ êµŃ
Ġìŀĺ íĸĪëĭ¤
ĠìĪĺ ê°ķ
ìĺ¤ ê²Į
Ġê¸° ì¡´
ĠëıĻ êµ´
Ġëª¨ë¥´ íģ´
Ġë¨¹ìĸ´ ìĤ¬
Ġë¯¸ ìĭł
Ġì¤Ħ ìĿ´ê³ł
Ġê²ħ íķľ
Ġìľł ìĹ°
ĠëĲľ ê±°ëĿ¼
Ġíĸī ìĿ´
Ġìŀ¥ ëª¨
ĠêµĲ ëıĦ
ĠìľĦ ìĥĿ
ìĻĶ ì§Ģ
ĠíĤ¤ ìľĦ
Ġë§ĽìŀĪ ìĸ´ìĦľ
ĠíĬ ľ
Ġëĵľ ë¡ł
ì½ Ķê°Ģ
ĠëıĮìķĦ ëĮķ
Ġìĭ¤ ìĸ´
ĠíļĮ ìĥī
ê³µ íķĻ
ĠìĤ´ìķĦ ë¶ĢëĤľ
Ġë§ĮëĤĺ ìŀĲ
ĠëĤĺìĻĶ ëĮĦ
íĺķ ìľ¼ë¡ľ
ê½ Ĥ
ĠëĤĺìĺ¨ ëĮĦ
ĠíķľêµŃ ìĿ´
ĠìĿ´ëŁ°ê±° ìĹĲ
Ġìĸ´ë¦´ ëķĮëĬĶ
Ġë³µ ëıĦ
Ġìĸ´ë¥¸ ëĵ¤ëıĦ
Ġëĭ¤ëħĶ ìĿĦ
Ġë§Ŀ ê°Ģ
ĠíĤ¤ë¡ľ ìĹĲ
Ġê°Ģê²© ìĿĦ
Ġëįĺ ì§Ģê³ł
Ġíı¬ê¸° íķĺê³ł
ĠíĭĢìĸ´ ëĨĵê³ł
Ġë²Īíĺ¸ ë¥¼
Ġíĳľì¤Ģ ìĸ´ë¡ľ
ìĹĲíĶĦ íĶ¼
Ġë³´ìĿ¸ ëĭ¤ê³ł
Ġê°ľìĽĥ ê²¨
ĠìĿ´ ë¯¼
Ġíķĺ ëĭ¤ê³ł
Ġëĭ¤ íķĺê³ł
ĠëĤ´ ë°Ģ
Ġë§Ĳ ìĿ´ëĿ¼
Ġë§Ĳ ìĿ¸ëį°
ë² Ĺ
Ġì§Ģ ëĵ¤
Ġë§İ ìľ¼
Ġìłľ ì²ł
Ġì§ĳ ìĦ¸
Ġë§İìĿ´ ëĬĶ
Ġê°ľ ë¹¡
ĠìĻĢ ë¶ĢëĤľ
ìķĦëĭĪ ê³ł
Ġë© §
ĠìĬ¤ ì¿¼
Ġê°Ī ê±°ìķ¼
ĠìĤ¬ëŀĮìĿ´ ëĿ¼ìĦľ
ĠìĹ´ ìłķ
Ġìľł ìłģ
Ġì´ ¥
íĹĪ ë²ħ
ĠêµĲ ìĭ¤
Ġëĭ¨ ìłĲ
Ġìª½ ìĿĦ
ĠìłĦíĻĶ íķĺë©´
Ġì¶Ķ ë¦¬
Ġê¸¸ ìĹĲìĦľ
ĠìĿ´ìĭŃ ìĤ¼
ĠíĽĦ ëĶ±
ĠíĴĢ ë¦¬ë©´
ĠìĨĮë¦¬ ë§Į
Ġíĭ° ìħĶì¸ł
ĠíĦ° ì§Ģë©´
Ġë¹Į ìĹī
Ġê°Ģì¡± ëĵ¤ìĿ´ëŀĳ
Ġë¡ľ ë´ĩ
ĠëĨĪ ëĵ¤
ĠíĮĲ íĥĢ
Ġìŀ¬ë¯¸ìŀĪ ê¸´
íģ´ ëŁ½
Ġíĩ´ ìĤ¬
Ġì¤ĳê°Ħ ì¤ĳê°Ħ
Ġì¦Ĳ ê¸¸
Ġìĸ´ì©Į êµ¬
Ġíķ´ì¤¬ ëĬĶëį°
Ġê°ĢìĿ´ëĦ¤ ëĬĶ
Ġë¬¼ìĸ´ë´¤ ì§Ģ
íĺĶ ìĸ´
Ġì§ĢíĤ¤ ê³ł
Ġê¸¸ê±°ë¦¬ ìĹĲ
ê°Ģ ìĿĦ
ĠìĿ´ ìĬ¹
Ġê·¸ë ĸ
ìķĦ ìłĢìĶ¨
ĠìķĦ ìŀ¥
ëĭ¤ ê·¸ëĦ¹
Ġê°Ģ ì¹ĺê°Ģ
Ġëĭ¤ ë§Ī
ĠëĲ Ń
Ġë³´ ìĿ´ê²Į
ĠìĹĨ ìĹĪëĭ¤
ìĤ¬ ì¹ľ
Ġëĵ¤ ë©´ìĦľ
Ġê³ł ëŀĺ
Ġê³ł ì¹ł
Ġë§ŀ ìĬµëĭĪëĭ¤
Ġê¸° êµ¬ëĤĺ
íķľíħĮ ë§Į
Ġê·¸ëķĮ ê·¸ëķĮ
Ġê±¸ ëł¹
Ġìĭ¶ ì§ĢëıĦ
Ġë²Ī ë°ĸìĹĲ
Ġê°ľ ê¿Ģ
êµŃ ìŀ¥
ĠëĳĲ ëĵ¤
Ġë§ŀìķĦ ëıĦ
Ġê²ħ íĹĮ
Ġë´¤ ìľ¼ëĭĪê¹Į
ĠëĤĺìĺ¤ ëįĺëį°
ê» ľ
ĠíķĻêµĲ ìĹĲìĦľëıĦ
ëł¸ ëįĺ
Ġëĵ¤ìĸ´ê°Ģ ìŀĸìķĦ
Ġê³¼ ëĮĢ
Ġê°Ķëĭ¤ ìĻĢ
Ġìĭ¤ ìĹħ
ĠìķĦì¹¨ ìĹĲëĬĶ
ê»ĺ ìļĶ
Ġê·¸ëŁ°ê±° ìĹĲ
ì½Ķ ëĵľ
Ġíİ Į
Ġì¤¬ ìľ¼ë©´
Ġëĭ¬ëĿ¼ ìł¸
ĠìłĬ ìĸ´
ìŀĺ ëª»
Ġìĭłê²½ ìį¨
Ġìį¼ ì§Ģ
ĠìĮĢ ìĿ´
ĠëĬ¦ê²Į ê¹Įì§Ģ
ĠëĪĪì¹ĺ ê°Ģ
Ġëĵł ëĵł
Ġë¹Ļ ë¹Ļ
ĠìĥĿê°ģëĤĺ ëĬĶëį°
Ġíİ¸ìķĪ íķľ
ĠìĦ±ì§Ī ìĿ´
Ġê»į ëį°
Ġëį© ìĸ´ë¦¬
ìłĢëħģ ìĹĲ
ĠëłĮíĬ¸ ì¹´
í Ĳģ
Ġê±° íķĺê³ł
ë¦¬ ìŀĸìķĦ
Ġê°Ģ ë²Ħë¦¬ê³ł
êµ ¼
Ġíķľ ìĤ´
Ġë¨¹ ëįĶëĿ¼
Ġê°Ļ ì§ĢëıĦ
ë§Ī ë£¨
ĠìŀĲ ëĭĪê¹Į
ĠìŀĲ ìłľ
ë³´ ìŀ°
ìŀ¥ ìĤ¬
ĠëĮĢ ê²Į
ëĲ ¨
ìĭŃ ìĭľìĺ¤
ëĤ´ ì§Ģ
ìłĢ ë¦¬
ĠëıĪ ë²Į
Ġìłľì£¼ ìĸ´ê°Ģ
ĠìĨĮ ìĽĲ
ĠìĹ´ ìĿ¼ê³±
ĠìłĢê¸° ìļĶ
ë¦° ëĤ´
ĠìĹĨìĸ´ ì§Ī
ê²½ íĹĪë©į
Ġë¨¹ê³ł ìĤ´
Ġíģ° ìĨĮë¦¬
Ġíİ¸ íķĺê¸´
ĠíĮĮ ìĦľ
Ġë¨¹ìĿĦ ëł¤ê³ł
ĠëĿ ¡
ĠëĲĲ ëĬĶì§Ģ
ĠëĬĲëĤĮ ìĿ´ìķ¼
ëĤ¬ ëĮĦ
ĠìĤ´ìķĦ ìŀĪëĬĶ
Ġë¹ł ë¥´ê³ł
ê°Ĳ ìĿĢ
ĠëĶ¸ ëĵ¤
ĠìĦłìĥĿëĭĺ ìĿ´ëŀĳ
ìŀħ ìĿ´
ë¦¼ íĶ½
Ġê·¤ ìĿĢ
Ġë¶Ģë¶Ħ ëıĦ
Ġë²ķ ìĽĲ
ĠìĿµ ìĿĢ
ë²ł ë¦¬
Ġì£¼ìłľ ìĹĲ
Ġë°ĺì°¬ ëıĦ
Ġëª»ìĤ´ ìķĦ
Ġê±´ì¡° ê¸°
ĠìĬ¤íĥĢíĬ¸ ìĹħ
ê° ¯
Ġíķĺ ê²Ĳ
ĠëĤĺ ìĺµ
ĠìķĪ íķĺëĬĶê±°
ĠìĤ¬ ë¨¹ê³ł
ĠìĤ¬ ëĭ¬ëĿ¼ê³ł
Ġíķ´ êµ°
ìŀĲ ìĿĺ
Ġìĺ¤ ìħ¨
Ġìĭľ ìŀ¥ìĹĲ
Ġë§İ ìľ¼ëĭĪê¹Ĳ
Ġëĵ¤ ë¦´
Ġëª¨ ìľ¼ëĬĶ
ĠìĿ¸ ëĦ¤
ë²Ħ ìĦ¯
Ġëı¼ ì§Ģê°Ģ
ĠíĹĪ ëĭĪ
ĠìĦ¸ ìĽĮìĦľ
ì¤ĳ ìķĻ
ĠëıĦ ëŀĳ
ĠëıĦ ë°°
ĠëĨĢ ëĿ¼ìĦľ
ìĺ¨ ëĭ¤ê³ł
Ġëĭ¤ëĭĪ ê²Į
ì¤ĺ ê°Ģì§Ģê³ł
ĠíĿ ©
ĠëĲĲ êµ¬ëĤĺ
ë¦¬ëĬĶ ê²Į
ĠìĤ´ìķĦ ëĤĺ
ĠìĿĺ ì§Ģê°Ģ
Ġì°¾ ìĿĢ
Ġìķī íĺĢ
íĿ ĳ
ĠíĺĦ ëªħ
Ġì²Ń ì¶ĺ
Ġë§ĮìĽĲ ì§ľë¦¬
Ġì¹´íİĺ ëĬĶ
Ġë°Ķê¿ ¨ìĸ´
ĠìĦłë¬¼ ëıĦ
Ġìª¼ ê°ľ
ĠìŀĦ ìĭľ
ĠíĻľ ë°ľ
Ġëħ¼ ìĪł
ĠìĽĥê²¨ ê°Ģì§Ģê³ł
Ġë£ °
Ġê±°ì§ĵë§Ĳ ìĿĦ
Ġë©Ķëī´ ê°Ģ
ìĺĨ ìĹĲìĦľ
ĠìĤ¬ê¸° ê¾¼
Ġë©ķ ìĭľì½Ķ
ìĿ¸íĦ° ëĦ·
ë µ
ĠìĿ´ ìĹ°
ìĸ´ ì©Į
ìĭ ¸ë¦¬
Ġíķľ ìĿĺìĽĲ
Ġë³´ ê¸°ìĹĲ
Ġìŀĺ íķĺì§Ģ
ë¥´ ë©į
Ġëª¨ ìĺģ
Ġê³ł ìĶ¨
Ġì§ĳ ëĵ¤
ĠíĹĪ ì¼Ħ
Ġìĸ´ëĶĶ ëĭĪ
ë¯¸ ë¥¼
ĠìĹ´ ìĹ¬ëįŁ
Ġë¯¸ ìĪ«ê°Ģë£¨
Ġìŀ¬ íĥĿ
Ġë°ĺ ëĤ©
Ġê°Ĳ ìķĦ
íĮĮ ê°Ģ
ë´¤ ëĭ¤
ĠëĦ£ ìĹĪëĬĶëį°
Ġë³¼ ìĪĺ
Ġë¹ł ì¡Įìĸ´
ìĥī ìĿĦ
Ġì±ħ ìľ¼ë¡ľ
Ġë°ķ ì§Ģ
ĠíķľêµŃ ë§Ĳ
ìĽł ëĭ¤
ĠìĿ½ ìĿĢ
ĠìķĪíķ´ ìĹ¬
Ġê±´ê°ķ íķ´
Ġì¡¸ìĹħ íķĺë©´
ĠìķĦìłĢìĶ¨ ëĵ¤
Ġìĭ¹ ìĭ¹
ĠìķĪëĤĺ ìĺ¤
ĠíĶĦ ëłĪ
Ġë³´ëĭ¤ ëıĦ
ĠëĦĵ ê²Į
ĠíķľíħĮ ëĬĶ
Ġíİĺ ë¯¸ëĭĪ
Ġíķ´ë´Ĳ ìĦľ
ì¡´ ëĤĺ
ìķĦë¹ł ëĬĶ
Ġìĸ´ë¨¸ ëĭĺìĿ´
Ġìĭ¬ê°ģ íķĺê²Į
Ġë©´íĹĪ ì¦Ŀ
Ġë¬´ìĹĩ ìĿĦ
Ġìĺ¬ë¦¬ë¸Į ìĺģ
ĠëıĦê¹¨ ë¹Ħ
ĠìĬ¤íĥĢë²ħ ìĬ¤
ìĹ £
ëĿ µ
ĠìŀĪ ì£¼
ĠìŀĪ ìł¸
Ġê°Ģ ëģĶê°Ģ
Ġë° ī
ë§Į ëıĦ
ĠìķĦëĭĪ ìļ°ëĭ¤
ìŀĲ ë£¨
ĠìĿ´ëłĩê²Į íķĺë©´
ëĮĢ ë°ķ
ìĿĺ ìĭĿ
Ġì£¼ ë¯Ħ
Ġë§ŀ ìĪĺëĭ¤
Ġìłķ ë¬¸
ĠëįĶ ëįķ
Ġë¶Ģ ëŁ¬ìļ´
ĠíĹĪ ëĬĶëį°
Ġê³Ħ ìħĶ
ë¬¼ ê³ł
Ġëĭ¬ ëł¥
Ġìľł ëª¨
íĹ ¬
ĠíĮĶ ëł¤ê³ł
íļĮ ìĿĺ
ĠìĨĲ ìŀ¡
Ġëĵ¤ìĸ´ê°Ģ ë©´ìĿĢ
ì²´ ìľ¡
Ġë§¤ ì¶ľ
Ġë§¤ ëł¥ìĿ´
Ġëĭ¨ ìľĦë¡ľ
ë¶Ī ìĿ´
ĠëĲĲ ëĵł
Ġë§İìķĦ ìķ¼
Ġìĺ· ëĵ¤
Ġë©Ķ ìĦ¸ì§Ģ
ì¤¬ ëįĺ
Ġë¨¹ìĹĪ ìĹĪëĬĶëį°
Ġë³µ ìĪŃìķĦ
íĽĦ ìĹĲ
Ġê°ĢìĿ´ ëĵľê°Ģ
Ġëĸ¡ ìĿ´
Ġëĸ¡ ëıĦ
ĠìĦ±ê²© ìĿĢ
Ġì¼ĢìĿ´ ë¸Ķ
Ġê°Ģê¹Į ìļ´ëį°
ìĿ´ëŁ° ê±°
Ġì£¼ìłľ ëĬĶ
ĠìĺĪë¯¼ íķľ
Ġë½Ģ ë½Ģ
ĠìĶ¨ìĶ¨ íĭ°ë¹Ħ
Ġìĭłì²ľ ì§Ģ
Ġì¤ĦëĦĺ ê¸°
Ġê·¸ë¬ ¼
Ġìŀħìŀ¥ìĹĲ ìĦł
Ġìķ ĵ
ê°Ģ ë¡ľ
ĠëĤ ĳ
ê±° ëĭ¤
Ġëĭ¤ íģĲ
Ġë° į
ìĺ ´
Ġíķľ ê±´ëį°
íķ´ ìĻ¸
ĠìłĢ íķľíħĮ
ë¶Ģ ìĿĺ
ëĮĢ ë¬¸
Ġê·¸ëłĩê²Į íķĺë©´ìĦľ
ĠìĤ´ ë¦¬
Ġë¶ Ĳ
Ġê°Ķ ìĹĪì§Ģ
ìŀĪ ìĸ¸
ĠìĿ¸ ìĤ¬ë¥¼
Ġì¢ĭìķĦ ìł¸
ìłĢ ëŀĺ
Ġìłľì£¼ ìĹ¬ê³ł
Ġìĺ¬ ëł¸ìĸ´
Ġë°Ľ ëĬĶê±°
ëħĦ ìĥĿ
ĠìĬ¤ íĬľ
ê·¸ëŀĺ ìķ¼
ĠëĲł ê±´ê°Ģ
Ġë°¥ ìĥģ
Ġìļ° ë¬¼
Ġì¹ĺ ëŁ¬
ĠëĤ¨ìŀĲ ëĵ¤ëıĦ
Ġìĭ¸ ëĬĶ
Ġê°Ķëĭ¤ ìĻĢìĦľ
íĴ ĭ
Ġì·¨ íĸ¥ìĿ´
Ġìĭ¶ìĸ´ íķĺëĬĶ
ìĤ¬ëŀĮ ëıĦ
ì½Ķ ìĺ¬
Ġë¹Ħìĭ¸ ëĭĪê¹Į
Ġì¶ľ ìĤ°
Ġë§Įëĵ¤ìĸ´ ê°Ģì§Ģê³ł
Ġíķ´ì£¼ ëĬĶëį°
ì£½ ìĿĦ
ĠìĤ¬ëŀĳ ëĭĪ
ĠìĺĪìģĺ ëĭ¤ê³ł
Ġê½ĥ ìĿĦ
ìº ł
Ġê¸°ë¦Ħ ëĸ¡
ĠëĬĻ ìĸ´ìĦľ
ĠíĥĦ íĥĦ
ĠìĦłë°° ëĵ¤
Ġë¶Ļìĸ´ ìŀĪëĬĶ
Ġê°Ģë³´ ìŀĲ
Ġë¬´ë¦İ ìĿ´
ĠìĭľìĽĲ íķĺê²Į
ĠíħĮìĿ´ íĶĦ
Ġë¶ĪëłĢ ëĬĶëį°
Ġë¯¸ëŀĺ ë¥¼
Ġë³´íĺ¸ ìŀĲ
ĠëŁ° ëįĺ
ĠíĢ´ ì¦Ī
Ġê·¸ëĸ Ħ
ĠìĿ´ ìĸ´ìĦľ
Ġíķĺ ìĸĳ
ĠëĤĺ ë
íķ´ ì¤Ģ
ĠëķĮ ì§Ģ
Ġê·¸ëŁ° ëĭ¤ê³ł
ĠìĪĺ ìĽĲ
ìĭł ì²Ń
ìĹ¬ ê¸°ê°Ģ
ĠìĽĲ ëĳĲ
Ġë°Ķ ë¥´ëĬĶ
ìĥģ íĴĪ
Ġê°Ķ êµ¬ëĤĺ
Ġê²½ ìľł
Ġìĭł ë¶Ħ
Ġìĥģ ìľĦ
Ġìĵ° ëĦ¤
ĠìĹ° ìĪĺ
ĠëĬĲ ëł¤
ĠìĻĶ ëįĶëĿ¼ê³ł
Ġìĺ¤ë¹ł ëĵ¤
ìłĲ ìľ¼ë¡ľ
Ġìĺ¤ëĬĺ ìĿ´
Ġê¹Ģ íı¬
ê±°ëĿ¼ ìĦľ
ë¸Į ë¦¬
Ġë§Ĳíķ´ ìķ¼ì§Ģ
ëıĪ ìĿĢ
ĠìķĦíĶĦ ëĮĦ
ĠìĤ¬íĪ¬ ë¦¬ëĬĶ
ìĮ °
Ġë¹ĦìĬ· ë¹ĦìĬ·
íĥĿ ìĭľ
Ġì°© íķĺê³ł
ĠìķĬìĿĢ ëĶĶ
ìĿį ëĶĶëĭ¤
Ġêµ¬ê²½ ëıĦ
ĠìĦłë°° ëĵ¤ìĿ´
ĠìĹĺ ìĹĲìĿ´
ĠíĥĢìĿ´ íķĳ
Ġê²ī ìĹĲ
Ġì¹´ì¹´ìĺ¤ íĨ¡
Ġëļ±ëļ± íķľ
ĠíĢ Ħë¦¬
ĠíĬ¹ì§ķ ìĿ´
Ġíķ´ë³ĳ ëĮĢ
ĠìĽĶëĵľ ì»µ
ìĦľ ìĦľ
Ġíķĺ ìĸĺ
Ġëĭ¤ ë¦¬ëıĦ
Ġë³´ ê¸°ëıĦ
ĠìĿ¼ ìŀĲë¦¬
ìĭľ ê°Ģì§Ģ
ĠíĸĪ ëĥĲê³ł
ìĤ¬ ìĿĺ
ë¶Ģ ëĵ¤
ë¶Ģ ìĹĲìĦľ
ëĥ °
Ġëª» ìĤ¬
Ġê³ł ì¹ĺê³ł
Ġìłķ íķ´ìĦľ
êµĲ íĨµ
Ġì¤ĳ ìĹĲëıĦ
ĠëĶ± ì§Ģ
Ġëį° ê»´
ĠìĬ¤ ì¿ł
ĠìĬ¤ íĤ¬
Ġê°Ī ëł¤ë©´
ìĦ¸ ìĥģ
ĠíĮĶ ìĿ´
Ġìļ° ëŁŃ
ĠíĻĶ ìļĶìĿ¼ëĤł
Ġë°± ìĽĲ
ĠìĺĨ ìĹĲëĬĶ
Ġê³µë¶Ģ íķľ
Ġìĭ¤ ì²ľ
Ġë³ĳ ìĹĲ
Ġë³´ëĤ´ ìĦľ
Ġì¤ĺ ëĿ¼
ĠìĤ¼ìĭŃ ë§ĮìĽĲ
ĠëŃĺ ê¹Į
ĠíĭĢ ë©´
Ġë§ĲíķĺëĬĶ ê²Į
Ġìľłëªħ íķĺìŀĸìķĦ
ĠìĿ´ëª¨ íĭ°ì½ĺ
ìļĶì¦ĺ ìĹĶ
ĠëĤ¨ìķĦ ìŀĪëĬĶ
Ġê±´ë¬¼ ìĿĦ
Ġë©į ìĦĿ
Ġë³¸ìĿ¸ ëıĦ
Ġíķľë§Ī ë¦¬
Ġì«Ħ ê¹ĥ
Ġìĸµìļ¸ íķľ
Ġìľłë¦¬ ì°½
Ġìī° ëĭ¤ë¦¬
Ġì¡°ê±´ ìĿ´
Ġë¶Ģìŀĳ ìļ©
Ġì¾ ħ
ë®¤ ëĭĪ
ĠìĬ¤ìľĦíĬ¸ íĻĪ
ÃĹ ÃĹ
Ġê°Ģ ë¬¸
Ġëĭ¤ ëĭ¤ëĭ¤
ê·¸ ë¦¬
Ġë³´ ê¸°ëĬĶ
Ġì¢ĭ ëį´
ĠìĪĺ ìĦ¸
ĠìĪĺ ìĦł
Ġíķł ë¨¸
ĠìķĮ ê²łìĬµëĭĪëĭ¤
ĠìĤ´ ìĿ¸ëį°
Ġìķ½ ìĿĢ
ĠìķĬ ëĬĲëĥĲ
Ġì£¼ ìľł
Ġê³ł ëŀĢ
Ġê°Ķ ì£¼ê²Į
Ġìĺ¬ ê¹Į
Ġê²½ íĹĪê³ł
ĠìĦł ìĿ´
ĠìĹ° ì°¨
ëª¨ ëłĪ
Ġë¶Ī ëł¤
ĠìľĦ ì¹ĺê°Ģ
íĶĦ ëĿ¼
ì¤Ħ ìĿĦ
Ġê¸¸ ìŃī
ìĺ¬ ë¦°
ĠìĤ¬ì§Ħ ì°į
ìĹŃ ìĭľ
ëª© ìĿĦ
ĠíĦ° ì§Ģ
Ġë°ĳ ìĹĲëĬĶ
Ġì¤ĳìļĶ íķľê±°
ë¥ĺ ë¥¼
Ġë¹µ ëıĦ
ĠíķĺëįĶëĿ¼ êµ¬ìļĶ
Ġëĭ¤ëħĶ ìŀĸìķĦ
Ġíľ´ ìĸĳ
ĠíĻĶìŀ¥ìĭ¤ ëıĦ
Ġì¢ĭìķĺ ê±°ëĵł
ĠìĮĵ ìĿ¸
ĠêµĲíļĮ ìĹĲ
Ġë§Įëĵł ê±°
ĠêµĲìĪĺëĭĺ ëıĦ
Ġì¹´ëĵľ ê°Ģ
Ġëĵł ëĭ¤
Ġì¦Ĳ ê¸°ëĬĶ
Ġê°ĲìĤ¬ íķľ
Ġìĥ¤ë¸Į ìĥ¤ë¸Į
í Ģ
ìĿ´ êµ¬
Ġìŀ ¼
ĠìķĦ ëĶ°
ĠìķĦ íĶĶ
ĠìĤ¬ ëĭĪê¹Ĳ
ë¥ ¨
Ġíķ´ íĶ¼
Ġë§ī ë§ī
ĠìķĦëĭĪ ìĹĪ
ëĶĶ ëĬĶ
ĠëĲĺ ëĭĪ
ìĪĺ ëĭ¹
ê±´ ê³ł
Ġëĵ¤ìĸ´ ë³´
Ġê·¸ëķĮ ì¯¤
Ġìĺģ íķ¸
ëĲ Ģ
ìĶ ¹
Ġë¶Ģ ìĭł
Ġê°Ģì§Ģê³ł ìĦľ
Ġìķ¼ ìĥĿ
ìķł ëĬĶ
ĠìĨĮ ëħĢ
Ġìĸ´ëĶĶ ìĹĲìĦľ
Ġë¨¹ìĸ´ ìł¸
Ġìŀħ ëł¥
ĠìķĮìķĦ ë³´
Ġë¶Ħ ìĿ¸ê°Ģ
ĠëĤĺìĺ¤ ëĿ¼ê³ł
ì¡° ìĭ¬
ĠíķĻêµĲ ë¡ľ
ĠìĿ´ëŁ¬ íķľ
Ġìŀł ìŀĲëĬĶ
Ġìĭ¤ ì»·
ĠëĨĶ ê·¸ëĦ¤
ĠìĤ¼ìĭŃ ëħĦ
ĠíĸĦ ìĬ¤íĦ°
Ġìĵ¸ ëª¨
Ġë³µ ê·Ģ
Ġì¤Ģë¹Ħ ê°Ģ
ĠíĹ¤ ëĵľ
ĠëĲĺìŀĸìķĦ ìļĶ
ëłĪìĬ¤ íħĮ
Ġê°ľìĽĶ ìĿĦ
ìĹ¼ ìĿ´
ì¿łëĭ¤ ê²Į
Ġë¬´ìĦŃ ê²Į
Ġê²¹ ì³Ĳ
ĠìĭľëĪĦ ìĿ´ê°Ģ
ĠëĤ© ìĿį
ì°¾ ìķĦ
µ ¸
ĠìĿ´ íĮĮë¦¬
ìĸ´ ëł¸ìĿĦ
ĠìķĦ ëĥĲê³ł
Ġê°Ģ ë¶Īê³ł
ĠìĤ¬ ë²Ķ
Ġëĭ¤ ì³Ĳ
Ġíķ´ ìĭľëĤľ
ĠìķĦëĭĪ ëĤľ
ë§Ī ëĭĪ
ìĿ¸ ìĬ¤íĥĢ
Ġë¹ Ķ
ĠëĺĲ ëĬĶ
Ġíķł ë§Į
ìłĦ ê³µ
Ġë¬´ ê±°ìĽĮ
Ġê³ł ë¦ħ
Ġë§Ī ëĬĶ
ĠëĮĢ ìĹ¬ìĦ¯
Ġìĺģ íķĺëĭĪê¹Į
Ġë¶Ģ ëĬĶ
ë²Ħ ëĭĪ
ìł¸ ìĿ´
Ġìĸĺê¸° ë¡ľ
Ġë¬¼ ê°Ģê°Ģ
ĠìĨĮ ìļ©
Ġì°¨ ëĵ¤
ĠìĬ¤ ë¦´
Ġë°° ë¯¼
Ġë¶Ī ëŁ°
ĠëĨĢ ìķĺìĸ´
Ġì¹ĺ ìķĦ
Ġíķĺì§Ģ ìķĬ
Ġíķĺì§Ģ ë§Ĳê³ł
Ġëĭ¤ëĭĪ ê±°ëĵł
Ġë§Įëĵ¤ ìĹĪëĬĶëį°
Ġëĵľ ëł¤
ĠìķĦê¹Į ë¶ĢíĦ°
Ġë§İìķĦ ëıĦ
Ġë¹ł ìł¼
ĠëĴ¤ ëıĮìķĦ
Ġë¶Ļ ìĹī
Ġìĭľìŀĳ ìĿ´
ĠìĦ¤ ê³Ħ
Ġê²Ģ ì§Ħ
Ġìĸ´ìĦľ ëıĦ
Ġë©Ķ ìĿ´íģ¬
Ġì¤ĳêµŃ ìĿ´
ĠëĨį ìĤ¬ëıĦ
Ġëķħ ëıĦ
Ġì¶© ì²ŃëıĦ
ĠìĹĨìĿĦ ê±°
ĠíĥĪ ëĿ½
ĠíĶĦ ëĿ¼
Ġì²ł ìłĢ
ĠìĭĿëĭ¹ ìĿ´
ë²Ħëł¸ ëĭ¤
Ġëĭ¤ìĿ´ìĸ´íĬ¸ ë¥¼
Ġì»¨ íĬ¸ë¡¤
ĠëĤ¨ìŀĲìķł ëĵ¤ìĿ´
Ġë¯¸ì¹ľ ëĵ¯ìĿ´
ĠìĭľìłĪ ìĿ´
ĠìŀĲìĦ¸ ê°Ģ
Ġìĺ¬ëł¸ ëĬĶëį°
ĠìºĲë¦ŃíĦ° ê°Ģ
Ġê°ķìķĦ ì§ĢëĬĶ
Ġê°ķìķĦ ì§Ģë¥¼
ë±ħ ìĿ´
Ġì°½ê³ł ìĹĲ
íĻĶìŀ¥ ìĭ¤
Ġìŀ¥ìķł ìĿ¸
Ġíıīë²Ķ íķľ
ĠìŀĲìĨĮ ìĦľ
( (
ĠìĿ´ ëĤ´
ìľ¼ ìĿĳ
ĠëķĮ ëĤľ
ìŀĲ ë¦¬ìĹĲ
Ġê·¸ê±° ìĿ´
Ġëĵ¤ ëł¤ìĦľ
Ġname íĺķ
Ġì£¼ ëĦ¤
Ġëª¨ ìķĦìķ¼
Ġìķł ìĻĦ
ìķĺ ëĦ¤
Ġì¢ĭìķĦ ì§Ģ
ĠìĦ¸ íĬ¸ë¡ľ
Ġìĸ´ëĸ»ê²Į íķ´
ĠìĹ° íľ´
ëĨ Ĵ
ĠëĤĺìĺ¤ ëĤĺ
Ġë²Ħ íĭ¸
ĠëĤĺê°Ģ ê¸°
ĠíĥĢ ë©´ìĦľ
ìĦł ê°Ģ
Ġìĭ¸ ìĽłìĸ´
Ġìĭ¸ ìĽĢìĿ´
Ġë§¤ ê³ł
Ġê°Ķëĭ¤ ìĺ¤ë©´
ê³µ ìĤ¬
Ġë³¼ ìĿ¼
Ġë¬¸ìłľ ëıĦ
Ġíķĺë©į ìĿ´
ĠìĹ¬ëŁ¬ ë¶Ħ
ĠíķĻìĽĲ ìĿ´
ĠìĦłë¬¼ ìĿ´
Ġê³łë¯¼ íķĺê³ł
ê²łëĦ¤ ìļĶ
ĠìĽĢì§ģ ìĿ´ê³ł
Ġìĭłì²Ń íķ´
ë²Ħëł¸ ëĬĶëį°
Ġíķ´ê°Ģ ë©´ìĦľ
Ġê¹¨ëģĹ íķĺê³ł
ĠìĿ¸ìĤ¬ íķĺê³ł
ĠìĹ°ê²° ìĿ´
Ġë¶Ģëĭ´ ìĬ¤ëŁ½
Ġê¸°íļĮ ë¥¼
ĠìłĦìĦ¸ ê³Ħ
ĠìķĮìķĦëĵ£ ëĬĶ
Ġë´ħ ìĦľ
Ġë¹Ħë¹Ķ ë°¥
Ġë³´ëĵľ ê²ĮìŀĦ
ëłĪìĬ¤íħĮ ë¡¤
Ġë İ
ìĿ´ ëķĮ
ê°Ģ ë´Ĳ
ĠìĿ´ ìĤ¼ìĭŃ
ëį° ìĿ´íĬ¸
ĠìķĦëĭĪ ìĸ´ìĦľ
Ġë§Ĳ ëĵłê°Ģ
ë¬´ ëĭĪ
Ġì§Ģ ë§Į
êµ¬ ìĹĲ
ĠìĹĨ ëĭ¨
ì° ¡
Ġê³ł ë¥´ë©´
Ġê¸° ë¥´
Ġìĭł ìĿĺ
Ġìĭł ì²´
Ġìĸ´ëĸ»ê²Į íķ´ìĦľ
ĠìĹĨìĸ´ ë¶ĢëĤľ
Ġê²ħ íķ´ìĦľ
Ġìľł íĺķ
Ġêµ¬ êµ¬
Ġêµ¬ ì¢Į
ê·¸ëŁ° ê²Į
ìĹ° ìĬµ
Ġë¬¸ íķĻ
ĠìĭĿ ìĿĢ
ê²¨ ëĤľ
Ġì´Ī ë³´
Ġì¹´ ì§Ģëħ¸
ĠëĦ¤ ëªħ
íĤ¤ ê³ł
ĠìĦľìļ¸ ë§Ĳ
ëĲľ ìŀ¥
ĠëģĿëĤĺ ë©´ìĿĢ
Ġì±ħ ìĥģìĹĲ
Ġíı¬ íĬ¸
Ġìĭ«ìĸ´ íķĺê±°ëĵł
ëĶ± ëĶ±
ĠíĺĦ ë¯¸
Ġì¡´ ê²½
Ġë§ĲíĸĪ ì§Ģë§Į
Ġëª»íķ´ ìļĶ
Ġìĭłê¸° íĸĪìĸ´
Ġíķ´ë³´ ëĿ¼ê³ł
Ġì½© êµŃ
ĠìĺĢ ëĤĺ
ĠíĥĿìĭľ ë¥¼
ìĥĿê°ģ ìĿ´
ĠìłĦê¸° ìĦ¸
ĠìĤ¬ìŀ¥ëĭĺ íķľíħĮ
ĠìķĪê²½ ìĿĦ
Ġëħ¸ëŀĢ ìĥī
Ġë¬µ ìĿĢ
Ġê¾¸ë¯¸ ëĬĶ
Ġìĸ´ëĳ ¡
ì§ ¬
Ġìĺ ´
íķĺ ëĭ¨
ĠìŀĪ ìľ¼ëĿ¼ê³ł
Ġê°Ģ ìĭ¤
ë¡ľ ìĿ´
Ġíķľ ëĭ¬ìĹĲ
ĠëŃĲ íķĺëĤĺ
ĠìķĦëĭĪ ìĸ¸
Ġë³´ ëĭ¹
Ġë³´ ìŀ°
ĠìĿ¼ ë°ķ
ë¬´ ë¦İ
ëł¤ ëĭ¤ê°Ģ
ĠìŀĲ ìĺģìĹħ
Ġìłľ ë¡ľ
Ġë§Ī ë¥´
ìĺĪ ìĺĪ
íĸĪ ì§Ģë§Į
ìķĪ ëĤĺ
Ġê¹ ¼
Ġëĭ¬ ëŁ¬
ĠìĹ° íķĦ
ĠëĤł ìĿĦ
ë°Ķ ëĭ¹
Ġê°ķ ìłľë¡ľ
Ġë¬¸ ëıĦ
ĠìłķëıĦ ë©´ìĿĢ
Ġë¹¨ ê°ķ
Ġì£½ ê²łëĬĶëį°
ì¡° ë¥¼
ê³Ħ íĥķ
Ġìĭ¬ íķĺê³ł
Ġë§¤ ìĭ¤
ĠíĮĮ ëĬĶê±°
ĠíĻķ ìłķ
ë¶Ī ìĸ´
ê°Ķ ëĭ¹
Ġë°ľ ìŀĲ
ĠìĿ´ìĥģ ìĿĦ
Ġê¸¸ ìĿĢ
ĠëĪĦêµ¬ ê°Ģ
ĠìķĮë°Ķ íķĺê³ł
Ġë°ķ ìĪĺ
Ġì¢ħ ìķĦë¦¬
Ġë©Ķ ë¥´
ë³ĳ ìĿĦ
ëĶ± íŀĪ
Ġì²Ń ì£¼
Ġì¼ °
ìĵ ±
ë©° ì¹ł
Ġê³łê¸° êµŃìĪĺ
ĠìĻ¸êµŃ ìĸ´
Ġë» Ĳ
Ġë°Ľìķĺ ëĭ¤
Ġëĸ¼ ìĸ´
Ġì¸µ ìĹĲìĦľ
ĠìĤ¬ëŀĮíķľíħĮ ëĬĶ
Ġë³´íĹĺ ìĿ´
ìĭľì¼ľ ìĦľ
Ġíķ´ì¤ĺ ìĦľ
ĠìĽĶê¸ī ìĿĦ
ĠìĭĿêµ¬ ëĵ¤ìĿ´
ĠìĤĲ ëļ¤
Ġíķĺëĭ¹ ë³´ëĤľ
ĠìķĬìľ¼ ê½Ī
Ġíĩ´ê·¼ íķĺê³ł
ĠëĥĪ ëĬĶëį°
ìķĦë°© ìĿĢ
ĠìĿĢíĸī ìĹĲ
Ġê¾ Ģ
ĠíĺĪìķ¡ íĺķ
Ġê²ł ëĭ¤
Ġë°ĺì§Ŀ ë°ĺì§Ŀ
ĠìĤ¬ëĮĢë¶Ģ ê³ł
Ġê·¸ ì£ł
ĠìĿ´ ë¥¼
ê¹ Ĭ
ĠìĤ¬ ê·¹
Ġìĺ¤ ê±°ëĤĺ
Ġì§Ģ ë¬¸
Ġì§Ģ ìĺ¥
Ġê·¸ê±° ë§Į
ĠìĹ¬ ëŁ¿
ĠìĪĺ ë¡Ŀ
Ġëª» íĹĪ
Ġname ìĿĦ
ìĥģ íĺ¸
ĠìŀĪëĬĶ ê±´
ĠìŀĪëĬĶ ê±°ëĿ¼
íĻĶ ëıĦ
íĻĶ ìŀĲ
Ġë¹Ħ ìľ¨
ë¬¸ ê³¼
Ġê³Ħ ìĭľê³ł
ĠìĦ¸ ìļ´
ìĦ¸ ê¸°
ë¨¹ ê¸°
ĠëĤĺê°Ģ ëĬĶëį°
Ġê°ķ ëł¥
Ġìłģ ìĿĦ
ëŃĲ ëŀľ
Ġê°ĢëĬĶ ì§Ģ
ĠìĿĺ ìŀĲìĹĲ
Ġì¹ł ìĽĶ
ĠëĭĪ ëĬĶ
ĠìķĦëĵ¤ ëĵ¤
íĶĮ ëłĪ
ĠíķľêµŃ ìĿĢ
Ġìŀ¬ë°Į ê³ł
Ġìŀ¬ë°Į ìĹĪëĬĶëį°
Ġë²ł ìĿ´ìĬ¤
Ġëĸł ìĺ¬
Ġíķĺë©į ìľ¼ëĦ¤
Ġì±Ħ ìļ¸
Ġëģĵ ìĿ´ëĬĶ
ĠëĵľëĿ¼ë§Ī ëıĦ
ĠìŀĲë¦¬ ëıĦ
ĠëĪĦëĤĺ ëŀĳ
Ġëļľ ëł·
Ġë©ĭìŀĪ ê²Į
Ġë©ĭìŀĪ ëĭ¤
Ġìĸ´ëĳĲ ìļ´
ĠëıĻê·¸ ëĿ¼ë¯¸
ĠìĹĲëĦĪ ì§Ģ
ĠíĮ¨íĤ¤ ì§Ģ
ĠìĬ¤íĥ ł
2 2
Ġë ĥ¥
ê³ł ìĤ¬ë¦¬
ĠìĿ´ ìĹĪìĸ´
ìĹĲ ìĸ´
ë© ĵ
Ġê°Ģ ëĶĶ
ĠìĤ¬ ìĬ´
Ġíķ´ ì§Ģê³ł
Ġíķ´ ìĭ¤
Ġíķ´ ì§ĢëĬĶ
ê·¸ ë§Įíģ¼
ĠìķĦëĭĪ ìĹĪëįĺ
ëĮĢ ë§Į
ê²ł ì§Ģë§ĮìĿĢ
ìĺ¤ ëĤľ
ĠìĥĿê°ģ íķĺê²Į
Ġì£¼ ê¸´
ìĹ¬ ìŀĲê°Ģ
Ġëĵ¤ìĸ´ ë³´ê³ł
ê²ĥ ìĿĢ
Ġê±¸ ì³Ĳ
ĠìĻĢ ëĭ¿
ĠìŀĲê¸° ëĮĢë¡ľ
Ġìĸ¸ëĭĪ íķĺê³ł
ë§Ĳ ìķĻ
ĠëĪĦ ëĭĺ
ìĨĮ ìĬ¤
Ġê²ħ íĹĪë©į
Ġêµ¬ ë£¨ë§Ī
ĠëıĦ ìĹĲìĦľ
Ġë¶Ħ ìĭĿ
Ġë¶Ħ íĻį
Ġìŀ¥ ë¥´
Ġìŀ¥ ë¡±
ĠìĦ± ìĿ¸ìĿ´
Ġëĭ¹ ë©´
Ġì£½ ìĿ´ëĬĶ
Ġìĸ¼ë§Ī ë¥¼
Ġíĺ¸ ë¶Ī
ëĥ¥ ìľ¼ë¡ľ
ĠíĮĮ ìĽĮ
ê°Ī ìĿ´
Ġìĭ¤ ìļ©
ĠëĦ£ ì§Ģ
Ġëĵ£ ëĭ¤
Ġì§ľ ìĦľ
Ġê·¸ê²ĥ ìĹĲ
ĠìĥĿê°ģíķ´ ê°Ģì§Ģê³ł
ĠëıĻëĦ¤ ëıĦ
íĳľ ê°Ģ
ìĸ¸ëĭĪ ëŀĳ
Ġìĥ ·
Ġëģĵ ìĺģ
ĠìķĦëĭĮê°Ģ ìļĶ
ĠëĤĺëĿ¼ ìĿĺ
ĠëĤĺìĺ¬ ê±°
Ġë¯¼ ê°Ĳ
Ġë§¡ ê¸°
Ġë°©ë²ķ ìĿĢ
Ġëĵł ëĭ¤ê³ł
Ġì§ĢìĽĲ íķ´
ĠíĶ¼ê³¤ íķľ
ìĭľíĤ¤ ë©´
Ġëª©íĳľ ëĬĶ
ĠìĤ¬ë¬´ ìĭ¤ìĹĲ
Ġì£¼ë¯¼ ëĵ±ë¡Ŀ
ĠìľłëĭĪ íı¼
Ġê°Ħë³ĳ ìĿ¸
Ġìľłê¸° ëĨį
Ġê·¸ ëĭ¥
ĠìĿ´ ê¸°ëĬĶ
ìł ±
Ġìĸ´ ë¦¬ëĭĪê¹Į
ĠìĤ¬ ë¬¼
ĠìķĦëĭĪ ë¯Ħ
ĠìķĦëĭĪ ìĹĪëĤĺ
Ġìĸ ½
Ġë³´ ê±°ëĤĺ
ìĿ¸ ê°Ħ
Ġì§Ģ ìł¸
ĠìŀĲ ë¥´ëĬĶ
Ġëį §
ĠìĪĺ ë¶Ħ
ìłĦ ìĿĢ
ìĺ¤ ìĬ¤
Ġëª¨ ìķĦê°Ģì§Ģê³ł
Ġë§Ī ì¹´ìĺ¤
ĠìĽĲ ê²©
ìłĢ ë§Į
ĠíĹĪ ìŀĸìķĦ
ì§ģ ìĿĦ
Ġê³µ ì¤ĳ
ĠìĨĮ ë³Ģ
Ġëĭ¬ ëŀĳ
Ġë¯¸ ìĭ±
Ġì½ ±
Ġêµ¬ ë³Ħ
ìĦ¸ ìĥģìĹĲ
íĹĪ ëĿ¼
Ġì½Ķ ëĵľ
Ġì½Ķ ëĦĪ
ĠëıĮìķĦ ê°Ħ
Ġíŀĺëĵ¤ ìĸ´ëıĦ
ĠìłĲ ìĿĦ
íĺ¸ ê¼¼
Ġì« ĳ
ĠíļĮ ìŀ¥ìĿ´
íı¬ ì¸ł
Ġì°¾ ìľ¼ë©´
ĠìĿ´ìĭŃ íĮĶ
Ġìĺ· ë§Į
ĠìĿ´ìĦľ ëıĦ
Ġë³´ëĤ´ ì¤Ħ
ê·¸ëķĮ ê°Ģ
Ġì¶ľ ìĹ°
Ġê·¸ë§Į ëĳĺ
Ġê°ĢìĿ´ íķľíħĮ
ĠìĿ´ìľł ëıĦ
Ġëĭµ ìĤ¬
Ġë°Ķëĭ¤ ëıĦ
ìļķ ìĿ´
ëģĦ ë§Į
ĠìĬ¤ë¬¼ ìĦ¸
ĠëĤĺë¬´ ë¡ľ
Ġê´Ģìĭ¬ ëıĦ
Ġì¹ĺíĤ¨ ìĿĦ
Ġì¶ĶìĽĮ ê°Ģì§Ģê³ł
Ġì«ĵ ìķĦê°Ģ
Ġê¸°ëĭ¤ëł¤ ë´Ĳ
ĠìĹĳ ìħĢ
ĠëıĻì°½ íļĮ
Ġê¹ĶëģĶ íķľ
ìķ¼ëĲĺ ëĬĶëį°
êµĲìľ¡ ê³¼
ĠìĨįìĥģ íķ´
ĠíĴĪ ìłĪ
Ġë§Įëĵľ ëĬĶëį°
ĠëĤ¨ì£¼ íĺģ
Ġê°Ŀ ê´Ģ
Ġíį½ íį½
ĠìĺģìĪĺ ì¦Ŀ
ĺ ìĸ´
ĠìĿ´ ìĿ¸
Ġíķĺ ì¼ľ
Ġíķĺ íģ¬ëĿ¼
ê¹ ħ
íķĺ ëĬĺ
Ġê°Ģ ë²Ħë¦¬ë©´
ë¡ľ ë¥¼
ĠìķĪ íĹĪìĹ¬
ìķ¼ ìĿ´ëĦ¤
ĠëķĮ ë¦°
Ġë¨¹ ê¸°ë¡ľ
Ġì§Ģ ëĤ¸
Ġë§ŀ ì·ħ
ĠìĽĲ ì§ľ
ì¹ĺ ë¡ľ
Ġì¡° ë§Į
ĠìĺĪ ìĭĿ
ìŀĪ ìĹĪëĬĶëį°
ĠíķĺëĤĺ ëŀĳ
Ġì°¨ ë§Į
ë§Ĳ ëŀľ
Ġë¨¹ìĸ´ ì§Ģ
ĠëıĦ ë°ķ
ĠëĲľ ìŀ¥ìĹĲ
Ġë¶Ħ ìĿ¸ëį°
Ġë°ĺ ìľ¼ë¡ľ
Ġë¶Ī ëłģ
ìĺĢ ëĭ¤ê°Ģ
íĥĢ ìĿ´
Ġëĭ¹ íķł
ëĿ½ ìĿ´
Ġìĭ¬ íķĺì§Ģ
Ġìķŀ ëĴ¤
Ġê°Ļìķł ìļĶ
ê°Ī ëķĮ
Ġê´ľì°® ìķĺëĬĶëį°
ĠìłĲ íĶĦ
Ġë³ĳ ìĿĦ
Ġë³¼ ê±°
Ġëª¸ ìĹĲìĦľ
Ġì§ģ ìŀ¥ìĿ´
Ġìĺ· ìŀ¥
íĿ Ļ
Ġë§Ĳíķ´ ì¤Ħ
ì¤¬ ëĭ¤
Ġêº¼ ìķ¼
ìĭľê°Ħ ìĿĦ
ĠëģĬ ìĸ´ìķ¼
Ġì±Ļ ê¸¸
ĠìĶ» ìĿĦ
ëĮĢê°Ģ ë¦¬
Ġì¼ĢìĿ´ íĭ°
ĠìĥĿê¸´ ê±°
íĸĦ ìĪĺëĭ¤
Ġëĭ¤íĸī ìĿ´ì§Ģ
ĠìķĬëĬĶ ëĭ¤ê³ł
ĠìĿ´ìĭł ê²Į
ìĺ¤ëĬĺ ëıĦ
Ġìłķë¦¬ íķ´
Ġíĥķ ìĪĺìľ¡
Ġìŀ¥ìĤ¬ íķĺëĬĶ
ĠìķĦê¹Ŀ ëĭ¤
Ġì±ĦìĽĮ ìķ¼
Ġë¡¯ëį° ë¦¬ìķĦ
ĠíļŁ ì§ĳ
Ġë·° íĭ°
ĠìĻĢëŀĳ ìĻĢëŀĳ
Ġì ·
ĠìĿ´ ìĿµ
ĠìŀĪ ëĬĲëĥĲ
íķľ ìĿ´
ì£¼ ì¼Ħ
Ġìĺ¤ ëĭ¤
ĠìĹĨ ìĪĺëĭ¤
Ġìŀĺ íķĺëĬĶëį°
Ġëª» ìĵ°
ĠìķĮ ê¸´
íħĮ ìĿ¼
Ġê³ł íĶĦ
Ġìĺģ ìĿ´
Ġìĭ¶ ì§Ģê°Ģ
Ġìłľì£¼ ìĿĺ
Ġëį° ëł¤ìĦľ
ë§Ĳ ëĿ¼ê³ł
ëĮ Ķ
Ġêµ¬ íķĺê³ł
Ġë°ĺ íĴĪ
ì§Ī ìĿĢ
ìĸ¸ ìĿ´
Ġê°Ļìķł ìĦľ
ĠìĿ´ëŁ¬ ëĬĶê±°ìķ¼
Ġë¨¹ìĿĦ ë§Į
Ġëĭ´ ìĿĢ
ìľĦ ìĽĲ
Ġì°¾ ì§Ģ
Ġê·¸ëŀ¬ ìĸ¸
ĠìķĦì§ģ ê¹Įì§ĢëıĦ
ĠíķĻëħĦ ìĿĢ
ĠëĭĪ ëĦ¤ê°Ģ
ë©Ķ ëī´
ĠíĸĦ ìĪĺê³¼
Ġë§ĲíĸĪ ëĤĺ
Ġì¤¬ ëįĺ
ĠìĿ´ëª¨ ëŀĳ
Ġìĥī ìĨĮ
Ġê²ģ ëĤĺìĦľ
ĠìĶ» ëĬĶ
Ġë¯¼ ë°ķ
Ġìĺ¤ë¦Ħ ëıĦ
ĠëĨ¨ ëĭ¤ê°Ģ
Ġëĭ¨ê³Ħ ê°Ģ
Ġì»¨ íħĲì¸ł
Ġìĩ¼íķĳ ìĿĦ
ĠìĭľëĤ´ ìĹĲ
ĠìªĦ ìĦľ
ĠëĤ¨ëıĻìĥĿ ìĿ´
ĠìħĢ ì¹´
Ġìŀĩ ëª¸
ìŀłê¹Ĳ ë§Į
Ġê½ģì§ľ ë¡ľ
Ġì¹´ìļ´ íĦ°
ĠíĮĮìĿ¸ ìķłíĶĮ
ĠëĤĺ ë°ĸìĹĲ
ë§ ¡
ì£¼ ì§ĢëıĦ
ì£¼ ê²łëĭ¤ê³ł
ìĭľ ìŀ¥ìĹĲ
ë³´ ë¥¼
Ġìłľ ìĻ¸
ĠìķĬ ëįĶëĿ¼
Ġëª¨ ìĿ¼
Ġê¸° ë§Ĳ
Ġìĸĺ ëĵ¤
ĠìĽĲ ìĿ´ìķ¼
Ġê±¸ ëłĪ
Ġì¡° ìŀĳ
ìŀĪ ëĭ¤ê°Ģ
ĠíķĻ ìĤ¬
Ġë¹Ħ ëıĦ
ìłķ ìĹĲ
ĠìĦ¸ ê³ł
Ġì°¨ ëĵ¤ìĿ´
Ġëĭ® ìķĺëĭ¤ê³ł
Ġëª° ê³ł
Ġë°ĺ ë¶ĢíĦ°
ìĹ° ê¸Ī
ĠëĶ° ìł¸
ĠíĨ ¨
íĥĢ ë¡ľ
ì¡° ìļ©
ĠëĤ¨ìŀĲ ìķĦìĿ´
ĠìĤ° ìĨĮ
Ġìĺ¬ëĿ¼ ê°ķ
êº¼ ë©´
Ġì¶Ķ êµ¬
Ġëĭ´ ëĬĶ
Ġë³¼ ëķĮëĬĶ
Ġì»¤ íĬ¼
ì¡± ìĿĢ
Ġì§ľ ê²Į
ĠëĤ³ ìķĺìĸ´
ìħĶ ëıĦ
ĠëģĬ ìĹĪìĸ´
ĠìĿĢ íĩ´
ĠìĹ¬ë¦Ħ ìĿ´
ĠìķĬìķĺ ì§Ģë§Į
ĠëĤĺëĿ¼ ë¥¼
Ġë³Ģ íĻĶê°Ģ
ĠëĨĪ ëĵ¤ìĿ´
ĠíĮ¨ ëĵľ
ĠëĤ¬ ì§Ģ
Ġê·¸ìª½ ìĿ´
Ġë©ĭ ì§Ģê²Į
ĠìŀĬ íĺĢ
Ġë¹¡ ì³Ĳê°Ģì§Ģê³ł
Ġë§¡ ìĿĢ
Ġë¶Īíİ¸ íķĺê³ł
Ġê³łìĸĳìĿ´ ëıĦ
ĠëĶ°ëľ» íķ´
Ġìĭłë°ľ ëıĦ
Ġaddress ìĹĲ
Ġì§Ĳ ìĿ´
ĠíıĲ ëł´
ëª¬ ëĵľ
Ġê·ĢìĹ½ ì§Ģ
ĠìķĦê¹Ŀ ê³ł
Ġëĭ´ëĭ¹ ìŀĲ
ĠëĳĲêº¼ ìĽĮ
ìĿ´ì²ľ ìĿ´ìĭŃ
Ġí īģ
ĠìķĪ ìĺ¤ê³ł
ëĵ¤ ìĹ¬
íķ´ ìĪĺìļķ
ĠìĤ¬ëŀĮ ëĦ¤ê°Ģ
ìĿ¸ ìľ¼ë¡ľ
ìĭľ íĭ°
Ġì¢ĭ ìĪĺëĭ¤
ìĸ Ģ
ĠìĽĲ ë§Ŀ
ìĥĿ ìĿĦ
ê²ĥ ì²ĺëŁ¼
ìļ° ëĤľ
Ġì¡° ë¦½
Ġë¶Ģ ëŁ°
Ġë¹Ħ ìļ©ìĿ´
Ġê²½ ë¹Ħ
Ġì°¨ ê°ĳ
Ġìŀħ ë§Į
ĠëıĦ ìĥĪ
ĠíĥĢ ëıĦ
ëĬĲ ëĥĲê³ł
íĥ Ķ
ë°± ìĿ´
Ġì¡ į
ëĭ¬ ëĭ¬
ëŀĢ íŀĪ
Ġëĵľ ìĦ¸ìļĶ
ë°ĺ ìĿĢ
ĠìĿ´ìłł ìĿ´
Ġê·¸ëŀ¬ êµ¬ëĤĺ
ĠëĶ¸ ëĵ¤ìĿ´
Ġê°ĸ ì¶°
ĠíĨµ ëĭŃ
ĠëģĿëĤĺ ìķ¼
ìķĦìĿ´ íĶ¼
ĠíĦ° íĤ¤
Ġê°Ģê²Į ê°Ģ
ĠëĮĢíķĻêµĲ ë¥¼
Ġê·¸ëĶ ´
ìķĦë¬´ ëıĦ
Ġíķ´ë´Ĳ ë´Ĳ
ĠíĥĦ ìĤ°
Ġìŀ¤ ëĬĶëį°
Ġëĸ¨ ë©´ìĦľ
ê·¸ê²ĥ ë§Į
Ġìĸ´ëĸł íķľ
Ġì£¼êµ¬ ìŀ¥ì°½
íķĺ íķĺ
Ġìĭ ¯
Ġë³´ ëĤĺ
ĠìĿ¼ ë¶Ģ
ĠëĲĺ ë¯¼
ĠíĸĪ ìĹĪìĿĦ
ëĮĢ ì¶©
Ġê¸ °ë¦¬
Ġíķł ìĪĺëıĦ
ìĬ¤ ì¹´
Ġë§Į ëĤ¨
Ġíķĺê³ł ìļĶ
Ġë°Ķ ìĹĲ
Ġìłķ ìŀ¥
Ġìłķ íĺķ
ìŀĪ ìĸ´ìķ¼
Ġë¶Ģ ì¸ł
ĠëĤ¨ ì§Ģ
Ġìĸĺê¸° ì§Ģ
ëħĦ ëıĦìĹĲ
ëĭĪê¹Ĳ ìĿ´
Ġìĥģ ì§ķ
Ġëĭ¬ ì½¤
ĠìĹ° ê´Ģ
Ġìŀ¬ ìĽĮ
Ġë¶Ī ë¹Ľ
Ġë¶Ī ê°ĢëĬ¥
ìľł ê¸°
Ġìŀ¥ íĮĲ
Ġëĭ¹ ìĿ¼ëĤł
ìĦ± ê²Į
ì¢ Ķ
ĠíĶ¼ ë¥¼
ĠëĤ¨ìŀĲ íķľíħĮ
Ġê°Ĳ ìĭľ
ê°ķ ìķĦì§Ģ
Ġê°Ķëĭ¤ ìĻĶìĸ´
ĠëĦĺ ìĸ´ìķ¼
ĠìĤ´ìķĦ ì§Ģ
ëĸ ¨
ĠìĽĥ ìĿĦ
Ġì»¤ íĬ¸
Ġëĵ£ ëĭ¤ê°Ģ
Ġë°ĽìķĦ ìĭłëĶĶ
Ġëĸ¨ìĸ´ ì§Ģì§Ģ
Ġë³´ëĬĶ ëĶĶ
ĠíĸĦ ìªĦ
Ġëıħ ìĥĪê¸°
ĠëģĬ ìľ¼ë©´
Ġì§Ī ëł¤
Ġì¤ĳìļĶ íķĺê³ł
ëįĶëĭĪ ë§Į
Ġë²ĦìĬ¤ ëıĦ
ĠëĮĢíķ´ìĦľ ëıĦ
Ġë³Ģ ê²½
Ġìį¼ ìĿĦ
Ġê°ľìĽĶ ìĹĲ
Ġëª»íķĺ ê²ł
ĠìĹħ ê·¸
ĠìĤ¬íļĮ ë³µì§Ģ
Ġìĺ® ê¸´
Ġê±´ë¬¼ ìĹĲ
Ġë¬¶ ìĸ´ìĦľ
Ġë§¹ ìĭ¬
Ġë©ĶìĿ´ ì»¤
ĠìĿĳê¸ī ìĭ¤
ĠìĪ¯ ë¶Ī
ëĭĪ ìĸ´
ëĿ¼ êµ¬
íķľ ê±°ì§Ģ
Ġë³´ ìĺĢìĸ´
ìŀĲ ìĿ¸
Ġê°Ļ ì§Ħ
Ġìĺ¤ ë¥´ëĬĶ
ê°Ħ ìŀ¥
Ġì§Ģ ëĤ¼
Ġìłľ ê±°
Ġì£¼ ëĬĶê²Į
ĠëĮĢ ì¶Ķ
Ġë°Ķ íĥķ
Ġë¹Ħ ìľĦ
ê¹Įì§Ģ ê°Ģ
Ġê³µ ìĤ°
ĠìĹ° íķ©
Ġêµ¬ íķĺëĬĶ
ĠìĦ± ëĭĺìĿ´
Ġìĺ¤ë¹ł ëĵ¤ìĿ´
ëģ¼ ëĬĶ
Ġë§ĲìĿ´ ëĤĺ
ê·¸ëŁ¬ ê²Į
íĮĮ ëĬĶ
Ġìĭ« ìľ¼ëĭĪê¹Į
ì¤Ģ ëĮĢ
ĠëĿ¼ ëıĦ
Ġì»¤ ë®¤ëĭĪ
íĺķ ìłľ
Ġëĭ¤ìĦ¯ ìĤ´
ĠíķĺëĤľ ìĿ´
Ġëĭ¬ëĿ¼ ë¶Ļ
ĠìĤ¶ ìĹĲ
ìĹĦë§Ī íķľíħĮ
ë´ī ìĤ¬
íķĺëĤĺ ëĭĺ
ĠëĤ« ê²łëĭ¤
Ġë´ī ê°ľ
ë¹¨ ëŀĺ
Ġíķĺê¸° ìĹĶ
ĠíĻĶìŀ¥ìĭ¤ ìĹĲìĦľ
Ġë°ĽëĬĶ ëĭ¤
ĠìĹ°ìķł íķł
Ġì²ŃìĨĮ ëıĦ
Ġë³´íĹĺ ìĿĦ
Ġíĳ¸ ë¥¸
ĠíĿĶ íŀĪ
Ġê·¹ ëĭ¨
ĠìłĦê¸° ì°¨
ĠìŀĲìĭł ìĿĺ
ĠëĤĺê°Ħ ëĭ¤ê³ł
ĠëĬĲê¼Ī ëįĺ
ì¤į ìį¨
Ġë°°ìĨ¡ ë¹Ħ
ĠìĭłìĦ¸ ê³Ħ
Ġìĭłìļ© ì¹´ëĵľ
Ġìĺ¤íĶ¼ìĬ¤ íħĶ
ê³ł ì¹ĺ
ĠìķĦ ëĵ¤ìĿ´ëŀĳ
ìŀ ¤
ê¸° ëĭĪê¹Į
Ġëĭ ³
Ġìĸ´ ì§ľíĶ¼
ĠìĤ¬ ìĻĢìĦľ
Ġíķ´ ìĹĲ
Ġì§Ģ ìłķ
ĠíĸĪ ëĭ¹
ĠíĸĪ ìĹĪëĭ¤
Ġìĭľ ë¹Ħ
Ġìĭľ ìķĦì£¼
ĠìķĮ ëŁ¬
ìŀ¥ ê°ĳ
ĠìĤ´ ìª
Ġë¬´ ëļĿëļĿ
Ġë§ŀ ìľ¼
Ġëĵ¤ìĸ´ ìĻķ
íĻĶ ëĲľ
Ġìĸĺê¸° ëĵ¤
ìłķ íķĺê³ł
Ġìĭł ìĿĦ
Ġìĭł ëĤĺê²Į
Ġìľł ìŀĲ
ĠëĤł ë§Į
ìĦ¸ ê³Ħ
íģ¬ ë¥¼
Ġë°ĺ ëĵľìĭľ
ìķ½ ëıĦ
ĠëĨĢ ëĭ¹
Ġìŀ¡ ì±Ħ
Ġë§Įëĵ¤ ìĸ¸
íĨµ ìĿĦ
ĠìĤ° ìĿĦ
Ġëĵľ ë¦½
ĠíĮĮ ê³ł
Ġíģ¬ ëĬĶ
Ġíģ¬ ê¸°ê°Ģ
Ġê·¸ëŀ¬ ëĮĢ
ĠëĴ¤ ìĹĲëĬĶ
Ġì²ľ ë§ī
ĠìķĦì¹¨ ìĹĲëıĦ
Ġëĸ¨ìĸ´ ìł¼
ĠìķĮê³ł ë³´ëĭĪê¹Į
ĠìķĮê³ł ë¦¬ì¦ĺ
Ġì§ĢëĤĺ ê°Ģê³ł
ëĪĦ ë¦¬
ĠëĤ³ ìľ¼ëĭĪê¹Į
ĠíĻĶìŀ¥ ëıĦ
ëıĮ ìķĦê°Ģ
Ġë§Ĳíķĺ ëĿ¼ê³ł
Ġê¸°ëĭ¤ ë¦´
Ġëª¨ëĵł ê²Į
Ġìĭłê²½ ì§Ī
ìľ¼ë©´ìĦľ ëıĦ
Ġìļ´ìłĦ íķĺëĬĶ
Ġë¯¼ ì¦Ŀ
ëĴ ·
ĠìŀĲìĭĿ ëĵ¤íķľíħĮ
ĠìĭĿëĭ¹ ëıĦ
Ġë°°ìļ° ëŁ¬
Ġë§Ĳë¡ľ ë§Į
Ġì£Ħ ë¥¼
Ġìĺ® ê¸¸
Ġë§İìķĺ ê³ł
Ġê·¸ëķĮë¶ĢíĦ° ëĬĶ
Ġì§ģìĽĲ ëĵ¤ìĿ´
Ġë¬´ìĦŃ ì§Ģ
ĠíĴį ìĬµ
ì« ĵ
Ġíķłêº¼ ìķ¼
Ġì¤ĳê³ł ëĵ±íķĻêµĲ
ĠìķĪëĲĲ ìĸ´
Ġëĥħ ëĳ¬
ĠëĮĦ ìĬ¤
Ġìłķë¶Ģ ìĹĲìĦľ
ë¬´ìĭľ ê±°
ĠíĬ¸ë¡ľ íĬ¸
ĠìķĮëłĪ ë¥´ê¸°
Ġê·¸ ëĬĺ
ìĿ´ ìļĶ
ĠìķĦ ìĭľëĬĶ
ëĤĺ ë³´ê³ł
ĠìķĪ íķľëĭ¤ê³ł
Ġê°Ļ ëĦ¤
Ġìĺ¤ íĭ°
Ġìĺ¤ ê²łëĭ¤ê³ł
name ìĿ´ëıĦ
Ġê·¸ëŀĺ ìĭłëĶĶ
Ġì¢ĭ ê²łê³ł
ĠíĸĪ ì£ł
ìĬ¤ ë¦Ħ
ĠìĤ´ ë¦´
Ġìķł ìĿ¸
Ġëĵ¤ìĸ´ ë´Ķ
ĠìĤ¼ ìĭľ
Ġìķ¼ ê²½
Ġì¹ľ íķĺê³ł
ĠíĹĪ ëĤĺ
ĠëĳĲ ëĭ¬
ĠìĹĦë§Ī íķĺê³ł
ìĨĮ ê¸Ī
ĠëĤł ê°ľ
ëª¨ ìĬµ
Ġë´¤ ëĮĢ
ê´Ģ ëħĲ
Ġìĭ¬ íķ´ìĦľ
ĠìĨĶ ìĨĶ
Ġë³´ëĭĪê¹Į ëĬĶ
Ġëĵľ ëĶĶìĸ´
Ġë°ľ íĨ±
ê²ħ íķĺê³ł
ëı¼ ê°Ģì§Ģê³ł
ĠìĤ´ìķĦ ìļĶ
Ġëª© ëıĦ
íı¬ ëıĦ
ĠìĿĺ ëıĦ
Ġì²ľ ìŀ¬
ĠíĨµ ìľ¼ë¡ľ
Ġê°Ģìł¸ ê°ĢëĬĶ
ĠëĤĺìĻĶ ìĸ´ìļĶ
Ġíıī ìĿ¼ìĹĲ
Ġíķĺëĭ¤ê°Ģ ëıĦ
Ġë¨¹ìĹĪ ìĹĪìĸ´
ĠìĹ°ëĿ½ íķĺëĬĶ
ĠíĺĦ ìĪĺ
Ġì°¾ìķĦ ë´Ĳ
Ġë¬´ìĦľ ìĽłìĸ´
ìĵ °ë¦¬
ĠìĦłë¬¼ ìĿĢ
Ġë¯¼ íıĲ
Ġì§ľì¦Ŀ ëĤĺëĬĶ
Ġì¢ĭìķĺ ëĭ¤
ĠìĽĮ íĤ¹
Ġëĭ« ëĬĶ
ĠíĮĶìķĦ ëıĦ
Ġê³łìĸĳìĿ´ ë¥¼
Ġì§ĳìķĪ ìĿ¼
Ġìĸ´ìļ¸ ë¦¬
ĠìĺĪë»Ĳ ìĦľ
Ġë¯¸ì¹ľ ëħĦ
Ġë°Ł ê³ł
ĠìķĦìī½ ëĭ¤
Ġì¹¼ë¡ľ ë¦¬
ëº ĳ
ĠìĸĮ ìłĦ
Ġê°±ëħĦ ê¸°
ë© ĭ
ëŀ ı
Ġê°Ģ ìĭł
Ġê°Ģ ë¦¬ê³ł
Ġê°Ģ ê²łì§Ģ
Ġê°Ģ ë§¨
ëĵ¤ ëĿ½
Ġë§ī íŀĮ
ĠëĦ ĭ
Ġìĺ¤ ëıĦ
ìĭľ ì§ĳ
Ġê·¸ëł Ī
ĠìĥĿ ì¡´
ë³´ íĺ¸ìĤ¬
Ġname ìĿ´ëĿ¼ê³ł
ìĺ¤ ë©´ìĦľ
ĠìĥĿê°ģ ëĤĺìĦľ
ĠìĤ´ ëĿ¼
Ġìķ½ ëĮĢ
Ġê³ł ë§Ŀ
ĠìĦ¸ ëĮĢëĬĶ
ĠìĦł ìłĦ
Ġëĭ¬ ìĿĦ
ĠëıĮ ë´Ĳ
ĠëŃĶê°Ģ ìĿ´
ìĹ° ìĺĪ
ë¨¹ ìĹī
ĠíĥĢ ëĬĶëį°
Ġë°© ì½ķ
ĠìłķëıĦ ë¥¼
ìĦ± ìľ¼ë¡ľ
ì¡° ë¡ľ
ĠìĥĪ ë§ĪìĿĦ
Ġìķŀ ìĹĲëĬĶ
Ġê·¸ëłĩ ëĦ¤
Ġì°į ìĸ¸
ĠìłĲ ìĿĢ
ĠëĴ¤ ìł¸
íİ Ħ
ê¸¸ ìĹĲ
Ġìķī ìķĺ
Ġë¶Ļ ìŀ¡
ĠëĤĺìĻĶ ê³ł
Ġê°Ģì§Ģ ë¡ľ
Ġë³Ħ ëıĦ
Ġëģĵ ìĿ´ê³ł
ĠíĬ¸ ìľĦ
Ġê±· ëĭ¤ê°Ģ
ê³¨ ìĿ´
ĠìĤ´ìķĺ ìŀĸìķĦ
Ġì±Ļê²¨ ì£¼ëĬĶ
Ġì²ł ìĿ´
ìĨĲ ê°ĢëĿ½
ìĿį ëĭĪëĭ¤
Ġì¶ľê·¼ ìĿĦ
Ġë§İìķĺ ì§Ģ
Ġìĺ¤ìĿ¼ ìľ¡
ë³ĳìĽĲ ìĹĲìĦľ
ê²ģ ëĭĪëĭ¤
ĠìĨ¡ íİ¸
ĠíĺĪ ê´Ģ
Ġì¼ľ ìł¸
ĠíĻĪ íĬ¸
Ġëļ« ê³ł
ĠíĶĦë¦¬ ë¯¸
Ġì¤į ìĦľ
ĠëĳĲëĵľ ëł¤
Ġê²Ģìłķ ìĥī
Ġê°Ģë²¼ ìļ´
Ġìĭ±ê°Ģ íı´
Ġìľ¡ê°ľ ìŀ¥
ĠìĿ´ ì§ĳ
ì§Ģ ìĹĲìĦľ
íķĺ ì£¼ê²Į
ëĵ¤ ìĹī
ĠëŃĲ ìĹĲìļĶ
Ġê³ ¹
ĠëĤ´ ëĿ¼ê³ł
ëĦ¤ ì¦Ī
ì£¼ ìĤ¬
ìŀĲ ëĿ¼ê³ł
ĠìĿ¼ ì§Ħ
ĠëĲĺ ëĬĲëĥĲ
name ëĦ¤
ĠìŀĲ ë¦¬ëĬĶ
Ġìŀĺ ëĲł
Ġê·¸ëŁ¬ ëĥĲê³ł
Ġë°Ķ ëŀĺ
ëĭĺ ìĿ´ëŀĳ
Ġì¢ĭìķĦ ì§ĢëĬĶ
Ġë²Ī ì§Ģ
Ġì¤ĳ ëĭ¨
ì§Ħ ëĮĦ
ĠíĹĪ ê¸´
ìĻĢ ê·¸ëĦ¤
ì§ĳ ìĸ´
ĠìĹ° ìĨį
ĠìĹ° ë´ī
Ġê°Ħ ê²Į
ĠëıĮ ìĿĦ
Ġë¨¹ê³ł ìĭ¶ìĸ´
Ġë°ĺ ìĦ±
Ġë¶Ī ìĹĲ
Ġê°ķ ìĿ´ëĦ¤
ìĺĢ ëįĺê±°
Ġcompanyname ë¥¼
Ġëĵľ ëĬĶê±°
ê²ħ íķ¸
ĠìĿĺ ë¬¸
Ġë¹ł ì§Ģê²Į
ì± ł
Ġê±ĶëĦ¤ ëŀĳ
ëĭ´ ìĿ´
Ġíķĺëĭ¤ ë³´ëĭĪ
Ġíķ´ì£¼ ëĿ¼
Ġë¦¬ ìĬ¤íĬ¸
Ġë³Ģ íķľ
ĠìĿ´ëŀĺ ëıĦ
Ġíķ´ë³´ ìĦ¸ìļĶ
ĠìĮĵ ìĿ´ê³ł
Ġìļ°ë¦¬ëĤĺëĿ¼ ìĹĲ
Ġë¯¸ë¦¬ ë¯¸ë¦¬
Ġìķŀìľ¼ë¡ľ ëıĦ
Ġì§ģìłĳ ìłģìľ¼ë¡ľ
Ġì¡°ìĭ¬ íķ´
Ġë§Įíģ¼ ìĿĢ
ĠìłĢë²Ī ìĹĲëĬĶ
Ġëĺĺ ìĿ´
Ġê°ĢìĬ´ ìĹĲ
Ġë¯¸ëŀĺ ìĹĲ
ìĿ´ë²Ī ìĹĶ
ĠìĪ« ìŀĲê°Ģ
ìķī ìķĦ
ĠìĦľìĦľ íŀĪ
ĠìķĦëģ¼ ëĬĶ
ĠìĹĳìĬ¤ ëłĪìĿ´
Ġì´ī ì´ī
Ġë²łëŀĢëĭ¤ ìĹĲ
ĠëĨįìĤ¬ì§ĵ ëĬĶ
ĠìĴ Ģ
Ġíĸ¥ìĭł ë£Į
ĠìĿ į
ĠëĤĺ ë§¨
ĠëķĮ ìĿĺ
Ġê·¸ëŁ° ê±¸ë¡ľ
Ġìĭľ ê·¸
ëĮĢ ìĤ¬
ìĬ¤ ëĿ¼
ĠìķĬ ëĥĲê³ł
Ġìĺģ ìĸ´ê°Ģ
ì¹ĺ ìĹĲ
ĠìĤ¼ ìĤ¬ìĭŃ
Ġì¤ĳ ìĤ¼
Ġë°Ľ ìĿĢê±°
íĹĪ ëŀľ
ĠëĲł ì§ĢëıĦ
ĠëĶ° ëĵ¯
Ġëħ¸ ëĭĪê¹Į
Ġìľ¡ íļĮ
Ġìŀ¥ ìĿ¸
ĠìĨĲ ìĪĺ
Ġíĺ¼ ëĤĺ
Ġì£½ ìĹĪëĭ¤ê³ł
ĠìĺĨ ì§ĳìĹĲ
ĠëĴ ¹êµ´
Ġìĭ¤ íĶĦ
ĠëĤ´ëł¤ ê°Ģê³ł
Ġì§ľ íĮĮ
Ġê¿ ĢìĿ´
ĠìĪľ ì§Ħ
ì´Ī ì½Ķ
Ġíĥľ ê·¸
ĠìĪĺìĹħ ìĿĢ
ĠìĬ¤íĥĢìĿ¼ ë¡ľ
Ġì¡¸ìĹħ ìĿĦ
Ġì¡¸ìĹħ íķľ
ĠìŀĦ ìĥģ
ìĬ¤íĬ¸ ëłĪìĬ¤
Ġìĺ¬ëł¤ ëĨĵê³ł
Ġë¶Ģë¥´ ì§Ģ
ĠìĪ¨ ìĿ´
Ġê³§ ì§Ģ
ĠìķĬëĤĺ ìļĶ
Ġì¶ľê·¼ íķł
Ġë¬» ê³ł
Ġìĺ¤ë°± ìĽĲ
Ġê´´ ê¸°
ĠìĨ¡ ëĭ¹
ĠìĿ´íĭĢ ìĹĲ
Ġìĸ¸ëĭĪëĦ¤ ëĬĶ
Ġê·ĢìĹ½ ê³ł
ëĤ¨ìŀĲ ì¹ľêµ¬
ĠìļĶìĸĳ ìĽĲìĹĲ
Ġì£¼ê¸° ìłģìľ¼ë¡ľ
ìĭ« ìĸ´
ì µ¸
ê°Ģ ê°Ģì§Ģê³ł
ê² Ķ
ëĤ «
ĠìķĦ ìĭ¸
íķĺ ëĵł
ĠìŀĪ ìĪĺê³¼
ĠìĤ¬ ë§ĮìĽĲ
Ġíķ´ ë¬¼
Ġíķľ ìĤ¬ëŀĮ
ë§Į ëĤĺ
Ġë³´ ì§Ħ
Ġìĺ¤ ëĭ¹
ìĽ ľ
ìĤ¬ ì´Į
ëĥ ħ
ìĬ¤ íĮħ
Ġë¬´ ëĬ¬
Ġê³ł ìĿ¸
Ġê³ł êµ¬ëł¤
ĠìłĦ ì§Ģ
ĠëĤ¨ ìľ¼ë©´
Ġë°Ľ ì³Ĳ
ìłģ ìĿĦ
Ġìŀħ íĺĢ
Ġê°Ħ ê±°ëĿ¼
Ġìľł ìĽĶ
ĠëĤł ë¶ĢíĦ°
ìĹ° ìĪĺ
ë¨¹ ìĸ´ëıĦ
Ġê°ķ íķĺê²Į
ĠìłķëıĦ ê¹Įì§Ģ
Ġìŀ¡ íŀĪ
ĠíĽ ¤
ê°ķ ìĿĺ
ĠìĹ¬íĸī ìĤ¬
ê¼ ¿
Ġìĭľìŀĳ íĸĪëĬĶëį°
Ġìī¬ ë©´
Ġìļķ íķł
ĠìĿ¼ë³¸ ìĿ¸
ê±°ê¸° ëĭ¤ê°Ģ
ì¤¬ ëĭ¤ê³ł
ìłģìĿ¸ ê±°
Ġë¨¹ìĹĪ ëĮĦ
ĠëģĬ ìĸ´ìĦľ
ĠìľĦìĹĲ ëĭ¤ê°Ģ
ìķħ ìĤ°
ë²ķ ìĿĦ
ìĵ° ëłĪê¸°
Ġëĺ¥ ìĿĦ
Ġë¯¼ ì£¼
ĠìķĦìłĢìĶ¨ íķľíħĮ
ëŁī ìľ¼ë¡ľ
ĠìĿ¸ìĥĿ ìĿĢ
Ġì·¨ë¯¸ ë¥¼
ĠìķĬìĿĦ ê±´ê°Ģ
Ġìĩ¼ ë¯¸
Ġì£¼ë§Ĳ ë§Īëĭ¤
Ġíķ´ì¤ĺ ëıĦ
íĪ ¼
ĠíĿĺ ë¦¬ê³ł
Ġë§Įíģ¼ ë§Į
Ġë¬´ìĦŃ ëĭ¤
ĠìĨĮê¸Ī ìĿĦ
ĠìĹ¬ìŀĲìķł ëĵ¤ìĿ´
Ġë¶Ģëĭ´ ìĿ´
Ġì§ĳì¤ĳ ìĿĦ
Ġê¿© ìĹ¿
ĠìķłíĶĮ ìĽĮì¹ĺ
Ġìķ¼ë¬´ ì§Ģê²Į
ĠìºĦ ìºĦ
ë¦¬ ìķĪ
ĠëĦĪ íķĺê³ł
ìĹĪ ìł¸
ìĭľ ëĿ¼ê³ł
Ġë§İ êµ¬ëĤĺ
ĠìĹ¬ ìļ°
ĠìĨ ĸ
ìĪĺ ìĺģ
Ġì£¼ ê´Ģ
ĠìķĦìĿ´ ëĦ¤
Ġì§Ģê¸Ī ìĿ´ìķ¼
Ġê·¸ëķĮ ìĦľìķ¼
ĠìĿ¸ êµ¬ê°Ģ
ĠìĿ¸ ë°ĶëĶĶ
ĠìĿ¸ ìĬ¤íĦ´
ĠëĤ¨ ìĿĢê±°
ĠìĤ¼ ê°ľìĽĶ
Ġì¤ĳ ëĶ©
ĠíĹĪ ëĭ¤
ĠíĹĪ ëĭ¨
ĠìĦ¸ ì°¨
Ġìĭł ìĭľê°Ģì§Ģ
ĠëıĮ ëıĮ
ĠìķĮìķĦ ë´Ĳìķ¼
ĠìĻĶ ëĭ¹
ĠëĨĢ ìķĦìķ¼
Ġê°Ģê³ł ìĭ¶ìĸ´
Ġëĭ¨ ê³Ħë¡ľ
ĠìĤ´ìķĦ ê°Ī
ĠíĽĦ ìŀĦ
ê²ĮëĤľ ìĺĪ
ĠëĤĺìĻĶ ìľ¼ë©´
ĠíķĦìļĶ íķĺê³ł
Ġë§Ĳíķ´ ì£¼ê³ł
ĠëķĲ ëį°
ĠíĸĦ ìĭľ
Ġëĵ± ìĿ´
ĠìĹŃ ìĤ¬ê°Ģ
Ġë¡ľ ë§Ī
Ġë¯¿ ì§Ģ
Ġê³łë¯¼ íķĺëĭ¤ê°Ģ
ĠìľĦíķ´ìĦľ ëĬĶ
Ġê°Ĵ ìĿĦ
ĠíĸĪëĤĺ ë´Ĳ
ĠìĤ¼ì²ľ ìĽĲ
Ġê¼´ ëĵ±
Ġëļ« ìĸ´
Ġë°ĶìĿ´ ëŁ¬ìĬ¤ê°Ģ
Ġíķĺê³łìĭ¶ ìĸ´
ĠìĦ±ê³µ íķľ
Ġì¢ĭìľ¼ íģ¬ëĿ¼
Ġëĭ¨íĨ¡ ìĹĲ
Ġìĸ´ë¥´ìĭł ëĵ¤
ĠìĪĺìŀħ ìĿ´
Ġë¬´íķľ ëıĦ
Ġì¤ĳìĭ¬ ìľ¼ë¡ľ
Ġíģ´ëŀĺ ìĬ¤
íİł íĥĳ
ëıĦ ìĥĪê¸°
Ġìŀ £
íķĺ ì£ł
Ġê°Ģ ëĥĲê³ł
Ġìĸ´ ëł¤ìĦľ
Ġëĭ¤ íķ´ìĦľ
Ġë§Ĳ ëłĪìĿ´
Ġê·¸ëŁ° ìĭĿìľ¼ë¡ľ
Ġì§Ģ ë¥´ê³ł
Ġëĵ¤ ìĹĪê³ł
ìĪĺ ê°ķ
Ġíĺ ģ
Ġìĺģ íĸ¥ìĿ´
ĠëįĶ ìļ±
Ġì¡° ë¯¸
ĠìŀĪëĬĶ ì§ĢëıĦ
ĠíĹĪ ë¬¸
ĠìĦľ ë¶Ģ
ëħĦ ëĮĢ
Ġìĸ´ëĶĶ ê³ł
Ġë´Ĳ ì£¼ëĬĶ
ìļ´ ìĿ´
Ġìĵ° ì§ĢëıĦ
Ġê²ħ íĸĦ
íģ¬ ë§¤
ĠìĻĶ ëįĶëĿ¼
ĠìĻĶ ìĹĪê±°ëĵł
ĠìĻĶ ëĬĶì§Ģ
ìĦł ìĿĢ
ĠìĥĪ ê°ģìĭľ
ĠëķĮëĬĶ ìĿ´
Ġê°Ĳ ìĺ¥
ĠìĿ´ëŁ¬ ëĭ¤
ĠíĮĮ ê´´
ĠëĦĺ ìĿĦ
Ġìĭľìŀĳ íķ©ëĭĪëĭ¤
ĠìĦ¤ ëĵĿ
ìĦĿ ìĹĲ
ĠëģĬ ìĿĢ
ĠëģĬ ê²¨
Ġì¢ĭìķĦíķĺëĬĶ ê±°
ìłľì£¼ ìĭľ
ĠëĥĦìĥĪ ëĤĺ
ĠëĽ° ìĸ´ëĤĺ
Ġë¶Ģëª¨ ëĵ¤ìĿ´
ĠíķłìķĦë²Ħì§Ģ ëĵ¤
Ġì»¤íĶ¼ ê°Ģ
ĠìĮĢ ìĿĦ
Ġë¶Ģë¶Ħ ë§Į
íĻĺ ìŀĲ
Ġê³± ëĭ¤
ì³¤ ëĬĶëį°
ĠìŀĪìĹĪëįĺ ê±°
ê±Ķ ëıĦ
Ġìķħ ê¸°
Ġê·¹ íĺĲ
ìĥĿê°ģ ìĿĦ
ĠìĤ¬ëŀĮëĵ¤íķľíħĮ ëĬĶ
ìķłê¸° ëĵ¤
Ġê°Ģë´¤ ì§Ģ
Ġê°Ħëĭ¨ íŀĪ
Ġìĺµ ìħĺ
ĠíķĺìĿ´ íĬ¼
Ġì°ľ ì§Ī
Ġê·¸ëĦ ¤
ìĿ¼ì£¼ìĿ¼ ìĹĲ
ĠëĤĺ ëįĶëĿ¼ê³ł
ëĤĺ ìĿĺ
ëĤĺ ìĿ´ê°Ģ
ĠëĤ´ íĽĦ
Ġë§Ĳ ìķĺìĸ´
Ġìĺ¤ ê²łì§Ģ
Ġì§Ģ ì¹ľ
Ġíķĺë©´ ìļĶ
ìķĺ ëĮĦ
ê¸´ ëį°
Ġê°Ķ ìĹĪëĦ¤
Ġë¶Ģ ìķł
Ġë¶Ģ ìĿ¸ìĿ´
Ġë¶Ģ ëłĢ
ĠìĦľ ë¦¬
Ġê³µ ëĮĢ
Ġì°¨ ìĿ´ëıĦ
ĠìĬ¤ ëħ¸
Ġëĭ® ê¸°ëıĦ
ĠìĹ° íķĺ
ìĭ¬ ëıĦ
ê´ Ħ
ĠëĤĺìĺ¤ ëĬĶì§Ģ
Ġê°ķ ìĿ´
Ġëĵ¤ìĸ´ê°Ģ ìĭłëĶĶ
Ġìŀĳ ìľ¼ëĭĪê¹Į
Ġíĺ¸ ëŀĳ
Ġíĺ¸ ë£¨
ĠëĲĲ ëĮĦ
Ġë¨¹ëĬĶ ì§Ģ
Ġë³Ħë¡ľ ìķ¼
ì¤Ģ ëĮĦ
Ġê·¸ëŀ¬ ìĹĪê±°ëĵł
ì¡Į ê±°ëĵł
ĠìĦľìļ¸ ìĿĦ
ĠíķĻëħĦ ëķĮ
Ġë¨¹ìľ¼ ëĭĪê¹Ĳ
Ġì²Ń ë°Ķì§Ģ
Ġê¹¨ ê³ł
ĠëĤĺìĺ¤ëĬĶ ëĶĶ
Ġë¿ ľ
Ġì¶ķ ë³µ
ĠìĬ¤íĥĢìĿ¼ ìĿĦ
Ġë©Ģ ì§Ģ
Ġë³Ģ íĺ¸ìĤ¬
Ġëĺ¥ ìĿ´
ĠìĪĻ ì·¨
ìŀĶ ìķĦ
ĠìĮ¤ íķľíħĮ
ĠëĤĺëĪł ì£¼ê³ł
Ġíģ°ìĿ¼ ëĤĺ
ĠëĪĦêµ° ê°Ģê°Ģ
ĠìŀĺìĥĿ ê²¼ìĸ´
ĠëıĦë¡ľ ê°Ģ
Ġì½ľ ëłĪìĬ¤íħĮë¡¤
ĠëģĦ ìĦ±
ĠíķĺëĬĺ ìĿ´
Ġìłķë³´ ê°Ģ
Ġìĸĩ ìķĦ
Ġê³¼ìłķ ìĹĲìĦľ
Ġíĩ´ì§ģ ê¸Ī
ĠíĬ¸ëłĪìĿ´ ëĦĪ
ĠìĿ´íĥľ ìĽĲ
ĠìĬ¤íģ¬ ë¦°
ĠëıĶ ë²ł
ĠìķĦë§¹ íķ´ëıĦ
Ġê´¸ ëĭ¹
Ġë°±ë¡Ŀ ëĭ´
ì§Ģ ëĿ¼ê³ł
ëį° ëĬĶ
Ġíķĺ ì²ľ
ĠìĤ¬ ëĦ¤
Ġëĭ¤ ì¹ĺ
Ġë§ī ëĤ´ê°Ģ
Ġíķľ ë°ĶíĢ´
ĠìķĦëĭĪ ì£¼ê²Į
Ġìĸ ķ
êµ¬ ìłķ
ëĮĢ íĳľ
ĠìĤ´ ê¸´
ĠìłĦ íĻĺ
ìĥģ ìĿĺ
ëĤ´ ìĭľê²½
ê¸´ ê°Ģ
Ġë¶Ģ ëıĦ
ĠíĹĪ ëŀĺ
ìķĦëĭĪ ìļĶ
Ġê³µ ì±ħ
ìĺģ íĸī
Ġì¢ĭìĿĢ ê°Ģ
íķĻêµĲ ìĹĲìĦľ
Ġëħ¸ ìĿĦ
Ġë¬¸ ìŀĲë¡ľ
ĠìĭĿ ê°ľ
Ġë§ĽìŀĪ ìĸ´ìļĶ
ê´Ģ ìĿĢ
Ġìĭ¬ íķ´ê°Ģì§Ģê³ł
ĠìŀĪìĿĦ ê±°ìķ¼
ĠëĦĺ ê³ł
íĭ° ë¸Į
ê³µ ìŀ¥
ëĤ¬ ëĭ¤ê³ł
ĠíĨµ ê³Ħ
Ġê°Ģìł¸ ìĺ¤ë©´
Ġë¨¹ìľ¼ ë¯¼
íĤ ·
Ġë§Ĳíķ´ ì£¼ëĬĶ
ĠìĤ¼ìĭŃ ìĺ¤
Ġìļķ íķ´
ĠíĴĢ ë¦¬
Ġìĸ´ì© Ĳì§Ģ
Ġì°¾ìķĦ ë³´
ĠìĶ¨ ìķĹ
Ġì¦ Ī
Ġê¿Ī ê¾¸
ê³¨ íĶĦ
ë°Ģ ë¦¬
ĠëĤ® ìŀł
ĠìķĦìłĢìĶ¨ ëĬĶ
ĠìĭĿëĭ¹ ìĿĦ
ĠíĤ¤ìļ° ë©´ìĦľ
ĠëĪĦëĤĺ íķľíħĮ
ĠìķĦê¸° ìŀĲê¸°
ĠëĿ¼ë©´ ëıĦ
Ġê²½ì°° ìĦľ
Ġê³ĦìĤ° íķ´
Ġìĸĺê¸°íķĺ ëįĶëĿ¼ê³ł
Ġìĸ´ì°Į ìĸ´ì°Į
Ġê¾¸ì¤Ģ íķĺê²Į
ëķ¡ ìĿ´
Ġëª©ìĨĮ ë¦¬ëıĦ
Ġë´ħ ìį¨
Ġì¢Įìļ° ëªħ
2 3
ĠìķĦ ëĬĶê±°
ë©´ ìľ¼ë¡ľ
ĠëĤĺ ëĮĢë¡ľ
Ġìĸ´ ì§¸
ĠìĤ¬ ìĹ°
Ġíķ´ ì¤ľ
ê·¸ ëł¤
ê·¸ ìłĢ
ë° ĭ
ĠëķĮ ìĺĢê±°ëĵł
Ġë§Ĳ ìķĦìĦľ
ĠìĿ¼ ìŀĲë¡ľ
ĠëĲĺ ê¸°ëĬĶ
Ġì§Ģ ëĤ¬ëĬĶëį°
ìŀĸìķĦ ìĿ´
Ġìŀĺ ìŀĺ
ĠìĪĺ ìĹ¼
ìĺ¤ ê°Ģ
Ġê¸° ëĮĢë¥¼
Ġë§Ī ìĶĢ
Ġìķł ìĵ°
ĠìĽĲ ìŀ¥ëĭĺìĿ´
ĠìĿ¸ ìĭĿìĿĦ
ê±¸ ìĸ´
ëĲĺ ê¸°
ëĲĺ ë©´ìĿĢ
Ġë°° ìĭł
Ġìŀħ ìĤ¬
ìľł íĪ¬
Ġë°© ìĭĿ
Ġëĭ¹ ìĭľëĬĶ
ëĳĲ ê°Ģ
ëŀĢ ëĵľ
ĠíĮĮ ìļ°
ĠìķĬìķĦ ìĭłëĶĶ
ì¹´ íĨ¡
ë°° ëĭ¬
ëł¥ ìĿĢ
ëĤ¬ ì£¼
Ġë³¼ ëķĮ
ĠëĪĦêµ¬ ëĭĪ
ĠìĦłìĥĿëĭĺ ëĵ¤ìĿĢ
íĤ ´
Ġìī¬ ë©´ìĦľ
íķĺëĭ¤ ë³´ë©´
íĶĮ ë£¨
Ġì¡¸ ëł¤
ĠíĸĦ ì£¼ê²Į
ĠíĬ¹ ìĦ±
ĠëģĬ ëĬĶ
Ġë³µ ìĤ¬
Ġì§ĳìĿ´ ìĦľ
ĠìĿ´ëª¨ íķľíħĮ
Ġëľ¨ ëĭĪê¹Į
Ġìĭłê²½ ìĿ´
ĠëĤ¬ ëĭ¤ê³ł
ĠìĥĪëģ¼ ëĬĶ
ìĨĲ ìĿ´
Ġíķ´ë´Ĳ ìĭłëĶĶ
Ġê±¸ë¦¬ ëĭĪê¹Į
Ġë¬¼ê±´ ìĿ´
Ġëĭ¤ìĿ´ ìķĦ
Ġíĺ¹ ìĿĢ
Ġë§ĪëĪĦ ëĿ¼
ê°Ģ ìŀĲ
ĠìĿ´ ìłĲ
Ġê°Ģ ëĭ¤ë³´ë©´
Ġíķ´ ë¨¹ìĸ´
ĠìķĦëĭĪ ê½Ŀ
ëĦ¤ ëŀĳ
Ġë³´ ìĿ´ê±°ëĵł
ĠìĤ¬ëŀĮ ëĭ¹
Ġì¢ĭ ê²łìĸ´ìļĶ
ĠìĪĺ ìľ¡
ìĭł ê²½
Ġëª» ëĤĺ
ëĤł ìĿ´
Ġë§ŀ ìľ¼ëŁ¬
Ġê¸° ë¥¼
Ġê¸° ìĹ¬
ìĥģ ëĮĢ
Ġë¶Ģ íĴĢ
Ġì¢ĭìķĦ ì§Ī
Ġì¢ĭìķĦ íķ¸
Ġì¢ĭìķĦ íķĺëĤĺ
Ġë¹Ħ ìĨį
ĠëĳĲ ëĬĶ
ĠëĳĲ ë©´
Ġëª¨ë¥´ ëĭĪê¹Ĳ
ìĨĮ ë¬¸
Ġìŀ¬ ë°°
Ġê²ħ íķĺë¯Ħ
ê²½ íĹĪë¯Ħ
ĠìķĮìķĦ ëıĦ
íĹĪ ìłł
Ġë¶Ī ë¥´
ĠìĻĶ ëĥĲ
Ġëĭ®ìķĦ ìĿ´
Ġì£½ ìĹĪëĭ¤
Ġê¸°ìĸµ íķĺê³ł
Ġê´ľì°® ê¸´
ĠëıĮìķĦ ê°ĢìĦľ
Ġë²Į ëł¤
ë°ĺ ê¸°
ë°ĺ ìĿĦ
íĭ° ëıĦ
Ġì°¾ ê¸°
íİ Į
ĠíĨµ ìĿ¼
ĠëĤĺìĿ´ ë¥¼
ĠëĤĺìĿ´ íĬ¸
ĠìĪľ íķľ
íİĺ ìĿ´
Ġìĸ¸ìłľ ëĤĺ
Ġë°ĳ ë°ĺì°¬
Ġì´Īëĵ±íķĻêµĲ ëķĮ
Ġëį°ëł¤ ìĻĢ
Ġê°ĢëģĶ ìĿĢ
ĠíĸĪìĿĦ ê±¸
Ġê·¸ìª½ ìĿĢ
Ġìĵ´ ê±°
ĠíĥĪ íĩ´
ĠìĬ¤ë¬¼ ëĳĲ
ĠìłĲìĭ¬ ìĿĢ
Ġë¶Ģë¶Ħ ìĹĲìĦľ
ĠëĨĶëĳĲ ëĭĪê¹Į
Ġê°Ģê²© ìĿĢ
Ġíķłê¹Į ìļĶ
Ġë»Ķ íķľ
ĠëĤĺê°Ķ ìĿĦ
ĠìĦłë°° ëĭĺ
Ġì³Ĳëĭ¤ ë³´
Ġëĭ¤ëĭĮ ëĭ¤
Ġíķ´ëħĢ ëĵ¤
ĠìĭľìĽĲ íķ´
Ġìį¬ íģ¬ë¦¼
ĠìĦľìļ´ íķľ
Ġë§Ļ ìĦľ
Ġì¾ Į
Ġë°¸ ëŁ°
Ġëª¨ë°Ķ ìĿ¼
Ġë©ĶìĿ´íģ¬ ìĹħ
ëĬ Ļ
ìĿ´ ìĹĪê³ł
ìķĦ íĬ¸
ĠìķĦ ìļ¸
ĠëĤĺ ìĺĢìľ¼ë©´
ĠìķĪ ì§Ģ
ĠëŃĲ ë¡ľ
Ġê·¸ëŁ° ê±´ì§Ģ
ìĭľ ëĬĶëį°
ìĭľ ìŀĳ
Ġì¢ĭ ì£¼ê²Į
Ġê·¸ëł ¸
Ġëª» íĹĪê³ł
ìĺ¤ ìĦ¸ìļĶ
ĠìĤ´ êº¼
Ġë¬´ ë¦¬ê°Ģ
ìĪĺ ëĬ¥
ìĺĪ ìłĦìĹĲëĬĶ
ĠìĽĲ ìĿ¸
ĠìĻľ ìĿ´ëłĩê²Į
ĠìŀĪìĸ´ ë´Ĳ
ĠíķĻ ëĮĢ
ĠëĤ¨ ê¸´
ëıĻ ìľ¼ë¡ľ
ĠìŀĲê¸° ëĵ¤ìĿ´
ĠìĨĮ íĮĮ
Ġìĸ´ëĶĶ ìŀĪ
Ġëª¨ë¥´ ëĬĶëĶĶ
Ġê·¸ë¦¬ ìĽĮ
ĠëĤł ìķĦê°Ģ
ì°¨ ìĿ´
ĠìĦ± ìĪĻ
ëŃ ī
ìĻĶ ëĭ¤ê³ł
ëł¸ ëĦ¤
Ġíķ´ëıĦ ìĿ´
ĠìķĬìķĦ ê°Ģì§Ģê³ł
ĠëĨĵ ìĿĢê±°
Ġë°ľ ê°ĢëĿ½
ĠìĤ´ìķĦ ê°Ģì§Ģê³ł
Ġê·¸ëŀ¬ ìĸ´ìļĶ
ĠìĦľìļ¸ ìĿ´
ĠìĿ´ìĦľ ìĺĪ
Ġë³´ëĤ´ ëĭĪê¹Į
Ġë¶Ļ ìŀ¡ê³ł
ĠëĤĺìĻĶ ëĮĢ
ĠìĹ°ëĿ½ ì²ĺ
Ġê¶ ¤
Ġë§ĲíķĺëĬĶ ê±°ìķ¼
Ġìĸ´ë©į íķľíħĮ
Ġì¤Ģë¹Ħ íķ´ìĦľ
ĠëĤĺìĺ¬ ëķĮ
ĠëĮķ ê²¸
Ġë¶ĪëŁ¬ ëıĦ
ìĨĲ ëĭĺ
Ġë¹¡ ìĦ¼
ĠëĬĲê»´ ì§Ģ
ĠìĤ¬íļĮ ê°Ģ
Ġìµľê·¼ ìĹĲëĬĶ
ĠìĹĨìĹĪìĸ´ ìļĶ
Ġë°ĺì°¬ ìĿĦ
Ġì³Ĳëĭ¤ ë³´ëĬĶ
Ġíķ´ì¤Ģ ëĭ¤
Ġëĸ¨ ê³ł
Ġë°Ŀ íĺĢ
Ġë¹Ľ ìĿ´
ĠëĤĺëĪĦ ê³ł
ĠëĦ¤ìĿ´ë²Ħ ìĹĲ
Ġë§ĪìĿ¸ ëĵľê°Ģ
Ġëĳ¥ ëĳ¥
Ġë¯¸ì³¤ ìĸ´
ĠìĻĢìĿ´íĶĦ ê°Ģ
ĠìĨĮì¤ĳ íķľ
Ġë¡ľë§¨ ìĬ¤
Ġë¾° ì¡±
Ġì£¼ì§ĵ ìĪĺ
ĠëĤĺë īĺ
Ń ìĿ´
ê³ł ë§Į
ĠìĿ´ ìĤ¬ê°Ģ
ĠìĿ´ ìĬĪ
Ġíķĺ ì²´
ëĭ¤ ìĿ´ìĸ´
ëĿ¼ ëĭĪ
Ġê°Ģ ëĬĶê±°ì§Ģ
ìľ¼ ë§¨
Ġì¢ Ĩ
ĠìķĦëĭĪ ìĹĪê±°ëĵł
ĠëĤ´ ëıĦ
Ġë³´ ê¸°ê°Ģ
ì§ľ ì¦Ŀ
ìĤ ¶
Ġìĺ¤ ì¼Ħ
ĠìĿ¼ ìĿ´ì§Ģ
ìļĶ ë¦¬
Ġê²ĥ ìľ¼ë¡ľ
Ġê¸ ĢìĿ´
Ġëª» ëĤĺê°Ģ
Ġname ìĸ¸ëĭĪê°Ģ
ĠíķĺëĬĶ ê°Ģ
Ġì£¼ ìłł
ìĺĪ ë°°
ìŀĪ ê¸´
ĠëĤ¨ ê¸°ê³ł
ĠëıĻ ìĺģ
íĮ ¸
Ġê³µ ìĿ¸
Ġëĭ® ëĮĦ
ĠëĪĦ ìĽ¡
Ġìĥģ íķĺ
Ġë¯¸ ìĸ´
ìĦ¸ ëĮĢ
Ġë²Ħ ëł¨
Ġìľ¡ ìĿ´ìĺ¤
Ġìŀ¥ ìłĲìĿ´
Ġë¹¨ ê³ł
Ġíĺ¼ ëĤ´
ĠìĤ° ìľ¼ë¡ľ
Ġê³¼ ëĬĶ
ĠëıĮìķĦ ìĺ¨
ĠìĹĨê³ł ìĿ´
Ġìµľ ìĦłìĿĦ
Ġíı¬ ì¼ĵ
ĠìĭľíĹĺ ìĿĢ
ĠíĸĦ ìĭłê²Į
íĮĶ ë°±
Ġì¶ľ ìŀħ
ĠìłĢëħģ ìĹĲëĬĶ
ê±°ëĤľ ìĿ´
ĠìķĬìķĺ ìĬµëĭĪê¹Į
ìĭ¶ ìĿĢ
ĠìĹĨëĭ¤ ëĭĪê¹Į
Ġìŀ¥ëĤľ ìķĦëĭĪ
ĠëĤ® ê²Į
ĠìĬ¤ë¬¼ ìĹ¬ìĦ¯
Ġì§ģìŀ¥ ìĥĿíĻľ
Ġìµľê³ł ë¡ľ
ĠnameíķľíħĮ ëıĦ
ĠìĮį ëĳ¥
ĠìĬ¤ìĬ¤ë¡ľ ê°Ģ
Ġê°ĢìĿ´ëĦ¤ ê°Ģ
ĠìłĦë¬¸ ìłģìľ¼ë¡ľ
ë§¥ ì£¼
Ġì±ħìŀĦ ìĿĦ
Ġëħ¸íĺķ ìĹĲ
Ġë°ĺìĿĳ ìĿĦ
ì¾ ħ
ĠëĹ Ħ
Ġë§Įë§Į ì¹ĺ
ë©°ëĬĲ ë¦¬
Ġìĺ¤ë¦¬ì§Ģ ëĦĲ
Ġ -
Ġíķĺ ìĨĮìĹ°
ĠëĤĺ ë©´ìĦľ
Ġê°Ģ ëł¤ë©´
Ġìĸ´ ìĭłê°Ģ
ĠìĤ¬ ì¤ĺìķ¼
íķ´ ìķĪ
ìŀĲ ë§Į
Ġë¨¹ ëĥĲ
Ġë¨¹ ê²łìĸ´
Ġë¨¹ ìĿ´ëĬĶ
Ġìĭľ ìķ¼
ìĤ¬ íķŃ
Ġì¤ ¨
ĠìĹ¬ ì¤ĳ
íħ į
ìĿĺ ê°Ģ
ĠìĤ´ ê±°ëĵł
Ġì£¼ ì§ĢëıĦ
Ġë§ŀ ìķĻ
ĠìĺĪ ìĸ¸
ĠìĦ¸ íĮħ
ĠìĨĮ íĻĶê°Ģ
Ġê²½ ëł¥ìĿ´
ì§ĳ ìľ¼ë¡ľ
ĠìĹ´ ìĦ¸
ìĨĮ ëħĦ
Ġê²ħ íķĺëĭĪê¹Į
ë°Ķ ìĽĥ
íģ¬ ê²Į
Ġë°ĺ ìłĦ
Ġê°ķ ìĥĿìĿ´
Ġìľ¡ ìķĦ
ìľł ë¥¼
Ġìŀ¥ ìŀĳ
ì°¨ ìĿ´ì¦Ī
Ġìļ° ìĹ°
ĠìĹĲ íİłíĥĳ
Ġìłģ ìļ©
ĠìĤ° ëĭ¤ëĬĶ
Ġê³µë¶Ģ íķĺë©´ìĦľ
Ġê´ľì°® ìķł
ì¹´ ë³´
ĠìĪł ìŀĲë¦¬
ê°Ķ ëĭ¤ê³ł
Ġë°ľ ìĹĲ
Ġì°¸ ëĬĶ
Ġê·¸ëŀ ¨
íİ¸ ìĹĲ
ĠnameìĿ´ ë¥¼
Ġì²ľ ìĤ¬
ĠíĽĦ ì§Ħ
ĠíĽĦ ìľł
Ġê³¨ ìĿĦ
Ġìµľ ìĭł
Ġë§Ĳíķ´ ì£¼ë©´
Ġíıī ëĮĢ
ì´Ī ë°¥
Ġì²´ ì¤ĳ
ë©Ķ ìĿ´
ê¸Ģ ë¡ľ
ĠìĻķ ìĿ´
Ġê³łëĵ±íķĻêµĲ ëķĮ
Ġìħ °
ĠíĹĪë©į ìĿ´
Ġìĥī ìĿ´
Ġìĥī ì¹ł
ë³Ħ ìĺ¤ë¦Ħ
ê²¬ ìĿ´
ĠëłĪ ìĬ¤íĨł
ĠìĸĺëĦ¤ ëĵ¤
Ġì·¨ë¯¸ ëĬĶ
Ġì¹´íĨ¡ ìĿ´
Ġë²ĪìĶ© ìĿĢ
ë¡Ń ê³ł
Ġìĺ® ê¸°ëĬĶ
ìĿ´ìĹ¬ ê°Ģì§Ģê³ł
Ġê·¸ë¦¼ ìĿ´
Ġë²Īì§¸ ëĬĶ
Ġë¬¼ìĸ´ë³´ ì§Ģ
Ġë¬´ìĦŃ ëĭ¤ê³ł
ĠìĹĺ ì§Ģ
ìķ¤ ìĹĲìĬ¤
Ġë¹¨ëŀĺ ë¥¼
Ġê²¬ ëİĮ
ĠíĬ¹ë³Ħ íķĺê²Į
ĠíĺĦìĭ¤ ìłģìľ¼ë¡ľ
Ġìĸ¸ìłł ê°ĢëĬĶ
ì©Į êµ¬
Ġë©įì²Ń íķľ
ĠíĬ¸ëŁ¼ íĶĦ
ĠìķĦìĿ´ìĸ¸ ë§¨
) /
ê°Ģ ë§ĮíŀĪ
ê²Į ëĭ¤ê°Ģ
ê¸° êµ¬ëĤĺ
Ġê°Ģ ëĵłì§Ģ
Ġìĸ´ ìĭłê²Į
Ġíķ´ ëĬĶ
Ġíķľ ê±´
Ġìļ°ë¦¬ ìĹĦë§Ī
ì£¼ ê±°ëĵł
Ġìĺ¤ ëĬĶê±°ìķ¼
ìĹĪ ìĪĺëĭ¤
Ġëĵ¤ ê¸°ë¦Ħ
ìĿ¼ ëħĦ
ìĿ¼ ì°į
Ġì£¼ ê¸°ëıĦ
ĠëĤĺëĬĶ ê±°ìķ¼
ìĹ¬ ê¸°ëıĦ
ëįĶ ëŁ¬
Ġë°Ķ ê»¸
Ġìłķ ìĽĶ
ĠìĻĦìłĦ ìĿ´
Ġì¤ĳ ìĹĲìĦľëĬĶ
ĠëıĻ ìĤ¬ë¬´ìĨĮ
Ġê¹ ĥ
Ġê·¸ëŁ¬ëĭĪê¹Į ëĬĶ
ê²½ íĹĪ
íĹĪ ëŀĺ
Ġë´¤ ëĮĦ
Ġëħ¸ ëĤľ
ìľł ì¹ĺ
Ġì½Ķ ìĹĲ
ĠêµĲ ë¥ĺ
Ġì¹ĺ ëĭĪê¹Į
Ġìĸ¼ë§Ī ëĵłì§Ģ
ìĦł ìĹĲ
ĠìĤ° ëıĦ
Ġê±°ëĿ¼ ëĭĪê¹Į
ĠìĻ¸ ìĭĿ
Ġë¹ł ì§Ģì§Ģ
ĠëĿ¼ ë©ĺ
ĠìĿ´ìĦľ ëĤĺìĦľ
ëħ¸ ë¬´
Ġì²´ ìĺ¨
ë³ĳ ìľ¼ë¡ľ
ë³¼ ëł¤ê³ł
ĠìķĪíķ´ ìĭłëĶĶ
Ġë¹Ħìĭ¸ ëĭ¤ê³ł
ĠìķĪìĹĲ ë§Į
Ġìĭľì¼ľ ëıĦ
ìĮ ©
ì£½ ìĿĢ
ĠíĮĲ ëĭ¤ê³ł
ìŀ¥ëĭĺ íķľíħĮ
ĠìĿ´ëŀĺ ìķ¼
Ġëįľ ëįľ
Ġë¬´ìĭľ íķĺê³ł
Ġìĭľì§ĳ ê°Ī
Ġê³± íķĺê¸°
ĠíĶĮ ëŀ«
ëıĻìĥĿ ìĿ´
Ġìĭľìĸ´ë¨¸ëĭĪ ëıĦ
ë²Ħëł¸ ìĸ´ìļĶ
ëĶ¸ ìĿ´
Ġì¢ħë¥ĺ ë³Ħë¡ľ
Ġìłĸ ìĿĢ
ĠíĿ¥ ë¯¸ê°Ģ
Ġê°Ģë´Ĳ ìĭłëĶĶ
Ġìłľëª© ìĿ´
Ġì½§ ë¬¼
ë¶ĢíĦ´ ê°Ģ
ĠìłĦìŀĲê¸° ê¸°
ĠíĥĦìĪĺíĻĶ ë¬¼
ìŀĲê²© ì¦Ŀ
ĠìŀĦíĶĮëŀĢ íĬ¸
ĠíĬľ ë¸Į
Ĳ ëĭ¤
ê³ł ìĸĳ
ĠëĤĺ ëĭĪê¹Ĳ
ĠìĤ¬ ëĥĲ
ĠëŃĲ ëĤĺ
Ġê³ ½
Ġë§Ĳ ìĿ´ê³ł
ĠíĸĪ ëįĺëį°
ĠìĹ¬ ìłĦíŀĪ
Ġê·¸ëŁ¬ ê¸´
Ġìłľ ì¤ı
ì¤ ¨
Ġìľ Ī
ĠìĤ´ ëŀĺ
ìĪĺ ë¦¬
ìĥĿ ëĵ¤
íķĻ ìĬµ
ĠëĤ¨ ìĦ±
ĠëĪĦ ë£©
Ġìłľì£¼ëıĦ ë§Ĳ
Ġê°Ħ ìĦŃ
ĠìĭŃ ìĽĲ
Ġë¶Ħ ë°ĸìĹĲ
ìľł ë¦¬
Ġìŀ¥ ìĸ´
Ġìŀ¥ ëĭ¨
Ġìļ° ëł¤
ĠìĥĪ ê±°
Ġê´ľì°® ëĮĢ
Ġì°¸ ìĻ¸
íĤ¤ ê°Ģ
Ġê·¸ëŀ¬ ê³ł
Ġìĭ¶ìĿĢ ê²Į
Ġê¹Į ìĦľ
ĠìĿ´ëŁ°ê±° ëĬĶ
ĠëıĻìĥĿ ëĦ¤
Ġì§Ī ëłĢ
Ġë§ĮìĽĲ ìĹĲ
Ġìłķìĭł ìłģìľ¼ë¡ľ
Ġê°Ģê¹Į ìļ°ëĭĪê¹Į
Ġìĺ¬ëĿ¼ê°Ģ ëĬĶëį°
ĠìŀĬ ì§Ģ
Ġìĸ» ê³ł
Ġëĭ´ë°° ëıĦ
Ġë°©ìĨ¡ ìĹĲ
Ġëļ« ëł¤
Ġì£ĦìĨ¡ íķ´ìļĶ
ĠìķĦê¹Ŀ ì§Ģ
Ġìĺ¤ë¥´ ë§ī
ĠëĲłê¹Į ìļĶ
ĠëĮĢíĨµëł¹ ìĿ´
ĠìĿ´ ì¢ħ
Ġê±° ëĥĲë©´
ë©´ ìĿĦ
íķĺ ìļ°
Ġê°Ģ ë¦¬ëĬĶ
Ġê°Ģ ë³´ëĤľ
ìķ¼ ë§Ĳë¡ľ
Ġíķ´ ë²Ħë¦¬ê³ł
ê·¸ ëĬĶ
ê·¸ ë¦¼
ĠëĤ´ ëĨĶ
ìĤ ½
ìĬ¤ ëŀĳ
Ġë§Ī ëĤĺ
ĠìłĦ ëĤ¨ì¹ľ
Ġìĺģ íķĺë©´
Ġìĸĺê¸° íķ¸
ĠìĻĢ ìļĶ
Ġë¨¹ìĸ´ ë´Ĳìķ¼
ìĸĳ ìĿĦ
Ġìľł ëĮĢ
ĠìĻĶ ìĹĪëĬĶëį°
Ġíĸī ê²Įë§ĮìĿĢ
ĠìĨĲ ìłĪ
Ġíĺ¼ ëĤĺê³ł
Ġë§ĽìŀĪ ìŀĸìķĦ
Ġë°± ìĤ¼ìĭŃ
ĠìĤ° ë°©
ë´¤ ìĸ´ìļĶ
ìŀĦ ìĿĦ
Ġxx ëıĦ
ê²ħ íķ´ìĦľ
ĠìĻ¸ ìłľ
ì¡Į ê³ł
Ġì»¤ ìł¸
ĠêµŃ ëıĦ
Ġì§ĳìĹĲìĦľ ë§Į
Ġìĸ¼êµ´ ë¡ľ
Ġëĸ¨ìĸ´ ì§ĢëĭĪê¹Į
ĠìĿ¼ë³¸ ìĿĦ
Ġìŀ¬ë°Į ìĹĪëįĺ
íĨł ìĿµ
ĠìĭľíĹĺ ê¸°ê°Ħ
Ġì¢ĭìķĦíķ´ ë¶ĢëĤľ
Ġìĺ¤ëĬĶ ê²Į
Ġê±±ìłķ ëĲĺëĬĶ
ĠìĿ´ê²ĥ ìĿĢ
ĠìĹŃ ìĤ¬ë¥¼
Ġë¡ľ ìłľ
ĠëĮĢíķľ íķŃê³µ
Ġìį¼ ëĭ¤
Ġë» ĳ
Ġìļ´ìłĦ íķĺê³ł
ĠìĪľê°Ħ ìĿ´
ëĨ¨ ê±°ëĵł
Ġì²ŃìĨĮ ê¸°
ĠìķĦíĮĮíĬ¸ ìĹĲ
Ġì¦Ĳ ê²ģ
ĠìĿ¸ìłķ ìĿĦ
ĠìŀĲê²©ì¦Ŀ ëıĦ
Ġìª¼ëģĶ ìĶ©
Ġëª¨ìŀĦ ìĿ´
Ġë§Īì°¬ê°Ģì§Ģ ë¡ľ
ĠëĮĢë¶Ģë¶Ħ ìĿ´
Ġíı¬ìŀ¥ íķ´
Ġë°ĶìĿ´ ëĵł
Ġë¬¼ìĸ´ë´¤ ê±°ëĵł
Ġë©ĺ ë¶ķ
Ġíķľë§ĪëĶĶ ëıĦ
Ġëĭ¬ëĭ¬ íķľ
Ġëĳ¥ ê¸Ģ
Ġêµ¶ ìĸ´
ĠíĮĿ ì½ĺ
Ġìĭľì»¤ ë©į
ĠìķĦ íĨłíĶ¼
ê±° ìĹ¬
Ġíķ´ ëĭ¤
Ġíķ´ ëĨĵìĿĢ
Ġë§ī ìŀ¥
ìłľ ëĮĢ
ĠëķĮ ë¥¼
ĠëķĮ ìĺĢìĸ´
Ġë¨¹ ê¸°ê°Ģ
Ġìĺ¤ ì§ģ
Ġìĺ¤ ê¸°ë¡ľ
Ġìĺ¤ íķĻëħĦ
ĠìłĢ ìłĪë¡ľ
Ġì§Ģ ë¥¼
ë¶Ģ ëŀĳ
ĠìĪĺ íĹĺ
ĠìĪĺ ìĬµ
ìĿ¼ ëŁ¬
ìŀ¥ ë§Į
ĠìĤ´ ê¸°ê°Ģ
ĠëĤľ ê±°
Ġì£¼ ìĤ¬ë¥¼
ìĥģ íĻ©
ĠìĿ¸ ìĽĲìĿ´
Ġìĭ¶ ëįĶëĿ¼ê³ł
íĬ¸ ìĹĲ
ĠëıĻ ìĦ±
Ġìĺ¬ ëŀĺ
ĠìĻĢ ëĦ¤
ĠìĦł ëıĦ
Ġê°Ī ê²ĮìļĶ
Ġë°° ê¼½
ëł¤ê³ł íķĺë©´
Ġìĥģ ìłĲ
Ġëĭ¬ ìĿ¸ê°Ģ
Ġìŀħ ìľ¼ëĭĪê¹Į
Ġìŀħ ìĹĪëĬĶëį°
Ġê°Ħ ìĿĦ
ĠìĭŃ ëĮĢ
ĠíĥĢ ìŀĲ
Ġìŀ¥ ìłĲ
Ġë°© ìĤ¬
Ġì¹ĺ ì§Ģ
Ġìłģ ëĭ¹
Ġìļ´ ëªħ
Ġë§ĽìŀĪ ëįĺëį°
ĠìŀĪìĹĪ ì§Ģë§Į
ĠíĸĪìĸ´ ëıĦ
ëĭ¬ ë¦¬
Ġê´Ģ íķľ
Ġcompanyname ìĿĦ
ĠìĪł ë¨¹ê³ł
Ġë°ľ ëĿ¼ìĦľ
íĭ° ë¥¼
ĠìĻ¸ ê°Ģ
Ġê²°íĺ¼ ìĭĿìĿĦ
ĠìĤ´ìķĦ ê°Ģ
Ġëĭ´ ë³´
Ġë§ĮëĤĺ ë©´ìĦľ
Ġê°ĸ ëĬĶ
ëĲľ ëĮĦ
ĠëģĿëĤĺ ì§Ģ
ëŀĲ ëĬĶëį°
ĠíĴĢ ìĸ´ìķ¼
ìŀ¬ ë¡ľ
Ġì¡¸ ì¡¸
Ġë½ĳ ìķĦìķ¼
Ġëį°ëł¤ ìĻĢìĦľ
ĠëĨĢëŁ¬ ëıĦ
ê¼¬ ì§Ģ
Ġê°ĸëĭ¤ ì£¼ê³ł
Ġíķłê±° ëĭĪ
ĠêµĲìĪĺëĭĺ ëĵ¤
Ġíİĺ ìĿ¸íĬ¸
Ġì§ģìŀ¥ ëıĦ
ëĤĺë¬´ ê°Ģ
ë²Ħë¦° ëĭ¤
Ġë³´íĹĺ ë£Į
ĠìĹĲìĸ´ íĶĦëĿ¼ìĿ´
Ġíķ´ë´¤ ê±°ëĵł
Ġë¶Ģëª¨ëĭĺ ëĵ¤ìĿ´
Ġë³´ë¯Ħ ìĿ´
ĠëģĿëĤ¬ ëĬĶëį°
Ġê¼´ ìĿĦ
Ġíķ´ìĹ¬ ê·¸ëĦ¤
ĠìĦ±ì§Ī ìĿĦ
Ġì£ĦìĨ¡ íķľëį°
ĠíŀĪ íĦ°
Ġìĭľê³¨ ìĹĲ
Ġì¢ĭìľ¼ ì¼ľ
Ġìķ¤ ëį°
ìĨ¥ ìĹĲ
ì»´ íĵ¨íĦ°
Ġê·¸ìłľ ìĦľìķ¼
Ġë¹ĦëĭĪ ë£¨
Ġê·¸ ì¶Ķë¥µ
ìĿ´ íĭĢ
ëį §
ìķĦ ìĺ¤
Ġíķĺ ê²łëĮĢ
ë¦¬ ëĿ¼ê³ł
íķĺ ëĬĲëĿ¼
Ġíķľ ê°ķ
ĠëĤ´ ê³¼
ìĿ¸ ê±´
Ġì§Ģ ìĨį
ëĵł ëį°
ë³´ ëĶĶ
ì° ¹
¸ëĭĪ ê¹Ĳ
Ġë¬´ ë¥¼
Ġë¬´ ìĬ¤
íħĮ ëĭĪ
Ġì£¼ ê°Ģ
Ġë§ŀ ìķĺëĬĶëį°
ĠìĽĲ ìĹĲìĦľ
ĠëįĶ ìļ¸
Ġì¢ĭìķĦ ëıĦ
ĠìĤ¼ ìĸµ
ĠìĤ¼ ê³Ħíĥķ
ìłĢ íĿ¬
Ġê¹ ł
ĠìĨĮ ë§Ŀ
Ġìĭł ê·ľ
ĠìĹ° ëł¹
ê²½ ê¸°
ĠëĲł íģ¬ëĿ¼
Ġë¶Ī íıī
ìľł ëªħ
ĠëĪĪ ìĤ¬ëŀĮ
Ġíģ° ìķĦìĿ´
Ġì¹ĺ ìĹ´
Ġìłģ ìĸ´ìĦľ
ĠìķĦë¹ł ë¥¼
ĠìĥĪ ë¡Ńê²Į
ëģ¼ ê°Ģ
ĠëĦĺ ìĹĪìĸ´
Ġìĭ¤ ì§Ī
ĠíļĮ ìłĦ
ë¸Į ëĿ¼
Ġê·¸ê²ĥ ë°ĸìĹĲ
Ġíħ ħ
Ġë°ķ ë³´
ëĳ ł
Ġíĥľ ë¸Ķë¦¿
ëħ¸ ëĭĪê¹Į
Ġê²¨ ëĤľ
ë³ĳ ìĹĲ
Ġë¹Ħìĭ¸ ëĦ¤
ĠëĶĶ ìĬ¤
ĠíķłìķĦë²Ħì§Ģ íķľíħĮ
Ġê²ģ ëĭĪê¹Į
ĠëĬĺ ëł¤
ĠìĮĵ ê³ł
Ġê¶ģê¸Ī íķĺëĭ¤
Ġìį° ìĹī
Ġì´Ŀ ê°ģ
Ġì¹łìĭŃ ë§Į
ĠêµĲìĪĺëĭĺ ìĿĢ
ĠìķĪëĲľ ëĮĢ
Ġì§ģìŀ¥ ìĿ¸
ìĭľì¼ľ ìķ¼
ëĪĪ ìĹĲ
ĠìĹ°ìĬµ íķĺê³ł
ĠìľłíĪ¬ë¸Į ë¡ľ
Ġê·¹ ë³µ
Ġê·¼ì²ĺ ìĹĲìĦľ
Ġëª¨ìŀĲ ëŀĢ
Ġê°Ģë³´ ê²Į
ë± Ģ
ë¨¼ ì§Ģ
ìķŀ ìĹĲìĦľ
ĠíĽĪëł¨ ìĿĦ
ĠìļĶìĸĳ ë³´íĺ¸ìĤ¬
Ġë§ĪìħĶ ìķ¼
Ġëıĭ ìķĦ
Ġë¶Ģëĵľ ëŁ½ê²Į
Ġë¸Ķë£¨ íĪ¬ìĬ¤
ĠìłľìĿ´ ëĶĶ
Ġë¸ĮìĿ´ ìķĦìĿ´íĶ¼
Ġë²¼ ëĿ½
ĠíĥĢìĿ´ë°į ìĿ´
ĠíĤ¹ ëį¤
Ġë§ĪìļĶ ëĦ¤ì¦Ī
Ġê·¸ë ħ
Ġê±° íĴĪ
íķĺ íĬ¼
Ġìĸ´ ìľł
Ġë³´ ì§ĢëĬĶ
ì£¼ ê¸´
ĠëķĮ ì¯¤ìĹĲ
ìŀĲ ë¦¬ê°Ģ
Ġë¨¹ ê³¡
Ġìĺ¤ ìŀĲ
ĠìĿ¼ ë²Ī
ĠíĸĪ ìĸ´ìĦľ
ĠíĸĪ ì£¼ë§ĮìĿĢ
Ġìĭľ ë©ĺíĬ¸
Ġê·¸ê±° ëĤĺ
ĠìĹĨ ê²łëĭ¤
ìĤ¬ ëĤĺ
ĠìķĮ ì§ĢëıĦ
Ġname ìĿ¸ê°Ģ
Ġê³ł íĮĮ
Ġë§Ī ìĤ¬
Ġìłķ ìĦľ
Ġë¶Ģ ë¦¬ëĬĶ
Ġë²Ī ì©į
ĠëıĻ ìª½ìľ¼ë¡ľ
ìĽĮ ê°Ģì§Ģê³ł
ĠìĦľ ë²Ħ
Ġê²½ ë§Ī
Ġì°¨ ë¦´
Ġìŀ¬ ëĬ¥ìĿ´
ĠëŃĶê°Ģ ê°Ģ
ëª¨ ëıĦ
íģ¬ ë¦¬ìĬ¤ë§ĪìĬ¤
ë³¸ ìĿ¸ìĿ´
Ġì¹ĺ ëĬĶëį°
ìĶ© ë§Į
ĠìĹ¬ìŀĲ ëĵ¤ëıĦ
Ġë°± ëĳĲ
Ġëĵ¤ìĸ´ê°Ģ ìŀĲë§ĪìŀĲ
ĠìĽĶ ê¹Įì§Ģ
ĠëıĮìķĦ ìĻĢìĦľ
Ġíģ¬ ëĭ¤ê³ł
Ġì¶Ķ ìļ°ë©´
ë§¤ ê°Ģ
Ġë³¼ ë§Į
Ġë§İìķĦ ì§Ģê³ł
Ġì·¨ íķ´ìĦľ
ëĨĵ ìľ¼ëĭĪê¹Į
ĠëĭĪ ëıĦ
Ġìĸ¸ìłľ ì¯¤
Ġêµ° ê²ĥ
Ġíĥľ ìĽĮìĦľ
Ġë³ĳìĽĲ ìĿĢ
Ġíİ Ń
Ġì¡¸ ë°Ķë¡ľ
ê· Ħ
ëĶ± ì§Ģ
Ġë½ Ħ
ĠìĿ¼ìĸ´ëĤĺ ëĭĪê¹Į
ĠìĻĦ ìł¼
Ġìŀ¬ë¯¸ìŀĪ ìĹĪìĸ´
Ġëĸ¼ ìĦľ
ĠëĤĺë§Į ìĿĺ
ĠíĤ¤ìļ° ëĬĶëį°
ĠëĲĺìĸ´ ìŀĪëĬĶ
ëłĪìĿ´ ìħĺ
ĠìĮį ìļķ
ĠíĹĪìĺģ ìľ¼ëĦ¤
ĠëŃĲíķĺ ëĥĲ
ìµľ ê·¼ìĹĲ
ĠëıĮìķĦëĭ¤ ëĭĲ
ĠìķĦë¬´ëį° ëĤĺ
ìķĦ íĶĪ
Ġì§ Ĭìĸ´
ìŀĲ ëĿ½
ĠìĿ¼ ëŁ¬
ë§Ī ëĭ¹
ĠëĲĺ ëıĦë¡Ŀ
ë¬´ ê°Ģ
ìĿ¸ ëĭ¤
Ġì§Ģ ì³ĲìĦľ
ĠìĿ´ëłĩê²Į íķĺëĭĪê¹Į
ê¸Ī ì§Ģ
ĠìĹĨ ëį´
Ġëª» íķĺëĬĶê±°
ĠìķĮ ì½Ķìĺ¬
ìŀ¥ ìĿ´ëŀĳ
Ġê³ł ëĮĢë¡ľ
Ġê¸° ìģ¨
Ġë°Ķ ëĿ½
íķĻ ìĿĦ
Ġë¶Ģ ìľĦ
ìłķ ë¦¬
Ġìĺ¬ ë¦¼íĶ½
ëģ ĵ
Ġìĸ´ëĶĶ ëıĦ
Ġì°¨ ìĿ´ëĬĶ
ë§Ĳ ëŀĳ
Ġê°Ī ëł¤
ìļ´ ê±°
ë¨¹ ìĸ´ìĦľ
ĠëĤĺê°Ģ ëł¤ê³ł
ĠìĻĶ ëĥĲê³ł
Ġì¹ĺ ìķ½
ìĦł ëıĦ
ĠìĤ° ëĮĦ
Ġê³¼ ë¥¼
Ġìŀł ìĿĢ
Ġì°¾ ìķĺìĸ´
ĠêµŃ ìĿĦ
Ġì§ľ ë¦¬ê°Ģ
ĠíķĦìļĶ íķľëį°
Ġë°Ń ìĿ¼
ĠíĭĢ ë¦¬ì§Ģ
Ġë³´ìĹ¬ ì¤Ħê²Į
ì¸ Ħ
Ġë²ł íĴĢ
Ġíķ´ì£¼ ëĿ¼ê³ł
ëľ ¬
Ġëľ¨ ê²ģ
ĠíĮ¨ ëŁ¬
Ġì½© ìĿĦ
Ġìłĳ ìĸ´
ĠíĶĦ ëŀľ
Ġìĺ¬ëĿ¼ê°Ģ ëĭĪê¹Į
Ġíģ´ ë¦Ń
ĠìĤ¬íļĮ ìĹĲ
Ġê²½íĹĺ íķ´
Ġì§ĢëĤĺê°Ģ ëĭ¤
ĠíĿĲ ë¦°
Ġë¬¼ìĸ´ë´Ĳ ëıĦ
ĠìĸĳëħĲ ìĿĦ
ìı Ļ
Ġë§Įëĵľ ëĬĶê±°
Ġëĵ¤ìĹ¬ ëĭ¤
ĠìĦľìļ´ íķ´
ĠëĤ¯ ê°Ģ
ĠëıĦëĳĳ ì§Ī
ĠíķĺíķĦ ìĿ´ë©´
ĠìĭľìĬ¤íħľ ìĿ´
Ġë¶Ģì²ĺ ëĭĺ
ìĿ´ ë©´ìĦľ
ĠìĿ´ ëĭ¤
ĠìĿ´ ëķħ
Ġíķĺ ì¿łëĭ¤
Ġíķĺ ìĻĢìĿ´
Ġê±° ë³´ëĭ¤
ê¸° ëĿ¼ê³ł
ĠëĤĺ ìĿĢê±°
íķĺ ê²łìĸ´
ëĤĺ ë¶ĢëĤľ
ëĤĺ ìģĺ
ë¡ľ ìľĪ
ĠìĤ¬ ìĺ¤ê³ł
Ġíķ´ ìĸĳ
íķ´ ëħĢ
Ġë³´ ìĺ¨
Ġë³´ ìĹ¼
ĠëĲĺ ê²ł
ĠíĸĪ ëį°
ĠìĹĨ ìķ
Ġì¹ µ
ë¯ Ī
Ġname ìķĦë¹ł
ĠìķĬ ìļ°ê½Ī
Ġëª¨ íħĶ
Ġê³ł ëŁ°
Ġë§Ī ë¹Ħ
Ġìłķ ìĪĺê¸°
ìķĺ ëĤĺ
íĸĪ ì£¼
ĠìĤ¼ ë¶ĦìĿĺ
Ġì¹ľ íĸĪëįĺ
ĠìŀĲê¸° ë§ĮìĿĺ
Ġìĭł ê°Ģ
ĠìĬ¤ ì½ĺ
Ġëª¨ë¥´ ëĬĶê±°
ĠìĭŃ ìĸµ
Ġêµ¬ ì²´ìłģìľ¼ë¡ľ
ëĦĪ ëĦ¤ê°Ģ
ĠëĨĢ ê²Į
Ġì½Ķ íĮħ
Ġë°© ìľ¼ë¡ľ
íĶ¼ ìķĦ
ĠíĻĶ ëĤ¬
Ġìĭ« ê±°ëĵł
Ġê³µë¶Ģ íķĺëĭ¤ê°Ģ
Ġëª© ìłģìľ¼ë¡ľ
ĠìĹĨëĬĶ ì§Ģ
ĠëĿ¼ ìĿ¸ìĿ´
Ġëª¸ ë§Į
Ġì¤Ģ ëĭ¤ëĬĶ
Ġê³¨ ìķĪ
Ġìµľ ì´Ī
Ġì§ľ ëĬĶ
ĠíĨł íķł
ĠíĨł ìĬ¤íĬ¸
ĠíķĺëĬĶê±° ê³ł
Ġì°¾ìķĦ ë³´ë©´
Ġê¹¨ ëĭ«
ĠìķĦë²Ħì§Ģ ëŀĳ
Ġíķ´ì£¼ ìŀĸìķĦ
Ġê²ĮìŀĦ íķĺê³ł
ĠìĬ¤íĥĢìĿ¼ ëıĦ
Ġëĭ¬ëĿ¼ ì§Ī
Ġë¹ĦìĬ· íķľëį°
ĠìķĬìķĺ ì§Ģ
ĠëıĮìķĦê°Ģ ìĭľ
ĠìĤ´ìķĺ ëĭ¤
ĠìĸĺëĦ¤ ëıĦ
ĠëĭŃ ìĿĦ
ĠìŀĲìĭĿ ëıĦ
Ġë¶Ģë¥´ ë©´ìĦľ
ĠìĹħ ê³ł
Ġë§İìķĺ ìŀĸìķĦ
Ġë§ĲìĶĢ íķĺìĭł
ĠìĭŃìĺ¤ ë¶Ħ
Ġë¶ģ ê²½
Ġë©´ìłĳ ìĿĦ
Ġì¶¥ ëĭ¤
ĠìĬ¹ ë¬´ìĽĲ
Ġë©Ķë°Ģ ê°Ģë£¨
ĠìĶ¹ ëĬĶ
ĠëĶ±ëĶ± íķľ
Ġìĭ¸ìļ° ì§Ģ
Ġë°Ł ìķĦ
Ġìıĺ ëĬĶ
Ġê°ļ ìĿĦ
ìı ĺ
ĠìĺĪë¯¼ íķ´
Ġì¤ĳê³ł ë¡ľ
Ġíĺķë¶Ģ ëĬĶ
Ġíķ´ë³¼ ê²Į
ĠìĤ´ìķĺìĸ´ ìļĶ
ë¦ħ ëĭĪëĭ¤
ĠíĺĪìķķ ìĿ´
Ġë īĺ
ê²Į ë§ĪëĬĶ
ĠìķĦ ëįľ
ê±° ëŀĳ
ëĵ Ń
ĠìķĪ ìŀĲ
ìľ¼ ëł¤
Ġë³´ ìĺĢ
ì£¼ ë©´ìĿĢ
ìĬ ¥
Ġê°Ļ ìŀĸìķĦ
Ġì§Ģ íĤ¬
ìĤ¬ ë§Į
ìĿ¼ ê±°
Ġì¹ ©
Ġë¶Ģ ìĹ¬
Ġìĭ¶ ëįĶëĿ¼
ĠìĹ¬ê¸° ìĦł
ì§ģ íķĺê²Į
Ġê²½ íķ´ìĭłëĶĶ
Ġê²½ íĸ¥ìĿ´
ĠìĬ¤ ë²ħ
Ġìĥģ ìĤ¬
Ġìĵ° ëĤĺ
Ġê°ķ íķ´
ĠìĽĲëŀĺ ê°Ģ
Ġìļ° ìĺģ
Ġìłģ ëĭ¹íķľ
íĶĦ ë¦¬
ê³Ħ ìķ½
ĠìĥĪ ëĤ´ê¸°
Ġê°Ĳ ê°ģ
ĠìŀĪìĹĪ ëĮĦ
ëŀĢ ìĿ´
Ġë°ľ ê¸ī
Ġë°ľ ìĹ´
Ġìª½ ìĹĲëıĦ
Ġì½Ķë¡ľëĤĺ ë§Į
íı¬ ë¥´
ĠëĶ¸ ìĿ´ëŀĳ
ê·Ģ ëıĦ
ĠìķĦì¹¨ ìĿ´
Ġìŀ¬ë¯¸ ëĤĺê²Į
ĠìĿĮìĭĿ ìľ¼ë¡ľ
ì¦Ī ê°Ģ
Ġê¹¨ ìļ°
Ġê¹¨ ì§Ħ
Ġë©´ ìĿĢ
Ġì¤ĳìļĶ íķľëį°
Ġê²¨ìļ¸ ìĹĲëıĦ
ĠëĵľëĿ¼ ìĿ´
ĠìĹ¬ìĦ¯ ìĭľìĹĲ
ĠìĿ¼ìĸ´ëĤĺ ì§Ģ
ĠëĥĦìĥĪ ë¥¼
Ġê¿Ī ìĹĲìĦľ
ë§Ľ ëıĦ
ìĹ´ ëĳĲ
Ġë¯¼ ê°Ħ
íĸĦ ìĭłëĶĶ
Ġê³łêµ¬ë§Ī ê°Ģ
Ġìĺģìĥģ ìĿ´
Ġë¶ĦìľĦ ê¸°ë¥¼
Ġíķ´ìĻ¸ ìĹĲìĦľ
Ġì¤ĳê°Ħ ì¤ĳê°ĦìĹĲ
ĠìķĦë²Ħ ëĭĺìĿ´
ĠëĤĺê°Ķ ëĭ¤ê°Ģ
Ġê·¸ë¶Ħ ëıĦ
Ġê°ĪìķĦ ìŀħ
ĠëıĦë¡ľ ì£¼íĸī
ĠìŀĲìĭł ê°ĲìĿ´
Ġìľłíĸī ìĿ´
ê³³ ìĹĲ
ĠíĿ¥ ë¶Ħ
Ġê³¤ ë°¥
ĠíħĮìĿ´ë¸Ķ ìĹĲ
Ġë²łìĿ´ íĤ¹
Ġê³łì³Ĳ ìķ¼
Ġê±´ëĵľ ëł¤
ĠìĤ¬ëĮĢ ë³´íĹĺ
Ġêµ¬ì¡° ê°Ģ
Ġëª»ìĥĿ ê¸´
Ġëŀľ ëį¤
Ġì¶¤ì¶Ķ ê³ł
Ġìĸ¹ ìĸ´
Ġë§ŀìĿĢíİ¸ ìĹĲ
ĠìĪĺëª© ìĽĲ
ĠíŀĻ íķ©
ĠíĺĦìĪĺ ë§ī
ì§ ¼
ĠìķĦ ê¶ģ
ë¦¬ ëĭ¤
ĠìĤ¬ ìĺ¤ìĭŃ
Ġë§ī íĮĲìĹĲ
Ġë¨¹ ê²łëĭ¤
Ġë§Ĳ ìĿ¸ê°Ģ
ìĿ¸ ìĥĿ
ĠìĿ´ëłĩê²Į ìĿ´ëłĩê²Į
Ġìĭľ ê°ģ
ĠìĪĺ ëĭ¹
ìĬ¤ ì¿¨
Ġê·¸ëŁ¬ ëĬĶê±°ìķ¼
ĠìķĮ ìĪĺ
ìŀ¥ íķľ
Ġë§Į ìĿ´
Ġë§Į ìłĲ
ĠìłĦ ê¹Įì§Ģë§Į
íķĺëĬĶ ê±°ì§Ģ
ëĤ´ ëħĦìĹĲ
ì¦ ī
íĸī ìĿĦ
ëıĻ ëıĦ
ĠìĨĮ ëĤĺìĿ´
íĨ ±ìĿ´
Ġìĵ° ëĿ¼
ĠëıĮ ë¦°
Ġë´¤ ìĸ¸
ĠëĨĢ ìŀĲ
Ġë°© êµ¬
Ġë°± íĮĶ
Ġìĭ¸ ê°Ģì§Ģê³ł
íķĺì§Ģ ë§Ī
Ġìĺ¨ ê±°ëĿ¼
Ġë¨¹ìĿĦ ëĿ¼ê³ł
Ġë°ľ ëłĪ
Ġíģ¬ ê¸´
Ġì« Ĵ
Ġìĭ¤ ìĪĺë¡ľ
Ġëª© ìŀ¥
ĠëĤ´ëł¤ ê°Ģì§Ģê³ł
ĠìĽĥ ê¸¸
Ġìĸ´ëĬĲ ëĤł
ìĦĿ ìĿĦ
ĠíĴĢ ë¦´
ĠíĸĦ ìĭłê³ł
ĠìĤ¬ê³ł ë¥¼
Ġë¦¬ ì¡°
ìķĮ ìĿ´
Ġìĭłê¸° íķĺê²Į
ìŁ Ī
ĠìĸĺëĦ¤ ëĵ¤ìĿĢ
ĠìĬ¤ë¬¼ ëĦ¤
Ġë¶Ģë¶Ħ ëĵ¤ìĿ´
ë§ģ íģ´
Ġê¸°ë¦Ħ ìĿĦ
Ġë²Įìį¨ ë¶ĢíĦ°
ĠêµĲìĪĺëĭĺ ëĵ¤ìĿ´
ĠíĶ¼ë¶Ģ ìĹĲ
Ġì§ĳìķĪ ìĹĲìĦľ
ĠëĤĺëĪł ìł¸
Ġê¸°ìĸµëĤĺ ì§Ģ
Ġì¹ľìłķ ìĸ´ë¨¸ëĭĪ
ĠëĤļ ìĭ¯
ĠìĿĺë¯¸ ë¥¼
ĠëĤ¨ìŀĲìķł ëĵ¤ìĿĢ
Ġë¶Ģëĭ´ ìĬ¤ëŁ¬
ĠìİĦ ê²Į
ĠëĤ¨ìķĺ ëĦ¤
Ġê³¼ìłľ ë¥¼
ĠìĥģíĴĪ ê¶Į
Ġíŀĺëĵľ ëĦ¤
Ġëª¸ë¬´ê²Į ê°Ģ
Ġê¹¡ íĮ¨
Ġë°ĺì§Ģ ìĿĺ
Ġëĭ¨ìĪľ íŀĪ
ĠëĦ¤ëª¨ ëĤľ
ê³ł ìĹĲ
ê°Ģ ëĭ¤ê°Ģ
ĠìĿ´ ìĸ´ìł¸
ëĤ ĳ
ĠìķĦ ê¸°ë¥¼
ê±° ìĹĲ
ê¸° ë³´ëĭ¤
ê¸° ëħĲ
ê¸° ëķĮë¬¸ìĹĲ
ĠìķĪ ë¶Ģ
ĠìķĪ ë³¸
ĠìĤ¬ íĿĺ
Ġëĭ¤ ë§Į
Ġíķľ ìĿĺ
ĠìķĦëĭĪ ìļ°
ĠìķĦëĭĪ ê²łìĸ´
ĠìĿ¼ ìłĲ
ë¬´ ì§Ģ
ê¸Ī ìľ¼ë¡ľ
ĠìĹ¬ ìĦľ
Ġê²Į ìĿĦ
ĠìķĮ ì£ł
Ġê±°ê¸° ëŀĳ
ĠìĥĿê°ģ ëĤ¬ìĸ´
Ġê³ł ë¥´ëĬĶ
ĠìłĦ ìļ©
ĠìļĶ ìĿ¼
ĠëįĶ ëįĶ
Ġê°ľ ê³ł
Ġìĭł ëıĦ
ìĺģ ìĸĳ
íĨ ¨
ĠìĿĳ ëĭµ
Ġëĭ¹ ëĭ¹íķĺê²Į
ê°ľ ë°ľ
ĠìĹĲ íĥĢ
ìĶ¨ ëıĦ
Ġìŀ¡ ìķĺëĬĶëį°
íĮĮ íģ¬
Ġìĭ¸ ë©´
Ġê´Ģ ìĿĮ
ê°Ī ê¹Į
ĠëĨĵ ìķĦìĦľ
ĠìĹ¬íĸī ìĹĲ
ĠìĹ¬íĸī ê°Ī
ì§Ħì§ľ ìĿ´
Ġê°Ģìł¸ ìĺ¤ê³ł
Ġê¸Ī ìľµ
ĠíĴĢ ë¦¬ê³ł
Ġìŀ¬ë°Į ëįĶëĿ¼
ê±°ê¸° ëĭ¤
ì½Ķ ìĬ¤
ĠìĤ¬ìĭ¤ ìĥģ
Ġì°¾ìķĦ ê°Ģì§Ģê³ł
ĠëģĬ ê¸´
ĠìĥĢ ëįĺ
Ġëķħ ê°Ĵ
Ġë§ĪìĬ¤íģ¬ ê°Ģ
Ġë§Ĳíķĺ ìŀĲë©´
Ġë¿Į ë¦°
Ġëĥī êµŃ
ĠìĥĿê²¼ ëĦ¤
Ġë´Ĳë´Ĳ ë´Ĳ
ĠëĦ· ìĿ´
ĠëĨ¨ ê±°ëĵł
Ġê°ĢëĬ¥ íķ´
Ġëĭµëĭµ íķ´ìĦľ
ĠíĿĲ ë¥´ëĬĶ
ĠìłĢë²Ī ì£¼
Ġì³Ĳëĭ¤ ë´Ĳ
ĠíĿ¬ ìĥĿ
ĠíĳľíĺĦ ìĿ´
Ġê±°ë¦¬ ëĳĲê¸°
ĠìĪĺì¤Ģ ìľ¼ë¡ľ
Ġì§ķ ê·¸
ĠëŃĲíķĺ ë§¨
Ġê°Ģë£¨ ë¡ľ
ĠìĿ¼ìĥģ ìĥĿíĻľ
ĠìłĦìŀĲ ëłĪìĿ¸ì§Ģ
ĠìħĶ íĭĢ
ĠëłĪìĿ´ ìłĢ
T V
ë ®¬
ĠìĿ´ ìĺĢìĸ´
ì§Ģ ê°ĳ
Ġê°Ģ ê°Ģì§Ģêµ¬
ĠìĤ¬ ìŀĸìķĦ
ĠìĤ¬ ì£¼ë©´
ĠìĤ¬ ìľĦê°Ģ
ĠìķĦëĭĪ ê¸´
ĠëĤ´ ëł¸
ĠìĿ´ìłľ ìĤ¬
Ġë§Ĳ ê¹Įì§Ģ
ìĹĪ ëįĶëĿ¼
ìĹĪ ëĥĲë©´
ĠìĿ´ëłĩê²Į íķĺë©´ìĦľ
Ġìĭľ íĬ¸
Ġìĭľ íģ¬
ĠìĹĨ ìĹĪìľ¼ëĭĪê¹Į
ĠëĮĢ íĮĮ
Ġëĵ¤ìĸ´ ì£¼ê³ł
Ġìĺģ ìĹŃ
ĠìĺĪ ìģł
Ġê°Ķ ìĹĪìĿĦ
Ġë¶Ģ ìħĶ
Ġìĭ¶ ëĦ¤
Ġë¹Ħ ìľ¨ìĿ´
ĠëıĻ ê¸Ģ
ĠìĦ¸ ìļ°ëĬĶ
ìķł ì´ĪìĹĲ
Ġì°¨ ìĦľ
Ġëĭ¬ ë¦¬ëĬĶ
ĠìĹ° ì¶ľ
Ġëªħ ëł¹
Ġë°ĺ ìĿ¸ê°Ģ
Ġë²Ħ ëĭĪê¹Į
Ġìľ¡ ì§ĢëıĦ
íĥĢ ìĦľ
Ġë¨¹ìĿĦ ì§Ģ
ĠëĦ¤ ìĤ´
Ġíŀĺëĵ¤ ê±°
ëĪ ħ
ì¡Į ëĤĺ
Ġì»¤ ë¦¬
ĠìĻĢìĦľ ëĬĶ
Ġì²ľ êµŃ
Ġì²ľ ë°±
Ġë§Ĳíķ´ ì¤¬
Ġë§Ĳíķ´ ì¤Ħê²Į
ĠíķĺëĬĶê±° ëĭĪê¹Į
Ġê¹¨ ìł¸
Ġë¬´ìĦľ ìĽł
ĠìĶ¨ ì§Ģ
ĠíķĺëĤľ ìĹĲ
Ġê°Ģê²Į ìĹĲìĦľ
Ġë§Ĳíķĺ ëįĶëĿ¼ê³ł
Ġëį°ëł¤ ìĺ¨
Ġíľ´ ê°Ģë¥¼
ĠìĦłë¬¼ íķ´
ĠëĤ¬ ëĦ¤
ĠìĿ¼ìĸ´ ëĤ¬ìĸ´
Ġê²ĢìĤ¬ íķĺê³ł
Ġì¹´íĨ¡ ìĹĲ
Ġë§¡ ê³ł
ëĭ¤ìĿĮ ì£¼
ĠíĹ¤ìĸ´ ìł¸
Ġê¸°ë¦Ħ ê°Ĵ
ĠíĤ¤ìļ° ì§Ģ
Ġë°°ëĭ¬ ìĿĺ
ìĺ· ìĿĦ
ĠìĿĮìķħ ìĿĦ
Ġëľ¯ ìĸ´ìĦľ
ĠíĸīëıĻ ìĿ´
Ġì¹ĺë£Į ë¥¼
ĠìŀĲì·¨ ë¥¼
Ġë°ķìĬ¤ ìĹĲ
ĠìĹŃíķł ìĿ´
ëŃĶ ì§Ģ
Ġì¤ĳê³ł ëĵ±
Ġìķķ ëĭĪê¹Į
ìī½ ê²Į
Ġê°Ĳëıħ ìĿ´
ì§Ģê·¼ íķľ
Ġíĥģíĥģ íĥģ
Ġìľłê¸° ê²¬
ĠìĪĺìĪĺ ë£Į
ìľłíĪ¬ ë¸Į
ìĿ´ ìļ°ëĭ¤
ĠìĿ´ ëĮĢë¡ľ
Ġê·¸ë ĥī
ìĦľ ëĿ¼
ĠìķĦ ìĿ¸ëĶĶ
ĠëĤĺ ëįĶëĿ¼
íķĺ ëĿ¼ëĬĶ
ĠìŀĪ ìŀĸ
Ġê°Ģ ìħ¨
ĠìķĪ íķĺê²Į
ĠëŃĲ ëĿ¼ëĬĶ
ĠìķĦëĭĪ ëĭĪê¹Ĳ
ì£¼ ê²łëĭ¤
ĠìĿ¼ íĸĪëįĺ
ĠìłĢ ìª½ìľ¼ë¡ľ
Ġì§Ģ ëĤĺëıĦ
Ġê·¸ëŁ¬ ëįĶëĭĪ
Ġì£¼ ëĤĺ
Ġì£¼ ë¬¼
Ġì£¼ ëįĶëĿ¼
Ġê³ł ëĮĢ
Ġê³ł íĸ¥ìĿ´
Ġë°Ķ ëĳĳ
Ġìłķ íķĺê³ł
ìŀĪ ëįĺ
Ġê°ľ ë¯¸
ĠëıĻ ë°©
ĠíĹĪ ê¸°
ĠëĤĺëıĦ ìĿ´
ìĻĢ ê·¸ëĦ¹
Ġê³Ħ ê³¡
ĠìĦ¸ ìĭľê°Ħ
Ġì°¨ ë§Ī
ë¯¸ íĦ°
ìĭ¬ ìĿĢ
ĠìĹĨìĸ´ ìķ¼
Ġíĸī ìļ´
ìĺĢ ëįĶëĿ¼
Ġë°¥ ë¨¹ìĿĦ
ĠíĥĢ ìĿ´ìĸ´
Ġëĭ¹ êµ¬
Ġê°Ĳ ìĿĦ
Ġìĭ¸ ìĿ¸
Ġê´Ģ ë¦¬ê°Ģ
Ġê³¼ ìĹĲìĦľ
Ġê³µë¶Ģ ìĹĲ
Ġì°į ìĸ´ê°Ģì§Ģê³ł
ê²ħ íĹĪ
Ġìĭ¤ íį¼
Ġëª© ëıĦë¦¬
ì¡Į ìľ¼ë©´
Ġì·¨ ì¤Ģ
ëĨĵ ìĿĦ
ĠìķĪëĲĺ ëĦ¤
Ġê¿ °
Ġìļķ ìĿĢ
Ġë©Ķ ìĦ¸
ê±°ê¸° ìĹĲìĦľ
Ġëĥ ĩ
Ġê·¸ëŁ´ ëķĮ
Ġë²ł ìĸ´
Ġì¤¬ ëĭ¤
Ġëľ¨ ê±°ìĽĮ
Ġê´ĳ ìĸĳ
ĠìĿ¼ê³± ìĤ´
Ġíį¼ ìł¸
Ġë©ĭ ìł¸
ìĹ¬íĸī ìĿĦ
Ġë²Ħë¦¬ ëĭĪê¹Ĳ
Ġê°Ģê²© ìĹĲ
ĠëĴ· ë°Ķ
ĠìĦŀ ìĿ¸
Ġì°Į êº¼
ë²Ħëł¸ ëĦ¤
ĠíĶ¼ê³¤ íķ´ìĦľ
Ġì«Ļ ì«Ļ
Ġì¶©ê²© ìĿĦ
Ġìŀ¤ ê±°ëĵł
ĠíĿĳ ëı¼
Ġê·¼ë¬´ ë¥¼
Ġë¶ĪìķĪ íķľ
Ġë°Ķëĭ· ê°ĢìĹĲ
Ġìķłë§¤ íķĺê²Į
Ġê°Ģë´¤ ê±°ëĵł
ìķĦë²Ħ ì§ĢëıĦ
Ġë©ĺ íĨł
ĠìĿ´ì¸µ ìĹĲ
ì«Ħ ê¹ĥ
Ġìĭľì¼ ł
ĠìĺģìĽĲ íŀĪ
ï ¼
ìĿ´ ëª¨ê°Ģ
ê°Ģ ìĹĲìĦľ
ì§Ģ íķĺ
ìĦľ ë¶ĢíĦ°
ĠìķĦ ìĿ¸ëį°
Ġê±° ê¹Įì§Ģ
Ġíķ´ ë¨¹ìĿĦ
Ġíķ´ ëĨĶìĦľ
Ġìĺ¤ ëįĶëĿ¼ê³ł
Ġìĺ¤ ì¼Ģ
ĠìĹĨ ìĹĪëĦ¤
Ġìŀĺ íķ¸
ëĮĢ íĻĶ
Ġname ì²ĺëŁ¼
Ġë¬´ ìļ©
ë¥´ ëĭĪê¹Į
íħĮ ìĿ´ëĦĪ
Ġëª¨ ìĿ´ì§Ģ
Ġê³ł ë¥´ê³ł
Ġê¸° ìĤ¬ê°Ģ
ëĤ´ ë©´ìĦľ
Ġë¶Ģ ëħĢ
Ġì¢ĭìķĦ íķĺê²Į
ĠíķĺëĤĺ ë´Ĳ
ëıĻ ìĹĲìĦľ
Ġìĸ¸ëĭĪ ëĦ¤ê°Ģ
ĠìĹ´ ìĹ¬ìĦ¯
Ġì¹ľêµ¬ ë¡ľ
ĠìĺĽëĤł ìĿĺ
Ġìĵ° ëŀľ
ĠìĹ° ëıĦ
Ġê°Ħ ìĭĿìľ¼ë¡ľ
ĠëħĦ ìłľ
ĠìķĮìķĦ ëĵ¤ìĿĦ
ëª¨ ë¡ľ
ĠëĲł ê±°ëĿ¼
ê³¼ ìŀĲ
Ġë¶Ī ë§ĮìĿ´
ê·¸ëŁ° ê°Ģ
ĠìĦ± ìķĪ
ĠíĹ ¨
Ġëª°ëĿ¼ ë¶ĢëĤľ
Ġëĭ¤ëĭĪ ëĬĶê±°
ê·¼ ìĿ´
Ġcompanyname ë¡ľ
ĠìķĦëĭĪëĿ¼ ê²Į
ĠìķĦëĭĪëĿ¼ ëĭĪê¹Į
ĠìłĲ ê²Ģ
Ġë²Į ëŁ¬
Ġê·¸ëŀ¬ ìĹĪì§Ģ
Ġì²ľ ìĹ°
ĠíĽĦ ìĹĲëĬĶ
Ġíı¬ ìĬ¤íĦ°
ĠíķĦìļĶ íķĺë©´
ìĦĿ ìĿĢ
Ġë³´ìĹ¬ ìķ¼
Ġìħ Ī
ĠëĨį ìŀ¥
Ġíķĺê²Į ëģĶ
ìŀĺ íķľ
ĠíķĺëįĶëĿ¼ êµ¬
ì© Ŀ
ìĹĪìŀĸìķĦ ìļĶ
ìĵ° ê¸°
ĠìĹĨìĿĦ ëķĮ
ĠìĬ¤ë¬¼ ìĿ¼ê³±
Ġê³łìĥĿ íķľ
ìłľì£¼ëıĦ ê°Ģ
ê¹Ģ ë°¥
Ġê²ĥëĵ¤ ë§Į
ĠìķĦëŀĺ ìĹĲ
ĠíĶ¼ë¶Ģ ëıĦ
ĠìĨĮê°ľ íķ´
Ġì¡°ìļ© íķ´
Ġì§ĢìĹŃ ìĿ´
ë²Ħëł¸ ëĭ¤ê³ł
ĠìŀĬìĸ´ ë²Ħëł¤
Ġë¶Ģëª¨ëĭĺ ìĿĢ
Ġëª¨ìŀĦ ëıĦ
Ġì¥Ĳ ê°Ģ
ĠíķĺëĬĺ ìĿĦ
Ġë°ĶìĿ´ ìĺ¬ë¦°
ìĹ¬ìŀĲ ì¹ľêµ¬
ĠìĨįìĥģ íķľ
Ġê³łë¬´ ìĭł
Ġìĸµìļ¸ íķ´
ĠìĪŁê°ĢëĿ½ ìľ¼ë¡ľ
Ġë°°ê³łíĶĦ ëĭ¤
ĠìļĶë§Ŀ ì§Ħ
ĠìķĦëģ¼ ê³ł
ĠìķĦëĿ¼ëıĻ ìĹĲ
Ġê°Ģê¹Ŀ ê³ł
Ġë±ĥ ìĤ´
ê°ĵ ì§ĳ
Ġìĭ±íģ¬ ëĮĢ
ĠìĹĲíĶ¼ìĨĮ ëĵľ
Ġê¸°ë§Ĳê³ł ìĤ¬
ëµ Ī
? #
Ġê·¸ ìĤ¬ëŀĮìĿ´
ìĿ´ ì¶Ķë£©
ĠìĿ´ ê²¼
ĠìĿ´ ìłĦìĹĲ
Ġìŀ Ń
ë¦¬ ìĹĲìĦľ
Ġê°Ģ ë´ĲìĦľ
ĠìķĪ ëĤĺëĬĶ
Ġëĭ¤ ì§Ĳ
Ġíķ´ ëĨ¨ìĸ´
ë° ĢìĿ´
Ġë§Ĳ íķľëĭ¤
ìĹĪ ì£¼
Ġì§Ģ ë©´
Ġê·¸ê±° ìĺĢìĸ´
Ġëį ¸
ìĿĮ ë£Į
Ġëª» ë´Ĳ
ê²ł ëĮĦ
Ġìķł ìłķ
ĠìłĦ ìĽĲ
ìĥģ íķľ
Ġê±¸ ìĸ´ëıĦ
ĠìĿ¸ ìĥģìĿ´
Ġì¢ĭìķĦ íĸĪê±°ëĵł
ĠìĤ¼ ì¸µ
Ġë¹Ħ ëĮĢ
Ġì¤ĳ ìĨĮ
ĠëıĻ ìłĦ
ĠíĹĪ ê°Ģ
ìķĦëĭĪ ë©´ìĿĢ
ì§ģ ìŀ¥
ĠìĬ¤ ëª°
Ġëĭ¬ ëĿ¼ëĬĶ
Ġê°ĢìĦľ ëĬĶ
ìĨĮ íķĺê²Į
Ġëĸ µ
ĠìļĶì¦ĺ ìĿ´
Ġê°ķ ì¡°
ĠìĽĲëŀĺ ë¶ĢíĦ°
Ġë¬¸ ë²ķ
Ġì½Ķ íĶ¼
ĠìĦ± ìĿį
ĠìłķëıĦ ìķ¼
Ġì£½ ìĿĮ
ê´Ģ ëıĦ
Ġìĭ¬ ìĤ¬
Ġìĭ¸ ìĽĮìĦľ
ëĭ¬ ëĿ¼ëĬĶ
Ġìĸĳ ìª½ìľ¼ë¡ľ
Ġìĺ¨ ëıĦê°Ģ
Ġìĺ¬ëĿ¼ ê°Ģì§Ģ
ĠëĦ¤ ëĭ¤ìĦ¯
Ġëĭ¨ ìĨį
ë°ĺ ëıĦ
ĠìĻ¸ ìļ°ê³ł
Ġë³¼ íİľ
Ġì²ľ íĺľ
ëĨĵ ì§Ģ
ìĹĨ ëĭ¤
Ġìĭľìŀĳ íķ¸
Ġëĵ£ ê¸´
ê¸ī ìľ¼ë¡ľ
Ġë°ķ ê³ł
Ġëĸ¨ìĸ´ ìł¸ê°Ģì§Ģê³ł
Ġì³Ĳ ê°Ģì§Ģê³ł
Ġê²¨ìļ¸ ì²ł
ĠëĶĶ ì§Ģ
ĠëĬ¦ ìŀł
Ġë¦¬ ìķ¡
Ġì¤¬ ìĿĦ
ëĸ¡ ëıĦ
Ġìĭłê¸° íķĺì§Ģ
Ġë¯¸ìķĪ íķ´ìĦľ
Ġìį¼ ìŀĸìķĦ
Ġë¿Į ëł¤ìĦľ
ìĹĪìĿĦ ê±¸
ĠìºĲ ë¦¬
ĠìĥĿê²¼ ìŀĸìķĦ
Ġë°°ìļ° ê°Ģ
Ġëĭ¤ë¦¬ ìĹĲ
Ġê³µë¬´ìĽĲ ìĿ´
ĠìĹĲìĬ¤ ìķ¤ìĹĲìĬ¤
Ġìĭ¼ ê±°
Ġê°ĲìŀĲ íĥķ
Ġê¸°ê³Ħ ë¥¼
ĠìĦ¸ê³Ħ ìĹĲìĦľ
Ġìļ°ìľł ë¥¼
Ġê³łë¥´ ëĤľ
ĠìĤ¼ì¶ĺ ìĿ´
ĠëĮĢì¶ľ ìĿĦ
ĠëĨĢëŀĺ ê°Ģì§Ģê³ł
ĠëļĿ ëļĿ
ĠëĨĶëĳ¬ ìķ¼
Ġë©´ìĹŃ ëł¥ìĿ´
ì£¼ìĿ¸ ê³µ
Ġíķľíİ¸ ìľ¼ë¡ľëĬĶ
ĠëĳĺëłĪ ê¸¸
Ġíı¬ìĿ¸ íĬ¸ê°Ģ
Ġì¡°ë§Į ê°Ħ
ìĿ´ ëĵ¤
Ġë§ ¬
ìĸ´ ìĭł
ëĭ¤ ëŀĢ
ĠëĤĺ ê¸°
íķĺ ì¼Ħ
ĠìķĪ ìĤ´
ĠìķĪ ëįķ
ĠìĤ¬ ëŀĺ
Ġíķ´ ê³ł
íķ´ ìĹ°
ë¬ »
ĠëķĮ ìĹĲëıĦ
Ġê°Ļ ì§Ģë§Į
ĠìĿ¼ ìĭĿ
ĠìĤ¬ëŀĮ ëģ¼ë¦¬
ĠìĤ¬ëŀĮ ìĹĲê²Į
ĠìĹĨ ëį°
ë¶Ģ ì¸ł
ë¶Ģ ëŀ´
Ġëĵ¤ ë¦°
Ġëª» íķĺê±°ëĵł
Ġëª» ìĤ¬ëĬĶ
ëĵ¤ìĿ´ ê³ł
Ġëª¨ ìĿ´ê³ł
ĠëĮĢ ëıĦ
Ġíķĺê³ł ëıĦ
Ġìłķ ìĭľ
Ġìłķ ìĥī
Ġë¶Ģ ìĬ¤
Ġë¶Ģ ìŀ¥
ĠëıĻ ê´ĳ
ĠìĦ¸ ìĦ¸
ĠìĦľ ëĬĶ
Ġë§Ľ ìĹĨìĸ´
ĠìĨĮ ìĬ¤ê°Ģ
ë§Ĳ ê¹Į
ĠìĦł ë³Ħ
Ġìŀħ ìĸ¸
Ġëªħ ìĤ¬
ë°Ķ ìĤŃ
ëª¨ ëĬĶ
ëª¨ ë¥´ëĬĶ
Ġë´¤ ëĭ¤ê°Ģ
Ġë°¥ ê°Ĵ
Ġëĭ®ìķĦ ë§ĪìĶ¸
Ġìļ° ë¥´ë¥´
ìĥĪ ë¡ľ
ĠìĭĿ ìļ©
ì¡° ê°ľ
ĠìľĦ ê¸°
Ġë§ĽìŀĪ ìĹĪëįĺ
Ġìĭ¸ ëıĮìķĦ
Ġë³¸ ëĬ¥
ĠìķĦëĭĪëĿ¼ ë¶ĢëĤľ
Ġê³µë¶Ģ íķĺë©´
ĠëĨĵ ìľ¼ë©´ìĿĢ
Ġì¶Ķ ìĽł
ĠëĦ£ ìĹĪìĸ´
Ġë³¼ ëĿ¼ê³ł
Ġíĺķ ëĵ¤
Ġíĺķ íķľíħĮ
Ġì§ģ ìŀ¥ìĹĲ
Ġê°ĸ ëĭ¹
ĠíĽĦ ì¶Ķ
Ġíķĺë£¨ ëıĦ
íĺķ ìĿĦ
ĠìķĦìĿ´ëĵ¤ íķĺê³ł
ĠìĿ¼ìĿ´ ëĭĪê¹Į
ë²Ħë¦¬ ìŀĸìķĦ
íĮĶ ìĿ´
Ġì°¾ìķĦ ê°ĢìĦľ
ĠëģĬ ê¸°
ĠëĤĺìĺ¤ëĬĶ ê²Į
Ġê±´ê°ķ ëıĦ
Ġìĸ´ë©į ìķĦë°©
ĠìŀĲê¸°ëĦ¤ ëĵ¤
íĮĲ ìķħ
ĠíļĮìĤ¬ ëĬĶ
ĠìķĬìķĺ ëĭĪ
ë¨¸ ìĭł
ìĭ¶ ëĭ¤
ĠëĮĢíĻĶ ëıĦ
ĠíĻį ëĮĢ
ĠêµĲíļĮ ëĬĶ
Ġë§¡ ìķĦìĦľ
ë²ł ìĿ´
Ġë¬» íĺĢ
ìĺ· ëıĦ
ìĸ´ë©į ìĿĢ
Ġíķ´ê°Ģ ëĭĪê¹Į
Ġëķ¡ íģĲ
Ġíĥķ íĥķ
Ġë§ĪìĿĦ ìĿ´
Ġì¢ĭìķĦíķĺ ì§Ħ
Ġíľ ©
Ġë§Ľì¢ĭ ê²Į
ĠëĪĮëŁ¬ ìĦľ
ĠìĤ¬ìļ© íķĺëĬĶ
Ġìļ°ìļ¸ íķ´
ĠìĽĶëĭ¬ ë¶ĢíĦ°
ĠìķĪëĲ ©ëĭĪëĭ¤
ê´ľì°® ìķĦ
Ġê±´ëĵ¤ ì§Ģ
Ġë³´ì¦Ŀ ê¸Ī
Ġìĭ¸ìĿ´ ì½Ķ
ĠíĽĮë¥Ń íķľ
Ġì½¤íĶĮ ëłīìĬ¤
Ġê¹ĢìĦł íĺ¸
ĠíĶĦë¦¬ë¯¸ ìĹĦ
ĠíĶĦëŀľ ì°¨ìĿ´ì¦Ī
ĠìĿ´ ìĿĳ
Ġíķĺ ê²łëĬĶëį°
ĠìķĪ ë§Ĳ
ì£¼ ëĦ¤
ìŀĲ ëĦ¤
Ġê°Ļ ìĹĲ
Ġê°Ļ ìķĺìľ¼ë©´
ìĹĪ ìĹĪê±°ëĵł
ĠìĿ¼ ìĭľ
ĠìĿ¼ íķ´ìķ¼
ê°Ħ íĺ¸
Ġì¢ĭ ê¸°ëĬĶ
Ġê·¸ëłĩê²Į íĸĪëĬĶëį°
Ġíķł ë¶Ģ
ĠìķĮ ëĭ¤ìĭľíĶ¼
ĠìĤ´ ë©´ìĿĢ
Ġëª¨ ë¬¼
ìĽĲ ëĵ¤
Ġë§Ī ë§Ī
ĠìĽĲ ìĦľ
ĠìĽĲ ìŀĳ
Ġë°Ķ ë¥´ë©´
Ġìłķ ìŀĲ
Ġìłķ ì°©
ĠëįĶ ìĽĮìĦľ
Ġê°Ķ ëįĺëį°
ĠíĹĪ ëĬĶê±°ëĿ¼
Ġë§Ľ ì§ĳìĿ´
ë°© ìĸ´
ëĲĺ ìŀĸìķĦ
ĠìĦł ì§Ħ
ĠëħĦ ê°Ħ
ĠëĲľ ìŀ¥ìĿĦ
Ġë¶Ī ëıĦ
Ġëĭ¤ë¥¸ ê²Į
ĠìĽĲëŀĺ ëıĦ
ĠìĦ± íıŃ
Ġë°© ê³¼
Ġë°© ìķĹ
ĠìĹĲ ëĬĶ
ĠìĹĲ ëıĦ
Ġìłģ ë¦½
Ġíĺ¼ ìĿ¸
Ġì£½ ìĸ¸
ĠìĭĿ íĺľ
Ġìĸ¸ ê¸ī
ì²´ ëĬ¥
Ġê´Ģ ì¢ħ
Ġíİ¸ ëıĦ
ì¤ĺ ìĭłëĶĶ
Ġì¶Ķ ìĦ¸
ĠìĿ´ìĥģ ìľ¼ë¡ľ
Ġìĸ´ëĸµ ìĤ¬
íĿ °
Ġìĭ«ìĸ´ íķł
Ġì§Ħ ëĵľ
Ġêº¼ ëĿ¼
ĠíĸĦ ìĪĺê²Į
Ġì¶ķ ìĿĺ
Ġëĭ¬ëĿ¼ ì§ĢëĬĶ
ĠëĽ ´
ĠíķĻìĽĲ ìĿĢ
ĠíĬ¸ ëłģ
ìĿ´ìŀĸìķĦ ìļĶ
Ġê²ĥë§Į ìľ¼ë¡ľëıĦ
Ġê²ĢìĤ¬ ëıĦ
Ġë¶Īíİ¸ íķł
Ġíĭ°ë¹Ħ ë¥¼
Ġê±¸ëł¤ ëıĦ
Ġëį°ìĦľ ëĬĶ
ĠëĶ°ëľ» íķĺê³ł
ĠìĽ¬ ë§Į
ĠíĴį ë¶Ģ
Ġì¼Ģ ìŀĮ
Ġë°Ŀ ìķĦ
Ġìłĸ ìĸ´
ĠìłĦì²´ ê°Ģ
ĠëĨ© ìľ¼ëĦ¤
ĠíħĮëłĪë¹Ħ ìĹĲ
Ġë²łìĿ´ ë¹Ħ
)( #
Ġìĸ´ëĸ» ëĵł
ĠìĮ© ìĸ¼
ĠíĮĶë¡ľ ìĽĮ
Ġë²¤ ì¸ł
ĠíĮĿ ìĨ¡
ĠìķĬìķ µ
ĠìĹħê·¸ ëłĪìĿ´ëĵľ
ĠìķĦìļ¸ ëłĽ
ëĭ¤ ëĭĮ
ĠìĤ¬ ì¤Ħê²Į
ĠëĲĺ ê²łëĭ¤ê³ł
Ġì¢ĭ ìĬµëĭĪëĭ¤
Ġìĭľ ëıĻ
ĠìŀĲ ìĿ´ëĬĶ
Ġëĵ¤ ìĪĺë¡Ŀ
Ġì§ĳ ìĿ¸ëį°
Ġê¸° ìĤ¬ëĭĺ
ĠìĽĲ ìĿ´ëĿ¼ê³ł
ĠìĿ¸ íķ´
Ġë¶Ģ íļĮìŀ¥
íķł ê±°ìķ¼
Ġë¹Ħ ê±´
ìłķ ë¥ĺ
Ġë°Ľ ìľ¼ëĿ¼ê³ł
ìĽĮ ëĤĻ
Ġê³µ ëª¨
Ġë°° ìĽłìĸ´
ì¤ĳ ìļĶ
ĠìĹ° ê¸°ê°Ģ
ĠìĹ° ë¶ģ
Ġëª° ëŀĮ
ĠëģĿ ëĤ¼
ĠëĪĪ ìĹĲëĬĶ
ë°± ë§Į
ê·¸ëŁ¬ ëĭ¤
Ġë§¤ ëĤł
ê·¼ ìľ¡
Ġë¨¹ìĿĦ ëķĮ
ì£¼ê²Į ê²Į
Ġìķłê¸° íķľíħĮ
ĠìĻ¸ ìĹĲ
Ġìĸ´ë¨¸ëĭĪ ë¥¼
ĠìĿ´ìĥģ íķľê±°
Ġìĸ´ëĸµ íķĺ
Ġìĸ´ëĸµ íķłê±°
ê¾¸ ëĤĺ
ëĲľ ëĮĢ
Ġíĸ ħ
Ġíı¬ ëĮĢ
ĠìķĦëĵ¤ ëĦ¤
ĠíĴĢ ìĸ´ìĦľ
ĠëĤ³ ìķĺëĬĶëį°
Ġíķĺëĭ¤ ëª»íķ´
ĠìĥģíĻ© ìĿ¸ëį°
Ġë³Ģ ë¹Ħ
ĠìĹĲìĿ´ ìĹĲìĬ¤
Ġìį¼ ëĭ¤ê³ł
Ġê¹Ķ ìķĦìĦľ
íķ¨ ìĹĲ
ĠìĥĪëģ¼ ë¥¼
ë²Ħëł¤ ìķ¼
Ġì¹ĺíĤ¨ ëıĦ
Ġíķ´ë´Ĳ ëĿ¼
Ġëĭ´ë°° íĶ¼
Ġìĺ¤ë°± ë§Į
Ġì¦Ĳ ê¸°ê³ł
ĠìĽĶê¸ī ëıĦ
ĠìĿ´ë¶Ī ìĿĦ
Ġëį® ê³ł
Ġíı´ ìķĦ
Ġìļ°ìĦł ìĿĢ
ĠìĤ¬ê³¼ ë¥¼
ĠìĿµìĪĻ íķľ
Ġìŀ¬ë£Į ê°Ģ
Ġëį© ì¹ĺ
ĠëĨĢëĿ¼ ê°Ģì§Ģê³ł
ĠìĬ¤íĶ¼ ëĭĿ
Ġëį´ ëį°
Ġêµ³ ìĸ´
ĠìĹ¬ëıĻìĥĿ ìĿ´
ĠìļĶë²Ī ìĹĲëĬĶ
ĠìłĢëł´ íķľ
ìĺ¬íķ´ ëĬĶ
Ġë°±ì¢ħ ìĽĲ
ĠìĬ¤íĬľ ëĶĶìĺ¤
Ġë§ĲëłĪìĿ´ ìĭľìķĦ
ĠìĿ´ ìĹĲìļĶ
ìĦľ ìĺĪ
ê¸° êµ¬
ëĭ¤ ëĬĶëį°
Ġê°Ģ ëĳ¬
ĠìķĪ ê°Ķ
ĠìĤ¬ ìĺ¬
ĠìĤ¬ ëĤĺìĿ´
Ġë§ī ëĬĶ
ì£¼ ì°¨
Ġì§Ģ ì¹ĺê³ł
Ġë¹ »
Ġìŀĺ ìĤ¬ëĬĶ
Ġëª» ë¨¹ìĸ´
ìłĦ íĺĢ
Ġë§Į ì§Ģê³ł
ĠìĥĿê°ģ íķľëĭ¤
ĠíķĺëĬĶ ê±´ì§Ģ
Ġì£¼ ìĸ´ì§Ħ
ĠëĮĢ ê»´
ĠìłĦ ìĦ¤
Ġìłķ íķľ
Ġê°ĻìĿĢ ê±´
ëĵľ ëĿ¼ìĿ´
Ġë¹Ħ íĺ¼
ìķĪ íķ´ëıĦ
ĠíĹĪ ë¦¬ëıĦ
êµŃ ë¯¼
íĮ ģ
ĠìĨĮ ëıĦ
Ġë¯¸ ìĬ¤íĦ°
Ġì¤Ħ ë§Į
Ġëªĩ ëªĩ
Ġì´ Ľ
ĠëıĦ ìĪĺ
Ġë¶Ī ëŁī
Ġë§¨ ëĵ¤ìĸ´
Ġëĭ¹ ìĤ¬
ĠëķĮë¬¸ìĹĲ ëıĦ
ĠìĤ¬ëŀĮëĵ¤ìĿ´ ëĤĺ
íķĺì§Ģ ê°Ģ
Ġíķ´ê°Ģì§Ģê³ł ìĿ´
Ġë°ľ ë°Ķëĭ¥
Ġì¶Ķ ì§Ħ
Ġì½Ķë¡ľëĤĺ ëķľìĹĲ
Ġìĭ¤ íĻĶ
ĠëĲĺê³ł ìĿ´
íİ¸ ìĿĺìłĲ
ĠíķĻëħĦ ìĹĲ
ĠìĨį ìĿĦ
Ġë¨¼ ì§Ģê°Ģ
ĠíĴĢ ë¡ľ
ĠëĶĶ ê²Į
ĠìŀĲê¸°ëĦ¤ ëĵ¤ìĿ´
Ġê°Ģê²Į ë¥¼
Ġë§Ĳíķĺ ëĦ¤
Ġë§Ĳíķĺ ëĭĪê¹Ĳ
Ġëĵ¤ìĸ´ìĺ¤ ìŀĸìķĦ
ĠìĹ¬ìĦ¯ ê°ľ
ĠìķĮìķĺ ëĦ¤
Ġê±· ì§ĢëıĦ
ĠíķĻìĥĿ ëĵ¤ìĿĢ
ĠìĥĪëģ¼ ìķ¼
ĠìĿµ íĺĢ
Ġì¹¼ ìĬĺ
Ġìķħ ì°©
ĠìĤ¼ë°± ë§Į
ĠìĸĳëħĲ ìĿ´
Ġëª¨ìŀĲ ëĿ¼
ĠìĤĲ ìĤĲ
Ġì§Ŀ ì§Ŀ
ĠìĿ¸ê°Ħ ìĿĺ
Ġê·¸ë¦ĩ ìĹĲ
Ġíı¬ìŀ¥ ë§Ī
Ġìĸ´ìĸ´ ìĸ´
ĠìłģìĿĳ ìĿ´
Ġê³¤ ëŀĢ
Ġíķ´ìķ¼ëĲł ê±°
ĠìŀĲì¡´ ìĭ¬ìĿ´
Ġê°ĩ íĺĢ
Ġíľł ì²´
ĠëıĻíĺ¸ íļĮ
ìĿ´ ìĤ¬
Ġê±° ë¯¸
Ġê±° ëĭ®ìķĦ
ĠìķĪ íĸĪì§Ģ
ĠìĤ¬ ë¨¹ëĬĶ
Ġíķ´ ë¶Īê³ł
Ġíķ´ ëĭ¬ëĿ¼
ĠìķĦëĭĪ ê¹Ĳ
ĠëĲĺ ê²łìĸ´ìļĶ
ê°Ħ íŀĪ
Ġì§Ģ íį¼
Ġìŀĺ íĸĪ
ĠìĪĺ ì¹ĺê°Ģ
ìĿ¼ ìĸ´ëĤĺ
ĠìĥĿê°ģ ëĤ¬ëĬĶëį°
Ġë¬´ ëĬĶ
ìĥĿ ìĿĢ
Ġìłķ ì£¼íĸī
íĸī ìĿ´ëĦ¤
ĠëıĻ íĥľ
ĠìĦ¸ ë¬´
Ġê³µ ìŀ¥ìĹĲ
Ġê³µ ê°ĲìĿ´
Ġëį° ê¹Įì§Ģ
ĠìĬ¤ íĮ¸
ìĨĮ ëıĦ
Ġìľł ëĤľ
Ġìľł ë³Ħ
Ġë´¤ êµ¬ëĤĺ
Ġë°ĺ íķŃ
ìĹħ ìĿ´
Ġë°¥ ìĿ´ëĤĺ
ĠíĥĢ ë©´ìĿĢ
Ġë°© ì¹ĺ
Ġìłģ ìĸ´ìķ¼
ìĿ¸ê°Ģ ë´Ĳ
Ġëĵ¤ìĸ´ê°Ģ ëĤľ
ì²´ íģ¬
Ġìĭ¤ ë²Ħ
ëĤ¬ ëĦ¤
ìľĦ ëĬĶ
ì¡Į ëįĺ
ĠëĶ¸ íķľíħĮ
ĠëĴ¤ ëıĮ
ìĪł ìĿ´
ëĤ¨ ìĿĢ
ĠíķĦìļĶ íķĺëĭ¤ê³ł
Ġë¬¸ìłľ ê³ł
ĠìķĦëĵ¤ íķĺê³ł
Ġë³´ìĹ¬ ì¤Ģ
Ġíķ© ìĭľëĭ¤
Ġë¨¹ìĹĪ ìľ¼ë©´
ëł¹ ìľ¼ëĦ¤
ìŀĪëĬĶ ê²Į
Ġê²¨ìļ¸ ìĿĢ
Ġìĸ´ë©į ëĦ¤
Ġë§ĲíĸĪ ëĭ¤ê³ł
Ġìĭľì¼ľ ì£¼ê³ł
Ġìļ© ê¸°
Ġìļ© ëĳĲ
ĠìĹ¬ìĦ¯ ìĤ´
ĠíħĮ ëĭĪìĬ¤
Ġìŀ¡ìķĦ ë¨¹
ìĦ¤ íĥķ
ìĹĦë§Ī ëŀĳ
ĠìĤ´ìķĺ ìľ¼ëĭĪê¹Į
Ġê¸ī ìĿ´
ĠìłľìĤ¬ ëĬĶ
Ġíķ´ë³´ ì¹´
Ġê¾¸ ìĹŃ
Ġì¼ĢìĿ´ ìĹĲíĶĦ
ĠìĽĢì§ģ ìĿ´ë©´
Ġì²Ļ íķĺê³ł
ĠíĮĢ ìŀ¥
ĠìĤ¬íļĮ ìłģ
Ġíĳ¸ ëĮĢ
Ġê±¸ë¦° ëĭ¤ê³ł
Ġê°ĪìķĦ íĥĢ
ì¼ĢìĿ´ íģ¬
Ġì§Ŀ ê¿į
Ġíķĺëįĺ ì§Ģ
Ġê°ļ ìķĦ
Ġêµ½ ê³ł
ĠëĮĢë©´ ìľ¼ë¡ľ
Ġê°ķìķĦ ì§ĢëıĦ
ëª¨ë¥´ ê²Ĳ
ĠìķĪëĲ ¬
Ġìĭľì¼ ±
Ġê¸°ìĥĿ ì¶©
Ġë¸Įë¡ľì½ľ ë¦¬
)/( )
Ġì§ľíĮĮ ê²Įíĭ°
ì ¯
ĠìĿ´ ë§Ĳ
ëį° ëł¤
Ġê±° ëł¤
Ġê±° ë¦¬ë¥¼
Ġê°Ģ ëįĺ
ĠìķĪ ìĹĲëıĦ
ĠìĤ¬ ê²¨
Ġëĭ¤ íģ¬
Ġë§Ĳ ë¦¬ëĬĶ
ë§Ī ìĿĮìĿ´
ĠëĲĺ ì£ł
Ġì§Ģ ì§Ħ
êµ¬ ëįķ
Ġìŀĺ ëĲľ
ì¹ µ
Ġëĵ¤ ìľ¼ëł¤ê³ł
Ġê²Į ìĿ´íĬ¸
Ġë¬´ ì¦Ŀ
Ġì£¼ ìĽĮìĦľ
ĠìĹĦ ì§Ģ
Ġë°Ķ ì§Ģë¥¼
Ġìĺģ íķĺë©į
ĠìŀĪëĬĶ ê²ĥ
íķł ëķĲ
ĠëıĻ ê±°
Ġìĸĺê¸° íĸĪìŀĸìķĦ
Ġê²½ ìļ´
Ġìĭł ëĤĺ
Ġê²ħ ëıĦ
ĠëıĮ ë¡ľ
Ġë¶Ħ íĻĶ
Ġê°ķ ëıĦ
Ġìłģ ìĹĲ
ìĥĪ ê°Ģ
ĠìĭĿ ìĿ´
ĠíĻĶ ë¬¼
ĠìľĦ ë¯¸
Ġìŀ¡ ìķĪ
Ġê°Ĳ ìĭ¸
Ġê´Ģ ëįķ
ê²ħ íĹĪë¯Ħ
Ġìĭ¤ ìĪĺë¥¼
ĠëĿ¼ ìĦľ
Ġì²ľ ìĿ´ë°±
Ġì²ľ êµ¬ë°±
Ġìŀ¬ë¯¸ ëĤĺ
ĠíĨł ëª©
ĠìĪľ ì²ľ
ë¡ł ê°Ģ
ĠìļĶìĥĪ ëıĦ
Ġë©´ íļĮ
Ġë³µ ìĿ´
Ġíķ¸ëĵľíı° ë§Į
Ġíķ´ì£¼ ê²łëĭ¤ê³ł
ĠìŀĳìĿĢ ëį°
Ġë¦¬ ëĵ¬
Ġë²ĦìĬ¤ íĥĢê³ł
Ġë°Ģ ë©´
Ġìĸ´ëł¤ ìĽĮìĦľ
ĠìĥĿíĻľ ìĹĲ
Ġê¸Ģ ëıĦ
ĠëĶ´ ìĹĲëĬĶ
ĠëĤĺë¬´ ë¥¼
ĠìĬ¬ ì©į
Ġìĥīê¹Ķ ë¡ľ
ĠëĮĢíĻĶ íķĺëĬĶ
ëĵľëĿ¼ êµ¬
Ġìµľê³ł ìķ¼
ĠìĤ¼ì´Į ìĿĢ
ĠíĿĺ ë¦¬ë©´ìĦľ
Ġíŀ Į
Ġë§ĪìĿĦ ìĹĲìĦľ
ĠíĴį ìĦł
Ġê³łë§Ļ ìĬµëĭĪëĭ¤
ĠìķĪëĲł ê±°
Ġìĸ´ìĥī íķľ
Ġê¹Įë¨¹ ìĹĪìĸ´
Ġìŀ¬ìĤ° ìĿĦ
ìĿ´ìĥģ íķľ
Ġë²Ħíĭ° ê³ł
ĠìľłìĿ¼ íķľ
Ġê·¸ë£ ¨
ìĥĪë²½ ìĹĲ
Ġê·¸ëĦ ¹
Ġë¹¨ê°Ľ ê²Į
2 4
ì ¨į
ê°Ģ ì§Ĳ
ĠìĿ´ ìĹĪëĬĶëį°
ì§Ģ ë¦Ħ
ìķĦ ë¦¬ê°Ģ
ë© Ī
ëŀ ĸ
ĠìķĪ íķłê±°
Ġíķ´ ë©į
ê·¸ ìª½
Ġíķľ ëıĦ
Ġíķľ ìŀħ
ĠëķĮ ìĿ¸ê°Ģ
Ġì§Ħì§ľ ìļĶ
ĠíĸĪ ê¸°
Ġìĭľ êµŃìĿ´
ìĤ¬ ê·Ģ
ĠìŀĲ ë¥´ë©´
Ġê²ĥ ë°ĸìĹĲ
ĠìĪĺ ì§Ģ
ìĿ¼ ëķĮ
Ġê²Į ëĦ¤
ë³´ ìĿ´ê³ł
Ġëª» íķĺëĤľ
ìĻ ł
Ġìłľ ìĽĲ
Ġê±°ê¸° ìĦł
ìĪĺ ëŀĳ
Ġì£¼ ê°Ħ
Ġì£¼ ìħ¨
Ġì§ĳ ìĿ´ëĤĺ
Ġë°Ķ ì§Ģê°Ģ
ĠìļĶ ê±°ëĬĶ
ĠìĿ¸ ê¶Į
ĠìĿ¸ ìĭ¸
íķł ë§ĿìĿ´
Ġë¹Ħ íĺķ
ĠíĹĪ ëĵľëĿ¼ê³ł
ëĲĺ ê°Ģì§Ģê³ł
ĠëĤĺê°Ģ ëĿ¼
ëĦĪ íĿ¬
ĠíĥĢ ê¸°
Ġë¬¸ ìłł
Ġë°© ìĭĿìĿ´
ìĿ¸ëį° ìļĶ
Ġëĭ¤ìĿĮìĹĲ ëıĦ
Ġê¼ ī
Ġìŀ¡ íĺĶ
ê°Ļ ê³ł
ì²´ ë¡ľ
ĠíĮĮ ì¹ĺ
Ġê°Ķëĭ¤ ìĻĦ
Ġê·¸ëłĩ ëįĶëĿ¼ê³ł
ê°Ī ì¹ĺ
ì¹´ ë©ĶëĿ¼
ĠëĲĲ ëĭ¤ëĬĶ
ĠìłĲ ìĪĺë¥¼
ĠìĻ¸ íķłìķĦë²Ħì§Ģ
Ġíĺķ ê´ĳ
Ġì»¤ ìķ¼
ĠìķĮë°Ķ ìĥĿìĿ´
Ġê½ Ī
Ġíĭ° ë¸Į
Ġë¨¹ìĹĪ ìľ¼ëĭĪê¹Į
Ġë°¤ ëĬ¦ê²Į
ĠìĤ¬ìĿ´ ì½Ķ
Ġë¹Į ë¦°
ĠëĶĶ ëıĦ
ĠìĶ¨ ë¦Ħ
Ġë¦¬ íķĦ
ĠìĿ¼ìĸ´ëĤĺ ìķ¼
ĠìĦ±ê²© ìĹĲ
Ġëį°ëł¤ ëĭ¤ê°Ģ
Ġë¡ľ ë§ĿìĿ´
Ġê³łê¸° ëŀĳ
Ġìī½ ê³ł
ĠìĥĪë²½ ê¹Įì§Ģ
ë¹¨ ê°Ħ
Ġìŀĺíķ´ ì£¼ê³ł
ĠëĮĢíĻĶ íķł
ĠëĤ´ìļ© ëıĦ
ĠíĻľ ìĦ±íĻĶ
Ġì¸µ ìĿ´
ĠìĤ¬ëĿ¼ ì§Ģê³ł
ĠìķĮëł¤ ì¤Ħ
Ġíķ´ìķ¼ëĲĺ ëĬĶê±°
Ġë³´íĹĺ ëıĦ
ê²Ģ ìĿĢ
Ġë¬» ìĿĢ
ĠìĹ¼ ì¦ĿìĿ´
ĠíķĺëĤĺëĭĺ ìĿĦ
ĠìŀĲìĭł ê°Ĳ
Ġíİľ ìĬ¬
Ġíķ´ì¤¬ ìľ¼ë©´
Ġì§ĳì¤ĳ ìĿ´
Ġìļ©ëıĪ ìĿĦ
ĠìĪĻìĨĮ ìĹĲìĦľ
Ġê±¸ëł¸ ëĬĶëį°
Ġê³Ħìķ½ ìĿĦ
Ġë©ľ ìłĵ
Ġë¹ĦêµĲ íķ´
ĠìķĪëĲĲ ëĬĶëį°
Ġìĸ´ëĸ¨ ê¹Į
Ġë¹Ħíķ´ìĦľ ëĬĶ
Ġìĸ´ì§Ģ ëŁ½
Ġê¿Ķ ë°Ķë¡ľ
Ġìĭľê¸ī ìĿ´
Ġë°ĽìķĦëĵ¤ ìĹ¬
ĠíĴĭ ìĤ´
ĠìºĦ ë³´ëĶĶ
ĠìŀĶìŀĶ íķľ
Ġìĭľê¸Ī ì¹ĺ
Ġìĭłë¶Ħ ì¦Ŀ
Ġë¬´íķľëıĦ ìłĦ
ìĿ´ íķ´
ĠìĿ´ ëĭ¨
Ġíķĺ ìŀĲë§ĪìŀĲ
ê¸° ê´Ģ
ĠìŀĪ ê²łêµ¬ëĤĺ
Ġê°Ģ ë¶ĢëŁ¬
ĠìķĪ ë§ŀìķĦ
ĠìĤ¬ ì²ľìĽĲ
ĠëĲ ĳ
ĠëĤ´ ê²Į
Ġë³´ ê²łëĭ¤ê³ł
ìŀĲ ëĵ¤ìĿĢ
ìĹĪ ëĭ¹
ìĹĪ ì£ł
Ġì§Ģ ëĤŃ
Ġì¢ĭ ìľ¼ëĤľ
ë¶Ģ ëĮĢ
ĠìĹ¬ ìĭł
ëĮĢ ìķ¼
Ġëĵ¤ ëįĶëĿ¼
Ġëĵ¤ ìĹĪëĭ¤ê³ł
Ġì¹ «
ìĭł ë°ľ
ëŁ¬ ê°Ģ
Ġì£¼ ìłĲ
Ġê¸° ìģĺ
ĠìłĦ íĮĮ
íķĺëĬĶ ê²ĥ
Ġë°Ķ íĭ°
Ġì¡° ëģĦ
ĠíķĻ íļĮ
Ġìķ¼ ìĺ¹
Ġë¹Ħ ì¼ľ
Ġìĸĺê¸° ìķ¼
ĠíĹĪ ë¬´
ëıĻ ìĿĢ
ĠìĦľ ë©´
Ġì°¨ ê·¼
ëĭ¹ íĥķ
ëĲĺ ì¼ľ
Ġëĭ¬ ë¬´
Ġêµ¬ ìĤ¬
Ġêµ¬ íķ´ìķ¼
ĠìķĮìķĦ ë³¸
ê³¼ ëª©
Ġìŀ¥ ëıĦ
Ġì½Ķ ëģ¼ë¦¬
ê·¸ëŀĺìĦľ ìĿ´
ì¡° ì°¨ëıĦ
Ġë§ĽìŀĪ ê±°ëĵł
Ġìĭ¬ ìĸ´ìĦľ
ì´ ĺ
Ġìĸĳ íĳ¼
ĠëĦĪëĦ¤ ì§ĳ
Ġíŀĺëĵ¤ ìĹĪëĬĶëį°
Ġë°ľ ëıĦ
Ġìĭ¤ ëªħ
Ġë³ĳ ìĭł
ĠìĿĺ íķ´ìĦľ
Ġë°ĽìķĦ ìķ¼ì§Ģ
Ġìĭ«ìĸ´ íķĺëĬĶëį°
ĠìĺģíĻĶ ë¡ľ
Ġë¨¹ìĹĪ ëĭ¤ê°Ģ
ì¹ľêµ¬ ëĵ¤
Ġê±¸ë¡ľ ë§Į
Ġì¢ĭìķĦíķĺëĬĶ ëĶĶ
Ġì¤ĳìļĶ íķĺëĭ¤
ĠìĬ¤íĥĢìĿ¼ ìĿ¸ëį°
Ġëľ¨ ìŀĸìķĦ
ĠíĹĮ íĺĪ
Ġê¸°ëĭ¤ ëł¸
Ġë¡ľ ê·¸
ĠìĤ¬ëŀĳ ìĿĺ
Ġì»´ íĶĮ
Ġê·Ģì°® ìķĦê°Ģì§Ģê³ł
ĠìłĲìłĲ ìłĲìłĲ
ĠìĹħ ìĸ´
Ġëĵ¤ìĸ´ê°Ķ ëĭ¤ê°Ģ
ĠìĽĥê¸´ ëĭ¤
ĠìĦľë°© íķľíħĮ
íĢ´ ì¦Ī
Ġê·¸ëĤĺ ìłĢëĤĺ
Ġì¶Ķì²ľ ìĿĦ
Ġê°Ģë°© ëıĦ
ĠíĥĿìĭľ ë¹Ħ
Ġë³¶ ìĿĢ
Ġìĸ´ìĭł ê±°ëĿ¼
Ġê°Ģìł¸ê°Ģ ëĿ¼ê³ł
ĠíĥĿë°° ë¡ľ
ĠìĭľëģĦ ëŁ¬ìļ´
ĠëĤĺíĥĢ ëĤľ
Ġë©ľ ë¡ł
ĠëĿĦ ìĸ´
ĠêµŃê°Ģ ìĹĲìĦľ
Ġìĸ´ë¥´ìĭł ëĵ¤ìĿ´
ĠëĵľëŁ¬ ëĪĦ
Ġë¶ĢëģĦ ëŁ¬
Ġìĺ¤ëŀĺëĲĲ ìĸ´
ĠìĻ¸íķłë¨¸ëĭĪ ê°Ģ
ĠìĺĪë°© ìłĳì¢ħ
ĠìĪĺìłľ ë¹Ħ
ĠìĹĲëĦĪ ì§Ģë¥¼
ĠëŁ°ëĭĿ ë§¨
ĠìķĪíĥĢê¹Į ìļ´
ĠëĪĦë£ ½ì§Ģ
ĠíĮĲíĥĢ ì§Ģ
ìĹĲ íľ´
ê±° ìŀĸìķĦ
ê±° ëĵ¤ëŀĳ
Ġíķĺ ê²łëĭ¤ëĬĶ
íķĺ ëį´
Ġê°Ģ ì¹´
ê·¸ ì¶ķ
ĠìłĢ ìļ¸
Ġì§Ģ ìĦ±
ìĭľ ëĤĺ
ĠíĸĪ ìĹĪìľ¼ëĭĪê¹Į
Ġìĭľ ë©´
Ġìŀĺ íĸĪëĭ¤ê³ł
ĠìĥĿ ë¬¼
Ġê²ĥ ìĿ´ì§Ģ
Ġëĵ¤ ìŀĸìķĦ
ìĿ¼ ë§Į
ĠìķĮ ìĸ´
ìĺ¤ ë¯Ħ
Ġì£¼ ìĭľëĬĶ
Ġê³ł ì¹ĺëĬĶ
Ġìĺģ íĹĪëĤľ
íĻĶ ëĬĶ
Ġìłľì£¼ ëĬĶ
ĠíĹĪ ë¦¬ìĹĲ
ĠíĹĪ ëĤĺëĦ¤
Ġìĺ¬ ëł¨
ìķĦëĭĪ ëĭ¤
Ġê³µ ê°ĦìĹĲ
ëħĦ ìĿĦ
ëķĮ ë§Į
ëĬĶê±° ëŀĳ
ë¹Ħ ìĿ¸
ĠìĹ´ ìĹĪëĬĶëį°
ìĨĮ ëĬĶ
Ġë°ĺ ë°Ķì§Ģ
ĠìķĦë¬´ ë§ĲëıĦ
Ġëķ ľ
ĠíĤ¤ ì¦Ī
ĠìĹ¬ìŀĲ ìĿĺ
Ġê°ĳ ëĭĪê¹Į
Ġë°± ìĭŃ
Ġê°Ĳ ê°ģìĿ´
ĠìŀĪìĹĪ ëĤĺë´Ĳ
Ġëĵľ ìĭľê³ł
ĠìĺĨ ìĿĺ
Ġì°į ì§Ģ
Ġì°į ìĿĢê±°
Ġíŀĺëĵ¤ ìĸ´ìļĶ
Ġë°ľ ìĸ¸
Ġê°ĢëĬĶ ê²ĥëıĦ
ĠìĻ¸ ê³½
ĠìĽĥ ê¸°ê³ł
ĠìĽĥ ê²¼ìĸ´
Ġëª¸ ìĤ´
ë°ķ ìĤ¬
ĠìķĦëĬĶ ëĶĶ
Ġê±ĶëĦ¤ ëĵ¤ëıĦ
ĠëĤ³ ì§Ģ
ĠíĸĪëįĺ ê²Į
Ġì²« ìĿ¸
ì£½ ìĿ´
ĠìĹĲìĿ´ ë¹Ħ
Ġê³łê¸° ë§Į
Ġë°Ķëĭ¤ ë¥¼
Ġì£¼ë³Ģ ìĿĺ
ìĿ´ìĸ´ ìĭłëĶĶ
Ġëĺ¥ ê¼¬
ĠìĥĿê²¼ ì§Ģ
ĠìŀĲìĭĿ ìĿĢ
Ġê³§ ê³ł
Ġê°ķìķĦì§Ģ ëĵ¤
Ġê³łëª¨ ëĬĶ
ĠìĿ´ë§Į ìłĢë§Į
ĠìĤ¼ì´Į ëĦ¤
Ġê³ĦëŀĢ ì°ľ
ĠìĨ¡ ê°ķ
Ġì§ĢëĤĺê°Ģ ëĬĶëį°
ĠìľłëŁ½ ìĿĢ
Ġë¬¶ ê³ł
ĠìŀĺìĥĿ ê¸°ê³ł
Ġìĵ°ëłĪê¸° íĨµ
ĠìĹ°ê²° íķ´
ĠìĬ¤íĨł ë¦¬ìĹĲ
Ġê´ĳê³ł ë¥¼
Ġë©Ī ì·Ħ
Ġê³¨ëª© ìĹĲ
Ġìķ¼ìĿ´ëĦ¤ ê°Ģ
ĠìĹĨìķł ê³ł
ĠíĦ°ì¡Į ìĿĦ
ĠìķĦì£¼ë²Ħ ëĭĺ
ĠëłĪìĬ¤íĨł ëŀĳ
ê³ł ì§Ģ
ê³ł ë¦¬
ëıĦ ìļ°
ìĸ´ ëł¤
Ġê±° ì¹ł
ëĿ¼ ëĤĺ
íķĺ ìĭ¤
ĠìķĪ ìª½ìľ¼ë¡ľ
ĠìĤ¬ ìĥĿíĻľ
ĠìĤ¬ ì¤¬ìĸ´
ìľ¼ ëĥĲ
íķ´ ìĤ¬
íķ´ ì¤ĺìķ¼
ìļĶ ìĥĮ
Ġìŀĺ ëı¼
Ġìŀĺ íķĺëĦ¤
Ġê²ĥ ê³¼
Ġì¹ ¡
Ġì¹ Ļ
Ġìłľ ëıĦ
ĠìķĬ ê²łì§Ģ
Ġì£¼ íĸī
ĠëĤĺëĬĶ ìļĶ
Ġëĵ¤ìĸ´ ë³´ëĤľ
ĠìļĶ ëł¹
Ġì¡° ê¸ī
ĠìĿ¸ ëĮĢ
ĠìĤ¼ ìķĦ
Ġìĭ¶ ìĹī
ĠìĦ¸ ê¸ĪìĿĦ
ìĭĿ êµ¬
ëĲĺ ëĦ¤
ëĲĺ ëĤľ
Ġê°Ħ ê²©
Ġìľł ë¶Ģ
ĠëıĮ ë©´ìĦľ
Ġê³ĦìĨį íķ´ìĦľ
ĠëĤĺìĺ¤ ì§ĢëıĦ
Ġíĸī ìĤ¬ë¥¼
Ġë³´ë©´ ìļĶ
Ġìŀ¥ ëŀĺ
ĠìĨĲ ëħĢ
Ġëķ Ķ
ìĻĶ ìĸ´ìļĶ
Ġìĸ´ëĸ¤ ì§Ģ
Ġìĭ¬ íĸĪìĸ´
Ġìĭ¸ ìļ°ë©´
Ġìĭ¸ êµ¬ëł¤
ê°ķ ìľ¼ëĦ¤
[...]
