{"!":0,"\"":1,"#":2,"$":3,"%":4,"&":5,"'":6,"(":7,")":8,"*":9,"+":10,",":11,"-":12,".":13,"/":14,"0":15,"1":16,"2":17,"3":18,"4":19,"5":20,"6":21,"7":22,"8":23,"9":24,":":25,";":26,"<":27,"=":28,">":29,"?":30,"@":31,"A":32,"B":33,"C":34,"D":35,"E":36,"F":37,"G":38,"H":39,"I":40,"J":41,"K":42,"L":43,"M":44,"N":45,"O":46,"P":47,"Q":48,"R":49,"S":50,"T":51,"U":52,"V":53,"W":54,"X":55,"Y":56,"Z":57,"[":58,"\\":59,"]":60,"^":61,"_":62,"`":63,"a":64,"b":65,"c":66,"d":67,"e":68,"f":69,"g":70,"h":71,"i":72,"j":73,"k":74,"l":75,"m":76,"n":77,"o":78,"p":79,"q":80,"r":81,"s":82,"t":83,"u":84,"v":85,"w":86,"x":87,"y":88,"z":89,"{":90,"|":91,"}":92,"~":93,"¡":94,"¢":95,"£":96,"¤":97,"¥":98,"¦":99,"§":100,"¨":101,"©":102,"ª":103,"«":104,"¬":105,"®":106,"¯":107,"°":108,"±":109,"²":110,"³":111,"´":112,"µ":113,"¶":114,"·":115,"¸":116,"¹":117,"º":118,"»":119,"¼":120,"½":121,"¾":122,"¿":123,"À":124,"Á":125,"Â":126,"Ã":127,"Ä":128,"Å":129,"Æ":130,"Ç":131,"È":132,"É":133,"Ê":134,"Ë":135,"Ì":136,"Í":137,"Î":138,"Ï":139,"Ð":140,"Ñ":141,"Ò":142,"Ó":143,"Ô":144,"Õ":145,"Ö":146,"×":147,"Ø":148,"Ù":149,"Ú":150,"Û":151,"Ü":152,"Ý":153,"Þ":154,"ß":155,"à":156,"á":157,"â":158,"ã":159,"ä":160,"å":161,"æ":162,"ç":163,"è":164,"é":165,"ê":166,"ë":167,"ì":168,"í":169,"î":170,"ï":171,"ð":172,"ñ":173,"ò":174,"ó":175,"ô":176,"õ":177,"ö":178,"÷":179,"ø":180,"ù":181,"ú":182,"û":183,"ü":184,"ý":185,"þ":186,"ÿ":187,"Ā":188,"ā":189,"Ă":190,"ă":191,"Ą":192,"ą":193,"Ć":194,"ć":195,"Ĉ":196,"ĉ":197,"Ċ":198,"ċ":199,"Č":200,"č":201,"Ď":202,"ď":203,"Đ":204,"đ":205,"Ē":206,"ē":207,"Ĕ":208,"ĕ":209,"Ė":210,"ė":211,"Ę":212,"ę":213,"Ě":214,"ě":215,"Ĝ":216,"ĝ":217,"Ğ":218,"ğ":219,"Ġ":220,"ġ":221,"Ģ":222,"ģ":223,"Ĥ":224,"ĥ":225,"Ħ":226,"ħ":227,"Ĩ":228,"ĩ":229,"Ī":230,"ī":231,"Ĭ":232,"ĭ":233,"Į":234,"į":235,"İ":236,"ı":237,"Ĳ":238,"ĳ":239,"Ĵ":240,"ĵ":241,"Ķ":242,"ķ":243,"ĸ":244,"Ĺ":245,"ĺ":246,"Ļ":247,"ļ":248,"Ľ":249,"ľ":250,"Ŀ":251,"ŀ":252,"Ł":253,"ł":254,"Ń":255,"Ġì":256,"Ġë":257,"Ġê":258,"ìĿ":259,"íķ":260,"·¸":261,"Ġê·¸":262,"ëĭ":263,"čĊ":264,"Ġìķ":265,"ëĬ":266,"ê³":267,"ê°":268,"ìĿ´":269,"Ġíķ":270,"ëĬĶ":271,"ê³ł":272,"ìķ":273,"ĠìĿ":274,"ì§":275,"ìĹ":276,"±°":277,"ĸ´":278,"ê°Ģ":279,"ê²":280,"Ġë§":281,"ĠìĿ´":282,"ĠëĤ":283,"ëı":284,"ìĦ":285,"Ġê·¸ë":286,"Ġí":287,"ëıĦ":288,"ëį":289,"ì§Ģ":290,"Ġê°":291,"Ġìŀ":292,"ëĭĪ":293,"ìĹĲ":294,"ìĦľ":295,"ê¸":296,"ëĤ":297,"ìĸ´":298,"ìķĦ":299,"ê²Į":300,"ĠìķĦ":301,"ëį°":302,"ë©":303,"ë¦":304,"ìł":305,"ê±°":306,"Ġíķĺ":307,"Ġê±°":308,"ë©´":309,"ëĵ":310,"ìŀ":311,"ê¸°":312,"ëĭ¤":313,"ĠëĤĺ":314,"ëŀ":315,"ë§":316,"ë¦¬":317,"ê¹":318,"ĠìĤ":319,"Ġëĭ":320,"ìĿĢ":321,"ëĿ":322,"ìĭ":323,"Ġìł":324,"Ġì§":325,"ĠìĹ":326,"ëĿ¼":327,"ê¹Į":328,"Ġìĺ":329,"íķĺ":330,"ëĤĺ":331,"ëł":332,"ìĿĦ":333,"ĠìŀĪ":334,"ë¡":335,"Ġê²":336,"Ġìĭ":337,"Ġê°Ģ":338,"ìļ":339,"ë¡ľ":340,"Ġìĸ´":341,"ĠìķĪ":342,"ëĵ¤":343,"ĠìĤ¬":344,"ìľ":345,"Ġëĭ¤":346,"ëĭĪê¹Į":347,"ë¥":348,"Ġë°":349,"ìķ¼":350,"Ġìļ":351,"Ġíķ´":352,"Ġëª":353,"Ġë§ī":354,"ĠëŃ":355,"³´":356,"Ġê·¸ëŁ":357,"ķĮ":358,"ê·¸":359,"êµ":360,"ìľ¼":361,"£¼":362,"Ġì¢":363,"ìĺ":364,"ëŁ":365,"ĩê²Į":366,"ëĦ":367,"ìłľ":368,"ĠëĦ":369,"Ġíķľ":370,"ĠëŃĲ":371,"íķ´":372,"ëĬĶëį°":373,"ë¬":374,"ĠëĲ":375,"·¼":376,"°ë¦¬":377,"Ġëı":378,"ĠìĻ":379,"Ġê³":380,"íķľ":381,"ë§Į":382,"·¼ëį°":383,"ĠìķĦëĭĪ":384,"Ġë¨":385,"ĠëĤ´":386,"ëĦ¤":387,"ĮĢ":388,"ë°":389,"ĥĿ":390,"Ġìĸ":391,"ĸĪ":392,"ëĶ":393,"ĠëĦĪ":394,"Īĺ":395,"Ġë³´":396,"Ġìļ°ë¦¬":397,"ì£¼":398,"ë¥¼":399,"ĠëķĮ":400,"Ġê±":401,"ì§ľ":402,"ìŀĲ":403,"ìĤ":404,"ëŀĮ":405,"Ġë¨¹":406,"¶Ģ":407,"ìĬ":408,"Ħì§ľ":409,"ĠìĿ´ìłľ":410,"ĠìĦ":411,"Ġë§Ĳ":412,"ĥ¥":413,"Ġê°Ļ":414,"ŀĺ":415,"Ġìĺ¤":416,"ëĶĶ":417,"ìĹĪ":418,"ì§Ģê³ł":419,"ĠìĿ¼":420,"Ġê·¸ëŁ°":421,"Ġì§Ħì§ľ":422,"ĠìĤ¬ëŀĮ":423,"ìļĶ":424,"Ġë¬":425,"ë§Ī":426,"ëłĩê²Į":427,"ë²":428,"ĠëĲĺ":429,"Ġê·¼ëį°":430,"ìĽ":431,"ê°Ħ":432,"ë¬´":433,"Ġëĵ":434,"Ġê·¸ëĥ¥":435,"ĠìłĢ":436,"na":437,"nam":438,"name":439,"ëĤľ":440,"Ġê·¸ëŀĺ":441,"ìĿ¸":442,"Ġì§Ģ":443,"ĠìĿ´ëłĩê²Į":444,"ìĭľ":445,"ĸìķĦ":446,"ìŀĸìķĦ":447,"ëĵł":448,"êµ¬":449,"ëŀĺ":450,"Ġì¢ĭ":451,"ê¸Ī":452,"ĠíĸĪ":453,"ëł¤":454,"ê±":455,"Ġìĭľ":456,"Ġê·¸ê±°":457,"ĠìĹĨ":458,"Ġë§İ":459,"ëŀĳ":460,"ìĤ¬":461,"ìĹĲìĦľ":462,"Ġëĺ":463,"Ġë¹":464,"ĠìŀĲ":465,"Ġìŀĺ":466,"Ġê·¸ëł":467,"ĠìĥĿ":468,"ì²":469,"Ġì¢Ģ":470,"Ġëį":471,"ì¹":472,"ë¶Ģ":473,"Ġì¤":474,"ëĥ":475,"ĠëĤ´ê°Ģ":476,"Ġë²":477,"ĠìĹ¬":478,"ëĮĢ":479,"Ġê²ĥ":480,"Ġê¸":481,"ĠìĽ":482,"ĠìĪĺ":483,"Ġëĵ¤":484,"ìĿ¼":485,"Ġê²Į":486,"ë¹":487,"Ġì¹":488,"Ġì°":489,"ìĭł":490,"ëĿ¼ê³ł":491,"ëŁ¬":492,"ë³´":493,"ĥģ":494,"ìĿĮ":495,"ëŁ°":496,"Ġëª»":497,"ĠëĺĲ":498,"ëĥĲ":499,"ë¯":500,"Ġ#":501,"ìĻ":502,"Ġê·¸ëłĩê²Į":503,"Ġíķł":504,"ìĬ¤":505,"Ġê·¸ëŁ¬":506,"ĠëĶ":507,"ìľ¼ë¡ľ":508,"ĠìĨ":509,"Ġìłľ":510,"ĠìķĮ":511,"ëĭ¤ê³ł":512,"ìĸ":513,"ì¤":514,"Ġìĸ´ë":515,"Ġname":516,"ê°ģ":517,"ê°Ģì§Ģê³ł":518,"ê±°ëĵł":519,"ìłĦ":520,"ìŀ¥":521,"íħ":522,"Ġë§Į":523,"Ġêµ":524,"ëħ":525,"Ġê±°ê¸°":526,"ìĿĺ":527,"íķĺê³ł":528,"Ġíķĺë©´":529,"ê²ł":530,"Ġê·¸ëŀĺìĦľ":531,"ìĺ¤":532,"ìĨ":533,"Ġìľ":534,"ĠìĥĿê°ģ":535,"ëĤł":536,"ì°":537,"íĻ":538,"¸ëĭĪ":539,"ĠëĦĪë¬´":540,"ëª":541,"ëĵ¤ìĿ´":542,"ĠìĤ´":543,"ĠíķĺëĬĶ":544,"íŀ":545,"Ġë¬´":546,"Ġë´":547,"ìĪĺ":548,"Ġìķ½":549,"ĠëĤľ":550,"ë¥´":551,"Ġë³":552,"íħĮ":553,"íŀĪ":554,"ĠìķĬ":555,"Ġì£¼":556,"¡°":557,"Ġëª¨":558,"ĠìķĦìĿ´":559,"Ġê³ł":560,"ĠìĿ´ê±°":561,"ĹĪ":562,"ĠëĤĺëĬĶ":563,"Ġë§ŀ":564,"Ġì§ĳ":565,"ë²Ī":566,"ĠìĹĦ":567,"ëįĺ":568,"ĸī":569,"Ġìĸ´ëĸ":570,"ìĹ¬":571,"Ġê¸°":572,"ìĽĲ":573,"ĠëĨ":574,"Ġë¶":575,"Ġíĺ":576,"Ġë§İìĿ´":577,"Ġìĸĺ":578,"Ġë§Ī":579,"ìľ¼ë©´":580,"íĬ":581,"ĠëĮĢ":582,"ìĺĪ":583,"Ġì²":584,"ê±´":585,"Ġì§Ģê¸Ī":586,"Ġíķĺê³ł":587,"Ġìķł":588,"ëįĶ":589,"íķľíħĮ":590,"ĠìłĦ":591,"Ġìķ½ê°Ħ":592,"ë³":593,"ĠìĽĲ":594,"íĺ":595,"íķĺëĬĶ":596,"Ġëĵ¤ìĸ´":597,"ĳĲ":598,"ìĥĿ":599,"Ġëħ":600,"Ġë°Ķ":601,"ĠìĿ´ëŁ°":602,"ĠëĪ":603,"Ġê±´":604,"Ġìłķ":605,"ĠìĻľ":606,"ìķĺ":607,"ìĥģ":608,"ê²ĥ":609,"íĸĪ":610,"Ġê·¸ëķĮ":611,"Ġíķ´ìĦľ":612,"Ġìĺģ":613,"íĶ":614,"ĠìļĶ":615,"ëĲ":616,"íķĻ":617,"ëĭĺ":618,"ìĭŃ":619,"ë´":620,"êµĲ":621,"ìļ°":622,"ĠíĮ":623,"ëĭ¤ê°Ģ":624,"ĠëįĶ":625,"Ħ°":626,"Ġê±¸":627,"ì¹ĺ":628,"ĠìŀĪìĸ´":629,"ìĶ":630,"ëĤ´":631,"ë¨":632,"íķĺë©´":633,"ê¸´":634,"Ġì¡°":635,"ĦìłĦ":636,"ĠìĺĪ":637,"ĠíĻ":638,"ĥĢ":639,"Ġê°Ķ":640,"ìŀĪ":641,"ĠìĿ¸":642,"Ġë¶Ģ":643,"ì¦":644,"Ġê°Ģì§Ģê³ł":645,"Ġê°ĻìĿĢ":646,"Ġì¢ĭìķĦ":647,"ë¶":648,"ĠìŀĪëĬĶ":649,"ê±¸":650,"íķł":651,"íĻĶ":652,"ë²Ħ":653,"ëĵľ":654,"ĠíķĻ":655,"ĠëĤ¨":656,"ĠìĤ¼":657,"Ġìĭ¶":658,"Ġëı¼":659,"íĦ°":660,"ĠìĻĦìłĦ":661,"ĠíķĺëĤĺ":662,"Ġë²Ī":663,"Ġìķ¼":664,"ë¹ł":665,"Ġëģ":666,"Ġë¹Ħ":667,"ĥĪ":668,"íĸī":669,"ê·¼ëį°":670,"ìłĢ":671,"Ġì¤ĳ":672,"íĬ¸":673,"ì§Ħ":674,"ìł¸":675,"Ġê°ľ":676,"ĠëıĻ":677,"ìĭłëĶĶ":678,"ë£":679,"ìķĪ":680,"ĠëĶ±":681,"Ġìĸĺê¸°":682,"ĠëıĪ":683,"Ķê°Ģ":684,"ìłķ":685,"Ġì¹ľ":686,"Ġìłľì£¼":687,"ĠìĬ":688,"ĠíĹĪ":689,"êµŃ":690,"íĮ":691,"ĠëĤĺëıĦ":692,"ìĻĢ":693,"Ġê¹":694,"Ġìĺ¬":695,"ĠìĻĢ":696,"ĠìĹ¬ê¸°":697,"ê¹Įì§Ģ":698,"ìķĦëĭĪ":699,"Ġë¬¼":700,"Ġìĵ":701,"ëıĻ":702,"ëģ":703,"ì§ģ":704,"ë¬¸":705,"ë¥¸":706,"Ġê³Ħ":707,"ëĭ¨":708,"íķ´ìĦľ":709,"Ġê´":710,"íģ":711,"Ġë°Ľ":712,"ĠìŀĲê¸°":713,"Ġê·¸ëŁ¬ëĭĪê¹Į":714,"Ġê·¸ê²Į":715,"ĠëĬ":716,"ĠìĦ¸":717,"ĠíķĺëĭĪê¹Į":718,"Ġê±°ìķ¼":719,"ìĽĮ":720,"ĠìĦľ":721,"ĠëĳĲ":722,"Ġê³µ":723,"ì²Ń":724,"Ġë¯":725,"ëħĦ":726,"ìĭĿ":727,"Ġëį°":728,"Ġë§Ľ":729,"ê¹Ĳ":730,"Ġíģ":731,"ĠìĹĦë§Ī":732,"ìķł":733,"ìĭ¤":734,"ĠìĨĮ":735,"ëķĮ":736,"Ġê²½":737,"ìĿĮìĹĲ":738,"xx":739,"Ġìĸ´ëĶĶ":740,"Ġë´Ĳ":741,"ì¶":742,"Ġê²ĥëıĦ":743,"Ġìĸ¸ëĭĪ":744,"ë©į":745,"Ġì°¨":746,"ë°©":747,"Ġë©":748,"ìĨį":749,"Ġê·¸ëŁ°ëį°":750,"ëĬĶê±°":751,"Ġìĭł":752,"ë¯¸":753,"ë©´ìĦľ":754,"ë¹Ħ":755,"ëĭ¹":756,"ĠìĬ¤":757,"Ġëĭ®":758,"ë§Ĳ":759,"Ġì¶":760,"ĠëĪĦ":761,"ë¬¼":762,"ĽëĤł":763,"ìĺģ":764,"ëĵ¤ìĿĢ":765,"Ġë§ŀìķĦ":766,"ëĲĺ":767,"»ê²Į":768,"ĠìĪ":769,"ë¦Ħ":770,"ļĮ":771,"Ġíķ´ìķ¼":772,"¦¬":773,"ĠìĦł":774,"Ġëª¨ë¥´":775,"Ĥ¤":776,"ìļ¸":777,"ê·¸ëŀĺ":778,"ìĹĲëĬĶ":779,"ìĹĪìĸ´":780,"ëĭĪê¹Ĳ":781,"ìľ¼ëĭĪê¹Į":782,"Ġìĸ´ëĸ»ê²Į":783,"ĠčĊ":784,"Ġê°Ī":785,"ëĮ":786,"ìĬ¨":787,"ì§ĳ":788,"Ġê°ĻìķĦ":789,"ª½":790,"Ġìĸ¼":791,"íĨ":792,"ìļ´":793,"Ġë¨¹ìĸ´":794,"ë©´ìĿĢ":795,"ĠìĤ¬ëŀĮìĿ´":796,"ì¼":797,"Ġë°°":798,"ìłģ":799,"ĠíĶ":800,"Ġê·¸ëĭĪê¹Į":801,"ëł¤ê³ł":802,"ĠìŀĪìŀĸìķĦ":803,"ĠìĹ´":804,"Ġì¹ľêµ¬":805,"ì¤ĳ":806,"Ġìĥģ":807,"Ġëĭ¬":808,"Ġìŀħ":809,"íķĺê²Į":810,"Ġë¯¸":811,"ê²ĥëıĦ":812,"Ġì½":813,"ĠìĺĽëĤł":814,"Ġìĵ°":815,"ĠìĹ°":816,"Ġìłľì£¼ëıĦ":817,"Ħë¡ľ":818,"ĠìłĢê¸°":819,"ì¡":820,"ë´Ĳ":821,"ìĭ¬":822,"Ġê°ĢìĦľ":823,"ë¦°":824,"Ġì¤Ħ":825,"ìĸĳ":826,"Ġëªĩ":827,"íı":828,"Ġë¬´ìĬ¨":829,"ĠìĹĨìĸ´":830,"Ġê°Ħ":831,"ìĨĮ":832,"Ġê°ĻìĿ´":833,"ĠìĭŃ":834,"Ġìŀ¬":835,"ë¯Ħ":836,"Ġê²ħ":837,"ëŀľ":838,"Ġìĭľê°Ħ":839,"Ġíķĺë©´ìĦľ":840,"ĠìĹĦì²Ń":841,"ëĮĦ":842,"ĠëħĦ":843,"Ġëª°":844,"Ġìľł":845,"Ġêµ¬":846,"Ġê·¸ë¦¬":847,"ĠëıĮ":848,"ë¶ĢíĦ°":849,"Ġëªħ":850,"ĠëĤł":851,"Ġì´":852,"ê²½":853,"ë°Ķ":854,"ì¦ĺ":855,"ĠìķĮìķĦ":856,"Ġê³ĦìĨį":857,"ĠìŀĪê³ł":858,"Ġì²ĺ":859,"İ¸":860,"Ġë¨¹ê³ł":861,"ìĦ¸":862,"Ġì¡°ê¸Ī":863,"ë¶Ħ":864,"íĹ":865,"íĹĪ":866,"ĠëŃĶê°Ģ":867,"ĠëıĦ":868,"ë¯¼":869,"ĠìĿ´ê²Į":870,"ĠëĲľ":871,"ëª¨":872,"Ġë¶Ħ":873,"ìłł":874,"ê´":875,"ĠíĸĪëĬĶëį°":876,"ëįĶëĿ¼":877,"Ġë´¤":878,"ëĨ":879,"Ġê·¸ë¦¬ê³ł":880,"ĠëĲł":881,"ìĿ´ëĿ¼":882,"Ġì¢ĭìĿĢ":883,"ì§Ģë§Į":884,"ĠëĤĺìĺ¤":885,"íģ¬":886,"Ġë°ĺ":887,"ê³¼":888,"Ġê±Ķ":889,"Ġë¶Ī":890,"ê·¸ëŁ°":891,"ìķ½":892,"íķĻêµĲ":893,"ĠëĬĲ":894,"ìĹħ":895,"Ġë²Ħ":896,"Ġíı":897,"ìĿ´ëŀĳ":898,"ì§Ī":899,"£½":900,"ĠìķĦë¬´":901,"ëįĶëĿ¼ê³ł":902,"ìĹ°":903,"Ġíķľë²Ī":904,"ĠëĶ°":905,"ë¨¹":906,"ëŁ¼":907,"ĠëĤĺê°Ģ":908,"ëĦĪ":909,"ìļ°ë¦¬":910,"Ġëĸ":911,"Ġëĭ¤ë¥¸":912,"ĠìĻĶ":913,"Ġìį":914,"ĠìļĶì¦ĺ":915,"Ġê°ķ":916,"Ġëħ¸":917,"ëĬĺ":918,"ĠìĽĲëŀĺ":919,"ìĹĪëĬĶëį°":920,"ĠíĮĶ":921,"Ġìľ¡":922,"Ġë§¨":923,"ëłĪ":924,"ë¦¬ê³ł":925,"ë£¨":926,"ì²ľ":927,"ìĿ´ê³ł":928,"ìĤ°":929,"ĠëĲĺê²Į":930,"ĠìĤ¬ëŀĮëĵ¤":931,"ë²ĪìĹĲ":932,"ìŀĲê¸°":933,"Ġíĸī":934,"Ġê·¸ëŁ¼":935,"ìĸ´ìĦľ":936,"ë§ī":937,"êµ¬ëĤĺ":938,"ëĭ¤ëĬĶ":939,"ìĺĢ":940,"ĠíĨ":941,"an":942,"co":943,"com":944,"any":945,"pany":946,"company":947,"Ġë°¥":948,"Ġê·¸ëŁ¬ë©´":949,"ìĸ¸":950,"ĠëģĿ":951,"ìľł":952,"ĠíĥĢ":953,"Ġë³´ë©´":954,"Ġìŀ¥":955,"ì°¨":956,"º¼":957,"Ġíŀĺ":958,"ĠëĨĢ":959,"ĠìĿĳ":960,"íĥĢ":961,"Ġë¬¸":962,"Ġê·¸ê±¸":963,"ĸìĹĲ":964,"Ġì½Ķ":965,"ëªħ":966,"ê·¸ëŀĺìĦľ":967,"ĠìĦ±":968,"Ġë°©":969,"ĠëĪĪ":970,"Ġê²°":971,"ë³¸":972,"Ġì±":973,"Ġëĭ¹":974,"ìĪ":975,"ì²ĺ":976,"·Ģ":977,"ëŃ":978,"ĭ°":979,"Ġíģ°":980,"ĠìłķëıĦ":981,"Ġê·¸ëŀĺëıĦ":982,"ĠêµĲ":983,"ì§ĢëĬĶ":984,"ĠìķĦëĭĪê³ł":985,"Ġëĭ®ìķĦ":986,"ë¬¸ìĹĲ":987,"íĶ¼":988,"ìĿ¸ëį°":989,"ìĦ±":990,"ìĹĶ":991,"ĥī":992,"ê°ľ":993,"íļĮ":994,"Ġìļ°":995,"ëĳĲ":996,"Ġì¹ĺ":997,"ĠíķĺëĬĶëį°":998,"ĠìĨĲ":999,"ìħ":1000,"ëĭĮ":1001,"Ī¬":1002,"Ġë¹¨":1003,"ĠìķĦìĿ´ê³ł":1004,"ëĵ±":1005,"ĠìĹĲ":1006,"ĠìĿĮ":1007,"ëĬĲ":1008,"Ġìłģ":1009,"ìĶ¨":1010,"ê²łëĭ¤":1011,"Ġëķ":1012,"ìĸµ":1013,"Ġì»":1014,"Ġëĭ¤ìĿĮìĹĲ":1015,"ìĥĪ":1016,"Ġíĺ¼":1017,"Ġì£½":1018,"ĠìĭĿ":1019,"ìĶ©":1020,"Ġê±°ì§Ģ":1021,"ì¢":1022,"Ġë§¨ëĤł":1023,"ê»":1024,"ĠíĹ":1025,"ĠíĶ¼":1026,"ĠíĻĶ":1027,"Ġìĸ¼ë§Ī":1028,"ëĿ½":1029,"ë¨¸ëĭĪ":1030,"ìĿ´ê°Ģ":1031,"ì¡°":1032,"ĠëĲĺëĬĶ":1033,"Ġ&":1034,"ĠìľĦ":1035,"ê²¨":1036,"íĥ":1037,"ìĻĶ":1038,"ĠëĤ¨ìŀĲ":1039,"ìģ":1040,"íĹĺ":1041,"ĠíĤ¤":1042,"ĠíķĻêµĲ":1043,"ĠìĹ¬ìŀĲ":1044,"íĺ¼":1045,"íĶĦ":1046,"ëĤĺëĬĶ":1047,"Ġê±°ìĿĺ":1048,"ìķĦìĦľ":1049,"ìĿ¸ê°Ģ":1050,"Ġìĸ´ì":1051,"ĠìķĦë¹ł":1052,"Ġìļ°ë¦¬ê°Ģ":1053,"ĳĺ":1054,"ìĦł":1055,"Ġê¼":1056,"ê³Ħ":1057,"ĠëķĮë¬¸ìĹĲ":1058,"ĠìĥĪ":1059,"Ġìļ´":1060,"Ġìŀ¡":1061,"ì°®":1062,"ëł¸":1063,"ĠìłľìĿ¼":1064,"ëĭĪëĭ¤":1065,"companyname":1066,"ê°Ļ":1067,"Ġì´Ī":1068,"Ġì§ĳìĹĲ":1069,"Ġìĺ¤ë¹ł":1070,"ĠëķĮëĬĶ":1071,"ĠìĻľëĥĲ":1072,"ì§ĢëıĦ":1073,"Ġë³´ê³ł":1074,"ìłĲ":1075,"ëģ¼":1076,"Ġê°ĳ":1077,"Ġë§ĽìŀĪ":1078,"ìª½":1079,"ìŀĳ":1080,"Ġíķ´ëıĦ":1081,"Ġê´ľ":1082,"Ġë°±":1083,"Ġë§ĲìĿ´":1084,"ĠìŀĪëĬĶëį°":1085,"Ġìĸ´ëĸ¤":1086,"ìļ©":1087,"Ġëĵ¤ìĸ´ê°Ģ":1088,"Ġê°Ĳ":1089,"ë°±":1090,"ĠìŀĪìĹĪ":1091,"Ġíķĺì§Ģ":1092,"ĠìĤ¬ëŀĮëĵ¤ìĿ´":1093,"ê´Ģ":1094,"Ġìĭ¬":1095,"Ġìŀĳ":1096,"Ġìĺ¤ëĬĺ":1097,"¸ë¦¬":1098,"Ġì¡":1099,"³Ĳ":1100,"ê·¸ëŁ¬":1101,"ë¶ĢëĤľ":1102,"ìĺ¨":1103,"ì´":1104,"ê¸°ëıĦ":1105,"Ġëª°ëĿ¼":1106,"Ġíĥ":1107,"Ġëĭ¤ëĭĪ":1108,"ìĬµ":1109,"ĠíĸĪìĸ´":1110,"Ġë§Įëĵ¤":1111,"ĠìĨĶ":1112,"ì¤ĳìĹĲ":1113,"ê²©":1114,"ĠìŀĪëĦ¤":1115,"íĮĮ":1116,"ĠìķĦëĭĮ":1117,"ĠíĽ":1118,"Ġìĭ¸":1119,"Ġìĸ¸":1120,"Ġíĺ¸":1121,"ê°ķ":1122,"Ġìĭ«":1123,"ì²´":1124,"íĬ¼":1125,"Ġìķŀ":1126,"ëĭ¬":1127,"ëĥ¥":1128,"ìĿ´ëĤĺ":1129,"Ġê°Ļìķł":1130,"Ġê´Ģ":1131,"Ġë§¤":1132,"ê·¼":1133,"ĠìĦłìĥĿ":1134,"Ġê±°ê¸°ìĦľ":1135,"íĨµ":1136,"Ġë³´ëĭĪê¹Į":1137,"ĠíĬ":1138,"íķĺì§Ģ":1139,"Ġê°ĳìŀĲê¸°":1140,"ĠìĽĶ":1141,"Ġëĳĺ":1142,"ë¦´":1143,"ĠëŃĲëĥĲ":1144,"ì§ģíŀĪ":1145,"Ġíķ´ê°Ģì§Ģê³ł":1146,"¾¸":1147,"Ġìķłëĵ¤":1148,"Ġì¹´":1149,"Ġìĸĳ":1150,"Ġê°Ģê³ł":1151,"ĠìķĦëĭĪìķ¼":1152,"Ġcompanyname":1153,"ëŀĢ":1154,"ë³´ëĭ¤":1155,"Ġíİ¸":1156,"Ġìĺ¨":1157,"ĠìĤ°":1158,"ĠìĿ´ëŁ¬":1159,"ĠëĦĪëĦ¤":1160,"Ġëĵľ":1161,"ĠíĮĮ":1162,"ë´¤":1163,"Ġíķ¸":1164,"Ġê³¼":1165,"Ġê°Ķëĭ¤":1166,"Ġìĺ¬ëĿ¼":1167,"ê·¸ëŁ°ëį°":1168,"ìŀĦ":1169,"ëŃĲ":1170,"ìĦ¯":1171,"ĠëĬĲëĤ":1172,"Ġë³¸":1173,"Ġìĸ´ë¨":1174,"Ġê¸°ìĸµ":1175,"ĠìķĦëĭĪëĿ¼":1176,"Ġë¨¹ìĿĦ":1177,"Ġíĺ¼ìŀĲ":1178,"ĠìĺĨ":1179,"êº¼":1180,"ĠìķĬìķĦ":1181,"Ġê³µë¶Ģ":1182,"ì¤ĺ":1183,"ĠìŀĪìĿĦ":1184,"ì¼ľ":1185,"Ġê±°ëĿ¼":1186,"ĠëĴ":1187,"ê±°ìķ¼":1188,"Ġê·¸ëłĩ":1189,"ĠíĻķ":1190,"ê°Ī":1191,"ì¶Ķ":1192,"ĠëĦ¤":1193,"Ġê°Ģë©´":1194,"ë¸":1195,"ë¡ľëĤĺ":1196,"Ġëĭ¨":1197,"ĠëĿ":1198,"Ġê´ľì°®":1199,"·¨":1200,"ì¹´":1201,"íĪ¬":1202,"ĠìĪł":1203,"ë¶Ī":1204,"Ġxx":1205,"ìĽĶ":1206,"Ġì°į":1207,"Ġìī":1208,"ë³´ê³ł":1209,"ì½":1210,"ĠëĨĵ":1211,"ëĭĺìĿ´":1212,"ê°Ķ":1213,"ĠëıĮìķĦ":1214,"ĠìĨĶì§ģíŀĪ":1215,"ĠíĿ":1216,"ê²łìĸ´":1217,"ìķĺìĸ´":1218,"Ġìŀł":1219,"ĠìĶ":1220,"ì¤Ħ":1221,"ĠëĦĺ":1222,"Ġíŀĺëĵ¤":1223,"ĠëĲĲ":1224,"ì²ĺëŁ¼":1225,"Ġë°ľ":1226,"Ġì°¸":1227,"Ġìª½":1228,"Ġë¨¹ëĬĶ":1229,"ìľ¡":1230,"ĠëĤĺíķľíħĮ":1231,"Ġíģ¬":1232,"ë°°":1233,"íĤ¤":1234,"Ġê·¸ê±´":1235,"ĠëĬĲëĤĮ":1236,"ëģĶ":1237,"ĠìłĲ":1238,"Ġê·¸ê²ĥëıĦ":1239,"Ġë²Į":1240,"Ġê°ĢëĬĶ":1241,"ĠìłĦíĻĶ":1242,"ì£¼ê²Į":1243,"ë°ĺ":1244,"Ġìķłê¸°":1245,"íĭ°":1246,"ê²ħ":1247,"Ġê·¸ëŀ":1248,"ê·¸ëĥ¥":1249,"ĠìĪĺëıĦ":1250,"ĠìĻ¸":1251,"ĠìĿ¼ëĭ¨":1252,"ì¹¨":1253,"Ġì²ĺìĿĮ":1254,"íĺ¸":1255,"ë°ľ":1256,"Ġìĸ´ë¨¸ëĭĪ":1257,"Ġì¶Ķ":1258,"ĠíķĦ":1259,"Ġì«":1260,"ë§¤":1261,"ìķ¼ì§Ģ":1262,"ĠëĤĺìĻĢ":1263,"ĠìķĦê¹Į":1264,"Ġëĭ¤ìĭľ":1265,"ìĤ´":1266,"íķĺëĭĪê¹Į":1267,"ëł¥":1268,"ĠìĿ´ìłł":1269,"Ġì½Ķë¡ľëĤĺ":1270,"Ġë³Ħë¡ľ":1271,"ì¤Ģ":1272,"Ġìĭ¤":1273,"ë§Ŀ":1274,"ĠíļĮ":1275,"Ġê²°íĺ¼":1276,"ë¦¬ëĬĶ":1277,"ê³µ":1278,"ì¹ľ":1279,"Ġìį¨":1280,"ê¸°ëĬĶ":1281,"Ġë¹¨ë¦¬":1282,"ìĹĲëıĦ":1283,"ëĤ¬":1284,"Ġë°Ķë¡ľ":1285,"ìĿ´ëĬĶ":1286,"ĠìĿ´ìĥģ":1287,"ëı¼":1288,"ĠìĤ´ìķĦ":1289,"ëĺ":1290,"ĠëĦ£":1291,"Ġëª©":1292,"ìĿĳ":1293,"íı¬":1294,"Ġë³ĳ":1295,"Ġëĭ´":1296,"íĴ":1297,"íķ´ëıĦ":1298,"ĠìĿĺ":1299,"Ġë§ĮëĤĺ":1300,"Ġìĸ´ëĸµ":1301,"Ġê±°ëĬĶ":1302,"Ġë³¼":1303,"ìľĦ":1304,"Ġë¨¸ë¦¬":1305,"ëĵ±íķĻêµĲ":1306,"Ġì°¾":1307,"ëĸ":1308,"Ġê¸¸":1309,"ëĪ":1310,"ĠëĤĺì¤ĳìĹĲ":1311,"Ġê·¸ëŀ¬":1312,"ĠìĹĨëĬĶ":1313,"ĠìķĦì§ģ":1314,"ĠëĲĺê³ł":1315,"ë²Ħì§Ģ":1316,"ê¾¸":1317,"Ġíĺķ":1318,"Ġë§İìķĦ":1319,"ë¦¬ê°Ģ":1320,"ëĵ¤ëıĦ":1321,"ĳľ":1322,"ëĦ¹":1323,"ĠëĤ´ëł¤":1324,"¨ìĸ´":1325,"ëįĺëį°":1326,"Ġë§Ĳê³ł":1327,"Ġë¹ł":1328,"Ġë¬¼ìĸ´":1329,"ìĿ´ìłľ":1330,"Ġìĭ¶ìĿĢ":1331,"ĠëĿ¼":1332,"Ġíķłë¨¸ëĭĪ":1333,"ê°Ĳ":1334,"Ġë°ĸìĹĲ":1335,"ê·¸ê±°":1336,"Ġëĭ¤ìĿĮ":1337,"ĠìĿ´ìĭŃ":1338,"ìķĻ":1339,"ì¡Į":1340,"ĠëĪĦêµ¬":1341,"ê¸°ê°Ģ":1342,"ĠìĽĥ":1343,"Ġê°ĻìĿĢëį°":1344,"Ġëª¸":1345,"Ġìļ°ë¦¬ëĬĶ":1346,"ĠìłĦìĹĲ":1347,"ĠìŀĪì§Ģ":1348,"ì£¼ê³ł":1349,"ĠìĹ¬íĸī":1350,"Ġì§ģ":1351,"ìĿ´ëĿ¼ê³ł":1352,"ĠëĶ¸":1353,"ë§ŀ":1354,"ĠìŀĪìľ¼ë©´":1355,"Ġì»¤":1356,"ĠìĻĢìĦľ":1357,"ĠëĴ¤":1358,"ëĥĲê³ł":1359,"ĠìĦľìļ¸":1360,"Ġìļ´ëıĻ":1361,"ì¦Ŀ":1362,"íİ¸":1363,"ĠìłĪ":1364,"Ġì¤Ģ":1365,"ĠnameìĿ´":1366,"ëĤ´ê°Ģ":1367,"ĠêµŃ":1368,"íİ":1369,"ĠìķĦëĭĪë©´":1370,"ìłģìľ¼ë¡ľ":1371,"ê¸¸":1372,"ĠëŃĶ":1373,"Ġê·Ģ":1374,"ĠëĦĪê°Ģ":1375,"ë°ķ":1376,"ĠíĴ":1377,"Ġê°ĸ":1378,"Ġëĺĳ":1379,"ëĲľ":1380,"êµ´":1381,"ĠìĺĽëĤłìĹĲ":1382,"Ġìķī":1383,"Ġìĺ·":1384,"ĠíķĻëħĦ":1385,"Ġíĸ":1386,"Ġë§ĪìĿĮ":1387,"íķ´ìķ¼":1388,"ì§Ħì§ľ":1389,"ê°Ģì§Ģ":1390,"ì³Ĳ":1391,"ì§Ŀ":1392,"ĠìĿ´ìĦľ":1393,"Ġì·¨":1394,"Ġì¹ł":1395,"ìĿ´ìķ¼":1396,"Ġì²ľ":1397,"ĭĢ":1398,"Ġê¹Ģ":1399,"ĠìĹĨê³ł":1400,"ìĪĺëĭ¤":1401,"ëħĢ":1402,"µľ":1403,"¨Į":1404,"Ġê±į":1405,"ë³µ":1406,"Ġë³´ëĤ´":1407,"Ġë¶Ļ":1408,"íĸĪìĸ´":1409,"Ġì¤ĺ":1410,"ìĺ¬":1411,"ìģĺ":1412,"ĠíĨµ":1413,"ê¼":1414,"ê·¸ëĦ¹":1415,"ĠìĤ¬ì§Ħ":1416,"ĠëĨĶ":1417,"ê±°ëĤĺ":1418,"ĠìķĦìĺĪ":1419,"ëĿ¼ëıĦ":1420,"ìĦ¸ìļĶ":1421,"ĠëĲĺëĬĶëį°":1422,"ëĨĵ":1423,"ìĥī":1424,"ëĮĢë¡ľ":1425,"ë£Į":1426,"ìłĪ":1427,"¨Įëĵł":1428,"ĠíĽĦ":1429,"íı°":1430,"Ġìĺ¤ëŀĺ":1431,"ĠìĮ":1432,"ê±°ëĿ¼":1433,"ê²ĮëĤľ":1434,"ê²łì§Ģ":1435,"ĠìĿ´ë²ĪìĹĲ":1436,"Ġê°Ģìł¸":1437,"Ġê³¨":1438,"Ġìłķë§Ĳ":1439,"Ġê¼Ń":1440,"ĢìĿ´":1441,"ê·¸ëĦ¤":1442,"ìĹĨ":1443,"Ġìĭľìŀĳ":1444,"ë¸Į":1445,"Ġê¹Į":1446,"íĿ":1447,"ĠìĨį":1448,"ĠìķĮë°Ķ":1449,"ĠìķĪëĲĺ":1450,"ìĿ´ëĦ¤":1451,"ĠëķĮëıĦ":1452,"Ġëĵ£":1453,"ìĹĪê±°ëĵł":1454,"Ġìµľ":1455,"ĠëĤĺìĻĶ":1456,"ê·Ģ":1457,"ĠìĦłìĥĿëĭĺ":1458,"ĠëģĿëĤĺ":1459,"ĠëĤĺìĿ´":1460,"ë§Īëĭ¤":1461,"ìĹī":1462,"ĠìŀĲê¸°ê°Ģ":1463,"ĠíķŃ":1464,"ìķĦìĿ´":1465,"Ġëľ":1466,"ìľ¼ëĦ¤":1467,"ĠìķĦì¹¨":1468,"ê·¸ë¦¬ê³ł":1469,"ì¡±":1470,"Ġì±ħ":1471,"Ġìĭ¶ìĸ´":1472,"ë°ĸìĹĲ":1473,"ĠëŃĲì§Ģ":1474,"Ġì§ľ":1475,"Ġíķĺë£¨":1476,"Ġë¹Ħìĭ":1477,"ìį":1478,"ĠìĤ¬ëĬĶ":1479,"ìĹŃ":1480,"ĠìĦ¤":1481,"Ġë§ĲìĿĦ":1482,"Ġë°ĽìķĦ":1483,"Ġê·¸ê²ĥ":1484,"ëŀĲ":1485,"Ġìŀ¬ë¯¸":1486,"Ġíı¬":1487,"ĠìĿ´ë¦Ħ":1488,"Ġë¹¼":1489,"ĠìĤ¬ëŀĮìĿĢ":1490,"íķ¸":1491,"ìĪł":1492,"Ġë§Įìķ½":1493,"ĠìĿĮìĭĿ":1494,"Ġì§ĳìĹĲìĦľ":1495,"Ġê½":1496,"ê¸ī":1497,"Ġë¨¹ìľ¼":1498,"íĺķ":1499,"Ġìķłëĵ¤ìĿ´":1500,"ëĤ¨":1501,"ĠìĹĦë§Īê°Ģ":1502,"ĠíķĦìļĶ":1503,"Ġìĭ«ìĸ´":1504,"Ġê¿":1505,"ìĻľ":1506,"ìŀħ":1507,"ĠìĤ¬ëŀĮëĵ¤ìĿĢ":1508,"ĠìĥĿê°ģíķ´":1509,"ĠíĨł":1510,"ĠìĪľ":1511,"Ġë¨¼":1512,"ìĤ¼":1513,"Ġìĸ´ëĬĲ":1514,"íĸ":1515,"Ġìĸ¼ë§ĪëĤĺ":1516,"ìĤ¬ëŀĮ":1517,"Ġìĸ¼êµ´":1518,"Ġê±´ëį°":1519,"ĠëĭĪ":1520,"íĤ":1521,"ëĤĺëıĦ":1522,"ì»":1523,"ĠìĺģíĻĶ":1524,"ë§¨":1525,"ĠìĻľëĥĲíķĺë©´":1526,"íģ¼":1527,"ìĿ´ë©´":1528,"ë°¥":1529,"Ġìĸ´ì¨Įëĵł":1530,"Ġë¨¹ìľ¼ë©´":1531,"ìļĶìĿ¼":1532,"Ġë§İìĿĢ":1533,"ëĺĲ":1534,"Ġìĸ´ìłľ":1535,"ë¡Ŀ":1536,"ľ´":1537,"Ġì²ĺìĿĮìĹĲ":1538,"ëĿ¼ëĬĶ":1539,"Ġì§Ħ":1540,"Ġë°Ń":1541,"íĻľ":1542,"Ġìī¬":1543,"ĠìķĦì£¼":1544,"Ġê°Ģì§Ģ":1545,"ĠëıĻëĦ¤":1546,"ì±":1547,"Ġë§Ĳíķ´":1548,"Ġê¸Ī":1549,"ìĹĪëįĺ":1550,"Ġê²Ģ":1551,"ĠëĪĦê°Ģ":1552,"ëŁ½":1553,"ëª»":1554,"ê·¸ëŁ¬ëĭĪê¹Į":1555,"ë§ŀìķĦ":1556,"íĽ":1557,"ĠëĤĺëŀĳ":1558,"ì§¸":1559,"ìĸ´ëĤĺ":1560,"Ġê·¼":1561,"ĠìĥĿê°ģìĿ´":1562,"Ġë¬¸ìłľ":1563,"íķĺë©´ìĦľ":1564,"ìĹĦ":1565,"Ġíħ":1566,"ë³´ë©´":1567,"Ġíıī":1568,"ĠìĿ´ìłľëĬĶ":1569,"íİĺ":1570,"ĠëĲĺì§Ģ":1571,"ì¹ł":1572,"ĠìĤ¼ìĭŃ":1573,"Ġë°ķ":1574,"ëĳ":1575,"ìĿ´ì§Ģ":1576,"ê½":1577,"ê·¸ëĭĪê¹Į":1578,"ĠìĺĨìĹĲ":1579,"ì¦Ī":1580,"Ġìĸ¸ìłľ":1581,"ì´Ī":1582,"ĠëŃĺ":1583,"ê»ĺ":1584,"Ġêµ°":1585,"ë¦¼":1586,"íķĺëĭ¤":1587,"ì£¼ëĬĶ":1588,"Ġì¢ħ":1589,"Ġíķĺë©´ìĿĢ":1590,"Ġëĺĳê°Ļ":1591,"ĠëķĲ":1592,"ĠëĤĺìĺ¨":1593,"ìĦĿ":1594,"ëĬĶì§Ģ":1595,"Ġìľ¡ì§Ģ":1596,"Ġìļķ":1597,"Ġíķ´ìĭłëĶĶ":1598,"Ġëĸ¨ìĸ´":1599,"ĠìķĮê³ł":1600,"Ġê·¸ëŁ°ê±°":1601,"ĠëıĻìķĪ":1602,"ĠëĲĺë©´":1603,"ĠìĥĿê°ģìĿĦ":1604,"Ġì«Į":1605,"ĠìĿ¼ë³¸":1606,"ĠìķĦëĵ¤":1607,"ë°Į":1608,"Ġìĸ´ìĦľ":1609,"ëĭĲ":1610,"Ġê°Ģìķ¼":1611,"ĠíĴĢ":1612,"ê·¸ëķĮ":1613,"ĠìŀĪìľ¼ëĭĪê¹Į":1614,"Ġíĥľ":1615,"íĶĮ":1616,"ĠìķĦìĿ´ëĵ¤":1617,"Ġë©Ķ":1618,"ĠíķľêµŃ":1619,"Ġíķĺëĭ¤ê°Ģ":1620,"ĠíķĺëĬĶê±°":1621,"ĠìĨĮë¦¬":1622,"ìķĦìĿ´ê³ł":1623,"íĺĢ":1624,"íķĺëĬĶëį°":1625,"ĠíķĺìŀĸìķĦ":1626,"Ġê·¸ê±°ëĬĶ":1627,"ì£":1628,"Ġë³ĳìĽĲ":1629,"Ġìŀ¬ë°Į":1630,"íĨł":1631,"ìŀ¬":1632,"Ġë§Įìķ½ìĹĲ":1633,"ê±°ê¸°":1634,"Ġëħ¸ëŀĺ":1635,"ìĸ´ê°Ģ":1636,"ĠìĭľíĹĺ":1637,"ëħ¸":1638,"ì½Ķ":1639,"ĠìķĦëĬĶ":1640,"ëª©":1641,"ĠìŀĺëıĦ":1642,"íĥľ":1643,"Ġíķľëį°":1644,"Ġê·":1645,"Ġì²´":1646,"ìĿĦê¹Į":1647,"Ġê±ĶëĦ¤":1648,"¯¤":1649,"ëĬ¥":1650,"ĠìĻľëĥĲë©´":1651,"Ġê·¸ê±°ë¥¼":1652,"Ġìĸ´ì©":1653,"ë©Ķ":1654,"ĠìĿ¼ìĿ´":1655,"ì¡°ê±´":1656,"Ġê²¨":1657,"ëħģ":1658,"ĠíĭĢ":1659,"íĴĪ":1660,"ĠíķŃìĥģ":1661,"Ġì§ĢëĤĺ":1662,"ë¡ł":1663,"Ġíĭ°":1664,"Ġë³´ìĹ¬":1665,"Ġíİ":1666,"ìĬ¤íģ¬":1667,"ë£©":1668,"ë³ĳ":1669,"ĠìŀĶ":1670,"Ġíķ©":1671,"ìĽł":1672,"íĸĪëĬĶëį°":1673,"ì¤¬":1674,"ëł¤ìĦľ":1675,"ëĭ´":1676,"ìĸ´ìļĶ":1677,"ìłģìĿ¸":1678,"į¼":1679,"Ġë¨¹ìĹĪ":1680,"Ġë¨¼ìłĢ":1681,"ê²Ĳ":1682,"ĠìŀĪê±°ëĵł":1683,"ĠëŃĲëĿ¼ê³ł":1684,"ĠëĲĺëĭĪê¹Į":1685,"ĠìĹ°ëĿ½":1686,"Ġëĭ¤ìĦ¯":1687,"ìĻ¸":1688,"ĠìļĶìĥĪ":1689,"ìĸ´ìķ¼":1690,"ĠìĪĺê°Ģ":1691,"ë²Ħë¦¬":1692,"Ġì¡¸":1693,"Ġì£¼ê³ł":1694,"ê¸Ģ":1695,"ê·":1696,"ë³´ëĭĪê¹Į":1697,"ĠìĿ´ê±´":1698,"Ġê·¸ëĤ":1699,"ëĥī":1700,"ĠëĦĪëĬĶ":1701,"ëĶ±":1702,"ê²¼":1703,"ìķĺëĬĶëį°":1704,"Ġê²ĮëĤľ":1705,"Ġê±Ķê°Ģ":1706,"Ġë³´ëĬĶ":1707,"ĠíĸĪì§Ģ":1708,"ë¦¬ë¥¼":1709,"íĻ©":1710,"Ġê±°ê³ł":1711,"Ġêº¼":1712,"ĠíĸĦ":1713,"ëıĪ":1714,"Ġë¬´ì¡°ê±´":1715,"Ġì¢ĭìķĦíķ´":1716,"ĠìķĮì§Ģ":1717,"ëł¨":1718,"ĠíĬ¹":1719,"Ġë½":1720,"ĠíĺĦ":1721,"ì¢ħ":1722,"ìĭ¬íŀĪ":1723,"ìĿ´ëĭĪê¹Į":1724,"ì§Ģê¸Ī":1725,"ìĸ´ëıĦ":1726,"ì°½":1727,"ìģľ":1728,"ëį´":1729,"ĠíĦ°":1730,"ĠìĤ¬ëŀĮëıĦ":1731,"ĠìĿ´ëŁ°ê±°":1732,"ìĿ´ê±°":1733,"ê²łëĭ¤ê³ł":1734,"ĠìĭĿìľ¼ë¡ľ":1735,"ĠìķĦíĮĮ":1736,"ë³¼":1737,"ĠëıĻìĥĿ":1738,"ìĬµëĭĪëĭ¤":1739,"Ġê°ĸê³ł":1740,"ëĪĦ":1741,"Ġë°ĳ":1742,"ĠìŀĲê¾¸":1743,"ì¹ľêµ¬":1744,"ì£ł":1745,"Ġê·¸ë§":1746,"ĠìĤ¬ìĭ¤":1747,"ë§ĪìĶ":1748,"Ġëĥ":1749,"ë§ĮìĽĲ":1750,"Ġê°ĶëĬĶëį°":1751,"íĮĶ":1752,"Ġë°¤":1753,"Ġì²Ń":1754,"Ġìĸ¸ëĭĪê°Ģ":1755,"Ġì¼":1756,"ê´ĳ":1757,"Ġë¡":1758,"ĠìĤ¬ê³ł":1759,"Ġìĸĺê¸°ë¥¼":1760,"ĠìķĦíĶĦ":1761,"ĠëĤ³":1762,"ì§Ģê°Ģ":1763,"Ġì°¾ìķĦ":1764,"ëķ":1765,"Ġëª¨ë¥´ê²ł":1766,"Ġê·¸ëŁ´":1767,"ê¿":1768,"Ġìĸ´ë¦´":1769,"ê°ĢëĬĶ":1770,"ìį¨":1771,"ĠìĿ½":1772,"Ġìº":1773,"ĠíĸĪëįĺ":1774,"Ġìļ¸":1775,"ĠìĹ´ìĭ¬íŀĪ":1776,"ë°Ľ":1777,"Ġëģ¼":1778,"ĠìĬ¤íĥĢ":1779,"Ġê¶":1780,"ê¸°ë¡ľ":1781,"Ġê¹¨":1782,"Ġë©´":1783,"Ġ(":1784,"Ġê·¸ëķĮëĬĶ":1785,"Ġì¤ĳêµŃ":1786,"ìĭľê°Ħ":1787,"ĠìķĪíķ´":1788,"ëĥĲë©´":1789,"ĠìĿ´ë²Ī":1790,"ì¸":1791,"Ġìļ°ë¦°":1792,"Ġìĵ¸":1793,"ĠìķŀìĹĲ":1794,"ìķĦë²Ħì§Ģ":1795,"ĠìĻķ":1796,"¿ł":1797,"Ġê±¸ë¡ľ":1798,"Ġë¹Ħìĭ¸":1799,"ê¶":1800,"êµ°":1801,"ĠìĤ¬ìĿ´":1802,"ì´Į":1803,"Ġì¶ľ":1804,"ê°ĢìĦľ":1805,"Ġê·¸ë§Į":1806,"Ġnameê°Ģ":1807,"ê·¸ëŁ¼":1808,"Ġë¬´ìĦľ":1809,"ĠìĤ¬íĪ¬":1810,"Ġì¤ĳìĹĲ":1811,"ĠìĹ¬ê¸°ìĦľ":1812,"ìħĶ":1813,"Ġëĵ±":1814,"Ġëıħ":1815,"ĠëģĬ":1816,"ĠëĤĺìĺ¤ëĬĶ":1817,"Ġíĳľ":1818,"ĠìłĪëĮĢ":1819,"ĠëĮ":1820,"Ġê³łëĵ±íķĻêµĲ":1821,"Ġë¿":1822,"íĳľ":1823,"ìĿ¸ì§Ģ":1824,"Ġë²ł":1825,"ëĵľíı°":1826,"ĠíĥĢê³ł":1827,"Ġê±´ê°ķ":1828,"ĠíĻĶìŀ¥":1829,"ê¸°ë¥¼":1830,"Ġìĺ¤ìĭŃ":1831,"Ġíķĺëĭ¤":1832,"ëł¹":1833,"ìĽĮìĦľ":1834,"Ġì¢ĭìķĦíķĺëĬĶ":1835,"Ġë§Įëĵ¤ìĸ´":1836,"Ġìĺ¤ëĬĶ":1837,"ĠìķĦë²Ħì§Ģ":1838,"ëĵ¤ìĿĦ":1839,"ëģ¼ë¦¬":1840,"íĥķ":1841,"Ġë¸":1842,"Ġì¡´":1843,"ĠìŀĪìĹĪìĸ´":1844,"Ġìħ":1845,"ìłĦìĹĲ":1846,"Ġê·¸ëŀĺê°Ģì§Ģê³ł":1847,"Ġìļ°ë¦¬ëıĦ":1848,"ëĿ¼ìĦľ":1849,"íķ©":1850,"ìĹĲìļĶ":1851,"Ġì³Ĳ":1852,"Ġìĵ°ê³ł":1853,"±ìłķ":1854,"ĠìŀĪëĭ¤":1855,"Ġë§ĲíķĺëĬĶ":1856,"ìĹĪì§Ģ":1857,"ìŀĪëĬĶ":1858,"ìĿ´ëĿ¼ëıĦ":1859,"Ġê³³":1860,"Ġë¹Į":1861,"¹ìĭľ":1862,"ìĻķ":1863,"Ġìª":1864,"ìĹĲìĦľëĬĶ":1865,"Ġì§Ī":1866,"Ġì§Ģê¸ĪìĿĢ":1867,"ê³¡":1868,"ìļ°ëĬĶ":1869,"ë¶ĢëŁ¬":1870,"ì¢ĭ":1871,"Ġìĵ°ëĬĶ":1872,"ĠëĨį":1873,"Ġì¤ĳìļĶ":1874,"ëĨĵê³ł":1875,"ë³Ģ":1876,"Ġê²¨ìļ¸":1877,"ê°Ģì§Ģêµ¬":1878,"Ġìŀĺëª»":1879,"ĠíķĺìĹ¬":1880,"Ġë³µ":1881,"ìŀ¥ìĿ´":1882,"ëįĶëĭĪ":1883,"ĠëŃĲê°Ģ":1884,"ìłĳ":1885,"ì¶ľ":1886,"Ġì±Ļ":1887,"Ġíķ¸ëĵľíı°":1888,"Ġìĸ´ë©į":1889,"Ġê±°ë¥¼":1890,"Ġíķ´ì£¼":1891,"ĠíĸĪê±°ëĵł":1892,"ĠëĶĶ":1893,"ĠìĥĢ":1894,"Ġëł":1895,"ëĭ¤ìĿĮìĹĲ":1896,"ì°¬":1897,"ĠìĿ´ê±¸":1898,"Ġê±±ìłķ":1899,"ê²°":1900,"íĸ¥":1901,"ĠìłĢëħģ":1902,"ĠëĬ¦":1903,"ĠìłĢê±°":1904,"ĠìķĪìĹĲ":1905,"ĠëĮĢíķĻ":1906,"ĠëĥĦ":1907,"Ġëĸł":1908,"Ġë§ĲìĿ´ìķ¼":1909,"ìĸ¸ëĭĪ":1910,"ìŀ°":1911,"Ġëķħ":1912,"ìĨ¡":1913,"ëĬĶëĶĶ":1914,"ìĿ¸ìĿ´":1915,"ìķ½ê°Ħ":1916,"ëľ":1917,"ĠìĶ¨":1918,"ĠìŀĳìĿĢ":1919,"ĠíķĺëĤľ":1920,"Ġë§ĲíĸĪ":1921,"Ġë¦¬":1922,"Ġëĭ®ìĿĢ":1923,"Ġì§ĳìĿ´":1924,"Ġíķĺë©į":1925,"ĠëĳĺìĿ´":1926,"ĠìŀĪìĹĪëĬĶëį°":1927,"ĠíķĺëįĶëĿ¼ê³ł":1928,"ìĵ":1929,"ì°¨íĶ¼":1930,"ĠíĪ¬":1931,"Ġìĭľì¼ľ":1932,"ĠëıĪìĿĦ":1933,"Ġì¤Ģë¹Ħ":1934,"íķľëį°":1935,"ê±´ëį°":1936,"Ġì¶ķ":1937,"ìłľì£¼":1938,"íĽĦ":1939,"ì¼Ģ":1940,"ê±°ì§Ģ":1941,"ëĭ¥":1942,"Ġë³´íĨµ":1943,"Ġë²ĦìĬ¤":1944,"ê°ĳ":1945,"Ġê°ĢìĿ´":1946,"ìħĺ":1947,"íĶĪ":1948,"ĠìķĬê³ł":1949,"íĨ¡":1950,"Ġìļ©":1951,"Ġë§ĪìĬ¤íģ¬":1952,"Ġëĭ¤ëħĢ":1953,"Ġê²ĮìŀĦ":1954,"ìķĮ":1955,"ĠìłĢë²ĪìĹĲ":1956,"ĠëıĪìĿ´":1957,"ĠìĿĢ":1958,"ĠìĪĺìĹħ":1959,"Ġë³Ħ":1960,"ĠëĨĵê³ł":1961,"ê°Ģë©´":1962,"ì¶Ķë£©":1963,"ĠìľĦìĹĲ":1964,"ĠìĬ¤íĥĢìĿ¼":1965,"Ġê±°ê¸°ìĹĲ":1966,"ĠìĿ´ë¯¸":1967,"Ġëĵ¤ê³ł":1968,"ĠìĿ¼ìĿĦ":1969,"ë©°":1970,"ĠëªħìĿ´":1971,"Ġìĺ¤ë©´":1972,"Ġë°Ģ":1973,"ì¯¤":1974,"Ġìĸĺê°Ģ":1975,"Ġíķĺê²Į":1976,"ĠìķĪëı¼":1977,"Ġì¤¬":1978,"íķ´ê°Ģì§Ģê³ł":1979,"ĠìŀĲì²´":1980,"Ġëĭ¬ëĿ¼":1981,"ĠìķĦë§Ī":1982,"ĠëĤ´ìĿ¼":1983,"ĠëĽ":1984,"ĠìŀĲê¸°ëĦ¤":1985,"ĠìĿ´íķ´":1986,"Ġë§ĮìĽĲ":1987,"Ġëħ¹":1988,"ĠìĹĨìĿ´":1989,"ìĭľëĬĶ":1990,"ĠëĵľëĿ¼":1991,"Ġìĺ¤ê³ł":1992,"Ġê°Ģê²Į":1993,"ë¥ĺ":1994,"Ġìľłëªħ":1995,"ìĬ·":1996,"ĠìŀĪìĸ´ìĦľ":1997,"ĠìĿ´ê²ĥ":1998,"ĠëĶ°ë¡ľ":1999,"ë²½":2000,"íĮĲ":2001,"ëıĮ":2002,"Ġíķľëĭ¤ê³ł":2003,"Ġì±Ħ":2004,"ĠìłĬ":2005,"Ġê²ĥìĿ´":2006,"ê·¸ëĥī":2007,"ĠìķĶ":2008,"ëĶ°":2009,"Ġë§Ĳíķĺ":2010,"ìĮ":2011,"ìĿ´ëłĩê²Į":2012,"ìķħ":2013,"Ġê¸°ë¶Ħ":2014,"ë§ĮìĿĢ":2015,"ê½Ī":2016,"ĠêµĲìĪĺ":2017,"ë§ĪìĶ¸":2018,"ìĹĲìĦľëıĦ":2019,"Ġë©Ģ":2020,"ĠìĿ´ëª¨":2021,"ìļ°ê³ł":2022,"Ġíĺ¹ìĭľ":2023,"Ġê±°ê¸°ëĬĶ":2024,"ĠëĨĴ":2025,"Ġëĵ¤ìĸ´ìĺ¤":2026,"ì°Į":2027,"ë²ķ":2028,"Ġë§ŀëĬĶ":2029,"ìŀĺ":2030,"ëĬĶê±°ìķ¼":2031,"Ġì¹´íİĺ":2032,"Ġìĭľê°ĦìĿ´":2033,"ìķĶ":2034,"ĠìķĪíķĺê³ł":2035,"Ġë½ĳ":2036,"íĤ¨":2037,"ĠíļĮìĤ¬":2038,"Ġëª°ëŀĲ":2039,"ê·¸ê²Į":2040,"ê³±":2041,"ì¢Ģ":2042,"ĠíĶĦë¡ľ":2043,"ê°Ģê³ł":2044,"ìĻĢìĦľ":2045,"Ġì¶©":2046,"Ġê°ģ":2047,"ĠíķĺëĭĪê¹Ĳ":2048,"ĠíķĺëĤĺëıĦ":2049,"ĠíĹĪë©į":2050,"ĠìĹ¬ìĦ¯":2051,"ìĸ´ëĸ":2052,"Ġíķľëĭ¤":2053,"Ġìĥī":2054,"Ġë¹µ":2055,"Ġìĥ":2056,"ëĬĶê²Į":2057,"ĠíĸĪìŀĸìķĦ":2058,"ĠíĻĺ":2059,"ê±°ëĤľ":2060,"ĠëŃĲëĿ¼":2061,"ĠìĿ¼ìĸ´ëĤĺ":2062,"ĠëŃĲìķ¼":2063,"íĿ¬":2064,"ë§ĪìĶ¨":2065,"Ġì¹ľêµ¬ê°Ģ":2066,"ĠëĥĦìĥĪ":2067,"ë§Įíģ¼":2068,"ĠíķĺëįĶëĿ¼":2069,"Ġë´¤ëĬĶëį°":2070,"ĠìĥģíĻ©":2071,"Ġëľ¨":2072,"Ġë©°":2073,"ĠíħĮ":2074,"ĠëĤ¨íİ¸":2075,"ì°į":2076,"Ġìĸ´ì°¨íĶ¼":2077,"ĠëĽ°":2078,"ìŀĲê°Ģ":2079,"Ġë¶Ģëª¨":2080,"Ġìŀ¡ìķĦ":2081,"Ġë´¤ìĸ´":2082,"Ġëĸ¡":2083,"ëıħ":2084,"ĠìĹ¬ëŁ¬":2085,"ĠíĹĪëĤľ":2086,"ëħĶ":2087,"Ġë¹ĦìĬ·":2088,"ĠìĹŃ":2089,"ë¦¬ë©´":2090,"ë¨¹ê³ł":2091,"Ġë¬´ìĤ¬":2092,"Ġì¤ĳíķĻêµĲ":2093,"ĠìķĦì¹¨ìĹĲ":2094,"ê¹Ķ":2095,"ĠìķĦë¹łê°Ģ":2096,"íķľê±°":2097,"ĠíĹĮ":2098,"Ġëª»íķ´":2099,"ê»´":2100,"ê°ĦìĹĲ":2101,"Ġê¸°ëĭ¤":2102,"ĠëĦĮ":2103,"ĠìĹ¬ë¦Ħ":2104,"ĠíĹ¤":2105,"Ġë³´ëĤľ":2106,"Ġê°Ģì¡±":2107,"ëĭµ":2108,"ìĿ´ëĭ¤":2109,"ë»":2110,"Ġëĭ¹ìĹ°":2111,"íģ¬ëĿ¼":2112,"ĠëĲĺìŀĸìķĦ":2113,"ĠìĤ¬ìĭŃ":2114,"Ġì¦":2115,"íķŃ":2116,"Ġëĭ¤ë¥´":2117,"ĠìŀĪìĸ´ìķ¼":2118,"íĹĪëĤľ":2119,"Ġìŀłê¹Ĳ":2120,"íĹĮ":2121,"Ġìĸ´ëł¤":2122,"ĠëĮĢíķ´ìĦľ":2123,"Ġì´Īëĵ±íķĻêµĲ":2124,"))":2125,"ìłķëıĦ":2126,"ĠìĦľë¡ľ":2127,"ĠíĻķìĭ¤":2128,"ĠìĦ±ê²©":2129,"Ġê±°ìŀĸìķĦ":2130,"Ġê°ĶìĿĦ":2131,"ĠíķĺìĹ¬íĬ¼":2132,"ĠìķĦëĭĮëį°":2133,"Ġìŀħê³ł":2134,"ĠëĲľëĭ¤":2135,"ëĸ¡":2136,"Ġëį°ëł¤":2137,"Įê³ł":2138,"ì§Ģë§ī":2139,"ìŀĲê³ł":2140,"Ġëª¨ë¥´ê²łìĸ´":2141,"ìĺĢìĸ´":2142,"ĠíķĻìĽĲ":2143,"Ġê°ĢëģĶ":2144,"Ġì£¼ëĬĶ":2145,"ê·Ģíı¬":2146,"ĠìĺĽëĤłìĹĲëĬĶ":2147,"ì§Ģë¥¼":2148,"Ġê¿Ī":2149,"ĠìĿ´ìĭľ":2150,"ĠìĥĿíĻľ":2151,"ĠìĤ¬íĪ¬ë¦¬":2152,"Ġì²«":2153,"ìĿĢê±°":2154,"ĠìķĬìķĺ":2155,"ë¨¸":2156,"ĠìĿ´ìľł":2157,"ĠìŀĪëĭ¤ê³ł":2158,"ĠìĻĶëĭ¤":2159,"ëŀ¬":2160,"íŀĪëł¤":2161,"ì¿ł":2162,"ìĹ¬ìĦľ":2163,"ëłģ":2164,"Ġëģĵ":2165,"Ġìĭłê¸°":2166,"ìĭľìĹĲ":2167,"íĦ":2168,"Ġíĥģ":2169,"ì¼Ħ":2170,"Ġìĭ¶ëĭ¤":2171,"ĠëķĮê°Ģ":2172,"ì§Ģë©´":2173,"ì£½":2174,"ìĬ¤íĥĢ":2175,"ê¸°ê³ł":2176,"ĠìĦ¸ìĥģ":2177,"íķĺê¸°":2178,"ĩ´":2179,"Ġë§ĲëıĦ":2180,"ê°ĸ":2181,"ëĦĪë¬´":2182,"ìĬ¬":2183,"íĻī":2184,"ëĶ©":2185,"ìĤ¬ê°Ģ":2186,"ĠìķĦëĭĮê°Ģ":2187,"ìŀĪìĸ´":2188,"ĠìĹĨëĬĶëį°":2189,"ĠëķĮë¶ĢíĦ°":2190,"Ġìķłê°Ģ":2191,"ëłĪìĬ¤":2192,"ìĪĻ":2193,"ìĤ¬ë¥¼":2194,"Ġê±´ê°Ģ":2195,"ìĭľê³ł":2196,"ĠëĤĺëĿ¼":2197,"ĠíķłìķĦë²Ħì§Ģ":2198,"ĠìķĮìķĺ":2199,"ì©":2200,"³ìĿ´":2201,"íĥĿ":2202,"íļ":2203,"ëħĦìĹĲ":2204,"ìĿ´ê²Į":2205,"Ġë°Ķê¿":2206,"Ġë³Ģ":2207,"ëĨĶ":2208,"Ġê·¤":2209,"ìĦ¤":2210,"Ġë¯¸ìķĪ":2211,"ĠìĿ´ê±°ëĬĶ":2212,"ë³Ħ":2213,"íľ´":2214,"Ġëĭ¤ëĭĲ":2215,"Ġëļ":2216,"Ġë°Ľê³ł":2217,"Ġì¡¸ìĹħ":2218,"ĠëĶ°ëĿ¼":2219,"ĠìĤ¶":2220,"Ġì°©":2221,"ëĵ¤ìĿ´ëŀĳ":2222,"Ġìĸ´ë¥¸":2223,"ĠìķĦë°©":2224,"Ġëª¨ëĵł":2225,"ĠìĹĲìĿ´":2226,"ĠëıĮìķĦê°Ģ":2227,"ĠíĸĪìĿĦ":2228,"ĠíĬ¸":2229,"ĠìĻĦ":2230,"ĠëĤĺìĦľ":2231,"Ġì»¤íĶ¼":2232,"Ġë³´ë©´ìĿĢ":2233,"ĠëĬĲëĤĮìĿ´":2234,"ìĭ¶":2235,"Ġëĭ¤ëħĶ":2236,"ìĸ´ê°Ģì§Ģê³ł":2237,"íĸĪëįĺ":2238,"ëĲł":2239,"ĠëĵľëĿ¼ë§Ī":2240,"ëĢ":2241,"Ġì¢ĭìĿĦ":2242,"ìĹĦë§Ī":2243,"ê¹Įì§ĢëĬĶ":2244,"ĠìķĦìĿ´ê°Ģ":2245,"ĠëĲľëĭ¤ê³ł":2246,"ì»¤":2247,"ĠìĬ¤íĬ¸":2248,"Ġìĭłê²½":2249,"Ġë§Īì§Ģë§ī":2250,"Ġíķĺê±°ëĵł":2251,"ìĺĪìļĶ":2252,"Ġê·¸ê±¸ë¡ľ":2253,"íķĺìŀĸìķĦ":2254,"Ġíľ´":2255,"ĠìĦłë¬¼":2256,"Ġìĸµ":2257,"Ġê¼¬":2258,"Ġíķ´ìķ¼ì§Ģ":2259,"ê²¬":2260,"ĠìķĬìĿĢ":2261,"ìĹĲëĭ¤ê°Ģ":2262,"ìħ¨":2263,"Ġìĺģìĸ´":2264,"ëĵ¯":2265,"ê¶Į":2266,"Ġìª¼":2267,"Ġë¡ľ":2268,"ĠìĹĨìľ¼ëĭĪê¹Į":2269,"ìłĢê»ĺ":2270,"Ġë³´ë©´ìĦľ":2271,"Ġë§İê³ł":2272,"ëĭ¤ëĭĪ":2273,"ìĪĺê°Ģ":2274,"ĠëłĪ":2275,"ĠìļĶì¦ĺìĿĢ":2276,"Ġë°ĶëĢ":2277,"Ġê¸Ģ":2278,"Ġê·¸ë¦":2279,"ĠìĦłìĥĿëĭĺìĿ´":2280,"ĠìŀĲë¦¬":2281,"ìĹĪìŀĸìķĦ":2282,"ĠìĦľê·Ģíı¬":2283,"Ġìĩ":2284,"ĠìĭľíĤ¤":2285,"Ġê±·":2286,"ĠëĲĺëĤĺ":2287,"Ġë¯¿":2288,"íķľëĭ¤":2289,"ìĪľ":2290,"Ġê·¸ëłĩì§Ģ":2291,"ĠëĮĢíķľ":2292,"ī´":2293,"Ġëĭµ":2294,"ĠìĤ´ê³ł":2295,"ìĺĽëĤł":2296,"ëķĮëĬĶ":2297,"Ġ((":2298,"ĠëĤĺìĺ¬":2299,"Ġê³łê¸°":2300,"ĠëĮķ":2301,"ëĲĲ":2302,"ĠìķĬìĿĦê¹Į":2303,"ì±Ħ":2304,"ëĤĺëĿ¼":2305,"Ġë¬´ìĭł":2306,"ìĵ°":2307,"ìĭłê°Ģ":2308,"Ġê»":2309,"ĠìĻ¸êµŃ":2310,"Ġë§ĽìĿ´":2311,"ìĸĳìĿ´":2312,"íĺĦ":2313,"ì¤ĺìķ¼":2314,"Ġê°ĢëĭĪê¹Į":2315,"ìľ¼ë©´ìĦľ":2316,"Ġì§Ģê¸ĪëıĦ":2317,"Ġê¹ľ":2318,"ê°ĸê³ł":2319,"ĠìķīìķĦ":2320,"ëħĲ":2321,"Ġê·¸ëĤł":2322,"Ġë§Ŀ":2323,"ĠëĴ¤ìĹĲ":2324,"Ġê´ĳ":2325,"ë§Ľ":2326,"Ġìį¼":2327,"ĠëĨĪ":2328,"Ġë°ĳìĹĲ":2329,"ĠìķĦë¬´íĬ¼":2330,"Ġìłķìĭł":2331,"ĠìķĦì§ģëıĦ":2332,"ë´ī":2333,"ĠìĭľìĹĲ":2334,"ê³¨":2335,"Ġë»":2336,"ĠìŀĦ":2337,"Ġìĺ¤ë¹łê°Ģ":2338,"Ġêµ°ëĮĢ":2339,"ĠìĤ´ìķĺ":2340,"Ġìļ´ìłĦ":2341,"Ġê±°ëĭĪê¹Į":2342,"Ġê²ģ":2343,"ĠëĤĺë¥¼":2344,"ëĤŃ":2345,"Ġíŀĺëĵ¤ìĸ´":2346,"Ġìĺ¤íŀĪëł¤":2347,"Ġëį°ê°Ģ":2348,"ĠìĹĨìŀĸìķĦ":2349,"ê·¸ëłĩê²Į":2350,"ë¥´ê³ł":2351,"ë¶ģ":2352,"Ġê³łë¯¼":2353,"ë§ĮíŀĪ":2354,"Ġíķĺìĺģ":2355,"Ġê°ľìĽĶ":2356,"ìĹĪê³ł":2357,"ìĸ´ë¨¸ëĭĪ":2358,"ì¶°":2359,"íķĺëĤľ":2360,"ĠíĮĲ":2361,"Ġë¨¹ìĸ´ìķ¼":2362,"Ġxxx":2363,"ĠìĹĨì§Ģ":2364,"ëĿ¼ë¦¬":2365,"Ġìļ°ë¦¬ì§ĳ":2366,"Ġë°Ķëĭ¤":2367,"ëįŁ":2368,"Ġê¹Ģì¹ĺ":2369,"ĠìĹĨìĸ´ìĦľ":2370,"Ġê¸°ìĸµìĿ´":2371,"Ġë¨¸":2372,"ĠíĮ¨":2373,"ĠëĤ¬":2374,"ĠëĦĪëıĦ":2375,"íħĲ":2376,"Ġê±ĶëĬĶ":2377,"ìĹ´":2378,"ĠìĿ´ìķ¼":2379,"Ġê°Ļê³ł":2380,"ìĿµ":2381,"Ġë¹Ħíĸī":2382,"Ġìĺ¬íķ´":2383,"ĠìłģìĿ´":2384,"ĠìĤ´ì§Ŀ":2385,"ëĤĺìĦľ":2386,"Ġìħĭ":2387,"ì£¼ìĿ¼":2388,"ĠíĦ":2389,"Ġìĸ´ë¦°":2390,"Ġë¿Į":2391,"Ġê·¸ìª½":2392,"ĠëĤĺìĺ¤ê³ł":2393,"Ġëĥī":2394,"ĠìĿ´ì²ľ":2395,"ê·¸ëŁ¬ë©´":2396,"Ġëĵ£ê³ł":2397,"Ġê¶ģ":2398,"íķĳ":2399,"Ġë´¤ìĿĦ":2400,"Ġì¡´ëĤĺ":2401,"Ġê°Ķìĸ´":2402,"ìŀ¥ìĹĲ":2403,"Ġì¢ĭê³ł":2404,"Ġê¸ī":2405,"ĠìĥĪë¡ľ":2406,"ìĿ´ìŀĸìķĦ":2407,"ĠíķĻìĥĿ":2408,"ĠìĿ´ëŁ¬ë©´ìĦľ":2409,"Ġêµ³ìĿ´":2410,"Ġì£¼ë³Ģ":2411,"Ġìĸ´ì©Ķ":2412,"ìŀ¥ëĭĺ":2413,"Ġë´Ĳìķ¼":2414,"ìłĢê¸°":2415,"ìļķ":2416,"ĠìĿ´ê²ĥëıĦ":2417,"Ġë²Ĺ":2418,"Ġê¹Ķ":2419,"Ġê·¸ëŁ¬ëĭĪê¹Ĳ":2420,"in":2421,"íķĺëĤĺ":2422,"ing":2423,"ĠëĦĺìĸ´":2424,"ĠìĿ´ëŀĺ":2425,"Ġëª¨ë¥´ëĬĶ":2426,"Ġì°½":2427,"ĠëĨĢëŁ¬":2428,"ëĵ¤íķľíħĮ":2429,"íį¼":2430,"ĠìĤ¬ëŀĳ":2431,"ëĵľëĬĶ":2432,"ìī":2433,"ì¶©":2434,"ĠíĻķìĭ¤íŀĪ":2435,"ëł¸ìĸ´":2436,"ìĿ´ìĸ´":2437,"ê°ĻìĿ´":2438,"ĠìķĦíĻī":2439,"ì°©":2440,"ĠìļĶë²ĪìĹĲ":2441,"Ġê²½ìļ°":2442,"ê¼¬":2443,"ĠìĺĪìģĺ":2444,"íķľëĭ¤ê³ł":2445,"ĠìłľìĤ¬":2446,"Ġíķ´ë³´":2447,"Ġì´Į":2448,"Ġê±°ëĤľ":2449,"ìł¸ìĦľ":2450,"íķĺëĭ¤ê°Ģ":2451,"ì³":2452,"ë°Ģ":2453,"Ġíģ¬ê²Į":2454,"ĠíĥĿ":2455,"Ġì½©":2456,"ê³¤":2457,"ë¸Ķ":2458,"ĠìĿ¼ê³±":2459,"ëģĦ":2460,"Ġê²ĥë§Į":2461,"Ġìī½":2462,"Ġìĸ´ëĶĶìĦľ":2463,"Ġìłĳ":2464,"ĠëĶ´":2465,"íķ¨":2466,"Ġëĭ¤ëĵ¤":2467,"ìķĦìķ¼":2468,"ĠìĹĨëĭ¤":2469,"íķĺê±°ëĵł":2470,"íĻķ":2471,"Ġì±Ļê²¨":2472,"ìłĢìĶ¨":2473,"ì¶ĺ":2474,"ëĤĺê°Ģ":2475,"íĥģ":2476,"ìķĦì§Ģ":2477,"Ġìłľê°Ģ":2478,"Ġê±°ê¸°ê°Ģ":2479,"Ġëĭ¬ìĹĲ":2480,"ëª°":2481,"ìķĬ":2482,"ĠìķĬìķł":2483,"Ġìĵ´":2484,"Ġìĥģê´Ģ":2485,"Ġì¸":2486,"Ġëº":2487,"ë¦¬ëıĦ":2488,"Ġìŀ¥ëĤľ":2489,"ĠìĬ¤íĬ¸ëłĪìĬ¤":2490,"ìĹĪìĿĦ":2491,"ĠìŁ":2492,"ìŁ":2493,"ìĻĦ":2494,"Ġëĺ¥":2495,"ëŀĺëıĦ":2496,"Ńī":2497,"ì·¨":2498,"Ġë§ŀì§Ģ":2499,"Ġìŀ¬ë¯¸ìŀĪ":2500,"Ġëĵ¤ìĸ´ìĦľ":2501,"Ġë¨¹ìĿĢ":2502,"ĳ¸":2503,"ĠìĸĺëĦ¤":2504,"ìĥ":2505,"ëĵłì§Ģ":2506,"ĠìŀĪëĤĺ":2507,"ĠìķĮìķĦìĦľ":2508,"ìĸĺ":2509,"ĠìĥĪë²½":2510,"ĠëĤ«":2511,"ĠìĹĨìĿĦ":2512,"Ġê·¸ëĭ¤ìĿĮìĹĲ":2513,"Ġë´Ķ":2514,"ë¹µ":2515,"Ġëĭ¤ëĭĪê³ł":2516,"Ġë§ĪìĿĮìĿ´":2517,"Ġë´ī":2518,"Ġê·¸ì¹ĺ":2519,"ë¹¨":2520,"Ġë¯¸êµŃ":2521,"ëĶĶëĭ¤":2522,"Ġë§¥":2523,"Ġíį¼":2524,"íķĻìĥĿ":2525,"Ġëª»íķĺê³ł":2526,"íħĶ":2527,"íķĺê¸´":2528,"ĠìŀĪìĸ´ìļĶ":2529,"ê·¸ëŀĺëıĦ":2530,"ìĽĢ":2531,"ĠìºĲ":2532,"ì±ħ":2533,"Ġëį°ë¦¬":2534,"ĠìĶ»":2535,"ëįķ":2536,"ĠìĿ¼ì£¼ìĿ¼":2537,"Ġìĥģíĥľ":2538,"ìĻľëĥĲ":2539,"ë³´ëĭ¤ëĬĶ":2540,"ĠëģĿëĤĺê³ł":2541,"ĠìĥĿê²¼":2542,"ĠëķĮë§Īëĭ¤":2543,"ĠìĤ¬ëŀĮëĵ¤ëıĦ":2544,"Ġë²ĪëıĦ":2545,"ĠìķĦë¬´ê²ĥëıĦ":2546,"ĠëĤ®":2547,"Ġíķĺê¸°":2548,"Ġíķĺê¸´":2549,"Ġë¶ĪëŁ¬":2550,"ìŀ¡":2551,"ĠíĹĲ":2552,"Ġíķłë§Ŀ":2553,"ìĹĪëĤĺ":2554,"ë´¤ìĸ´":2555,"Ġë¯¼":2556,"Ġìı":2557,"ĠíķľëĿ¼":2558,"Ġê´Ģê´ĳ":2559,"ë¦½":2560,"Ġê±°ëĿ¼ê³ł":2561,"ĠëŃĶì§Ģ":2562,"ĠëĭŃ":2563,"Ġì§ľì¦Ŀ":2564,"ĠíĥĪ":2565,"ĠìķĦìłĢìĶ¨":2566,"Ġê´ľì°®ìķĦ":2567,"ìĹĪëĭ¤":2568,"Ġê·¸ëłĩê³ł":2569,"ĠìĥĪëģ¼":2570,"Ġìĭ¶ìĿĢëį°":2571,"ĠìĮĢ":2572,"Ġë©ĭ":2573,"Ġëĭ¹ìĹ°íŀĪ":2574,"ĠìĻĢê°Ģì§Ģê³ł":2575,"ëĿ¼ìĿ´":2576,"Ġê°Ģë©´ìĿĢ":2577,"ĠìķĦìĿ´ëĵ¤ìĿ´":2578,"Ġìķłëĵ¤ìĿĢ":2579,"ĠíĻĶìŀ¥ìĭ¤":2580,"Ġìŀĺíķ´":2581,"Ġë°ĶëŀĮ":2582,"Ġê²°êµŃ":2583,"Ġë§ĽìŀĪìĸ´":2584,"Ġê°Ģë¥´":2585,"Ġìĭ¹":2586,"íĭĢ":2587,"ê±´ëĶĶ":2588,"Ġë¸Į":2589,"Ġëįľ":2590,"ĠëĬĺ":2591,"Ġê·¸ëĭĪê¹Ĳ":2592,"ĠëĦ£ê³ł":2593,"ĠìķĪëĤĺ":2594,"ĠìĬ¤ë¬¼":2595,"ì¡į":2596,"íķĺëĬĶê±°":2597,"ĠëĤĺë¬´":2598,"ìĬ¤íĬ¸":2599,"ìļĶì¦ĺ":2600,"Ġë°Ľìķĺ":2601,"ëł¤ë©´":2602,"ëĳ¥":2603,"ëĵ¤ìĸ´":2604,"Ġê·¸ëŁ¬ê³ł":2605,"Ġë°ĽëĬĶ":2606,"ĠêµĲìľ¡":2607,"ìĹ¼":2608,"ĠìķĮìķĺìĸ´":2609,"ì°¸":2610,"ĠìĿ¼ì°į":2611,"ĠëĲĺëĬĶê±°":2612,"Ġê¾¸":2613,"ë§ĪìŀĲ":2614,"Ġëª¨ìĸĳ":2615,"ë´Ĳìķ¼":2616,"ëĴ":2617,"Ġê´Ģìĭ¬":2618,"Ġíķĺëł¤ê³ł":2619,"Ġë§ĽìŀĪëĬĶ":2620,"ì¤Į":2621,"Ġì¢ĭìķĺ":2622,"ĠìĤ¬ëŀĮìĿĦ":2623,"ĠíĶĦ":2624,"Ġê°ĢëıĦ":2625,"êµ¬ë§Ī":2626,"ĠìĥĿìĿ¼":2627,"ìĹ¬ê¸°":2628,"Ġì¹ľêµ¬ëĵ¤":2629,"ëļ":2630,"ê±°ë¦¬":2631,"ëł¸ìĿĦ":2632,"ëŁī":2633,"ĠíĬĢ":2634,"ĠìĿ´ìĥģíķľ":2635,"ĠìĿ´ìĭłëĶĶ":2636,"Ġíķ¨":2637,"Ġëĭ¤ëĭĪëĬĶ":2638,"ìĸ¼":2639,"ì¶ķ":2640,"ìŀĲë§ĪìŀĲ":2641,"Ġìľ¡ìĭŃ":2642,"ëłĢ":2643,"ìĿ´ëıĦ":2644,"ĠìŀĲìĭĿ":2645,"ë§Įíķľ":2646,"Ġê°Ģê°Ģì§Ģê³ł":2647,"Ġê¸°ëıĦ":2648,"Ġê±¸ìĸ´":2649,"ìĹ¬íĸī":2650,"ĠìķĦìĿ´êµ¬":2651,"ĠìĮĵ":2652,"ë²Ħëł¤":2653,"Ġë§ĲëĿ¼ê³ł":2654,"ĠìĬ¬":2655,"Ġì¹¨":2656,"ĠìĪĺìĪł":2657,"Ġê³łìĥĿ":2658,"íķĺëĭ¤ê³ł":2659,"ĠìĹ¬ëįŁ":2660,"ìĿĢëį°":2661,"ĠìłĲìĭ¬":2662,"Ġë¹Ħìĭ¼":2663,"Ġìĥīê¹Ķ":2664,"ì§ĵ":2665,"ëł¥ìĿ´":2666,"Ġì°¨ëĿ¼ë¦¬":2667,"ìĺ¤ê³ł":2668,"Ġë¶Ģë¶Ħ":2669,"ĠìĻĶìĸ´":2670,"Ġê°Ļëĭ¤":2671,"ëĮĢê°Ģ":2672,"Ġìĺ¬ëł¤":2673,"Ġë´ĲëıĦ":2674,"ĠëĬ¦ê²Į":2675,"Ġë¶Ģë¥´":2676,"ìĨĮë¦¬":2677,"Ġê¸°ë³¸":2678,"Ġì¼ĢìĿ´":2679,"Ġì²ł":2680,"Ġê°ĻìķĦìļĶ":2681,"Ġë¨¹ìľ¼ëŁ¬":2682,"Ġì¢ĭëĭ¤":2683,"ĠëĮĢíĻĶ":2684,"ĠìĽĢ":2685,"ĠìķĦìľł":2686,"Ġê¸Īë°©":2687,"ìľ¼ëŁ¬":2688,"ë²Į":2689,"Ġê°Ģë§ĮíŀĪ":2690,"ĠìĽĮ":2691,"ĠìŀĲì²´ê°Ģ":2692,"Ġê°Ģê¹Į":2693,"ĠëĮĢíķĻêµĲ":2694,"ĠìĭĿëĭ¹":2695,"ĠnameëĬĶ":2696,"Ġê±°ê¸°ëıĦ":2697,"ĠìĪĻ":2698,"ê¸°ë§Į":2699,"ĠìŀĲê¸°ëĬĶ":2700,"Ġë¨¹ì§Ģ":2701,"íģ´":2702,"ìłľì£¼ëıĦ":2703,"ìŀĶ":2704,"ìļ´ëį°":2705,"ì§Ģìĸ´":2706,"íļį":2707,"Ġëª¨ë¥´ê³ł":2708,"Ġxxxx":2709,"ìĻĦìłĦ":2710,"ìĿ´ëŀľ":2711,"ì§Ģë§ĮìĿĢ":2712,"ëĲĺëĬĶ":2713,"ĠìłĢëĬĶ":2714,"ĠìłķëıĦë¡ľ":2715,"íķĺëĦ¤":2716,"Ġìĸ¸ëĭĪëĬĶ":2717,"Ġê¹ľì§Ŀ":2718,"ìĻľëĥĲíķĺë©´":2719,"Ġìĺ¬ëĿ¼ê°Ģ":2720,"ìľ¼ëĭĪê¹Ĳ":2721,"Ġëª¨ë¥´ê²łëĬĶëį°":2722,"Ġíŀĺëĵł":2723,"Ġë³´ëĭ¤":2724,"ì£¼ë©´":2725,"ëĥĪ":2726,"Ġë¨¹ìĹĪìĸ´":2727,"ìĿ´ëĿ¼ëĬĶ":2728,"Ġíļ":2729,"ĠíĻį":2730,"Ġë²ķ":2731,"Ġíĩ´":2732,"ê±¸ë¡ľ":2733,"íıī":2734,"ê¹Ģ":2735,"ëķĲ":2736,"ĠêµĲíļĮ":2737,"ëĤ¸":2738,"Ġê¶ģê¸Ī":2739,"ìĦŃ":2740,"ĠìĥĿê°ģëıĦ":2741,"ëıĻìķĪ":2742,"ë°©ìĿ´":2743,"Ġê·¸ëĶ":2744,"ë§ĪëĬĶ":2745,"ĠíķĺëĬĶê²Į":2746,"Ġíĺ¸ëģĶ":2747,"ê°Ķëĭ¤":2748,"Ġìĸ´ìłĢê»ĺ":2749,"Ġëĭ®ìĿĢëĶĶ":2750,"ĠìŀĬ":2751,"ĠìłĬìĿĢ":2752,"ìŁģ":2753,"ì°°":2754,"Ġê²ĥëĵ¤":2755,"ëĲĺê³ł":2756,"Ġìª½ìľ¼ë¡ľ":2757,"Ġë§ĲìĿĢ":2758,"Ġì§ĵ":2759,"ĠìķĦíĶĪ":2760,"ĠìĥĿê°ģíķĺë©´":2761,"ëĵĿ":2762,"ìĿ¸ëĶĶ":2763,"Ġë§ĮëĤ¬":2764,"Ġìª½ìĹĲ":2765,"Ġì¢ĭì§Ģ":2766,"ĠìĪľê°Ħ":2767,"Ġë´Ĳë´Ĳ":2768,"ĠìĭŃìĿ´":2769,"Ġë§Įëĵł":2770,"ë§ģ":2771,"ĠìĪ¨":2772,"ìĦ¼":2773,"Ġì¢ĭìĿĢëį°":2774,"Ġë°ĽìĿĦ":2775,"Ġìļ°ë¦¬ëĤĺëĿ¼":2776,"ĠìŀĲì£¼":2777,"Ġê±°ìĹĲ":2778,"ĠìŀĪê¸´":2779,"ìĺ¤ëĬĶ":2780,"ĠìĿ¸ìĥĿ":2781,"ìĹĪëĦ¤":2782,"íķĻëħĦ":2783,"Ġì»´":2784,"ìĿ´ê±°ëĵł":2785,"ëłĩ":2786,"Ġìį°":2787,"ë°Ń":2788,"ìĨĲ":2789,"Ġê³§":2790,"ë¦¬ìĬ¤":2791,"ëĵľëĿ¼":2792,"ĠìĿ¼ìĸ´":2793,"Ġìĸ´ë¨¸ëĭĪê°Ģ":2794,"ê²łëĦ¤":2795,"Ġìĸĺê¸°íķ´":2796,"Ġë²Ħë¦¬":2797,"ĠìĥĿê¸´":2798,"ĠìĽĢì§ģ":2799,"ad":2800,"Ġì·¨ë¯¸":2801,"Ġë°°ìļ°":2802,"es":2803,"res":2804,"ĠìŁ¤":2805,"ëĦ·":2806,"íĮħ":2807,"Ġëħ¹ìĿĮ":2808,"ĠìŀĪìĸ¸":2809,"add":2810,"ress":2811,"ìŀĸìķĦìļĶ":2812,"Ġë¹¡":2813,"ĠìķĦëĭĪì§Ģ":2814,"Ġìłľì£¼ëıĦìĹĲ":2815,"Ġë¬´ìĭľ":2816,"ĠìŀĪìĹĪê±°ëĵł":2817,"íĸĦ":2818,"Ġnameëŀĳ":2819,"address":2820,"Ġê²ĢìĤ¬":2821,"ìŀ¥ìĿĦ":2822,"ë´Ķ":2823,"ĠíĦ¸":2824,"ĠìķĦëĥĲ":2825,"Ġìĭľì§ĳ":2826,"ìĽĲëŀĺ":2827,"íĸĪì§Ģ":2828,"Ġì¹´íĨ¡":2829,"Ġê½ĥ":2830,"ĠìŀĲìĹ°":2831,"ìº":2832,"ĠìĺĪë¥¼":2833,"Ġë°ĸ":2834,"Ġê°ĸëĭ¤":2835,"ĠíķĺëĿ¼ê³ł":2836,"Ġë§ŀì¶°":2837,"ë¨¸ë¦¬":2838,"ĠíĸĪëĭ¤":2839,"Ġìĸ´ëĸ¡":2840,"ìĪĺëıĦ":2841,"Ġë¶ĢìĤ°":2842,"íĴį":2843,"ĠëĤĺìģĺ":2844,"ĠìĹ°ìķł":2845,"ì¸ł":2846,"íĮ¨":2847,"ëłµ":2848,"ĠìķĬìĿĦ":2849,"ĠìŀĪëĬĶê±°":2850,"íĹĪê³ł":2851,"ìĭľëĤľ":2852,"ìļ°ëĭ¤":2853,"ĠíķĺëıĦ":2854,"ë¬´ìĽĲ":2855,"Ġë§¡":2856,"ĠëĬĲëģ¼":2857,"ëľ»":2858,"ìĬ¤ê°Ģ":2859,"ëĨ¨":2860,"ĠíĤ¤ë¡ľ":2861,"Ġë¹Ħíĸīê¸°":2862,"Ġìľ¼":2863,"ìĿ´ëŁ°":2864,"ìĭľë©´":2865,"Ġíķłê±°":2866,"ê°ĻìĿĢ":2867,"íķ´ìĭłëĶĶ":2868,"ĠìĿ´ëŀ¬":2869,"Ġì²ŃìĨĮ":2870,"ĠëĬĲê»´":2871,"ë³´ëĤľ":2872,"Ġê³łêµ¬ë§Ī":2873,"ìĺĢëĬĶëį°":2874,"Ġíķľê±°":2875,"Ġê°Ķëĭ¤ê°Ģ":2876,"Ġì¶ķêµ¬":2877,"ìª":2878,"íĻĺ":2879,"ĠìĺĪìłĦìĹĲ":2880,"Ġê³±":2881,"Ġìĺģìĥģ":2882,"ĠìĻĶëĬĶëį°":2883,"ëĭ¤ìĿĮ":2884,"ìĿ´ëĿ¼ìĦľ":2885,"ĠíķĺëĤĺìĶ©":2886,"Ġëį°ë¦¬ê³ł":2887,"ĠëķĮê¹Įì§Ģ":2888,"ĠëĭĪê°Ģ":2889,"ĠìķĦëĭĪëĥĲ":2890,"Ġë§Ĳíķĺë©´":2891,"Ġì£½ìĸ´":2892,"ĠìĸĺëĬĶ":2893,"ĠíĹ¤ìĸ´":2894,"ĠëıĦìĻĢ":2895,"Ġë³´ìĿ´":2896,"Ġê·Ģì°®":2897,"ëĦ¤ê°Ģ":2898,"ìĶ¬":2899,"ĠëĤ´ìļ©":2900,"Ġë¯¸ë¦¬":2901,"Ġì¹ĺíĤ¨":2902,"Ġëĸ¼":2903,"Ġìĸ´ëĶ":2904,"ĠìĿ¸ìĬ¤íĥĢ":2905,"ĠíĶĮ":2906,"ĠìĹĨìľ¼ë©´":2907,"ĠíķĺëĦ¤":2908,"ĠëĦĪíķľíħĮ":2909,"ĠìķĦìĿ´ëĵ¤ìĿĢ":2910,"ĠëĤĺëĪ":2911,"ìł¼":2912,"ĠíĻľ":2913,"ĠìĹĦë§ĪëĬĶ":2914,"Ġëª»íķĺ":2915,"Ġì¸µ":2916,"ĠìĿ¼ë¶ĢëŁ¬":2917,"ì¹ĺëĬĶ":2918,"ĠnameìĿ´ê°Ģ":2919,"ê¹¡":2920,"ĠìĿ¸íĦ°":2921,"ëĬĶê±°ëĿ¼":2922,"ìª½ìľ¼ë¡ľ":2923,"Ġëĺĳê°ĻìĿĢ":2924,"ĠìķĦë¬´ë¦¬":2925,"ĠìŀĪëĭ¤ê°Ģ":2926,"ëĬĲëĥĲ":2927,"ĠìłĲìłĲ":2928,"ìĿ´íĬ¸":2929,"ê¸°ìĹĲ":2930,"ĠìķĶíĬ¼":2931,"Ġì²Ļ":2932,"ì²ł":2933,"ĠìĻĦìłĦíŀĪ":2934,"ĠíĮĮëĬĶ":2935,"ĠíķĺëĬĶëĶĶ":2936,"Ġìĺ¤ì²ľ":2937,"ë»Ĳ":2938,"Ġ{":2939,"ĠìĺĨìĹĲìĦľ":2940,"ĠëĤĺë§Į":2941,"Ġëĭ«":2942,"Ġë°¤ìĹĲ":2943,"ĠìķĦë¬´ëıĦ":2944,"ìĸ´ëĶĶ":2945,"ìķĦë¬´":2946,"Ġì´Ŀ":2947,"ĠìĿµ":2948,"ĠnameëıĦ":2949,"ì§ĳìĹĲ":2950,"ĠìķĦëĵ¤ìĿ´":2951,"Ġë±":2952,"ĠíĹĪê³ł":2953,"ë´¤ëĬĶëį°":2954,"ê°ĢëĿ½":2955,"Ġëį°ëĬĶ":2956,"Ġê°ľìĿ¸":2957,"ĠëĨĶëĳĲ":2958,"Ġë¨¹ìĸ´ëıĦ":2959,"Ġìłľì£¼ëıĦëĬĶ":2960,"Ġì¤ĳìļĶíķľ":2961,"ê¸¸ëŀĺ":2962,"ëŃĶê°Ģ":2963,"ĠìĿ´ìľłê°Ģ":2964,"Ġì§Ģê°Ģ":2965,"ëŁ´":2966,"Ġë¶Īíİ¸":2967,"ĠìĹħ":2968,"íĦ´":2969,"ĠìĹĦë§ĪíķľíħĮ":2970,"Ġìĸ´ëł¸ìĿĦ":2971,"ĠëĿ¼ê³ł":2972,"ĠìļĶì¦ĺìĹĲ":2973,"ĠíĮĶìķĦ":2974,"Ġëĭ¤íĸī":2975,"Ġíģ´":2976,"ëĦ¨":2977,"ĠìķĬëĬĶ":2978,"Ġì°įìĸ´":2979,"ĠnameìĿ´ëŀĳ":2980,"Ġìĭłì²Ń":2981,"ë¨¹ìĸ´":2982,"ìĨĶ":2983,"Ġê±°ëŀĳ":2984,"ĠìŀĲê³ł":2985,"ĠëĤĺìģľ":2986,"ĠëĦĵ":2987,"ĠíķľíħĮ":2988,"ì§Ģê²Į":2989,"ĠìłĢëłĩê²Į":2990,"íĸĪìĿĦ":2991,"Ġë©°ì¹ł":2992,"Ġë¹¼ê³ł":2993,"Ġë°ĶëĢĮ":2994,"Ġíķĺë£¨ìĹĲ":2995,"ë³´ëĬĶ":2996,"ë¦¬ì§Ģ":2997,"ì²Ļ":2998,"ĠëĤĺìĻĢìĦľ":2999,"ĠìľĦíķ´ìĦľ":3000,"ĠëĪĪìĿ´":3001,"ĠìĥĿê¸°":3002,"Ġë°Ķê¿Ķ":3003,"ì¸µ":3004,"ì³¤":3005,"ë²ł":3006,"Ġê·¸ëŁ°ê²Į":3007,"ĠìŃī":3008,"ìĭĿìľ¼ë¡ľ":3009,"ĠëĤ¨ìŀĲì¹ľêµ¬":3010,"ê³łê¸°":3011,"ĠìĿ¼ëıĦ":3012,"ê°Ģë£¨":3013,"ê¹¨":3014,"ë¦Ń":3015,"Ġê°Ģê¸°":3016,"Ġìķŀìľ¼ë¡ľ":3017,"Ġë¸Ķ":3018,"ëĵ¯ìĿ´":3019,"Ġì¤ĳê°ĦìĹĲ":3020,"ìłķìĿ´":3021,"ìĭ¸":3022,"Ġë§Ĳíķľ":3023,"Ġë§Ĳíķł":3024,"ĠìĤ¬ëŀĮíķľíħĮ":3025,"Ġê¸°ë¦Ħ":3026,"Ġì§§":3027,"Ġë°¥ìĿĦ":3028,"ĠíĤ¤ìļ°":3029,"ĠíĮĢ":3030,"Ġì¹łìĭŃ":3031,"Ġëĵ¤ìĸ´ê°Ķ":3032,"Ġíĸīë³µ":3033,"Ġëĵ¤ìĸ´ê°Ħ":3034,"ĠìķĬëĤĺ":3035,"ĠìĤ¬ëĿ¼":3036,"Ġì¹¼":3037,"ìļĶìĿ¼ëĤł":3038,"Ġë³´ëŁ¬":3039,"Ġê·¸ëŁ¬ë©´ìĿĢ":3040,"ĠìĿ´ë°±":3041,"Ġë²Įìį¨":3042,"ĠìĤ¬ìĦľ":3043,"ìĪĺê³¼":3044,"ĠìķĮëł¤":3045,"ĠêµĲìĪĺëĭĺ":3046,"Ġê·¸ëĶĶ":3047,"ĠíĸĪëĦ¤":3048,"Ġíİĺ":3049,"ëŁŃ":3050,"Ġê°Ļê¸´":3051,"ê²¡":3052,"íĥĦ":3053,"ì¹ĺê³ł":3054,"ĠìĽĥê¸´":3055,"Ġíķĺì§Ģë§Į":3056,"Ġê·¸ëĮĢ":3057,"Ġëĭ¤ë¦¬":3058,"Ġë°ŃìĹĲ":3059,"ĠëĪĦëĤĺ":3060,"ê°Ĵ":3061,"ĠìĿ¼ë°ĺ":3062,"ê¼¼":3063,"ĠìĺĢ":3064,"ĠìķĪëĲľ":3065,"ìī¬":3066,"ìĹĲìĬ¤":3067,"Ġê°Ģê²©":3068,"ìª½ìĹĲ":3069,"ĠìŀĪìĹĪëįĺ":3070,"Ġëª¸ìĿ´":3071,"ķĲ":3072,"ĠìľłíĪ¬":3073,"Ġì¹´ëĵľ":3074,"ĠíĮĶìĭŃ":3075,"ĠìĿ´ìĭł":3076,"ì§ľë¦¬":3077,"ìĺ¤ë©´":3078,"Ġëĭ¤ìĿĮëĤł":3079,"Ġë°ĽìĿĢ":3080,"ĠìĮ¤":3081,"Ġê°ĢëĬĶëį°":3082,"Ġìĭ¬ì§Ģìĸ´":3083,"¼Ī":3084,"Ġìĭłëŀĳ":3085,"ĠìķĦëŀĺ":3086,"íķĦ":3087,"ĠëĴ·":3088,"Ġëª»íķĺëĬĶ":3089,"ĠìķĦê¸°":3090,"Ġê°ĢìŀĲ":3091,"ĠìĬ¤ë¬´":3092,"íķĺëŁ¬":3093,"Ġê¹Įì§Ģ":3094,"ĠìĨĲëĭĺ":3095,"ĠìłľëĮĢë¡ľ":3096,"ĠìĤ¬íļĮ":3097,"íĭ":3098,"ëĭ¤ëĭĪê¹Į":3099,"ĠìĿ´ëŁ¬ê³ł":3100,"ĠìķŀìĹĲìĦľ":3101,"ë§ĮìĹĲ":3102,"ìĬ¤ëŁ½":3103,"ĠëĦĪëŀĳ":3104,"ĠëĤłìĶ¨":3105,"Ġì£":3106,"ë¦¿":3107,"Ġë§Ĳë¡ľ":3108,"Ģ´":3109,"ìĬ¤ë¡ľ":3110,"Ġë°°ëĭ¬":3111,"Ġíĺ¸íħĶ":3112,"ĠìĦŀ":3113,"Ġê³Ħíļį":3114,"Ġíķłëł¤ê³ł":3115,"ê°Ŀ":3116,"ĠìĺĽëĤłìĹĶ":3117,"Ġì§ģìŀ¥":3118,"ì¡Įìĸ´":3119,"ĠìĥĿê°ģíķĺëĬĶ":3120,"Ġê²½íĹĺ":3121,"ĠëĿ¼ë©´":3122,"ê±´ê°Ģ":3123,"Ġíķ´ë´Ĳ":3124,"ĠëĲĺìĸ´":3125,"Ġíķĺë¯Ħ":3126,"Ġë³´ë¦¬":3127,"ê·¹":3128,"ëĳĺ":3129,"Ġì°Į":3130,"Ġë²ĪìĶ©":3131,"ë¬¼ìĿ´":3132,"ëįľ":3133,"ìĬ´":3134,"Ġê·¸ì¶Ķë£©":3135,"ìĽĲìĿ´":3136,"Ġë§¤ìĿ¼":3137,"Ġê¸´":3138,"Ġìĩ¼":3139,"Ġìµľê·¼":3140,"ëĤĺë¬´":3141,"ì§Ģì§Ģ":3142,"ar":3143,"ìľ¼ë©´ìĿĢ":3144,"ëŁ¬ìĽĮ":3145,"Ġíĭ°ë¹Ħ":3146,"cl":3147,"ear":3148,"clear":3149,"clearing":3150,"Ġë§ĺ":3151,"Ġê³łìĸĳìĿ´":3152,"Ġë¬¼ë¡ł":3153,"ë¡Ń":3154,"ĠìķĦë¬´ëŀĺëıĦ":3155,"Ġìµľê³ł":3156,"Ġê±¸ëł¤":3157,"ĠíĸĪëĭ¤ê³ł":3158,"Ġê·¸ëŀ¬ëĬĶëį°":3159,"ë³¶":3160,"ë²Ħë¦°":3161,"ìĬµëĭĪê¹Į":3162,"ĠìĹĨëĭ¤ê³ł":3163,"Ġëī´":3164,"ìĦ±ìĿ´":3165,"Ġì§Ħì§ľë¡ľ":3166,"Ġê·¸ëķĲ":3167,"ìĹĲê²Į":3168,"ëĭ¤ë¥¸":3169,"Ġë¬´ìĦľìĽĮ":3170,"ìĿį":3171,"Ġì§ģìłĳ":3172,"ëĤĻ":3173,"ìĽĥ":3174,"Ġíķ´ìķ¼ëĲĺ":3175,"Ġë§ĮëĵľëĬĶ":3176,"Ġì£¼ë§Ĳ":3177,"ĠíĸĪìĹĪìĸ´":3178,"ĠíĶ¼ë¶Ģ":3179,"Ġíķĺëįĺëį°":3180,"Ġì°¨ê°Ģ":3181,"Ġì¤ĺìķ¼":3182,"Ġì¢ĭëĭ¤ê³ł":3183,"ìĺ¤ë¹ł":3184,"Ġê°ķìķĦì§Ģ":3185,"īìŀ¥":3186,"ĠëĤĺê³ł":3187,"Ġìĭľì²Ń":3188,"ëłĪìĿ´":3189,"íķ´ë¶ĢëĤľ":3190,"Ġëį°ìĦľ":3191,"Ġì§ĳìķĪ":3192,"Ġê°ĢìĭłëĶĶ":3193,"ĠëĤ´ëħĦ":3194,"ì¡´":3195,"Ġë°Ķê¾¸":3196,"ĠìķīìķĦìĦľ":3197,"ĠëĬĻ":3198,"Ġê·¸ëŁ¬ë©´ìĦľ":3199,"ĠĠ":3200,"ìķĦë¹ł":3201,"ĠíĹ¬":3202,"Ġë³´íĹĺ":3203,"ìĭłìĿ´":3204,"Ġê±°ë©´":3205,"Ġì¶ľê·¼":3206,"ĠìĦ¼":3207,"Ġìĭłê³ł":3208,"Ġíķłê¹Į":3209,"ì¥":3210,"ĠëĶ°ëľ»":3211,"ëłĮ":3212,"ìĭľë¯Ħ":3213,"ìĭľì¼ľ":3214,"Ġë¶ĦìľĦ":3215,"ìĮĢ":3216,"ê±Ķ":3217,"Ġì£½ìĿĦ":3218,"ĠìŀĺíķĺëĬĶ":3219,"ëįĺê°Ģ":3220,"ëıĻìĥĿ":3221,"Ġíķłë¨¸ëĭĪê°Ģ":3222,"ĠnameíķľíħĮ":3223,"Ġì²ĺìĿĮìĹĲëĬĶ":3224,"Ġì£¼ìłľ":3225,"ìĶĢ":3226,"ëĨĪ":3227,"Ġê±´ëĶĶ":3228,"ĠìķĦìļ°":3229,"ĠëĤĺìĺ¤ë©´":3230,"íĮ¡":3231,"ĠìĹĨìĹĪìĸ´":3232,"Ġìłľì£¼ëıĦìĹĲìĦľ":3233,"ìĥĿíĻľ":3234,"Ġì£Ħ":3235,"Ġìĵ°ëłĪ":3236,"Ġì¡°ìĭ¬":3237,"Ġì£¼ë©´":3238,"Ġì°¨ìĿ´":3239,"Ġê·¸ëĮĢë¡ľ":3240,"ĠìĭŃìĿ¼":3241,"Ġëĭ¤ìĿ´ìĸ´":3242,"Ġìĭľìĸ´ë¨¸ëĭĪ":3243,"Ġê³µë¬´ìĽĲ":3244,"Ġìĸ»":3245,"Ġê·¸ê±°ìĹĲ":3246,"Ġê³łëª¨":3247,"Ġê·¸ëłĩê²Įíķ´ìĦľ":3248,"ĠìĹ¬ê¸°ëĬĶ":3249,"ĠìĦľë°©":3250,"ĠëĤľë¦¬":3251,"Ġëħ¼":3252,"ë¡±":3253,"Ġìĸ´ëłµ":3254,"ëķĮëıĦ":3255,"ĠìķĬìķĺìĸ´":3256,"ĠìĶ©":3257,"ĠëĮĢìĭł":3258,"īìŀ¥íŀĪ":3259,"Ġë»Ķ":3260,"ĠëĲĺê²łëĭ¤":3261,"ĠëıĪëıĦ":3262,"Ġì¯¤":3263,"Ġìĺ¤ëŀľ":3264,"Ġíķ´ìĻ¸":3265,"Ġìľłëªħíķľ":3266,"ĠìŀĲê²©":3267,"Ġìĺ¤ë¦Ħ":3268,"Ġì¡±":3269,"Ġì¢ģ":3270,"ë²Ħë¦¬ëĭĪê¹Į":3271,"ë¨¹ëĬĶ":3272,"ê²Ģ":3273,"Ġë³´ê¸°":3274,"Ġê·¸ëŀĺê°Ģì§Ģêµ¬":3275,"ĠíĥĦ":3276,"ĠìĨĮê°ľ":3277,"ĠìĹĨëĦ¤":3278,"Ġíĸ¥":3279,"Ġë§Ĳìķ¼":3280,"Ġëĭ´ë°°":3281,"Ġíķ´ì¤ĺ":3282,"ĠëĤĺìĿ´ê°Ģ":3283,"ĠìĿ¸íĦ°ëĦ·":3284,"Ġë³´ìĿ´ëĬĶ":3285,"Ġëĭ¹ìĭľ":3286,"Ġíĺķëĭĺ":3287,"Ġë¬»":3288,"ĠìĿ´ê±°ë¥¼":3289,"ĵ¨":3290,"ĠëĪĪì¹ĺ":3291,"ëĪĪ":3292,"Ġì¡°ìļ©":3293,"ë²Ķ":3294,"ĠìĹĲìĬ¤":3295,"ë²Ħë¦¬ë©´":3296,"Ġê±´ì§Ģ":3297,"Ġê³µë¶Ģë¥¼":3298,"Ġì§ĳìĿĢ":3299,"Ġë°©ë²ķ":3300,"Ġì§ĢëĤ´":3301,"íģ°":3302,"ĠëĲĲìĸ´":3303,"ĠìĦ¤ëªħ":3304,"ĠëĤĺëĪł":3305,"Ġê·¸ìłĢ":3306,"Ġê·¸ëŁ¬ê²Į":3307,"ĠëĳĲê°ľ":3308,"Ġì¹ľêµ¬ëŀĳ":3309,"íħĲëį°":3310,"ìĺ¤ëĬĺ":3311,"Ġê±°ìĺĪìļĶ":3312,"ëģĹ":3313,"Ġë¹łìł¸":3314,"Ġìĺ®":3315,"ĠìĹ¬ìŀĲê°Ģ":3316,"Ġëŀ":3317,"ĠëĦ·":3318,"ĠìĹ¼":3319,"Ġê°Ģìŀ¥":3320,"Ġì§ĢìĹŃ":3321,"ĠëĪĮ":3322,"ìĿ´ìĹ¬":3323,"íĢ´":3324,"Ġëįĺ":3325,"ëĬĶê±°ì§Ģ":3326,"ĠíĬ¹íŀĪ":3327,"íĥĪ":3328,"ĠìĮį":3329,"Ġìķħ":3330,"Ġë§ĲëĿ¼":3331,"ĠëĦĺìĸ´ê°Ģ":3332,"ìŀĪê³ł":3333,"ĠìĺĪìģľ":3334,"ë§İ":3335,"ĠíĽ¨":3336,"ìĺ·":3337,"Ġë§ĮëĤł":3338,"ë¡Ģ":3339,"ĠëĨ¨":3340,"Ġë¶ĦìĿ´":3341,"ìĹĪëĭ¤ê³ł":3342,"ìĿ¸ê±°":3343,"ìĤ¬ëĬĶ":3344,"ĠìŀĪìĸ´ê°Ģì§Ģê³ł":3345,"ìĮį":3346,"Ġëĵł":3347,"Ġëĺĳê°ĻìĿ´":3348,"ìķĦë¦¬":3349,"Ġë¹Įëł¤":3350,"Ġíĳ¸":3351,"Ġê°Ĵ":3352,"ĠìĹ°ìĬµ":3353,"ë¥´ëĬĶ":3354,"Ġíķ´ë³´ê³ł":3355,"Ġë§İìķĺ":3356,"ê·¸ëŀ":3357,"Ġìķ¼ìĿ´":3358,"Ġê±°ëĦ¤":3359,"Ġìĺ¤ë°±":3360,"ĠìĥĿê²¨":3361,"ëŀĦ":3362,"Ġìĺ¤ì§Ģ":3363,"ĠìķĦëĭĪëĭ¤":3364,"Ġì¢ĭê²Į":3365,"Ġêµīìŀ¥íŀĪ":3366,"ĠëĳĲë²Ī":3367,"Ġíļ¨":3368,"ĠìĿ´ë§Į":3369,"Ġë³´ëĭĪê¹Ĳ":3370,"Ġìĭ¼":3371,"ëĤĺê³ł":3372,"Ġëĵ¤ìĸ´ê°ĢìĦľ":3373,"ë²Ħëł¸":3374,"ĠìŀĳëħĦ":3375,"íĵ¨":3376,"ĠìķĦì¤Į":3377,"ĠíĸĪìĹĪëĬĶëį°":3378,"ëŀľëĵľ":3379,"ì¿łëĭ¤":3380,"ëĵłê°Ģ":3381,"Ġêµ¬ê²½":3382,"ìķ¡":3383,"íĸĪê±°ëĵł":3384,"ë²Ħë¦¬ê³ł":3385,"ìĸ´ë©į":3386,"ëª°ëĿ¼":3387,"ìªĦ":3388,"Ġë°ĺì°¬":3389,"Ġíģ°ìĿ¼":3390,"ìĥģìĿ´":3391,"Ġë¬¸ìłľê°Ģ":3392,"ĠìłĦíĺĢ":3393,"ëĤĺê²Į":3394,"ĠìĪĺíķĻ":3395,"Ġëı¼ì§Ģ":3396,"ì§ĳìĿ´":3397,"ì¼ĵ":3398,"ĠíĸĪëĤĺ":3399,"ĠìĪĺëĬ¥":3400,"ĠìĥĿê°ģíķĺê³ł":3401,"ĠëĤĺê°Ī":3402,"Ġê°ĢëĤľ":3403,"ìŀ¥ìĹĲìĦľ":3404,"ĠíıŃ":3405,"Ġëĵ£ëĬĶ":3406,"ê·¸ê±´":3407,"íĵ¨íĦ°":3408,"Ġìĺ¤ìĿ¼":3409,"ìĭłê²Į":3410,"ëŁ¬ìļ´":3411,"ëĳ¬":3412,"Ġëĭ¤ìĿ´ìĸ´íĬ¸":3413,"ĠëĤ¨ìķĦ":3414,"Ġíķ´ìļĶ":3415,"Ġêµ´":3416,"ĠìłľëĮĢ":3417,"ìĿ¼ëĭ¨":3418,"Ġìĭľê°ĦìĹĲ":3419,"Ġê·¸ëĤĺ":3420,"Ġë§Īë¦¬":3421,"ìĹĨìĿ´":3422,"ìľ¼ëł¤ê³ł":3423,"Ġëĵ¤ìĸ´ê°Ī":3424,"ìŀĲëĬĶ":3425,"Ġë¶Ħëªħ":3426,"ê²łì§Ģë§Į":3427,"íĪ":3428,"ë¦¬ìĬ¤ë§Ī":3429,"ĠìķĦíĮĮíĬ¸":3430,"ĠëĦ£ìĸ´":3431,"Ġì£¼ìĿ¸":3432,"ëĲĺë©´":3433,"ìĺĢì§Ģ":3434,"Ġë©°ëĬĲ":3435,"Ġë³ĳìĽĲìĹĲ":3436,"ë¶Īê³ł":3437,"ĠìĤ¼ì´Į":3438,"Ġì·¨ìĹħ":3439,"ĠìĺĪìłĦ":3440,"Ġìłķë¦¬":3441,"ĠëĮĢëĭ¨":3442,"Ġê·¸ë¦¼":3443,"ëªĩ":3444,"Ġìĭłë°ľ":3445,"Ġìŀ¡ê³ł":3446,"Ġê´Ģë¦¬":3447,"ë¹Ľ":3448,"ì§ķ":3449,"ĠíĿĺ":3450,"ìĩ":3451,"ĠìĺĪìķ½":3452,"ĠìľĦíĹĺ":3453,"Ġê²ĥì²ĺëŁ¼":3454,"íĸĪëĭ¤":3455,"Ġì¶Ķì²ľ":3456,"Ġê°Ļì§Ģ":3457,"Ġëĵ¤ìĸ´ê°Ģë©´":3458,"ìĭĿìĿ´":3459,"ì½©":3460,"ĠìĿ´ìĤ¬":3461,"Ġë§ĮëĤľ":3462,"Ġê·¸ëŁ°ê°Ģ":3463,"Ġì¢ĭê²łëĭ¤":3464,"Ġê²ħíĸī":3465,"ë²ħ":3466,"ĠíķľëĿ¼ìĤ°":3467,"ĠìŀĬìĸ´":3468,"Ġê³ĦëŀĢ":3469,"ĠëĤĺë³´ê³ł":3470,"ëįĺê±°":3471,"Ġê±´ë¬¼":3472,"Ġê²ĥëĵ¤ìĿ´":3473,"Ġì¤ĳê°Ħ":3474,"ĠìĿ´ìķ¼ê¸°":3475,"ĠìķĪê°Ģ":3476,"ëĵľëĿ¼ê³ł":3477,"ĠíĹĪëĬĶ":3478,"ĠìĹĲìĸ´":3479,"Ġì¦Ĳ":3480,"íķĺë©´ìĿĢ":3481,"ĠìĽĮëĤĻ":3482,"Ġë°°ê³ł":3483,"ìļ°ë¦¬ê°Ģ":3484,"Ġíŀ":3485,"ĠíķĻêµĲìĹĲìĦľ":3486,"ë°Ķë¡ľ":3487,"ì¹ĺê°Ģ":3488,"ĠíĿĶ":3489,"Ġaddress":3490,"ëĤ¼":3491,"ëĺĳ":3492,"ë¹Ħê°Ģ":3493,"ĠìľłíĪ¬ë¸Į":3494,"ĠíĽ¨ìĶ¬":3495,"xxx":3496,"ìłģìĿ´":3497,"ĠìŀĪëĮĢ":3498,"ĠìĹ¬ìŀĲì¹ľêµ¬":3499,"ëĭ¬ëĿ¼ê³ł":3500,"ìŀł":3501,"ĠìĹ¬ê¸°ê°Ģ":3502,"Ġìĺ¤ëĬĺìĿĢ":3503,"ĠìĪĺìĺģ":3504,"Ġê²ģëĤĺ":3505,"ëįĶëĿ¼ê³łìļĶ":3506,"ĠìĽĥê²¨":3507,"ë§ĪíĬ¸":3508,"ĠìķĦì¤Įë§Ī":3509,"Ġê°ĲìŀĲ":3510,"ĠìĤ¬ìĹħ":3511,"ĠìĿ¸ìłľ":3512,"Ġìłľì£¼ìĭľ":3513,"Ġê³łëĿ¼":3514,"Ġì¡°ê¸Īë§Į":3515,"Ġê°Ģë°©":3516,"Ġë²Īì§¸":3517,"ëĦĪëĦ¤":3518,"ĠëģĿëĤĺë©´":3519,"Ġìĺ¤ëĭĪê¹Į":3520,"ìĬ¹":3521,"Ġë§Įíģ¼":3522,"íĻĶê°Ģ":3523,"ìĦłìĥĿ":3524,"İĦ":3525,"Ġëı¼ìĦľ":3526,"ĠìĹĦë§ĪëıĦ":3527,"ĠìĽĶê¸ī":3528,"ê¹Ŀ":3529,"ĠìĿ¸ìłķ":3530,"ĠìķĦë²Ħ":3531,"ĠìķĦëĭĪìŀĸìķĦ":3532,"Ġëĭ¦":3533,"ìĤ¬ëıĦ":3534,"Ġëĵ¤ìĸ´ê°ĢëĬĶ":3535,"íķ©ëĭĪëĭ¤":3536,"Ġì¡°ê¸ĪìĶ©":3537,"Ġê´ľíŀĪ":3538,"Ġê¸°ìĸµëĤĺ":3539,"ë¦¬ìĬ¤ë§ĪìĬ¤":3540,"ĠìĤ¬ì´Į":3541,"ĠíķĻê¸°":3542,"Ġìį¨ìķ¼":3543,"Ġìłľì£¼ìĸ´":3544,"ìĿ´ìĭŃ":3545,"Ġë§ĲìķĦ":3546,"ìļ°ë¦¬ëĬĶ":3547,"ĠíĥĿìĭľ":3548,"Ġë§ĲìĶĢ":3549,"ĠëĤĺê°Ķ":3550,"ĠìĽ¬":3551,"Ġì¹ľíķ´":3552,"Ġíķ´ê°Ģ":3553,"Ġìķłëĵ¤ëıĦ":3554,"Ġë¨¹ìĸ´ìĦľ":3555,"ĠìĤ¬ê·Ģ":3556,"Ġíķľë²ĪëıĦ":3557,"¨ìĿ´":3558,"ĠëĤĺë¦Ħ":3559,"ĠìłĢëħģìĹĲ":3560,"ĠìĥĿê°ģìĿĢ":3561,"ĠëĶ±íŀĪ":3562,"Ġë¬¼ìĿ´":3563,"Ġì²ĺëŁ¼":3564,"Ġë³¶":3565,"Ġë¨¹ìĹĪëĬĶëį°":3566,"ĠìĭŃìĺ¤":3567,"Ġì»´íĵ¨íĦ°":3568,"ëĿ¼ê²Į":3569,"Ġë§İìĿĢëį°":3570,"Ġíķ´ë´¤":3571,"Ġì¹ľíķľ":3572,"ĠëĲľìŀ¥":3573,"Ġê·¸ê²ĥë§Į":3574,"Ġìĸ´ìļ¸":3575,"Ġê¹¨ëģĹ":3576,"ìĸ´ìł¸":3577,"ë³¼ê¹Į":3578,"ľìĹĲ":3579,"Ġì§ĢìĽĲ":3580,"ĠìĪĺëĬĶ":3581,"Ġëķ¡":3582,"Ġë¬¼ìĸ´ë³´":3583,"ĠìĹ°ìĺĪ":3584,"Ġë¨¹ìĸ¸":3585,"ĠíĸĪìľ¼ë©´":3586,"ìĭ¤ìĹĲ":3587,"Ġê·¸ë¶":3588,"ĠëĬĶ":3589,"ë³ĳìĽĲ":3590,"Ġë¹Ļ":3591,"ê²ħíĸī":3592,"Ġê·¸ë¶Ħ":3593,"ĠíĤ¤ìĽĮ":3594,"ê¼Ī":3595,"ĠíķłìĪĺ":3596,"Ġê´´":3597,"ìłĢê²ĥ":3598,"ìĿĺìłĲ":3599,"Ġë¶ģ":3600,"Ġë¯¸ê¹¡":3601,"Ġì°įê³ł":3602,"ĠìŀĲê²©ì¦Ŀ":3603,"ĠìĿ´ë¦ĦìĿ´":3604,"ĠìĤ¬ìķ¼":3605,"ëħķ":3606,"ĠìĹ´ëĳĲ":3607,"Ġê°Ħíĺ¸":3608,"ĠëĤ¨ìŀĲê°Ģ":3609,"ĠíķĺìŀĲ":3610,"ĠíĻķìĿ¸":3611,"Ġêº":3612,"Ġíķ´ë¶ĢëĤľ":3613,"Ġê·¸ëķĮë¶ĢíĦ°":3614,"ëĨį":3615,"ëĭĿ":3616,"Ġëĵ¯":3617,"ìĬ¤ë¥¼":3618,"ĠëĪĦêµ°":3619,"ê°Ģê°Ģ":3620,"Ġê°ĢëĬ¥":3621,"Ġê³łëĵ±":3622,"Ġë¶Ģëª¨ëĭĺ":3623,"Ġëª¨ìĬµ":3624,"ĠìĦłíĥĿ":3625,"ĠìķĮìķĪ":3626,"ĠìĦłë°°":3627,"Ġê³µíķŃ":3628,"íĶĦë¡ľ":3629,"Ġíķĺìĸ":3630,"ĠëģĵìĹ¬":3631,"Ġë§ĪíĬ¸":3632,"Ġëį°ëıĦ":3633,"Ġì§Ĳ":3634,"ĠìķĪìĹĲìĦľ":3635,"ìĭĿìĿĦ":3636,"Ġë´ĲìĦľ":3637,"Ġê°Ħëĭ¤ê³ł":3638,"Ġëĭ¨ê³Ħ":3639,"Ġìĸ´ìĭł":3640,"Ġì¹ľìłķ":3641,"ĠëĤļ":3642,"ìŀĲë¥¼":3643,"íķłê±°":3644,"Ġìĭ¶ìĸ´ìĦľ":3645,"Ġê²½ì°°":3646,"Ġíķ´ê·¸ëĦ¹":3647,"ĠíķĺëĤĺë§Į":3648,"Ġë²Ħëł¤":3649,"Ġìĸ´ë¨¸":3650,"Ġëĵ¤ìĿĢ":3651,"ĠìĿ´ëŁ¬ëĭĪê¹Į":3652,"ĠìķĦë²Ħì§Ģê°Ģ":3653,"Ġê·¸ëĤĺë§Ī":3654,"ìĿ´ë¥¼":3655,"ĠìŀĪëįĺ":3656,"Ġìķ½ìĨį":3657,"Ġê´ľì°®ìĿĢ":3658,"ĳ¥":3659,"ĠìĿĮìķħ":3660,"ëĿ¼ë©´":3661,"ìķĦê°Ģì§Ģê³ł":3662,"Ġêº¼ëĤ´":3663,"Ġì§ĢëĦ¤":3664,"ĠëĮĢì¶©":3665,"Ġê·¸ëķĮëıĦ":3666,"Ġëª¸ìĹĲ":3667,"ĠìĤ¼ë°±":3668,"ĠìĬµ":3669,"ê·¸ê±¸":3670,"Ġìª¼ëģĶ":3671,"ì§ĢëĭĪê¹Į":3672,"Ġëĭ¬ëĿ¼ê³ł":3673,"Ġíķ´ì£¼ê³ł":3674,"ĠíĸĪê³ł":3675,"Ġë°°ìĽĮ":3676,"Ġìĺ¬ë¦¬":3677,"ĠìłķëıĦëĬĶ":3678,"Ġìŀĥ":3679,"ĠìĹĲìĦľ":3680,"ìĪĺëĭ¤ê²Į":3681,"ĠìķĦëĭĲ":3682,"ĠëĨĢê³ł":3683,"íĽĦë¡ľ":3684,"Ġëģ¼ê³ł":3685,"ê°ĲìĿ´":3686,"ê²ģ":3687,"Ġíķ´ì¤Ħ":3688,"Ġë²ĪìĿĢ":3689,"ĠìĹĦë§Īëŀĳ":3690,"ê·¸ê²ĥëıĦ":3691,"ĠìĤ´ìĿ´":3692,"ĠëĲĺê±°ëĵł":3693,"íĹĪë©į":3694,"Ġë¶ĢíĦ°":3695,"ĠëĤ´ê³ł":3696,"Ġì§ĳìĿĦ":3697,"ĠìĨ¡":3698,"Ġëª¨ìŀĦ":3699,"Ġëħ¸ëł¥":3700,"Ġìĸ´ì©Į":3701,"Ġìĭľê°ĦìĿĦ":3702,"ìľ¼ëĿ¼ê³ł":3703,"ĠëĮĢë°ķ":3704,"ĠìĨįìĹĲ":3705,"Ġëĭµëĭµ":3706,"ìŀ¥ëĭĺìĿ´":3707,"ìĤ¬ë¦¬":3708,"Ġìĭ¶ì§Ģ":3709,"ĠìłķíĻķ":3710,"ìľ¼ëĤľ":3711,"Ġë§ĪëĿ¼":3712,"ĠëĲłê±°":3713,"Ġê¶Į":3714,"íķĺëł¤ê³ł":3715,"ê·¸ëŀĺê°Ģì§Ģê³ł":3716,"Ġë§ŀëĭ¤":3717,"Ġíģ¬ë¦¬ìĬ¤ë§ĪìĬ¤":3718,"ĠìĽĲëŀĺëĬĶ":3719,"ĠíĶ¼ê³¤":3720,"ĠëĤŃ":3721,"ê±°ê¸°ìĦľ":3722,"ĠìĹł":3723,"Ġìĭ¶ê³ł":3724,"Ġëĵ¤ìĸ´ìĻĢ":3725,"ëªħìĿ´":3726,"ĠìĥĿê°ģë³´ëĭ¤":3727,"Ġì£¼ë¬¸":3728,"ĠìĿ¼ìĿĢ":3729,"Ġíķ´ëĿ¼":3730,"Ġë´Ħ":3731,"ĠëĤłìĿĢ":3732,"ĠíĻķì§Ħ":3733,"Ġë¼Ī":3734,"Ġì¹ĺê³ł":3735,"íķĺë©į":3736,"ë§ĮìĿ´":3737,"ìŀ¥ëıĦ":3738,"Ġì§ĢëĤĺê°Ģ":3739,"Ġë§Īìĭľ":3740,"Ġë§ĪìĿĮìĹĲ":3741,"ĠíĹĪìĺģ":3742,"ìĺĢê±°ëĵł":3743,"ĠìłĢëŁ°":3744,"Ġë¨¸ë¦¬ê°Ģ":3745,"Ġì§ģìĽĲ":3746,"Ġë¬´ìĦŃ":3747,"Ġê·¹":3748,"ĠëĤĺë¨¸":3749,"ĠëĲĺëĦ¤":3750,"ĠìłĦë¶Ģ":3751,"Ġì¢ĭìķĦíķĺê³ł":3752,"Ġêµ¬ìĭŃ":3753,"ê°ĢìĿ´":3754,"Ġíĥķ":3755,"ĠëĵľëĬĶ":3756,"ĠëĤĺê°ĢìĦľ":3757,"Ġíĸīìľ¼ëĦ¤":3758,"ìĿ´íģ¬":3759,"Ġì´Īë°ĺ":3760,"Ġë§Įëĵ¤ê³ł":3761,"ìķĦê°Ģ":3762,"Ġë³´ë¯Ħ":3763,"Ġë§ĪìĿĦ":3764,"Ġê´Ģëł¨":3765,"ĠìĤ¬ì£¼":3766,"Ġê±¸ë¦°":3767,"ĠìľłëŁ½":3768,"Ġë¹ĦìĬ·íķľ":3769,"ĠìĿ´íĭĢ":3770,"ĠëĲľëĮĢ":3771,"ë¦¬ìĹĲ":3772,"ìłľë¡ľ":3773,"Ġê·ĢìĹ¬":3774,"ĠëıĮëł¤":3775,"ĠíĿĲ":3776,"íķĺìĹ¬":3777,"ì¼°":3778,"Ġëĵ¤ìĹĪìĸ´":3779,"Ġê·¸ê²ĥìĿ´":3780,"Ġì¥":3781,"Ġëı¼ìļĶ":3782,"ĠìĤ¼ì²ľ":3783,"ìĭ¬ìĿ´":3784,"Ġìĺ¤ëĿ¼":3785,"Ġìłķíķ´":3786,"ĠìķĪì¢ĭ":3787,"ĠìŀĪìĸ´ëıĦ":3788,"Ġìĸ¸ëĭĪëĦ¤":3789,"ë©ĺ":3790,"ĠìłĢë²Ī":3791,"Ġë²Įìĸ´":3792,"Ġë¬¶":3793,"Ġì«Ļ":3794,"ĠìĿ´ìģĺ":3795,"íĬľ":3796,"Ġë°©ìĨ¡":3797,"Ġì¦Ŀ":3798,"ì¥¬":3799,"Ġë£":3800,"Ġìĺ¥":3801,"ĠìĥĿê°ģëĤĺ":3802,"Ġë¨¹ìľ¼ëĭĪê¹Į":3803,"Ġíİ¸ìĿĺìłĲ":3804,"ìĹĲë§Į":3805,"ĠìĿĺë¯¸":3806,"ĠëĮĢë¡ľ":3807,"ĠìŀĺìĥĿ":3808,"ìłķìĿĦ":3809,"Ġì»¨":3810,"Ġë¶Ļìĸ´":3811,"ĠìķĮìķĺëĬĶëį°":3812,"ĠíĨ¡":3813,"ĠëŁ":3814,"Ġìĸ¸ëĭĪëıĦ":3815,"ìłľê°Ģ":3816,"ê²łìĬµëĭĪëĭ¤":3817,"Ġê°Ģë³´ê³ł":3818,"Ġì¿ł":3819,"ë¨¹ìĿĦ":3820,"ìĸ´ëĸµ":3821,"Ġì¶©ê²©":3822,"Ġê°Ļê¸°ëıĦ":3823,"Ġì£¼ë³ĢìĹĲ":3824,"Ġë§īìĥģ":3825,"ĠìĿ¼ëĭ¨ìĿĢ":3826,"Ġë§İìķĦìĦľ":3827,"ĠìĿ´ê²ĥìłĢê²ĥ":3828,"Ġë§İì§Ģ":3829,"Ġê°Ģìł¸ê°Ģ":3830,"íķĺë¯Ħ":3831,"ìĥĿê°ģ":3832,"Ġì§ģìĹħ":3833,"Ġìĵ°ëłĪê¸°":3834,"10":3835,"Ġê°ĪìķĦ":3836,"Ġê³ĦìĤ°":3837,"Ġë©´ìłĳ":3838,"ĠìĿ´íĽĦë¡ľ":3839,"ê²ĮìļĶ":3840,"ëıĦê°Ģ":3841,"ĠìŀĪê²Į":3842,"ĠëĤĺë³´ëĭ¤":3843,"ĠëĬ¥":3844,"ĠìĭŃë§Į":3845,"ìĤŃ":3846,"Ġë§ĮëĤĺìĦľ":3847,"ĠíķĺëĤĺëĭĺ":3848,"Ġë§ĮëĤĺê³ł":3849,"ë½":3850,"ĠìķĦìĿ´ëĬĶ":3851,"ĠíĤ":3852,"ë¦ĩ":3853,"ĠìķĪëĲĺê³ł":3854,"Ġê°ĻìķĦìĦľ":3855,"Ġë¬¼ìĸ´ë´Ĳ":3856,"ìĿ´ë¡ľ":3857,"ĠëıĦìĭľ":3858,"ìĪĺë¥¼":3859,"ëī´":3860,"ìĪĺë¡Ŀ":3861,"ĠëĤĺë©´":3862,"ĠëŃĲëŀľ":3863,"ĠëıĦë¡ľ":3864,"Ġìĺ¤ë§Į":3865,"ĠíĴį":3866,"Ġë§¥ì£¼":3867,"Ġê°Ħëĭ¤":3868,"Ġëª½":3869,"Ġë²Ķ":3870,"Ġëľ¯":3871,"Ġê½ī":3872,"íĤ¬":3873,"ìĹĪìľ¼ë©´":3874,"íķľíħĮëıĦ":3875,"ì¼ĢìĿ´":3876,"Ġë¿Ĳ":3877,"ĠìĿ´íķ´ê°Ģ":3878,"Ġìŀ¤":3879,"Ġìī½ê²Į":3880,"Ġë§ŀìĸ´":3881,"ìĭľíĤ¤":3882,"ĠìĿ¸ìĤ¬":3883,"Ġê°ĲìĤ¬":3884,"ĠìĤ¬ëĭ¤":3885,"ĠìķĦë¹łëĬĶ":3886,"ĠìĿ¸ê°Ģ":3887,"Ġëª¨ë¥´ê²Ĳ":3888,"Ġìķłê¸°ëĵ¤":3889,"Ġíķ´ê·¸ëĦ¤":3890,"Ġê±¸ë¦¬":3891,"ĠíĹĪë¯Ħ":3892,"Ġë§Ĳíķĺê³ł":3893,"ìĤ¬ëĭĺ":3894,"ë¶Ģê°Ģ":3895,"Ġë§Īì°¬":3896,"ĠìŀĪìĹĪê³ł":3897,"ĠìŀĳëħĦìĹĲ":3898,"ì§Ģë¡ľ":3899,"ìĪĺê²Į":3900,"Ġìµľê·¼ìĹĲ":3901,"ë¬´ìĬ¨":3902,"Ġê±ĶëıĦ":3903,"Ġê·¼ì²ĺ":3904,"ëĶ¸":3905,"Ġë°©ìĹĲ":3906,"Ġíķľì°¸":3907,"ĠëıĮìķĦëĭ¤ëĭĪ":3908,"Ġë¨¹ëĬĶëį°":3909,"ĠëĦĪíĿ¬":3910,"ë¶Ģë¶Ħ":3911,"ĠìĹ°ê²°":3912,"ë¿":3913,"íĴĢ":3914,"Ġê½¤":3915,"ĠíıĲ":3916,"ëķħ":3917,"ìĻľëĥĲë©´":3918,"ĠíĹ¬ìĬ¤":3919,"ĠíķĺëĬĶê±°ìķ¼":3920,"ĠìķĦíľ´":3921,"ĠìłĦê¸°":3922,"ê²łëĬĶëį°":3923,"Ġêµ¬ìĽĮ":3924,"Ġë¹¨ê°Ħ":3925,"ĠëĲĲëĬĶëį°":3926,"ìĿ´ìłł":3927,"Ġë³´ëĥĪ":3928,"ëĮĢìĹĲ":3929,"ĠìĸĳëħĲ":3930,"ĠëĶ¸ìĿ´":3931,"Ġìĥ¤":3932,"ĠìĿ´ë§Įíģ¼":3933,"íķ´ìļĶ":3934,"Ġì¢ħë¥ĺ":3935,"ĠëĤĺì¤ĳ":3936,"Ġê±°ê±°ëĵł":3937,"Ġë¶ĪìĮį":3938,"Ġëĭ´ìķĦ":3939,"ĠëģĿëĤ¬":3940,"Ġìĺ¤ë¹łëĬĶ":3941,"Ġì²ĺìĿĮìĹĶ":3942,"ê±°ëĬĶ":3943,"Ġì¶ĶìĽĮ":3944,"ê±´ì§Ģ":3945,"ë³´ëĭ¨":3946,"ĠëıĻë¬¼":3947,"ĠëĽ°ìĸ´":3948,"íĺľ":3949,"ĠíĨµíĻĶ":3950,"ĠìĭĿêµ¬":3951,"Ġìĩł":3952,"Ġë§¤ìļ°":3953,"íķľê²Į":3954,"Ġì¥Ĳ":3955,"ì£¼ë§ĮìĿĢ":3956,"ìŀ¥ê³ł":3957,"ĠëĤ¨ìŀĲìķł":3958,"ĠìĺĪë»Ĳ":3959,"Ġ.":3960,"ĠìĿ´ë¶Ī":3961,"ê¹Įë´Ĳ":3962,"íķĻê³¼":3963,"Ġëª¨ìŀĲ":3964,"Ġë¬¼ê±´":3965,"ëĮķ":3966,"ĠìĨĮë¦¬ê°Ģ":3967,"ĠìļĶë¦¬":3968,"Ġë°ĽìķĦìĦľ":3969,"ìĭłê³ł":3970,"ìĭľëĥĲ":3971,"ĠìŀĪìŀĸìķĦìļĶ":3972,"Ġíĸĩ":3973,"ĠëħĦëıĦ":3974,"ĠëĨĵìĿĢ":3975,"ìĿ¼ìĿ´":3976,"ìĹĲìĿ´":3977,"Ġì¹ľêµ¬ëĵ¤ìĿ´":3978,"ëį©":3979,"ê·¸ì¹ĺ":3980,"ëĴĢ":3981,"ìŀĪëĬĶëį°":3982,"ĠíĸĪìĸ´ìļĶ":3983,"ĠìĦ±ê²©ìĿ´":3984,"ĠëĤĺê°ĢëĬĶ":3985,"Ġëĸ¡ë³¶":3986,"ê°ĦìĿ´":3987,"ĠìĿ´ëŁ°ê²Į":3988,"ĠìĿ¼ëħĦ":3989,"ĠìĥģíĻ©ìĿ´":3990,"ĠëħĦìĹĲ":3991,"ë§ĪìĶĢ":3992,"ĠìĿĢê·¼":3993,"ĠìĹī":3994,"ë§ĲìĿ´":3995,"Ġê¸°ê³Ħ":3996,"Ġê¹Ĭ":3997,"ë¹Ļ":3998,"ìļ°ìĬ¤":3999,"ìĸ´ëĸ¤":4000,"Ġìĸĺê¸°íķĺëĬĶ":4001,"ĠëĿ¼ëĬĶ":4002,"Ġêµ°ëį°":4003,"íĸĪëĭ¤ê³ł":4004,"ĠìĥģëĮĢ":4005,"ìĻĶìĸ´":4006,"Ġëĭ¤ëĭĪë©´ìĦľ":4007,"ëĤĺë´Ĳ":4008,"ĠìŀĶì¹ĺ":4009,"ĠìĹĺ":4010,"Ġëª¨ìķĦ":4011,"Ġìŀħìŀ¥":4012,"ĠíĨłìĿµ":4013,"Ġë©Ģë¦¬":4014,"Ġê²¡":4015,"ĠëŃĲëĥĲë©´":4016,"ĠíĴĢìĸ´":4017,"ĠìĦľë¥¸":4018,"Ġíķ´ì£¼ëĬĶ":4019,"ëĦĲ":4020,"Ġì§Ģíķĺ":4021,"ĠíĺĪ":4022,"Ġê·¸ëŀ¬ìĸ´":4023,"ĠíķľëĮĢ":4024,"Ġì¢ĭìķĦíķĺ":4025,"ĠìĹ°ìĺĪìĿ¸":4026,"Ġì§ĢëĤľ":4027,"Ġìļ°ë¦¬íķľíħĮ":4028,"Ġìĸ¸ëĭĪëŀĳ":4029,"ìĸ´ë¥¼":4030,"Ġëĵ¤ìĹĪ":4031,"íķłë¨¸ëĭĪ":4032,"ë²Ħëł¤ìĦľ":4033,"Ġë©į":4034,"Ġìĵ°ë©´":4035,"ë§¨ëĤł":4036,"ëĭ¹ìĹĲ":4037,"ĠëĨįìĤ¬":4038,"ĠìĥĪë¡ľìļ´":4039,"ĠíķĺëĭĪ":4040,"ĠìŀĲìĭł":4041,"ĠíĽĪ":4042,"ĠëĦĲ":4043,"Ġê³łì¹ĺ":4044,"ĠìŀĲê¸°ëıĦ":4045,"ë¦İ":4046,"ĠìĪłìĿĦ":4047,"Ġêº¾":4048,"ë§Ļ":4049,"ĠìĹ´íķľ":4050,"ë¶ĢíĦ°ëĬĶ":4051,"Ġë´¤ê±°ëĵł":4052,"Ġëª°ëĿ¼ëıĦ":4053,"Ġê°ĢìĿ´ê°Ģ":4054,"Ġê¸°ìĪĻ":4055,"ëıĦë¡ľ":4056,"Ġì§¤":4057,"Ġì¤ĳìķĻ":4058,"Ġíİľ":4059,"Ġê²°íĺ¼ìĭĿ":4060,"Ġíķ´ì¤¬":4061,"ĠëĭĪëĦ¤":4062,"ëĭĻ":4063,"ìĺ¤ìĭŃ":4064,"Ġë°Ķìģĺ":4065,"ìķķ":4066,"Ġìĭľê¹Įì§Ģ":4067,"ëĳĲê³ł":4068,"ĠìķĦëĭĪëĿ¼ê³ł":4069,"ìĿĦëķĮ":4070,"Ġìĺ¤ëĿ¼ê³ł":4071,"ĠìĨĮê¸Ī":4072,"ĠíĸĪìĹĪê±°ëĵł":4073,"ĠìĤ¬ìŀ¥ëĭĺ":4074,"ĠëĨĢìķĦ":4075,"ĠìļĶìĥĪëĬĶ":4076,"ìĭ±":4077,"ĠìĹ¬ìŀĲìķł":4078,"Ġê½Ĥ":4079,"Ġê°Ķì§Ģ":4080,"Ġì«ĵ":4081,"Ġì³Ĳëĭ¤":4082,"ìĽĲëıĦ":4083,"Ġìĸĺê¸°íķĺ":4084,"Ġê²ħíķ´":4085,"Ġê³¨ìķĦ":4086,"Ġìĩ¼íķĳ":4087,"Ġì½ľ":4088,"ĠìĤ¬ìĿ´ìĹĲ":4089,"Ġë¬´ìĦľìļ´":4090,"ìĿĦê±°":4091,"Ġëĺĺ":4092,"ë§Ĳë¡ľ":4093,"ìĹĨëĬĶ":4094,"Ġìĸ´ëĬĲìłķëıĦ":4095,"ĠíĿ¬":4096,"ê²łìĸ´ìļĶ":4097,"Ġìķłëĵ¤ìĿ´ëŀĳ":4098,"ĠíĹĪìĹ¬":4099,"ê°ĳìŀĲê¸°":4100,"ìĹ½":4101,"Ġì¼ľ":4102,"ìĮ¤":4103,"ì³ĲìĦľ":4104,"ëįĺëĶĶ":4105,"ìł¸ê°Ģì§Ģê³ł":4106,"ìĿ´ê¸´":4107,"ëĵ¤ëģ¼ë¦¬":4108,"Ġëĳĺì§¸":4109,"ĠìłķëıĦë©´":4110,"Ġë¹Ī":4111,"Ġê²½ìļ°ëĬĶ":4112,"Ġê±°ëĭ¤":4113,"Ġë°ĶíĢ´":4114,"ĠëĲłì§Ģ":4115,"Ġìŀ¥ìĤ¬":4116,"Ġë³´ì§Ģ":4117,"ĠìĿ¼íķĺëĬĶ":4118,"ĠíĻĪ":4119,"Ġê¼´":4120,"ĠìŀĪëĭ¤ëĬĶ":4121,"Ġë§ŀì¶Ķ":4122,"ĠëĤĺëĬĶëį°":4123,"ĠíĽĦíļĮ":4124,"ë¶ĢëŁ°":4125,"ĠìĦ¸ê³Ħ":4126,"ìĿ´íĦ°":4127,"ìļ°ë©´":4128,"ĠëĤ¼":4129,"Ġíķ´ì¤Ģ":4130,"ĠëĤ¨ìĿĢ":4131,"Ġê·¼ìľ¡":4132,"ëĿ¼ìĿ¸":4133,"Ġìĸ´ì°Į":4134,"ëįĶëĿ¼ëıĦ":4135,"ëľ¨":4136,"Ġì§ĳëıĦ":4137,"ê»Ħ":4138,"ìĿ´ìĺģ":4139,"Ġë¶Ģëĭ´":4140,"ĠëĤĺê°Ħ":4141,"ìłĲìĿ´":4142,"ĠíĥĶ":4143,"ì§ĢìĹĲ":4144,"ĠìŀĪì§Ģë§Į":4145,"íĹĮëĶĶ":4146,"Ġê±°ê¸´":4147,"Ġëħ¸ëĬĶ":4148,"ìķĦìĿ´êµ¬":4149,"ĠìĤĲ":4150,"Ġëĭ¤ëĭĮ":4151,"Ġì¢ĭê¸´":4152,"ĠìĿĺìĤ¬":4153,"ê·¸ëŀ¨":4154,"Ġê°Ļëĭ¤ê³ł":4155,"Ġë§ĮëĤĺëĬĶ":4156,"Ġë§ŀê³ł":4157,"Ġë¯¸ì¹ľ":4158,"Ġê·¸ë§Įíģ¼":4159,"ë°¤":4160,"ìŀ¥ìĿĢ":4161,"ĠíĻľëıĻ":4162,"Ġìł¤":4163,"Ġëĵ¤ìĸ´ìĺ¨":4164,"Ġë¬¼ìĹĲ":4165,"Ġëª»íķł":4166,"ëĦĪê°Ģ":4167,"ìĨĶì§ģíŀĪ":4168,"ĠìŀĺëĿ¼":4169,"íĺĪ":4170,"Ġíı¬ê¸°":4171,"Ġë§İìľ¼ëĭĪê¹Į":4172,"ê¾":4173,"Ġê°ĻìĿĢê±°":4174,"ĠëĤłìĿ´":4175,"ëł´":4176,"Ġê²¨ìļ¸ìĹĲ":4177,"ĠíĿĳ":4178,"ĠìĤ´ë©´ìĦľ":4179,"Ġì¡°ê·¸":4180,"Ġìļ´ëıĻìĿĦ":4181,"Ġë³´ëĬĶëį°":4182,"Ġë°¥ëıĦ":4183,"ê»Ģ":4184,"ê´ĢìĿ´":4185,"Ġì§Ŀ":4186,"Ġê°ľê°Ģ":4187,"ìĨĮìĹĲ":4188,"Ġíİ¸ìķĪ":4189,"Ġë¶ĻìĹ¬":4190,"íŀĮ":4191,"ĠëĤĺìĿĺ":4192,"ë¬´ìĤ¬":4193,"Ġëľ»":4194,"ĠëĤ«ì§Ģ":4195,"Ġíĺ¸ê¼¼":4196,"ì´ĪìĹĲ":4197,"ĠíĭĢìĸ´":4198,"Ġíľ":4199,"ĠìŀĪëĮĦ":4200,"ĠëıĦë§Ŀ":4201,"ëĸ¼":4202,"Ġë§İìŀĸìķĦ":4203,"ë¥´ë©´":4204,"Ġì°Ĳ":4205,"ìĸ´ì":4206,"ëĮĢëĬĶ":4207,"ĠíħĲ":4208,"Ġíķ©ëĭĪëĭ¤":4209,"Ġë¬¸íĻĶ":4210,"ì«":4211,"ëª¸":4212,"ĠëıĪìľ¼ë¡ľ":4213,"Ġíķ´ìĺģ":4214,"ĠìĿ´ëŁ´":4215,"Ġì¼Ģ":4216,"Ġëª©ìļķ":4217,"ĠíıīìĥĿ":4218,"ĠìĦ¸ìĥģìĹĲ":4219,"ìĿ´ìĦľ":4220,"Ġê°ĢìĿĦ":4221,"Ġê°Ģë³´":4222,"ĠìĤ¬ê±´":4223,"Ġì¢ĭìĿĢê±°":4224,"ê·¸ëłĩ":4225,"ĠìĿ´ìĭľëĤľ":4226,"ë¶ĢëĭĪê¹Į":4227,"Ġìĭ«ìĿĢ":4228,"ĠìĨĮë¬¸":4229,"ĠìĦ¬":4230,"ĠìĬ¤íĨł":4231,"ĠëĤĺìĻĶìĸ´":4232,"Ġê±°ì§ĵ":4233,"ĠëģĬìĸ´":4234,"Ġê¸°íļĮ":4235,"±ìĿ´":4236,"ìķ¤":4237,"Ġíķĺëĭ¹":4238,"Ġì°¬":4239,"ìķĦëĭĪë©´":4240,"Ġë´ĲìĭłëĶĶ":4241,"Ġë°ĸìĹĲìĦľ":4242,"ĠëıĪìĿĢ":4243,"Ġì¶¥":4244,"ĠíĮ¬":4245,"Ġì¶Ķìĸµ":4246,"Ġìĸ¼êµ´ìĿ´":4247,"ìŀħëĭĪëĭ¤":4248,"Ġê¸°ëĭ¤ëł¤":4249,"íĹĪë¯Ħ":4250,"Ġê¸°ë¶ĦìĿ´":4251,"ĠìĿ´ìĸ´":4252,"ìĬ¤ëŁ½ê²Į":4253,"ĠëĪĪìĹĲ":4254,"ĠìĿ´ëŁ¬ëĬĶ":4255,"ĠìĤ´ìķĦìķ¼":4256,"Ġìĸĺê¸°íķĺê³ł":4257,"Ġìĸ´ëł¤ìļ´":4258,"Ġê»´":4259,"ê½ĥ":4260,"ìĿ´ëŀĺ":4261,"ĠìĦĿ":4262,"Ġì¢ĭìķĦìĦľ":4263,"Ġê°Ģë¥´ì³Ĳ":4264,"ë±":4265,"ëŁ¬ìĬ¤":4266,"ĠëģĦ":4267,"ĠëģĮ":4268,"ĠìķĦëĭĪëĭĪê¹Į":4269,"Ġê²Ģìĥī":4270,"Ġì²´ìľ¡":4271,"ĠíĳľíĺĦ":4272,"íĩ´":4273,"Ġê±°ëĥĲ":4274,"nameìĿ´":4275,"ĠìķĪíķĺ":4276,"Ġë§Įëĵ¤ìĸ´ìĦľ":4277,"Ġì£¼ìĿ¼":4278,"ìĽĲìĹĲ":4279,"ĠìİĦ":4280,"Ġê°Ģëł¤ê³ł":4281,"ĠëķĮë§Į":4282,"ì½ľ":4283,"ê¹Įì§Ħ":4284,"Ġìĭ±":4285,"Ġíķ´ëħĢ":4286,"ëħ¸ëĤľ":4287,"ĠëĪĦìĽĮ":4288,"ĠìĥĪë²½ìĹĲ":4289,"ĠìĹĶ":4290,"ë²Ħëł¸ìĸ´":4291,"Ġìŀħìĸ´":4292,"Ġëĸ¨":4293,"íĤ¹":4294,"ë¹¨ë¦¬":4295,"ĠìĿ´ëķĮ":4296,"ëĤĺìĭłëĶĶ":4297,"Ġëª©íĳľ":4298,"ëķĮë¬¸ìĹĲ":4299,"ëłĪë¹Ħ":4300,"ĠíĿ°":4301,"ìĽłìĸ´":4302,"ê³ĦìĨį":4303,"ĠíĻĺê²½":4304,"ĠëĲĺë©´ìĿĢ":4305,"Ġê±°ëŀĺ":4306,"ĠìŀĪìĿĦê¹Į":4307,"Ġë§Ĳíķ´ìĦľ":4308,"Ġë²Ħë¦¬ê³ł":4309,"ê±°ìĿĺ":4310,"ĠíĸīëıĻ":4311,"ĠëĲĺëĬĶëĶĶ":4312,"Ġìĸ´ì©Įê³ł":4313,"íķĺëĿ¼ê³ł":4314,"ĠìłĢëıĦ":4315,"ĠìĹĨìĸ´ìļĶ":4316,"ë¶ĦìĿ´":4317,"Ġìī¬ëĬĶ":4318,"íĪ°":4319,"Ġê·¸ëĭ¤ìĿĮ":4320,"ĠìķĦëĭĪë©´ìĿĢ":4321,"Ġì§ĳì¤ĳ":4322,"Ġx":4323,"ĠíĹĪë¦¬":4324,"ìŀĲë¦¬":4325,"Ġì¡°ì¹´":4326,"ë°©ìĹĲ":4327,"Ġë¹¨ëŀĺ":4328,"Ġê´ĳê³ł":4329,"ĠìķĦëĭĪìĹĲìļĶ":4330,"ĠìĹ¬ë¦ĦìĹĲ":4331,"Ġìļ°ìľł":4332,"ĠëĴ¤ë¡ľ":4333,"Ġë°©íķĻ":4334,"ì¿":4335,"ĠëģĿëĤľ":4336,"Ġì½ĺ":4337,"Ġëĥīìŀ¥ê³ł":4338,"Ġë¬¼ìĿĦ":4339,"ĠìĽ¹":4340,"Ġìĸĺê¸°ê°Ģ":4341,"Ġìį©":4342,"ĠíķĺìĸĢ":4343,"ëĦ¤ëĬĶ":4344,"ĠìķĦëĭĻ":4345,"ëĭ·":4346,"ëĭ¹íŀĪ":4347,"ĠìľłíĬľ":4348,"ì½ĺ":4349,"ëŀŃ":4350,"Ġëĺĳëĺĳ":4351,"Ġë¬´ìĭľê±°":4352,"Ġê±°ë¦¬":4353,"ëĤĺì¤ĳìĹĲ":4354,"ĠìŀĪìľ¼":4355,"ĠìŀĪêµ¬ëĤĺ":4356,"11":4357,"Ġëª¨ë¥´ê²łëĭ¤":4358,"Ġê·¼ëĶĶ":4359,"Ġë§Īì°¬ê°Ģì§Ģ":4360,"ĠíķłëķĮ":4361,"ĠëıĻìĥĿìĿ´":4362,"ìĺĽëĤłìĹĲ":4363,"Ġê¸°ì¤Ģ":4364,"Ġìĺ·ìĿĦ":4365,"ĠíĥĿë°°":4366,"ĠëĤĺê°Ģê³ł":4367,"Ġë¬´ë¦İ":4368,"Ġì°¨ë¥¼":4369,"Ġìľłíĸī":4370,"íĹĪìĹ¬":4371,"ĠëĤĺìķĦ":4372,"ĠìŀĪëįĶëĿ¼ê³ł":4373,"Ġìŀ¬ë°Įìĸ´":4374,"Ġì§ĢëıĦ":4375,"ĠìķĬìľ¼":4376,"Ġìĭ¶ëĭ¤ê³ł":4377,"ë§Ĳê³ł":4378,"ĠëªħìłĪ":4379,"Ġì¹ĺë£Į":4380,"·°":4381,"Ġì£¼ì°¨":4382,"ê¸°ì§Ģ":4383,"íķĺëĬĶê²Į":4384,"ĠìĤ¬ë¬´":4385,"ĠìĿ´ìłľê¹Įì§Ģ":4386,"ì¦Į":4387,"ĠìĬ¹":4388,"ì§ĳìĹĲìĦľ":4389,"ìĹ¬ê°Ģì§Ģê³ł":4390,"ĠìķĪëĲĺëĬĶ":4391,"ĠíķĺëĥĲ":4392,"Ġê²Ĳ":4393,"Ġê°ĢëĿ¼":4394,"Ġë²½":4395,"ĠìŀĲìľł":4396,"ëª¬":4397,"íĬ¸ê°Ģ":4398,"ĠíĤ¤ìļ°ëĬĶ":4399,"ĠëĨĴìĿĢ":4400,"ê³¼ê°Ģ":4401,"ĠíĻ©":4402,"ĠëĤ¨íİ¸ìĿ´":4403,"Ġëĭ¹ê·¼":4404,"ëĮĢë¥¼":4405,"ĠìĬ¤ìĬ¤ë¡ľ":4406,"íķłëķĮ":4407,"ìĿ´ë¸Į":4408,"ëħľ":4409,"ìĺ¤ë¦Ħ":4410,"ëĵľê°Ģ":4411,"íĳ¸":4412,"ĠìķĦìĿ´ëĵ¤ëıĦ":4413,"ìļ°ëĭĪê¹Į":4414,"Ġì¶ĶìĦĿ":4415,"Ġíĩ´ê·¼":4416,"ìĸ´ì¨Įëĵł":4417,"ĠìķĪê²½":4418,"Ġê²ĥë³´ëĭ¤":4419,"ĠìĦ±ëĭĺ":4420,"Ġëĵ¤ìľ¼ë©´":4421,"Ġíķ©ê²©":4422,"Ġë§ĮëĤĺë©´":4423,"ê·ł":4424,"ĠíĮį":4425,"Ġê°Ķê±°ëĵł":4426,"ê¸°ë¦Ħ":4427,"Ġëª¨ë¥´ëĭĪê¹Į":4428,"Ġìĺ¤ë¹łëŀĳ":4429,"ĠíķĺëĤĺê°Ģ":4430,"Ġë²Īíĺ¸":4431,"Ġëĸ¨ìĸ´ìł¸":4432,"ĠëĥĪ":4433,"Ġì£½ëĬĶ":4434,"Ġê·¼ë¬´":4435,"ëĵ£":4436,"ĠìĥĿìĦł":4437,"ĠìĹ´ìĸ´":4438,"ĠëĨĢëŀĲ":4439,"Ġë¥":4440,"ĠìķĦë¶Ģ":4441,"ëĤĺìĿ´":4442,"Ġë¨¹ìĹī":4443,"ĠëĤ¨ìķĺ":4444,"Ġì£½ìĿĢ":4445,"Ġê·¸ëŁ¬ì§Ģ":4446,"ë³Ħë¡ľ":4447,"Ġìĸ´ìĿ´":4448,"ìķĦëĭĪìķ¼":4449,"ìŀĲëıĦ":4450,"Ġìĸ´ëķĮ":4451,"ĠëķľìĹĲ":4452,"Ġíĳľì¤Ģ":4453,"ëĦ¤ìļĶ":4454,"ĠìŀĲëıĻ":4455,"Ġëª¨ë¥¼":4456,"Ġëª¨ë¥¸":4457,"Ġë³¸ìĿ¸":4458,"ìķĦê¹Į":4459,"ĠìĤ¬ëŀĮëĵ¤íķľíħĮ":4460,"Ġë°Ķëĭ¥":4461,"Ġê¿Ģ":4462,"Ġë§¹":4463,"ëįĶëĿ¼êµ¬":4464,"Ġìĥģê´ĢìĹĨ":4465,"ìĿ´ëŀĢ":4466,"Ġê°ĢìĿ´ëĦ¤":4467,"ëĤ´ê³ł":4468,"ĠìĹĨìĸ´ê°Ģì§Ģê³ł":4469,"ë¨¼":4470,"ĠëģĿê¹Įì§Ģ":4471,"ê·¼ëĶĶ":4472,"Ġë¶Ģì¡±":4473,"ĠìĻĢìķ¼":4474,"ê·¤":4475,"ì§Ĳ":4476,"ĠíķłìĿ¸":4477,"Ġíķľë§Ī":4478,"Ġê³łë§Ļ":4479,"ĩĮ":4480,"Ġëĵ¤ìĿĦ":4481,"ĠíĥĢëĬĶ":4482,"Ġìĭ¬íķ´":4483,"ë§¹":4484,"ëĭ¤ë¦¬":4485,"ĠìķĬìľ¼ë©´":4486,"Ġê·¸ëŁ¬ëĬĶ":4487,"Ġì¶Ķê°Ģ":4488,"ĠìĦľìļ¸ìĹĲ":4489,"Ġê¿©":4490,"Ġëī´ìĬ¤":4491,"ĠìĿ´ëĶ°":4492,"Ġê°Ģë¯Ħ":4493,"Ġì¢ĭê²łìĸ´":4494,"Ġëĵ¤ë©´":4495,"Ġì§Ģê¸Īê¹Įì§Ģ":4496,"ĠìĭľìłĪ":4497,"ëĮĢì²´":4498,"Ġê²°íĺ¼ìĿĦ":4499,"ê²ĲëĶĶ":4500,"Ġë°ĺìĹĲ":4501,"Ġì·¨ìĨĮ":4502,"ëĵ¤ë§Į":4503,"ĠíĮĶê³ł":4504,"Ġìĭ¸ê²Į":4505,"ĠëªħìĿĢ":4506,"Ġëĵ¤ìĸ´ê°Ģê³ł":4507,"Ġíķĳ":4508,"Ġì¹ĺì¦Ī":4509,"ĠíķĦìļĶê°Ģ":4510,"Ġê°ģìĭľ":4511,"Ġì¹ľêµ¬ëıĦ":4512,"Ġê´Ģê´ĳê°Ŀ":4513,"ê±į":4514,"Ġê°ĢìĬ´":4515,"ĠìĿ´ìłľìķ¼":4516,"ĠìĿ¸ê°Ħ":4517,"Ġíķĺê²łëĭ¤":4518,"ĠìĹ¬ìľł":4519,"Ġë§Ľì¢ĭ":4520,"ĠëĲľëĮĦ":4521,"Ġê·¸ëŀĺìķ¼":4522,"ĠíĻĶê°Ģ":4523,"ìĺĢëĤĺ":4524,"ëĭ¤ìĦ¯":4525,"Ġìĸ´ìļ°":4526,"ìŀĲë¡ľ":4527,"Ġëĭ¹ìŀ¥":4528,"ĠìłĢíĿ¬":4529,"Ġê³łìĤ¬ë¦¬":4530,"Ġíķĺë¥´":4531,"Ġê·¸ë¦ĩ":4532,"Ġê´Ģìĭ¬ìĿ´":4533,"Ġëĭ¹ìĭł":4534,"ĠíķĺëĬĶì§Ģ":4535,"ĠìĿ¼ì£¼ìĿ¼ìĹĲ":4536,"ê³³":4537,"ë¦¬ìķĦ":4538,"ĠnameëĦ¤":4539,"Ġê³¼ìĿ¼":4540,"ĠíķľëĶĶ":4541,"Ġë³´ëĿ¼":4542,"ĠëĮĢë¶Ģë¶Ħ":4543,"ĠëĨĵìľ¼ë©´":4544,"Ġë³´ëĤ´ê³ł":4545,"Ġë²ĪìĹĲ":4546,"ĠëĤ¨ìĿĺ":4547,"ĠëĤ´ëł¤ê°Ģ":4548,"ë©´ìĿ´":4549,"ê±°ëĵłìļĶ":4550,"íĹĲ":4551,"ê¾¼":4552,"ŃĪ":4553,"ĠìľĦë¡ľ":4554,"ìķĦìľł":4555,"Ġì²ĺìĿĮë¶ĢíĦ°":4556,"Ġìĭľì¼°":4557,"ëĭ¬ìĹĲ":4558,"Ġì´ĮìĹĲ":4559,"Ġë°Ķë¹ł":4560,"ìļ°ë¦°":4561,"Ġê°ķìĿĺ":4562,"Ġê±°ì§ĵë§Ĳ":4563,"Ġëį®":4564,"íĺĳ":4565,"ĠìĤ¼ë§Į":4566,"ĠìĿ½ìĸ´":4567,"ìŀİ":4568,"ë¹¼":4569,"Ġê°ľë¥¼":4570,"Ġë¶ĪìķĪ":4571,"Ġë§¤ìļ´":4572,"ĠëĥĦìĥĪê°Ģ":4573,"ìºĶ":4574,"ĠëĤĺìģĺì§Ģ":4575,"Ġê°Ģë©´ìĦľ":4576,"Ġë§ĲíĸĪìĸ´":4577,"ĠëĤĺìĺ¤ëĭĪê¹Į":4578,"ìķŀ":4579,"ì¯¤ìĹĲ":4580,"Ġìĸ´ìĭłëĶĶ":4581,"ìĸ´ëĸ»ê²Į":4582,"ĠìĤ¬ëŀĮìĿ´ëŀĳ":4583,"Ġë³´ìĿ¼":4584,"ĠìĦľìļ¸ìĹĲìĦľ":4585,"Ġíı¬ìŀ¥":4586,"ĠìĿ´ëĿ¼ê³ł":4587,"ĠìŀĪëĥĲ":4588,"Ġê°Ģìļ´ëį°":4589,"ë¥ł":4590,"Ġëļ«":4591,"ĠìĻĢìĿ´":4592,"íķ´ì£¼":4593,"Ġë§Ĳë§Į":4594,"ĠìŀĪìĹĪì§Ģ":4595,"ĠëŃĲëĭĪ":4596,"ĠìŀĲì·¨":4597,"Ġì¹ľêµ¬ëĵ¤ìĿ´ëŀĳ":4598,"ìĭłì§Ģ":4599,"Ġê¸°ìĪĻìĤ¬":4600,"ìķłê¸°":4601,"Ġëª¨ë¥´ê²Į":4602,"ĠìłģìĿĢ":4603,"Ġìĸ´ë¦°ìĿ´":4604,"ĠìłĦë¬¸":4605,"ëĲĺê²Į":4606,"Ġëĭ¬ëł¤":4607,"Ġë´¤ì§Ģ":4608,"Ġë§Īìĭľê³ł":4609,"Ġìłľì£¼ëıĦê°Ģ":4610,"ĠìĿ´ìª½":4611,"ĠìļĶì¦ĺìĹĲëĬĶ":4612,"Ġë°Ŀ":4613,"Ġíķľìĭľê°Ħ":4614,"Ġì§Ģì¼ľ":4615,"Ġê²ĥìĿĦ":4616,"ĠìķĪë³´":4617,"ĠíķĺëĤĺëĬĶ":4618,"Ġëªĩë²Ī":4619,"ĠíķĦìļĶíķľ":4620,"Ġëįķ":4621,"ĠíķľëĳĲ":4622,"Ġë§Ľì§ĳ":4623,"Ġì¹ľêµ¬ëĬĶ":4624,"Ġê²¬":4625,"Ġì»¸":4626,"Ġìĸ´ëł¤ìĽĮ":4627,"Ġìŀĺíķĺê³ł":4628,"êµŃìĪĺ":4629,"Ġë©Ķë°Ģ":4630,"ĠìĶ¹":4631,"Ġë§ĪëĬĺ":4632,"Ġë°Ľìľ¼ë©´":4633,"ĠìĻĶëĭ¤ê°Ķëĭ¤":4634,"ìķĦëıĦ":4635,"ĠëĤĺëĭĪê¹Į":4636,"ë§¥":4637,"Ġê³łë¥´":4638,"ĠëĬĲê¼Ī":4639,"ĠíĽĦìĹĲ":4640,"Ġíĥľìĸ´":4641,"ëĤĺë©´":4642,"ĠíĸĪëĮĢ":4643,"ĠíĸĪì§Ģë§Į":4644,"Ġìĵ°ì§Ģ":4645,"Ġìŀłê¹Ĳë§Į":4646,"ĠìķĪë¨¹":4647,"ë¶Ģëª¨":4648,"Ġê³łë§Ī":4649,"ëĦĪëĬĶ":4650,"Ġê·¸ëłĩëĭ¤ê³ł":4651,"Ġë§ĪìĿĮìĿĦ":4652,"ìĤ¬ëŀĮìĿ´":4653,"ĠìķĪíķ´ëıĦ":4654,"ĠìĨĲìľ¼ë¡ľ":4655,"ĠìłĦìĹĲëĬĶ":4656,"Ġê¹İ":4657,"ĠëĤ´ëħĦìĹĲ":4658,"Ġë¨¹ìĹĪëįĺ":4659,"Ġë°Ķëĭ·":4660,"Ġìĸ¸ëĭĪíķľíħĮ":4661,"Ġê²ħíķ´ëıĦ":4662,"Ġíģ¬ê³ł":4663,"Ġëĵ¤ëł¤":4664,"Ġëĵ¤ìĸ´ìĻĶ":4665,"Ġê³¨íĶĦ":4666,"Ġëª°ëŀĲìĸ´":4667,"ëĭ¤ìĭľ":4668,"ìĹł":4669,"ĠíķĺëĬĺ":4670,"Ġê·¸ëķĮê°Ģ":4671,"ĠìŀĲëŀĳ":4672,"ì©Įê³ł":4673,"Ġê²ĥìĿĢ":4674,"ĠìĨĮì£¼":4675,"ĠëĦĪëĦ¤ê°Ģ":4676,"Ġëª»íķľ":4677,"Ġë©°ëĬĲë¦¬":4678,"ĠíķĺëŁ¬":4679,"ê°Ķìĸ´":4680,"Ġìļ©ëıĪ":4681,"Ġìłĸ":4682,"íķĺëĭĪê¹Ĳ":4683,"ĠìĿ´ëŁ¬ë©´":4684,"ĠìĦŃ":4685,"íĸĪëĦ¤":4686,"Ġíķ´ìĹ¬":4687,"Ġê·¸ìŀĲ":4688,"ĠìĹĨê±°ëĵł":4689,"ĠìĿ¼ìĸ´ëĤĺìĦľ":4690,"Ġê°ĢìŀĸìķĦ":4691,"Ġíķ´ì¤ĺìķ¼":4692,"Ġê·ĢìĹ½":4693,"ìłĵ":4694,"Ġë³´ëĤ¸":4695,"ë¬¼ìĿĦ":4696,"ëĭ®":4697,"Ġê°Ģì¡į":4698,"Ġê²ĢìĿĢ":4699,"ìĬ¤ëıĦ":4700,"Ġë´¤ëįĺ":4701,"Ġë°±ë§Į":4702,"Ġíİ¸íķĺê²Į":4703,"ĠìĦ±ì§Ī":4704,"Ġìĺģìĸĳ":4705,"ĠìĤĺ":4706,"ĠnameìķĦ":4707,"ĠìĽ¹íĪ°":4708,"ì¡°ê¸Ī":4709,"ëĤ¬ìĸ´":4710,"Ġëļľ":4711,"ĠìłĦì²´":4712,"ĠíĻĢ":4713,"Ġë©¸":4714,"Ġëĭ¹ìĭľìĹĲ":4715,"ĠíĸĪëĮĦ":4716,"ĠìĭľìĽĲ":4717,"Ġíĳ":4718,"Ġì§Īë¬¸":4719,"ĠíĸĪëĭ¤ê°Ģ":4720,"ĠëıĻëĦ¤ìĹĲ":4721,"©ëĭĪëĭ¤":4722,"Ġìĸ´ê¹¨":4723,"ĠìķĮê²Į":4724,"ĠêµĲìĪĺëĭĺìĿ´":4725,"12":4726,"ĠìłĦëĤł":4727,"ìĥģìĿĦ":4728,"Ġë³´ëĭ¤ê°Ģ":4729,"ĠëĮĢëĭµ":4730,"Ġìķłë§¤":4731,"ìļ´ëıĻ":4732,"Ġê´Ģê³Ħ":4733,"ë©ĶëĿ¼":4734,"ĠìĪĻìĨĮ":4735,"Ġë§İìĿĦ":4736,"Ġê°ĦìĹĲ":4737,"ìľ¼ë¡ľëĬĶ":4738,"Ġíķľë²ĪìĶ©":4739,"íĬ¹":4740,"ê²łëĥĲ":4741,"Ġë§ĲíķĺëĭĪê¹Į":4742,"Ġì¹ľì²Ļ":4743,"ĠëĤĺê°Ģë©´":4744,"ĠìłĦê³µ":4745,"Ġì±ħìŀĦ":4746,"ĠìĽĲìĶ©":4747,"ìħ¨ìĸ´":4748,"ë§Įíķĺë©´":4749,"ĠëĶ±ëĶ±":4750,"Ġìĭ¸ìļ°":4751,"ĠìķĦíĮĮìĦľ":4752,"ĠìĿ¼ìļĶìĿ¼":4753,"Ġê³¼ìłľ":4754,"Ġê°ģìŀĲ":4755,"ĠëĤĺìĻĶëĬĶëį°":4756,"Ġì±ħìĿĦ":4757,"Ġê°Ģë´¤":4758,"ĠíķĻêµĲìĹĲ":4759,"Ġë°Ł":4760,"Ġíķľë¦¼":4761,"ĠëĶ°ëĿ¼ìĦľ":4762,"ĠìĽĶìĹĲ":4763,"ìĸ´ì§Ħ":4764,"ĠëŃĲíķĺê³ł":4765,"Ġë§ŀìĿĢ":4766,"Ġë°°ê°Ģ":4767,"Ġê³łì¶Ķ":4768,"Ġíĺķìłľ":4769,"Ġì§ľë¦¬":4770,"Ġì¶¤":4771,"ĠìĤŃ":4772,"Ġìĭ¶ìĹĪëĬĶëį°":4773,"ĠëªħìĿ´ìĦľ":4774,"ìĥĿìĿ´":4775,"Ġìī¬ìļ´":4776,"ĠìķĦíĶĦê³ł":4777,"Ġê°Ļìľ¼ë©´":4778,"ĠíĸĪìľ¼ëĭĪê¹Į":4779,"Ġê¸¸ìĿ´":4780,"íĸ¥ìĿ´":4781,"Ġë°ĶìĿ´":4782,"Ġê±¸ëł¸":4783,"ĠëŃ£":4784,"ĠìĹ¬íĸīìĿĦ":4785,"ĠíĽĪëł¨":4786,"ĠìĿ´íĺ¼":4787,"Ġë³´ê²Į":4788,"Ġë¨¹ê¸°":4789,"ĠëĮķê¸°":4790,"Ġë¯¸ìļ©":4791,"ĠìķĦëĭĺ":4792,"ĠìķĦëĭĪê½Ī":4793,"Ġë°ĺëĮĢ":4794,"ĠíĬ¹ë³Ħ":4795,"ĠìĤ¬ë©´":4796,"Ġë°°ìļ°ê³ł":4797,"ì¹´ë¶Ģ":4798,"ìĦłìĥĿëĭĺ":4799,"ìĹĩ":4800,"ëį¸":4801,"ĠëĤĺìĺ¤ì§Ģ":4802,"ĠìĿ´íĽĦ":4803,"Ġìĭ¶ìľ¼ë©´":4804,"ĠìķĦë¹łíķľíħĮ":4805,"Ġê°Ģìķ¼ì§Ģ":4806,"ĠìŀĲìĦ¸":4807,"íķĺëĭĪ":4808,"Ġëħ¸íĬ¸":4809,"ìĭ¹":4810,"Ġìĭľì¦Į":4811,"Ġê¸ģ":4812,"ê·¸ê±°ëĬĶ":4813,"Ġê°Ģìłķ":4814,"íĨ±":4815,"ĠìĹĳ":4816,"ĠnameìĿ´ëĬĶ":4817,"ĠìĺĪìģĺê²Į":4818,"ëĳ¥ìĿ´":4819,"ìĬ¤íĦ°":4820,"Ġìłľë°ľ":4821,"ìĥ¤":4822,"ìĿ´ìĹĪìĸ´":4823,"ĠëĤ¸":4824,"Ġê²¹":4825,"íĿĶ":4826,"ëĶĶê°Ģ":4827,"Ġê±Ķëŀĳ":4828,"ĠìķĦë¹łëŀĳ":4829,"ĠíĭĢëł¤":4830,"Ġë¨¹ê²Į":4831,"ìĭľìķĦ":4832,"Ġëª¨ëĳĲ":4833,"ĠìĻľëĥĲë©´ìĿĢ":4834,"ĠíĨłìļĶìĿ¼":4835,"ĠíħĮìĿ´":4836,"ëĮĢë©´":4837,"ê¹Įì§Ģë§Į":4838,"Ġê²½íĸī":4839,"ëĳĶ":4840,"Ġìĸ»ìĸ´":4841,"ĠìľłíĬľë¸Į":4842,"Ġê°Ħëĭ¨":4843,"ì¤¬ìĸ´":4844,"Ġì¢Į":4845,"íĮł":4846,"ìłĦê±°":4847,"ĠìĻĶìĿĦ":4848,"ê²łêµ¬ëĤĺ":4849,"ĠëĨĶìĦľ":4850,"ĠëĥīëıĻ":4851,"Ġìĭ¬ê°ģ":4852,"Ġëĸ¡ë³¶ìĿ´":4853,"Ġë§ŀìĿĦ":4854,"íļ¨":4855,"ì§ĢìķĬ":4856,"ĠëłĮ":4857,"Ġë§īëĤ´":4858,"ìĽĢìĿ´":4859,"ëª½":4860,"ĠëĨ©":4861,"ìĦ¼íĬ¸":4862,"ĠíĶ¼íķ´":4863,"Ġìĭłê¸°íķ´":4864,"ĠëĤĻ":4865,"ĠëĤ´ëĬĶ":4866,"Ġìĭľê°ĦëıĦ":4867,"Ġìıĺ":4868,"ĠëĦ·íĶĮ":4869,"Ġì°¨ìĿ´ê°Ģ":4870,"Ġë¶ĪëłĢ":4871,"Ġë¨¹ìľ¼ë©´ìĦľ":4872,"ëļ±":4873,"ìĹĲëĭ¤":4874,"ê³µë¶Ģ":4875,"Ġë°ķìĬ¤":4876,"Ġíķ´ê²°":4877,"Ġê·¸ê±°ëŀĳ":4878,"ëĤ¨ìŀĲ":4879,"Ġë§Ĳëŀľ":4880,"Ġë©Ī":4881,"Ġìĺ¤ëŀľë§ĮìĹĲ":4882,"íĸĪìŀĸìķĦ":4883,"Ġìĸĺê¸°íķł":4884,"Ġìĭ¬ìĭ¬":4885,"ĠëĤ³ê³ł":4886,"ìķĦì£¼":4887,"ìĹĪìľ¼ëĭĪê¹Į":4888,"Ġì°įìĿĢ":4889,"ĠëĪĮëŁ¬":4890,"ĠëĪĦê²Į":4891,"ĠëĤĺìĺ¤ëĬĶëį°":4892,"Ġë§ĽìŀĪê²Į":4893,"ë§İìĿ´":4894,"ĠëĤļìĭľ":4895,"Ġë¹ļ":4896,"ĠìķĦëĵ¤ìĿĢ":4897,"ê¹ĥ":4898,"Ġìĺ¤íĽĦ":4899,"ĠìĹĨëĬĶê±°":4900,"Ġê°Ķëįĺ":4901,"ëıĦë¡Ŀ":4902,"ë¡ľë§Į":4903,"ĠìĭľëĤ´":4904,"Ġì£¼ìĭĿ":4905,"ê²½íĸī":4906,"ĠìĭľëģĦ":4907,"ì¹ĺë¥¼":4908,"Ġê´ľì°®ìĿĢëį°":4909,"íĭ±":4910,"ĠìŀĪëįĶëĿ¼":4911,"ĠìĤ¬ëĭĪê¹Į":4912,"ĠìĹ¬ê¸°ëıĦ":4913,"Ġì°įëĬĶ":4914,"Ġë©Ķëī´":4915,"ëĿł":4916,"ĠìĹ¬ê¸°ìĹĲ":4917,"ĠìĥĿê°ģíķ´ë³´ë©´":4918,"Ġì¢ĭìķĺìĸ´":4919,"ĠìĦ¸ìĽĮ":4920,"Ġë³¸ìĿ¸ìĿ´":4921,"Ġê°Ģëĭ¤ê°Ģ":4922,"ì½Ķë¡ľëĤĺ":4923,"Ġê²©":4924,"Ġíķłêº¼":4925,"ìĥģëıĦ":4926,"ĠëıĦëĮĢì²´":4927,"ìķĦë²Ħ":4928,"ĠìķĦìī¬":4929,"Ġíķĺìĭľ":4930,"Ġë§ŀìķĺ":4931,"Ġë°Ķì§Ģ":4932,"ĠìķĬìķĦìļĶ":4933,"ê°ĢëıĦ":4934,"Ġíı´":4935,"íĿ¥":4936,"ĠíĺĦìĭ¤":4937,"ĠìķĦìĿ´íı°":4938,"ĠëıĻì°½":4939,"Ġë¬¼ìĸ´ë´¤":4940,"íķĺë£¨":4941,"Ġê¹Ģë°¥":4942,"ĠìĤ¬ìļ©":4943,"ĠìļĶìĸĳ":4944,"ĠëĪĪë¬¼":4945,"ĠìķĦë¹łëıĦ":4946,"Ġìķłëĵ¤íķľíħĮ":4947,"Ġì¼ĢìĿ´íģ¬":4948,"Ġê°Ļëįĺëį°":4949,"Ġëª°ëĿ¼ìĦľ":4950,"íĿĺ":4951,"Ġìŀ¬ë¯¸ìŀĪê²Į":4952,"ê¹¥":4953,"Ġìĸ´ìĸ´":4954,"Ġì£¼ì§Ģ":4955,"Ġê³łìĸĳ":4956,"Ġë§ŀìķĦìļĶ":4957,"Ġë°°ìļ´":4958,"ĠìĿ´ë²ĪìĹĶ":4959,"Ġëĭ¤ìĿ´":4960,"Ġê³Ħìķ½":4961,"ëĭŃ":4962,"ìĹĪìĸ´ìļĶ":4963,"ĠëĤłìĹĲ":4964,"ĠìĤ¼ìĦ±":4965,"ìĦľìļ¸":4966,"Ġìĸ´ìĭľ":4967,"Ġë§ĪìħĶ":4968,"Ġìłģìĸ´":4969,"ìķĦëĵ¤":4970,"ĠìŀħìĿĦ":4971,"ì§Ģê¸°":4972,"ëĶĶìĺ¤":4973,"ĠíĸĪëįĶëĭĪ":4974,"ëĭ¹ìĿ´":4975,"ĠíĥĢìĦľ":4976,"ëĺ¥":4977,"Ġê¹ĶëģĶ":4978,"Ġìŀĥìĸ´":4979,"ëĵ¬":4980,"ëĨĵìĿĢ":4981,"ëİ":4982,"Ġíķĺëįĺ":4983,"Ġìķłì´ĪìĹĲ":4984,"Ġëĭ®ëĭ¤":4985,"ëĭĪê°Ģ":4986,"ĠìĹĨìĸ¸":4987,"Ġê¸°ëĮĢ":4988,"Ġìļ°ìĦł":4989,"Ġíķ´ëĤľ":4990,"Ġìĺ¤ë©´ìĿĢ":4991,"ĠìĥĿê°ģíķ´ìĦľ":4992,"ĠìĤ´ë©´":4993,"ë²Īì§¸":4994,"ĠìĿ´ë¹¨":4995,"Ġì§¸":4996,"íķĺëįĶëĿ¼":4997,"ëĤĺëĦ¤":4998,"ê¸°ìĹħ":4999,"ĠìĤ¬ê³¼":5000,"ìĽ¡":5001,"ĠëĲľëĭ¤ëĬĶ":5002,"Ġíķ´ë³¸":5003,"ĠìĭľëĪĦ":5004,"ĠìĪĺì¤Ģ":5005,"Ġê³Ħëĭ¨":5006,"ĠëĤ´ëł¤ìĺ¤":5007,"Ġì©":5008,"ĠìĽĲìĿ´":5009,"Ġê±ĶëĦ¤ê°Ģ":5010,"ëĵ¤ê³ł":5011,"ĠëĲľê±°":5012,"Ġì½Ķë¡ľëĤĺê°Ģ":5013,"Ġë¶ĦëªħíŀĪ":5014,"Ġê²½íķ´":5015,"ĠëĦĺê²Į":5016,"ê°Ģê²Į":5017,"ë´ĲìĦľ":5018,"íĹĪìĺģ":5019,"Ġì£ĦìĨ¡":5020,"ë¹¡":5021,"Ġìĥģëĭ´":5022,"ì£¼ìĹĲ":5023,"ìĹ¬ìŀĲ":5024,"ì²ľìĽĲ":5025,"Ġìļ°ìļ¸":5026,"ëĳĳ":5027,"Ġê±°êµ¬ëĤĺ":5028,"ê²łëĭ¤ëĬĶ":5029,"Ġëª°ëŀĢ":5030,"Ġìľłì¹ĺ":5031,"Ġê³¼ìŀĲ":5032,"ĠìĤ¬ì§ĦìĿĦ":5033,"Ġíĥĳ":5034,"Ġì«Ħ":5035,"ĠëĲ¬":5036,"ĠëķĮë¬¸":5037,"ì§Ħê±°":5038,"ĠëĮĵ":5039,"ĠìķĦëĭĪê¹Į":5040,"Ġë³´ìĿ´ê³ł":5041,"êµ¬ê°Ģ":5042,"Ġìĸ´ë©įìĿ´":5043,"ëŀ«":5044,"Ġê°Īëł¤ê³ł":5045,"ê¸ĪìĿĦ":5046,"ĠêµŃë¬¼":5047,"Ġê·¸ëŁ¬ëĭ¤ê°Ģ":5048,"ĠíŀĺìĿ´":5049,"ê°Ģë¥¼":5050,"êµŃìĹĲ":5051,"ëļĿ":5052,"ìĺĢëįĺ":5053,"ĠëıħìĦľ":5054,"Ġì¹ĺë§¤":5055,"ë¦¬ëĭĪê¹Į":5056,"Ġì°Ķ":5057,"Ġìĸĺê¸°ëıĦ":5058,"ĠëģĿëĤł":5059,"Ġê±°ê¸°ìĹĲìĦľ":5060,"Ġì¶©ë¶Ħ":5061,"ĠíķłìķĦë²Ħì§Ģê°Ģ":5062,"ĠìķĦëĭĻëĭĪê¹Į":5063,"ìĹĪëĮĢ":5064,"ë²Īíĺ¸":5065,"ĠìŀħëĬĶ":5066,"ëŃĩ":5067,"Ġê°±":5068,"ĠìŀĪëĬĶê²Į":5069,"ĠíķĺëĤĺìĹĲ":5070,"ë°ĶìĿ´":5071,"ĠìĤ¼ì¶ĺ":5072,"ĠíĺķìĿ´":5073,"ĠëĴ¤ì§ĳ":5074,"Ġê°ļ":5075,"ĠëķĮëł¤":5076,"ĠíĤ¤ìļ°ê³ł":5077,"Ġê±ĶëĦ¤ëĬĶ":5078,"Ġì°¨ëł¤":5079,"ëŀĻ":5080,"ìĺĨ":5081,"ĠìĨĮë¦Ħ":5082,"Ġìĭ«ìĸ´íķ´":5083,"ê·¸ê²ĥ":5084,"ìļĶìĥĪ":5085,"Ġë°±ìĭł":5086,"ìķĦë°©":5087,"ĠëĤĺìĻĦ":5088,"ìĿĮìĿ´":5089,"ìķ¼ëĲĺ":5090,"ĠìĿ¼ë¡ľ":5091,"ĠíĿ¥":5092,"ê°±":5093,"ĠíķľëĮĦ":5094,"íĬ¸ëĤ¨":5095,"Ġì³":5096,"ĠìĿ´ìĭ¤":5097,"ĠìĿ¸ëį°":5098,"Ġì»µ":5099,"ì»¨":5100,"ê¶ģ":5101,"ìľ¼ë©į":5102,"ìľ¼ëĦ¹":5103,"ë²¼":5104,"ĠíŀĪ":5105,"ĠêµŃë¯¼":5106,"íĬ¸ë¥¼":5107,"ĠëĲĺìĦľ":5108,"ì¡¸":5109,"ì¤Ħê²Į":5110,"ìį¹":5111,"ìĹĮ":5112,"ìķĦì¹¨":5113,"ĠìķĪëĲł":5114,"Ġëĭ¤ìĸĳ":5115,"ĠìŀĲëĬĶ":5116,"ìĥģìĹĲ":5117,"ê·¸ëķĮëĬĶ":5118,"ĠìķĪíĸĪ":5119,"ë§Įìķ½":5120,"ĠëıĦì°©":5121,"Ġëª¨ë¥´ì§Ģ":5122,"ĠëĤĺíĥĢ":5123,"ĠìĿ´ëª¨ê°Ģ":5124,"Ġë§ĮíĻĶ":5125,"ĠìĹ°ê¸°":5126,"ĠíĿĻ":5127,"Ġëª©ìĨĮë¦¬":5128,"Ġíķ«":5129,"ĠìŀĪìĹĪìŀĸìķĦ":5130,"Ġìĸ´ë¨¸ëĭĪëĬĶ":5131,"ĠìµľëĮĢ":5132,"Ġê°ĢìĿ´ëĬĶ":5133,"ĠëķĮëĤĺ":5134,"ĠìķĦê¹Ŀ":5135,"ĠëģĮê³ł":5136,"ĠëĩĮ":5137,"Ġêµ½":5138,"Ġëª°ëŀĺ":5139,"Ġìłķë³´":5140,"ìĿ´ìłľëĬĶ":5141,"ĠìĤ¬ëĬĶëį°":5142,"ê·¸ëĤ´":5143,"Ġë²Ħëł¸":5144,"Ġì¹´ë©ĶëĿ¼":5145,"Ġê»į":5146,"ì£¼ì§Ģ":5147,"Ġíķĺê³łìĭ¶":5148,"Ġë¨¹ìľ¼ëł¤ê³ł":5149,"Ġìĸ´ëĶĺ":5150,"Ġê¾¸ì¤Ģ":5151,"ĠìķĦíĮł":5152,"Ġíķľì°½":5153,"Ġë¨¹ìŀĸìķĦ":5154,"Ġëĵ¤ìĹĪëĬĶëį°":5155,"Ġìķ¼ìĿ´ê°Ģ":5156,"ë¹ĦëıĦ":5157,"Ġìĺ¤ëĬĺëıĦ":5158,"ìĹĨìĸ´":5159,"ĠìĥĢëĬĶëį°":5160,"Ġì¢ĭìķĦíķĺê±°ëĵł":5161,"ĠìĤ¬ëŀĮëĵ¤ìĿĦ":5162,"Ġíķľëĭ¤ëĬĶ":5163,"ìľ¼ë¡ľëıĦ":5164,"ì§Ħëĭ¤":5165,"ĠëĴ¤ìĹĲìĦľ":5166,"Ġë§Īì§Ģë§īìĹĲ":5167,"ĠìĽĥê¸°":5168,"ĠìĹŃìĤ¬":5169,"Ġìĺ¤íĶĪ":5170,"ê°ĻìķĦ":5171,"íĺĶ":5172,"Ġë¶ĢìŀĲ":5173,"ë°Ľê³ł":5174,"ĠìĹ¼ìĥī":5175,"Ġíĸĩë¹Ľ":5176,"Ġë²Ħë¦¬ëĭĪê¹Į":5177,"ĠìĿĦ":5178,"ê±°ìļ´":5179,"ìĬ¤ëĬĶ":5180,"Ġì£¼ìľĦ":5181,"Ġë§ĽìĿ¸":5182,"Ġì¢ĭìķĦíķĺëĬĶëį°":5183,"ĠìķĦëĬĶëį°":5184,"êµĲìľ¡":5185,"ëĤ´ëĬĶ":5186,"Ġìĭ¤ìłľë¡ľ":5187,"Ġìį¨ìĦľ":5188,"ëĨĢ":5189,"ĠìĥĢìĸ´":5190,"Ġê²½ìļ°ìĹĲëĬĶ":5191,"Ġì§ľì¦ĿëĤĺ":5192,"Ġê²ĲëĶĶ":5193,"ĠìŀĲìłĦê±°":5194,"Ġìĥģì²ĺ":5195,"Ġë§ĮìĹĲ":5196,"ĠìļĶê±°":5197,"ĠëĤ¨ëĬĶ":5198,"ìĥĪê¸°":5199,"Ġë°ĽìķĦìķ¼":5200,"Ġë¶ĦìľĦê¸°":5201,"ìłľë¥¼":5202,"ë°Ķëĭ¥":5203,"Ġìļķìĭ¬":5204,"®¤":5205,"Ġë¶Ģì§Ģ":5206,"Ġëºı":5207,"ë§Īìĭľ":5208,"ĠìĥĿê°ģíĸĪëĬĶëį°":5209,"Ġë°Ķê¹¥":5210,"ĠìłĦíĻĶë¥¼":5211,"ì§Ģê¸ĪìĿĢ":5212,"Ġíľ´íķĻ":5213,"ì£¼ê°Ģ":5214,"Ġìĵ°ëŁ¬":5215,"Ġìĭľìŀ¥":5216,"ĠìŀĪëĬĶì§Ģ":5217,"Ġëª¨ë¥´ëĬĶëį°":5218,"Ġë§ĲìĿ´ì§Ģ":5219,"ê¼Ń":5220,"Ġê±·ëĬĶ":5221,"ìĸ´ìłľ":5222,"ì¹ĺë©´":5223,"Ġëľ¬":5224,"ĠìĿĮë£Į":5225,"Ġìķłê¸°ê°Ģ":5226,"Ġìŀ¬ë°ĮëĬĶ":5227,"Ġìĸ´ëĸ¡íķ´":5228,"ĠëĤĺë¨¸ì§Ģ":5229,"Ġê·¸ì§Ģ":5230,"ìķĦëħ¸":5231,"Ġë²Ħë¦°":5232,"Ġë³´ëĭ¤ëĬĶ":5233,"ë§ĲìĿĦ":5234,"Ġëį°ëł¤ëĭ¤":5235,"ìĦľëĬĶ":5236,"Ġì¢ĭëĮĦ":5237,"ìŀĲê¸°ê°Ģ":5238,"ĠëĦĪëĦ¤ëĬĶ":5239,"ĠìĿ´ìĥģíķĺê²Į":5240,"ìĽĲìĿĦ":5241,"Ġëĵ±ë¡Ŀ":5242,"ĠìķĪìłĦ":5243,"Ġë§ĲìķĦìķ¼":5244,"Ġëª¬":5245,"ĠìĤ´ëĭ¤":5246,"ĠìĤ¬ìĿ´ì¦Ī":5247,"ìĿ´ë²Ħ":5248,"ë¦¬ì¹´":5249,"ĠìĤ´ëĭ¤ê°Ģ":5250,"Ġê±¸ìĸ´ìĦľ":5251,"Ġìĸ´ëĶĶê°Ģ":5252,"Ġêµ¬ë©į":5253,"ĠìĨįìĥģ":5254,"Ġë½ĳìķĦ":5255,"ĠìĽĲìĿ¸ê°Ģ":5256,"Ġë¬¸ìŀĲ":5257,"ê³łìĿ´":5258,"ĠìĽĲíķĺëĬĶ":5259,"ì¢ħìĿ¼":5260,"Ġë§ĺìĹĲ":5261,"ìĤ¬ì£¼":5262,"ì¹ĺê¸°":5263,"Ġìĺ¬ë¦¬ê³ł":5264,"ìĸ¼ë§Ī":5265,"ĠëĤ´ëĤ´":5266,"ëģĪ":5267,"ĠìĿµìĪĻ":5268,"íķĺê±°ëĤĺ":5269,"ĠìĦ¸ëĮĢ":5270,"ĠìĤ¬ëª¨":5271,"ĠìķĦìĿ´ëıĦ":5272,"ìļ°ë¦¬ëıĦ":5273,"Ġíĭ":5274,"ëıĻëĦ¤":5275,"Ġë°ľíĳľ":5276,"ĠìĿ´ëĶĶ":5277,"Ġìī¬ê³ł":5278,"ìĬ¤íģ¬ë¦¼":5279,"Ġë§Ĳíķĺì§Ģ":5280,"Ġìĭľë¶ĢíĦ°":5281,"Ġì£¼ìĦ¸ìļĶ":5282,"Ġê±¸ìĸ´ê°Ģ":5283,"Ġìķ¼ì±Ħ":5284,"ĠëĤ´ìķ¼":5285,"ìĿ´ìĬ¤":5286,"Ġìłĵ":5287,"ĠëĮĢê°Ģ":5288,"Ġìŀ¡ìķĦìĦľ":5289,"ìĹĦì²Ń":5290,"ĠìĿĮìĭĿìĿĦ":5291,"Ġì¢ħìĿ´":5292,"Ġì§Ħì§ľìĿ´":5293,"ìĭľíĹĺ":5294,"ĠìĥĿê¸°ê³ł":5295,"Ġê±¸ë¦´":5296,"xxxx":5297,"ĠëķĢ":5298,"ëĦ£":5299,"ìķłëĵ¤":5300,"Ġë©ľ":5301,"ĠìķĦìłĢìĶ¨ê°Ģ":5302,"ĠìĹĨëĮĢ":5303,"Ġê²Įë¯Ħ":5304,"ë¹Ħë¥¼":5305,"ĠìĿ´ê±¸ë¡ľ":5306,"Ġìĺ¬ëł¸":5307,"ĠíĶĦë¡ľê·¸ëŀ¨":5308,"Ġì°¢":5309,"Ġìĺģíĸī":5310,"ì²ľíŀĪ":5311,"ìľ¼ëĭĪ":5312,"Ġëħ¸íĺķ":5313,"ĠìĤ°ì±ħ":5314,"ĠìķĪíķĺë©´":5315,"ĠìĹ¥":5316,"ĠíħĮëłĪë¹Ħ":5317,"ĠëĤĺì¤ĳìĹĲëĬĶ":5318,"ìķĦì§ģ":5319,"ìľ¨":5320,"ëĦĮ":5321,"ĠíķĻêµĲë¥¼":5322,"ìı":5323,"ĠnameìĿĢ":5324,"ì§ĪìĿ´":5325,"Ġë©ĭìŀĪ":5326,"ĠìĤ¬ëŀĮìĿĺ":5327,"ĠìĹŃíķł":5328,"Ġê±°ëĤĺ":5329,"ĠëŃĲíķ´":5330,"ĠìĿ´ëŁ°ëį°":5331,"ĠëıĻê¸°":5332,"ê°ĢëĤľ":5333,"Ġëĵ¤ìĸ¸":5334,"ĠìķĬê²Į":5335,"Ġë°Ľìķĺìĸ´":5336,"ĠìĹ°êµ¬":5337,"ĠìĺĪë¯¼":5338,"ĠìºĲë¦Ń":5339,"ëĵ¤ìĿĺ":5340,"ìĤĲ":5341,"Ġëª¨ìĹ¬":5342,"Ġìĭ¤ìĬµ":5343,"Ġíķĺë¥´ë°©":5344,"ĠíĸĪìĸ¸":5345,"ĠìĻĢìĭłëĶĶ":5346,"Ġìŀ¡ëĬĶ":5347,"Ġë§İëĭ¤":5348,"ĠìĨĲê°ĢëĿ½":5349,"ĠíĴĪ":5350,"Ġê²ĥëĵ¤ìĿĦ":5351,"íķľíħĮëĬĶ":5352,"ëŃĶ":5353,"Ġê³¼ëª©":5354,"Ġìĺ¬ëĿ¼ìĺ¤":5355,"íĮĢ":5356,"ìĿ´ë²ĪìĹĲ":5357,"ĠìĤ¬ëŁ¬":5358,"Ġë¬´ë£Į":5359,"ê»ĳ":5360,"ĠíĶ¼ìŀĲ":5361,"Ġíĥľìĸ´ëĤĺ":5362,"ĠìĬ¤íĥĢìĿ¼ìĿ´":5363,"Ġê°Ķëĭ¹":5364,"Ġì¤ĳìĹĲìĦľ":5365,"Ġë°ľëĿ¼":5366,"ĠìĭľëĮĢ":5367,"ë´ĲëıĦ":5368,"ìĹĦë§Īê°Ģ":5369,"Ġë¹Ļëĸ¡":5370,"ìĺ¥":5371,"ĠíĥĲ":5372,"Ġë¥¼":5373,"ìĤ¬ì§Ħ":5374,"Ġì§ĢíĤ¤":5375,"Ġë©ĺ":5376,"Ġê±°ê¸°ëĭ¤":5377,"ìķĺëĭ¤":5378,"Ġë¡¤":5379,"13":5380,"ìĸ´ëĬĲ":5381,"ë¥µ":5382,"Ġíĺ¼ìŀĲë§Į":5383,"Ġë½Ģ":5384,"Ġë³´ëĭĪ":5385,"ĠìĤ°ìĹĲ":5386,"Ġìĸĺê¸°ëĬĶ":5387,"ì¢Į":5388,"Ġë²łíĬ¸ëĤ¨":5389,"ëıĶ":5390,"Ġê¸°ìĪł":5391,"Ġë¨¹ìľ¼ëĿ¼ê³ł":5392,"ĠíĤ¬":5393,"Ġê°ĢìŀĲê³ł":5394,"ì²ĺìĿĮìĹĲ":5395,"ëĦĺ":5396,"Ġë§ŀëĦ¤":5397,"ìģł":5398,"Ġíŀĺëĵ¤ê³ł":5399,"Ġê°ĢëĿ¼ê³ł":5400,"Ġìĺ¤ëĬĶëį°":5401,"ë¯¸ê°Ģ":5402,"Ġì¹ĺëĬĶ":5403,"ìĸ´ë¡ľ":5404,"Ġìĸĩ":5405,"ì§ĪìĿĦ":5406,"ĠìĦ±ê³µ":5407,"ĠëŃĶëį°":5408,"ĠìĻĢëıĦ":5409,"ĠìķĦë°©ìĿ´":5410,"Ġì§±":5411,"ĠëĤłëĿ¼":5412,"ìĤ¬ê³ł":5413,"ê²łëĮĢ":5414,"ëįĺì§Ģ":5415,"Ġë°°ì¶Ķ":5416,"Ġì§Ģë°©":5417,"ë£¸":5418,"Ġíĺ¸ë°ķ":5419,"ëĴ¤":5420,"Ġìĸ´ìĥī":5421,"ĠëĬĲëĤĢ":5422,"ĠìĿĢíĸī":5423,"ì£¼ë¡ľ":5424,"ĠìłĦë³µ":5425,"Ġìĺ¬ëłĪ":5426,"ĠëĬ¥ëł¥":5427,"ĠìĻł":5428,"ĠìĥĿê°ģíķĺ":5429,"Ġì§Ģìĸ´":5430,"Ġëı¼ì§Ģê³ł":5431,"Ġê³³ìĿ´":5432,"Ġê°Ģê¹ĮìĿ´":5433,"ĠìĹİ":5434,"ì¤ľ":5435,"ĠëĤľëĭ¤":5436,"Ġëı¼ê°Ģì§Ģê³ł":5437,"Ġë°°ìĽł":5438,"ê°ĶëĬĶëį°":5439,"Ġíķľë§ĪëĶĶ":5440,"íıŃ":5441,"ĠìĨĲìĹĲ":5442,"Ġê¹Įë¨¹":5443,"ĠìĿ´ìģľ":5444,"Ġì§ķ":5445,"ĠìĤ¬ëŀĮìĿ¸ëį°":5446,"Ġìŀħë§Ľ":5447,"ĠìķĦëĿ¼":5448,"Ġê²ª":5449,"ìķĺì§Ģ":5450,"Ġì°¨ìĹĲ":5451,"Ġê°Īê¹Į":5452,"ĠìĦ±ìłģ":5453,"Ġë§ŀì¶°ìĦľ":5454,"ìĦľê´Ģ":5455,"ĠëĤĺê°Ģì§Ģê³ł":5456,"ĠìĭŃëħĦ":5457,"Ġì£¼ìĿ¸ê³µ":5458,"ĠìĿ´ëŀĳ":5459,"Ġê·¸ëŁ°ì§Ģ":5460,"Ġì£¼ëĭĪê¹Į":5461,"Ġì¤ĳê³ł":5462,"ìĤ¬ëŀĮëĵ¤":5463,"íķ´ì£¼ê³ł":5464,"Ġë¶ĢëŁ¬":5465,"Ġë¶ĢìĹĮ":5466,"íĮŁ":5467,"Ġì²ľì²ľíŀĪ":5468,"ĠìŀĪê²łëĭ¤":5469,"ĠìĤ¬ëĭ¤ê°Ģ":5470,"ĠëĦĪìĿĺ":5471,"ë³´íĹĺ":5472,"Ġë¹ĦêµĲ":5473,"ì»¬":5474,"ìŃī":5475,"Ġíķ´ê°ĸê³ł":5476,"ìľ¼ë¡ľë§Į":5477,"ĠíķĺëĬĶê±°ëĿ¼":5478,"ìĹ¬ê³ł":5479,"ê¹Įì§ĢëıĦ":5480,"Ġì±ĦìĽĮ":5481,"Ġì¹¨ëĮĢ":5482,"ĠìĿ´ì¶Ķë£©":5483,"ĠìĥĿê°ģíķł":5484,"Ġìĭ¶ìĿĦ":5485,"ĠìĭľíĤ¤ê³ł":5486,"Ġë§Įíķľ":5487,"Ġì¹ĺë©´":5488,"ĠëŃĲëĵł":5489,"ĠìķĮìķĻ":5490,"ìĻĶëĬĶëį°":5491,"ĠìŀĦìĭł":5492,"ĠìĬĪ":5493,"ëĮģ":5494,"Ġë¨¹ìĹĪì§Ģ":5495,"ëĤľëĭ¤":5496,"Ġë¯¸ëŀĺ":5497,"Ġíĺķë¶Ģ":5498,"ĠìĹŃìĭľ":5499,"ĠìĥģíĥľìĹĲìĦľ":5500,"ê²Įë©Ķ":5501,"íķ´ìķ¼ì§Ģ":5502,"ìŀĪëĦ¤":5503,"Ġìĸĺê¸°íķĺë©´":5504,"Ġìĺ·ëıĦ":5505,"ĠìŀĪê²łì§Ģ":5506,"Ġê°Ģê·¸ëĦ¹":5507,"Ġìĸ´ìĭľëĤľ":5508,"ĠìŀĳìķĦ":5509,"Ġì·¨ì§ģ":5510,"ì°Įê°ľ":5511,"ĠìķĬìĿĢëį°":5512,"Ġëħ¸íĬ¸ë¶ģ":5513,"íķľëĶĶ":5514,"ìĭľê°Ģ":5515,"íŀĪëĬĶ":5516,"ĠìĺĪë°°":5517,"ĠëĤĺìĺ¤ìŀĸìķĦ":5518,"Ġê°Ģê¹Įìļ´":5519,"íĸĪê³ł":5520,"Ġíķĺê²łëĭ¤ê³ł":5521,"ĠìĤ´ëł¤ê³ł":5522,"Ġê³¨ëª©":5523,"ë·°":5524,"Ġë§Įëĵľ":5525,"ĠìķĬëĥĲ":5526,"Ġìŀ¬ë£Į":5527,"íĺ¼ìŀĲ":5528,"ĠìĥĿê°ģíķ´ë³´ëĭĪê¹Į":5529,"Ġê±°ê¸°ëĭ¤ê°Ģ":5530,"Ġê·Ģìĭł":5531,"ëıĮìķĦ":5532,"ĠìºĲë¦ŃíĦ°":5533,"ìĿ´ë¦Ħ":5534,"ëĦ¤ëıĦ":5535,"Ġìĺ¤íĨł":5536,"Ġìłķìĥģ":5537,"Ġë¶Ģíĥģ":5538,"Ġíİ´":5539,"ĠìķĪëĵ¤":5540,"Ġê²ĥëĵ¤ìĿĢ":5541,"Ġê°Īì¹ĺ":5542,"Ġê±°ëĿ¼ìĦľ":5543,"ĠëĲĲì§Ģ":5544,"ĠìŀĲê¸°ëĦ¤ê°Ģ":5545,"Ġíķĺìłł":5546,"ĠìĥĿê°ģìĹĶ":5547,"ê±°ê³ł":5548,"ĠëŃĲíķĺ":5549,"Ġê²½ìłľ":5550,"ĠìŀħìĹĲ":5551,"Ġë¹łì¡Į":5552,"íĽĪ":5553,"Ġì«ĵìķĦ":5554,"Ġíķĺê²łì§Ģ":5555,"ìĪĺëĬĶ":5556,"ĠìĨĲìĿ´":5557,"ë³´ëĭĪ":5558,"Ġíı°":5559,"Ġìĺ¤ë¹łëıĦ":5560,"Ġëª¨ë¥´ê²łì§Ģë§Į":5561,"ĠëĤĺë¹ł":5562,"ĠëĤ´ë¦¬":5563,"ì£¼ìĦ¸ìļĶ":5564,"ë¶Ģë¡ľ":5565,"ĠìĿ¸ê¸°":5566,"Ġìĸ´ëĶĶëĥĲ":5567,"Ġìľłì§Ģ":5568,"ĠíķĺëĬĶê±°ì§Ģ":5569,"ê²¹":5570,"ëĭ¤ëħĢ":5571,"Ġì§ł":5572,"ĠìĤ¬ëŀĮë§Į":5573,"ëģĿ":5574,"ĠìĨĮê³łê¸°":5575,"Ġê²ħíĹĪ":5576,"ĠìŀĲê°Ģ":5577,"Ġìĭ«ìĸ´íķĺëĬĶ":5578,"ĠìŀĸìķĦ":5579,"Ġìŀ¬ìĤ°":5580,"ĠìļĶì¦ĺìĹĶ":5581,"ĠëĿĦ":5582,"ĠìĤ¬ìĭ¤ìĿĢ":5583,"ëķ¡":5584,"ë½ķ":5585,"ĠëĲĺê¸´":5586,"ì°¨ê°Ģ":5587,"ì£Ħ":5588,"Ġê°Ģë£¨":5589,"Ġê³°":5590,"Ġê±´ëĦĪ":5591,"ĠìķĦëĭĪëĦ¤":5592,"Ġìĺ¬íķ´ëĬĶ":5593,"ìĿ´ìĥģ":5594,"íķľë²Ī":5595,"íħľ":5596,"ĠìķĦìĿ´ìĬ¤íģ¬ë¦¼":5597,"Ġë¹ĦëĮĢë©´":5598,"Ġë²ĦëĬĶ":5599,"ëĭ¤ë©´":5600,"ëł¤ê°Ģì§Ģê³ł":5601,"Ġìĺ¬ë¦°":5602,"ĠìĹ¬ê¸°ìłĢê¸°":5603,"ĠíĶ¼ìķĦëħ¸":5604,"Ġì¤¬ìĸ´":5605,"ì©į":5606,"ìĿĦê±¸":5607,"Ġê¸°ìĤ¬":5608,"ëĲĺìĸ´":5609,"ĠëĨĢëŀĢ":5610,"ìĹĺ":5611,"Ġìĺ¤ë¥¸":5612,"Ġìĺ¤ì£½":5613,"Ġë¶Ģë¥´ëĬĶ":5614,"ìĿ´ìĹĪëĬĶëį°":5615,"ĠìĤ´ì§Ģ":5616,"ĠíķĺëĤĺëĭĺìĿ´":5617,"Ġê°Ĳê¸°":5618,"ĠìĦľë¹Ħ":5619,"Ġíĺľ":5620,"Ġëĭ¨ì²´":5621,"Ġëĭ¤ê°Ģ":5622,"ë³´ì§Ģ":5623,"ĠëıĻë¬¸":5624,"ĠíĹĪëĭ¹":5625,"Ġì¹ĺë§Ī":5626,"ìĿ´ë²Ī":5627,"ĠëĤ©":5628,"Ġë©´íĹĪ":5629,"ĠíĹĪëĬĶëĶĶ":5630,"ĠíĥĢìĿ´":5631,"ìĤ¬ëŀĮëĵ¤ìĿ´":5632,"ĠëĮĢì¶ľ":5633,"Ġë¹łì§Ģ":5634,"ìĿ¸ëĵ¤":5635,"ìļ°ê½Ī":5636,"ì´ī":5637,"Ġê³¼íķĻ":5638,"Ġë¹łì§Ħ":5639,"Ġëª°ëŀĲëĬĶëį°":5640,"ĠíĹĪë¯¼":5641,"ë§ĲëıĦ":5642,"ĠìķĮìķĦìķ¼":5643,"Ġì¡°ìļ©íŀĪ":5644,"Ġì¢ĭìķĦìļĶ":5645,"Ġíİ¸íķ´":5646,"Ġê³łë¬´":5647,"ë´ħ":5648,"Ġë°ĺìĿĳ":5649,"ë¸Ĳ":5650,"ê°ĲìĿĦ":5651,"ĠëĦ·íĶĮë¦Ń":5652,"Ġê°ĢëĬĶê±°":5653,"ëħ¼":5654,"ĠëĳĲê³ł":5655,"Ġëĭ¤ë¥¸ëį°":5656,"ëĪĦêµ¬":5657,"Ġë¹¡ìĦ¸":5658,"Ġìĳ¥":5659,"ìĿ´ëĥĲ":5660,"ĠìĿ´ëħĦ":5661,"Ġíĺĳ":5662,"Ġê¸¸ìĿĦ":5663,"Ġì°©íķľ":5664,"ëĭ¤ìĿ´":5665,"ë³´ëĿ¼":5666,"ë´Ĳë´Ĳ":5667,"ê²ĮìŀĦ":5668,"ìĿĢìĿ´":5669,"ê·¸ëĤľ":5670,"ĠìķłìĽĶ":5671,"ĠìļĶê°Ģ":5672,"íķłê¹Į":5673,"ĠìĹ¬ê¸°ê¹Įì§Ģ":5674,"ìĿ´ëĤľ":5675,"ĠìĿ´ìĦ±":5676,"ĠìĿ¼íķĺê³ł":5677,"ì²ĺìĿĮ":5678,"Ġê¸¸ê²Į":5679,"ìķĦë¬´íĬ¼":5680,"Ġìķ¡":5681,"ëıĦìĿ´":5682,"Ġëª»ìĤ´":5683,"ĠëĶĶìŀĲ":5684,"ĠëıĦìĭľëĿ½":5685,"ĠíķĺìĭľëĬĶ":5686,"ĠìĻĶëĭ¤ê³ł":5687,"Ġìķķ":5688,"ê²Įë¯Ħ":5689,"ì¤į":5690,"ĠëĨĢëŀĺ":5691,"Ġìĭ¸ê³ł":5692,"ĠìĿ´ìĭľë¯Ħ":5693,"Ġëĳ":5694,"ìĭľìŀ¥":5695,"ĠëĮĢë©´":5696,"ĠíķĻìłĲ":5697,"ìĨįìĹĲ":5698,"Ġê°Īê±°":5699,"Ġë¯¸ìĹŃ":5700,"Ġê²ī":5701,"Ġìĭľê³¨":5702,"Ġë¹ĦëĭĲ":5703,"ĠìĿĮìĭĿìĿ´":5704,"ĠìĿ´ëŀ¬ëĬĶëį°":5705,"ë¥´ê²Į":5706,"ĠëıĻìķĦë¦¬":5707,"Ġìľ¡ì§ĢìĹĲìĦľ":5708,"Ġë°Ķëĭ¤ìĹĲ":5709,"ìĿ´ê±´":5710,"ë°į":5711,"Ġëĵ¤ìĸ´ìĺ¬":5712,"ìĤ¼ìĭŃ":5713,"ĠëļĿ":5714,"Ġëŀĳ":5715,"Ġê·¸ëł¤":5716,"ĠëħĦìĿĦ":5717,"ê²°íĺ¼":5718,"Ġì£¼ë§ĲìĹĲ":5719,"íķĺìĹ¬íĬ¼":5720,"Ġë§ĲìķĻ":5721,"ĠìķĮê²łìĸ´":5722,"ĠìĽĲìĹĲ":5723,"ë²Ħê±°":5724,"ê·¸ê±°ë¥¼":5725,"Ġë©¸ì¹ĺ":5726,"ì¹Ń":5727,"ìĹ¬ìĦ¯":5728,"ĠìĭŃìĿ´ìĽĶ":5729,"ìĿ´ê¸°":5730,"íķĺê¸°ëıĦ":5731,"íķĺìĦ¸ìļĶ":5732,"Ġë§ĲìĿ¸ì§Ģ":5733,"Ġì§Ģê°ĳ":5734,"Ġìºł":5735,"Ġì¢ĭìķĺëįĺ":5736,"ì£¼ìĿĺ":5737,"nameê°Ģ":5738,"ĠìĿ´ë¦ĦìĿĦ":5739,"Ġíľ´ê°Ģ":5740,"Ġëĭ¹íĻ©":5741,"íķ´ìł¸":5742,"ĠìĽ¬ë§Įíķĺë©´":5743,"Ġì²´íģ¬":5744,"ìĹĲíĶĦ":5745,"ĠìĿ¼ë§Į":5746,"ĠìĦ¤íĥķ":5747,"íĦ¸":5748,"ĠíĻķì§ĦìŀĲ":5749,"Ġìĺ¬ëĿ¼ìĻĢ":5750,"Ġë³´íĺ¸":5751,"ĠíĸīìĤ¬":5752,"ĠìłģëıĦ":5753,"Ġìĸµìļ¸":5754,"Ġê°ľë°ľ":5755,"Ġíķĺë£¨ì¢ħìĿ¼":5756,"Ġëª»íķĺê²Į":5757,"ĠìłģìĿĳ":5758,"ëĿ¼ìĬ¤":5759,"Ġë¨¹ëĭ¤ê°Ģ":5760,"ĠìĿ´ëŀĺìĦľ":5761,"ë¡ľëıĦ":5762,"ĠìĤ¬ê·":5763,"ê·¸ëŁ´":5764,"Ġëĵ¤ìĸ´ìķ¼":5765,"ĠìķĮë°Ķë¥¼":5766,"ĠìĤ¬ê¸°":5767,"Ġë²Īë§Į":5768,"ĠìĥģíĴĪ":5769,"ì¹´ëĵľ":5770,"ìŀī":5771,"Ġë¨¹ëĬĶê±°":5772,"ìłĢíŀĪ":5773,"ĠìŀĳìĹħ":5774,"ìī½":5775,"ìµľ":5776,"Ġë³´ëĤ¼":5777,"Ġë¬´ìĹĩ":5778,"ĠëĮĢíĳľ":5779,"ĠìĪŁ":5780,"Ġê´ľì°®ìĿĦ":5781,"ĠëŁ¬":5782,"Ġê³¤":5783,"ĠìķĦëĭĪì§Ģë§Į":5784,"ĠíĮ¥":5785,"ĠìĬ¤íı¬":5786,"íĥĢë¯¼":5787,"ì¤ĺìĦľ":5788,"Ġëĵ¤ìĸ´ìĺ¤ëĬĶ":5789,"ëĭ¤ê²Į":5790,"ìĸĺê¸°":5791,"ĠìķĬìķĦìĦľ":5792,"Ġê°ľìĶ©":5793,"Ġê°ľëħĲ":5794,"Ġê·¸ëłĩêµ¬ëĤĺ":5795,"ìĿ´ëĦĪ":5796,"Ġë³´ìŀĲ":5797,"ĠíĸĪëĬĶì§Ģ":5798,"Ġì£¼ìĤ¬":5799,"ĠëĤłì§ľ":5800,"Ġë²Ħë¦¬ë©´":5801,"Ġëħ¸ëŀĢ":5802,"Ġë°ľìłĦ":5803,"Ġëį°ëł¹":5804,"íĺķìĿ´":5805,"ê½Ŀ":5806,"Ġë¶Ģì§ĢëŁ°":5807,"Ġê²¸":5808,"ìĬ¤ëŁ¬ìļ´":5809,"Ġëı¼ìķ¼":5810,"ĠíĹĪì§Ģ":5811,"ĠìĹĲíĶĦ":5812,"íķ´ì§Ģ":5813,"Ġë¶Ģë¶Ģ":5814,"Ġê°Ħíĺ¸ìĤ¬":5815,"Ġì§Ģíķĺì²ł":5816,"Ġê°Ģë³¸":5817,"ĠìĥĿê°ģëĤĺëĬĶ":5818,"ĠìĺĨìľ¼ë¡ľ":5819,"ìħĶìĦľ":5820,"Ġê°Ģìĭľ":5821,"ĠëŃĲê³ł":5822,"ĠëĺĲëŀĺ":5823,"ĠìĦ¸ê¸Ī":5824,"ĠëĤĺìĿĦ":5825,"ĠìĽĲì§ľë¦¬":5826,"ê´ľ":5827,"ĠìĨĲëĭĺìĿ´":5828,"Ġì¶Ķìļ´":5829,"Ġì¹ľêµ¬íķľíħĮ":5830,"ì¹´ìĺ¤":5831,"Ġê·¸ëĤľ":5832,"ĠíĪ¬ìŀĲ":5833,"Ġìļ°ë¦¬ëŀĳ":5834,"Ġì¢ĭìķĦíķ´ìĦľ":5835,"Ġìŀ¬ìĪĺ":5836,"ê²½íĹĪëĤľ":5837,"Ġì²ĺìĿĮìľ¼ë¡ľ":5838,"ĠìŀĪëįĺëį°":5839,"Ġê²¨ìļ°":5840,"Ġë£¨":5841,"ìĿ´ëĵł":5842,"ìĿ¸ìĿĦ":5843,"Ġì¢ĭìľ¼":5844,"Ġëª»íķ´ìĦľ":5845,"Ġìĺ¨ëĭ¤ê³ł":5846,"Ġìĺ¬ëĿ¼ê°ĢëĬĶ":5847,"Ġì¤Ģëĭ¤ê³ł":5848,"ë¬µ":5849,"Ġìĭ¶ê¸´":5850,"Ġê°ĢëģĶìĶ©":5851,"Ġíķ´ë³¼":5852,"ĠìĹ°ëĿ½ìĿ´":5853,"ê°ĢëĭĪê¹Į":5854,"ì£¼ëĭĪê¹Į":5855,"ìŀĪì§Ģ":5856,"Ġëª¨ìĸĳìĿ´ìķ¼":5857,"Ġê¸¸ìĸ´":5858,"ĠíĸĪìĹĪ":5859,"Ġë±Ģ":5860,"Ġëĭ¹ìĭľìĹĲëĬĶ":5861,"ĠíħĮìĿ´ë¸Ķ":5862,"ĠìĿ´ìļ©":5863,"Ġíķĺê¸¸ëŀĺ":5864,"ĠìĦ¸íĥģ":5865,"ĠëĨĵëĬĶ":5866,"ĠíĮ¨ëĶ©":5867,"ĠëĤĺì§Ģ":5868,"ĠëŃĲìĺĢì§Ģ":5869,"íĥĢê³ł":5870,"Ġëĭ¨ìĸ´":5871,"Ġê¸ĪìļĶìĿ¼":5872,"ëĭ¤ë³´ë©´":5873,"ì¹Ļ":5874,"íĹĪê²Į":5875,"ĠìĻĶì§Ģ":5876,"ĠìķīìķĻ":5877,"ĠìĦ¸ìĥģìĿ´":5878,"Ġëļ±":5879,"Ġì§ĳìĸ´":5880,"ê²ĥìĿ´":5881,"ĠíķĺëĤĺë¥¼":5882,"Ġê·¸ëŁ°ê±´":5883,"ìķĺëįĺ":5884,"ĠìķĬìķĺëĬĶëį°":5885,"ëĨĶìĦľ":5886,"Ġë¸Įëŀľëĵľ":5887,"Ġê°ķìķĦ":5888,"Ġë¬¸ìłľëĬĶ":5889,"ìŁģìĿ´":5890,"Ġíķĺëĵł":5891,"Ġì§¬":5892,"ë¡ľëĬĶ":5893,"ìĤ¬ëŀĳ":5894,"ĠìĦłìĪĺ":5895,"ìĦ±ìĿĦ":5896,"Ġìī½ì§Ģ":5897,"Ġëª¨ìĸĳìĿ´ëĿ¼":5898,"Ġíķ´ê·¸ëĥī":5899,"ë§ĿìĿ´":5900,"ĠìķĪìĵ°":5901,"Ġë¬µ":5902,"Ġì°°":5903,"Ġê¸°ê°Ħ":5904,"ĠìĥĪìļ°":5905,"Ġìĸ¸ìłł":5906,"ĠìŀĪìľ¼ë©´ìĿĢ":5907,"íĳ":5908,"ê²¨ìĦľ":5909,"ĠíĤ¤ìļ¸":5910,"Ġìĺ¬ëĿ¼ê°Ī":5911,"Ġëĵ¤ìĹ¬":5912,"Ġë§Īì£¼":5913,"Ġíŀĺëĵľ":5914,"Ġíķ´ëĨĵê³ł":5915,"Ġìļ°ë¦¬ëģ¼ë¦¬":5916,"ĠíĻĶìŀ¥íĴĪ":5917,"¬ìĺģ":5918,"íķĺì§Ģë§Į":5919,"ĠëĲĺê°Ģì§Ģê³ł":5920,"ëĮĢíķĻ":5921,"Ġê³¨ëĿ¼":5922,"ìĥĮ":5923,"Ġë³´ë¯¼":5924,"Ġëª¨ë¥´íģ¬ëĿ¼":5925,"ĠëģĿëĤ´":5926,"ê³Ħê°Ģ":5927,"ĠìĿ´ë¦¬":5928,"ĠíķĺëĥĲê³ł":5929,"Ġê°Ģìłł":5930,"ĠìķĪëĲĲ":5931,"ĠìĤ´ìķĦìĦľ":5932,"ëĭĺìĿĢ":5933,"ĠìĺĽëĤłë¶ĢíĦ°":5934,"ĠíĪ":5935,"Ġíķ´ë´Ĳìķ¼":5936,"ĠìĺģêµŃ":5937,"ĠëĤĺíķĺê³ł":5938,"Ġê·¸ëŁ¬ëĬĶëį°":5939,"ìŀĪìŀĸìķĦ":5940,"ĠíĸĪìĹĪì§Ģ":5941,"ìĭ¤ìĹĲìĦľ":5942,"Ġë¨¸ë¦¬ë¥¼":5943,"Ġë´īìĤ¬":5944,"Ġê³µì§ľ":5945,"Ġìĺ¤ë¹łíķľíħĮ":5946,"Ġê¸°ëĭ¤ë¦¬":5947,"ì£¼ê¸°":5948,"ìĭľëĭĪ":5949,"Ġìĸ´ëĶĶë¡ľ":5950,"Ġì´Īì½Ķ":5951,"ìĺĽëĤłìĹĲëĬĶ":5952,"ìĩ¼":5953,"Ġíľĺ":5954,"ĠìĤ¬ìĺ¤":5955,"ĠìĤ¬ìŀ¥ëĭĺìĿ´":5956,"Ġê±ĶíķľíħĮ":5957,"ĠëĤ´ëł¤ìĻĢ":5958,"ĠêµŃê°Ģ":5959,"ĠìķĪíķĺëĬĶ":5960,"Ġë³´ê±´":5961,"ëģĮ":5962,"ĠìĿ´ëĿ¼":5963,"ìĹĲìĦł":5964,"Ġë¨¹ìŀĲ":5965,"Ġëĵ¤ìĿ´":5966,"ìĿ¼ìĿĦ":5967,"ĠìķĬìľ¼ëĭĪê¹Į":5968,"Ġê³µìĹ°":5969,"ëĤ¬ëĬĶëį°":5970,"Ġìĸ´ë¦´ëķĮ":5971,"ë¡Ńê²Į":5972,"ĠëĮĵê¸Ģ":5973,"Ġê¾¸ì¤ĢíŀĪ":5974,"ê·¸ëĭĪê¹Ĳ":5975,"íķłëł¤ê³ł":5976,"ĠíĤ¤ê°Ģ":5977,"ĠëĨĪìĿ´":5978,"Ġëįĺìł¸":5979,"ĠìĹĨìĹĪëĬĶëį°":5980,"Ġìĸĺê¸¸":5981,"ĠìªĦ":5982,"ĠëģĪ":5983,"Ġìĺ·ìĿ´":5984,"Ġìĭłê¸°íķľ":5985,"ëĶĶëĭ¤ê²Į":5986,"ë±ħ":5987,"Ġ@":5988,"ëĤľìĿ´":5989,"ëª¨ê°Ģ":5990,"ĠìĿ¼ìĹĲ":5991,"ĠìĭŃë¶Ħ":5992,"Ġê°Ĳëıħ":5993,"Ġëĸ´":5994,"ë´¤ìŀĲ":5995,"Ġë²łìĿ´":5996,"Ġëıĭ":5997,"ì¹ĺëıĦ":5998,"Ġë°°ìļ¸":5999,"ĠíķĺìĦ¸ìļĶ":6000,"Ġë¹Ľ":6001,"Ġì£¼ìĹĲ":6002,"Ĺê²Į":6003,"Ġìĵ°ë¦¬":6004,"ìĶ¨ê°Ģ":6005,"Ġë²Įê³ł":6006,"ĠìķĪëħķ":6007,"íķ´ëĿ¼":6008,"ĠìĭŃíĮĶ":6009,"ëĪĦê°Ģ":6010,"ëĮĢìļĶ":6011,"Ġê°ĦìĭĿ":6012,"ĠíĹĻ":6013,"íĸĪìĸ´ìļĶ":6014,"Ġë°ŃìĿ´":6015,"ìĸ´ìĸ´":6016,"Ġê°ĶìŀĸìķĦ":6017,"ë¶ķ":6018,"Ġì´Īëĵ±":6019,"Ġëĭ¤ëħĢìķ¼":6020,"ìĦľëıĦ":6021,"ĠnameìĿ´ëıĦ":6022,"ĠëĮĢíķĻìĥĿ":6023,"Ġë§Įì¡±":6024,"Ġë§ŀëĬĶëį°":6025,"Ġë°ĶëĿ¼":6026,"Ġê±´ì¡°":6027,"Ġë°°ìļ°ëĬĶ":6028,"ìĪ¨":6029,"ĠìŀłìĿĦ":6030,"Ġìĥ¤ìĽĮ":6031,"ë³´ìŀĲ":6032,"ĠìłĦìĦ¸":6033,"Ġê²½ìļ°ëıĦ":6034,"íķĺëįĶëĿ¼ê³ł":6035,"Ġê³¡":6036,"Ġê³łìŀ¥":6037,"Ġê²½íĹĪ":6038,"ĠìĪ«":6039,"ĠëªħìĶ©":6040,"ĠêµĲë³µ":6041,"ĠêµŃìĪĺ":6042,"ĠìĦ¤ê±°ì§Ģ":6043,"ĠìŀĪëĥĲê³ł":6044,"ĠëĤ¨ìŀĲëĬĶ":6045,"ĠëĦ£ìľ¼ë©´":6046,"ĠìĿ¸ëıĦ":6047,"Ġëª©ìĨĮ":6048,"ìľ¼ë¯Ħ":6049,"Ġê±°ê¸°ë¥¼":6050,"ĠìĽĲìĿĦ":6051,"ĠëĲĲìĿĦ":6052,"Ġì²ľìĽĲ":6053,"ìŀĪìľ¼ë©´":6054,"Ġê²½íĹĪëĤľ":6055,"Ġíķ´ìķ¼ëĲł":6056,"ìľĦê°Ģ":6057,"ĠíĬ¹ìĿ´":6058,"íģ¬ë¦¼":6059,"Ġì¤Į":6060,"ĠìĦ±ìĤ°":6061,"Ġê³łëĵ±íķĻìĥĿ":6062,"ë²¤":6063,"Ġìĸ´ëĸ¨":6064,"íģĲ":6065,"ĠíĶ¼íĭ°":6066,"ë¦ī":6067,"ê´´":6068,"ĠíĻĶëĤĺ":6069,"ìĭ¶ìĸ´":6070,")(":6071,"Ġì§ĢëĬĶ":6072,"ĠíĸĪì£¼ê²Į":6073,"Ġë°Ķëĭ¹":6074,"ìĥĪëģ¼":6075,"Ġì£½ê³ł":6076,"Ġëĺĳê°Ļìķł":6077,"ĠëĳĲë²Īì§¸":6078,"Ġëª¨ë¥´ê²łê³ł":6079,"Ġíķĺëĭ¤ë³´ë©´":6080,"ëĬĶëĭ¤ê³ł":6081,"Ġê°ĢëĦ¤":6082,"ĠìĿ´ê±°ì§Ģ":6083,"Ġìĭ¸ìĽĮ":6084,"ìķĬìķĦ":6085,"ìķĦíľ´":6086,"ĠëĤĺëĪĦ":6087,"Ġê²ĮëıĦ":6088,"ë¶Ļ":6089,"ĠëķĦ":6090,"ĠëĨĶëĳ¬":6091,"Ġê·ĢìĹ¬ìĽĮ":6092,"Ġì¶©ë¶ĦíŀĪ":6093,"ê²ĮëıĦ":6094,"ĠëĲĺê²łìĸ´":6095,"ĠìłĦë¶ĢíĦ°":6096,"ë¶ĢëłĢ":6097,"ë¹¤":6098,"Ġìĸ´ëĸ»":6099,"Ġìª½ìĿĢ":6100,"ìĿ¸ê²Į":6101,"Ġì°¨ëıĦ":6102,"Ġìĺ¨ëĿ¼ìĿ¸":6103,"ì¡ĮëĬĶëį°":6104,"ĠìµľìĨĮ":6105,"ìĿ¸ëĵ¤ìĿ´":6106,"Ġìľłë¦¬":6107,"ĠëĨĶëĴĢ":6108,"Ġë¿Įëł¤":6109,"ĠëĲĺëĭĪê¹Ĳ":6110,"Ġì²¨":6111,"Ġê°Ģì§Ģêµ¬":6112,"Ġë¬´ìĦľìĽĮìĦľ":6113,"ĠëĮķê²¨":6114,"ĠìŀĲìĹ°ìĬ¤ëŁ½ê²Į":6115,"ĠìĹĨìĹĪ":6116,"ĠëķĲê°Ģ":6117,"Ġë°Ķê¿Ģ":6118,"Ġíį¼ìĦ¼íĬ¸":6119,"Ġíķ´ìķ¼ëĲĺëĤĺ":6120,"Ġê±¸ë¦¬ëĬĶ":6121,"Ġë¹Ħê°Ģ":6122,"ìľ¡ìĭŃ":6123,"Ġìį¨ëıĦ":6124,"Ġì³¤":6125,"ĠíķĺëĿ¼":6126,"ê·¸ëĭ¤ìĿĮìĹĲ":6127,"ĠëħĦìĿ´":6128,"Ġìī°":6129,"ìĸ¸ëĭĪê°Ģ":6130,"Ġíķ´ë¨¹":6131,"ëĮĢê¸°":6132,"íĻĶë¥¼":6133,"ĠíķĻêµĲê°Ģ":6134,"Ġê¸°ëĬ¥":6135,"ĠìŀĪìĸ´ìĭłëĶĶ":6136,"Ġì¤Ħìĸ´":6137,"Ġìĺ¤ìĿ¼ìŀ¥":6138,"Ġì½ĶìĬ¤":6139,"Ġìª½ìĿ´":6140,"ĠìķĦì§ģìĿĢ":6141,"Ġëį©":6142,"ĠëĨĢëĿ¼":6143,"ĠíĤ¤ìĽł":6144,"Ġìĭ¸ìĽĢ":6145,"êº¼ìķ¼":6146,"ĠìłĦíĻĶê°Ģ":6147,"ĠìĹ°ëĿ½ìĿĦ":6148,"Ġíķ´ì£¼ë©´":6149,"ĠìĤ´ê¸°":6150,"ë¶ĦìĹĲ":6151,"íĨµìĿ´":6152,"Ġì¡¸ëĿ¼":6153,"ĠìķĦëĵ¤ëıĦ":6154,"ìĬĪ":6155,"Ġíķłê²Į":6156,"ë§Įìķ½ìĹĲ":6157,"ìķĦìļ°":6158,"ĠíķĺëĬĲ":6159,"ĠìĤ¼ìĿ¼":6160,"Ġìĸĺê¸°íķĺëĭĪê¹Į":6161,"Ġë¬¼ëł¤":6162,"Ġë°°ìĨ¡":6163,"ĠíħĲëį°":6164,"ë¤":6165,"ĠìĹ¿":6166,"ĠìĿ¼íķĻëħĦ":6167,"ĠëĲĺëĤľ":6168,"ĠìĭŃë§ĮìĽĲ":6169,"ĠëŃĺë¡ľ":6170,"Ġë°Ģê°Ģë£¨":6171,"ĠìĶ»ê³ł":6172,"Ġìŀħìŀ¥ìĹĲìĦľëĬĶ":6173,"Ġê°Ģì§Ħ":6174,"Ġë¬¼ëıĦ":6175,"ĠìŀħìĿĢ":6176,"Ġì§ĳìĹĲë§Į":6177,"ìļ©ìĿ´":6178,"ì½¤":6179,"Ġë§ĲìĹĲ":6180,"ĠíĻĶë©´":6181,"Ġëĭ¤ëĭĪë©´":6182,"Ġê¸°ìĸµìĹĲ":6183,"/(":6184,"ì¹¼":6185,"Ġìłľì£¼ëıĦëıĦ":6186,"Ġê°Ħìŀ¥":6187,"Ġê³µë¶ĢíķĺëĬĶ":6188,"ĠìĤ¬íĪ¬ë¦¬ë¥¼":6189,"ë¡ľê·¸":6190,"Ġìĺ¬ë¦¬ëĬĶ":6191,"Ġì´Īë°¥":6192,"Ġê°Ĳê·¤":6193,"ëĤĺìļĶ":6194,"Ġë³´ìĿ¸":6195,"Ġëĵ¤ë¦¬":6196,"Ġë§ŀìľ¼ë©´":6197,"ĠìĤ¼ëħĦ":6198,"ìł¸ê²Į":6199,"Ġê²°ê³¼":6200,"Ġê°Ĳìłķ":6201,"íĨµëł¹":6202,"Ġê·¸ëŀ¬ëįĶëĭĪ":6203,"ì´Īëĵ±íķĻêµĲ":6204,"ê·ľ":6205,"Ġê±°ìĹĲìļĶ":6206,"Ġìĺ¤ë¥´":6207,"ĠìĹĨëĮĦ":6208,"Ġì¿":6209,"ìķĦìĺĪ":6210,"ĠìĿ¼ìĥģ":6211,"ë²ĦìĬ¤":6212,"ëª¨ë¥´":6213,"ĠëĤĺìĻĢê°Ģì§Ģê³ł":6214,"Ġìĭľë¦¬":6215,"ĠìķĮìŀĸìķĦ":6216,"ĠëĮĢì²´":6217,"íıĲ":6218,"Ġë²Ħë¦¬ëĬĶ":6219,"Ġëĵ¤ìĸ´ìĺ¤ë©´":6220,"ĠëĦ£ìĸ´ìĦľ":6221,"ĠìĺĪìłĦìĹĲëĬĶ":6222,"ê·¸ëĶĶ":6223,"ìĤ´ìĿ´":6224,"Ġì²´íĹĺ":6225,"íĭ´":6226,"ìĭľë¯¼":6227,"ìĤ¬ìĭ¤":6228,"ĠìķĦìĿ´ëĶĶ":6229,"ê²¼ìĸ´":6230,"ĠëĤ®ìĹĲ":6231,"Ġì½ľëĿ¼":6232,"ìĿ¸ìĿĢ":6233,"ĠìĹĨìĸ´ëıĦ":6234,"Ġëª¸ìĿĦ":6235,"ĠíĭĢë¦°":6236,"ê²Įë§ĮìĿĢ":6237,"ê¸°ë©´":6238,"ĠìĥĿê°ģìĹĲëĬĶ":6239,"ĠìĤ´ìķĺìĸ´":6240,"êµŃìĿ´":6241,"Ġìĭłìłľì£¼":6242,"ĠìĹ¬ìŀĲëĬĶ":6243,"Ġíİ¸íķľ":6244,"Ġìļ´ëıĻëıĦ":6245,"ĠíĶĦëŀĳ":6246,"ê°ĢìĹĲ":6247,"Ġê±°ëŀľ":6248,"Ġíķľëªħ":6249,"ëĮĢíķĻêµĲ":6250,"Ġìĵ°ëĭĪê¹Į":6251,"Ġë¶Ħëĵ¤ìĿ´":6252,"Ġê°ķìľ¼ëĦ¤":6253,"ĠíĿĶëĵ¤":6254,"ìķī":6255,"ĠìķĪëĤ´":6256,"ĠìĥĿê°ģíķľ":6257,"ìłķë§Ĳ":6258,"Ġë§ĽìŀĪëĭ¤ê³ł":6259,"ĠìķĦëĭĮê±°":6260,"ĠëĨĶëĳĲë©´":6261,"Ġë§īê±¸":6262,"Ġì¹Ń":6263,"Ġìį¬":6264,"ĠìķĦë¥´":6265,"ĠíĸĪìĹĪìŀĸìķĦ":6266,"Ġëĵ¤ìĸ´ìĻĢìĦľ":6267,"Ġíı¬íķ¨":6268,"ĠíĥľìĽĮ":6269,"Ġìį°ìĸ´":6270,"ĠëĶ°ëľ»íķľ":6271,"ĠìķĦë²Ħì§ĢëĬĶ":6272,"ìĶ¸":6273,"Ġìŀħêµ¬":6274,"Ġìļ°ìĻĢ":6275,"ĠìĨĲìĿĦ":6276,"ĠìĹīëį©":6277,"Ġë§ĲíĪ¬":6278,"ëıĻìĤ°":6279,"ê°ľìĽĶ":6280,"ĠìĽĶìļĶìĿ¼":6281,"Ġê½ģ":6282,"íĮĶìĭŃ":6283,"ĠìķĦë¶Ģì§Ģ":6284,"ìłľìĿ¼":6285,"ìĿ¸íĬ¸":6286,"ìĺ¤ë°±":6287,"ĠìĨįìľ¼ë¡ľ":6288,"Ġì§Ħíĸī":6289,"ëłĽ":6290,"ĠìĿ¼ìĽĶ":6291,"Ġì¢ĭìķĪ":6292,"ĠìĹ°ë§Ĳ":6293,"Ġìĺ¬ëĿ¼ê°ĢìĦľ":6294,"Ġëĸ¨ìĸ´ì§Ħ":6295,"Ġë°ĶëĢĲ":6296,"ĠíĶĮëŁ¬ìĬ¤":6297,"ëıĦë¥¼":6298,"ĠìŀĪìľ¼ëĭĪê¹Ĳ":6299,"ĠìłĢê²ĥëıĦ":6300,"Ġìķłë¥¼":6301,"Ġë§ĽëıĦ":6302,"Ġë¯¸ìĪł":6303,"Ġê²°ìłķ":6304,"ê²ħíķ´":6305,"Ġíķ©ëĭĪê¹Į":6306,"Ġì£¼ë¯¼":6307,"ĠìĿ´ëŁ°ê±¸":6308,"ĠìŀħìĽĲ":6309,"ê²ħíķ´ëıĦ":6310,"Ġì°¾ìķĦìĦľ":6311,"Ġê´Ģëł¨ëĲľ":6312,"íķĢ":6313,"Ġìĺ¤ì¤Į":6314,"Ġê·¸ëŀ¬ì§Ģ":6315,"ìŃĪ":6316,"ìķĦìĿ´ê°Ģ":6317,"ĠìĤ¬ê°Ģì§Ģê³ł":6318,"ëĬĶëį°ëıĦ":6319,"ĠìĹĨìĹĪëįĺ":6320,"ëĮĢëıĦ":6321,"ìĿ¼ë³¸":6322,"Ġëª¨ìĹ¬ìĦľ":6323,"ì¡Ī":6324,"ĠìĿ´ìĥģíķ´":6325,"Ġì§ĳìľ¼ë¡ľ":6326,"Ġë§ĪíĿĶ":6327,"Ġìŀ¬ë°Įê²Į":6328,"¯ëį°":6329,"ĳ¤":6330,"Ġíķĺê±°ëĤĺ":6331,"Ġìĸĺëŀĳ":6332,"Ġê³µë¶ĢëıĦ":6333,"Ġìĺ¤ì¼ĢìĿ´":6334,"ĠìŀĲë¦¬ê°Ģ":6335,"Ġì£¼ë¡ľ":6336,"ĠcompanynameìĹĲìĦľ":6337,"ĠíķĦëĿ¼":6338,"Ġê¸¸ìĹĲ":6339,"ĠëıĦìĦľê´Ģ":6340,"ì¤Ģëĭ¤ê³ł":6341,"ĠíĺĦê¸Ī":6342,"ëį°ê¸°":6343,"ëĤĺë¬¼":6344,"ìĹ¬ìķ¼":6345,"ëĲĺì§Ģ":6346,"ĠëĦ¤ìĿ´ë²Ħ":6347,"ìŀĺëıĦ":6348,"ĠíĻįì½©":6349,"ê³Ħë¡ľ":6350,"ĠìĿ´ë¥´":6351,"ĠìłĢìª½":6352,"Ġëĥħ":6353,"Ġê¿ĪìĿ´":6354,"Ġìĸ´ë¦¬":6355,"ìĿ¸ëıĦ":6356,"Ġíķ´ìķ¼ëı¼":6357,"ĠíĹ·":6358,"ĠìŀĪìĹĪìĿĦ":6359,"Ġìĸ´ë¦°ìĿ´ì§ĳ":6360,"Ġíķĺë§¨":6361,"ìĺĢê³ł":6362,"Ġëĭ¨íĨ¡":6363,"ĠìĿ½ê³ł":6364,"ĠìĦŃìĦŃ":6365,"ĠìĿ´ëħģ":6366,"ĠëĮĢíļĮ":6367,"Ġê¿ĪìĿĦ":6368,"Ġìĸ´ëĶľ":6369,"ìĿ´ìĹĲ":6370,"Ġê·ľ":6371,"Ġìĸ´ëĸ¡íķĺì§Ģ":6372,"ĠëĨĢëŀĲìĸ´":6373,"ĠìĤ¬ë°±":6374,"ĠìĿ¼ëĵ±":6375,"ë§Īìĭ¬":6376,"ĠìĥĿê¸¸":6377,"ĠìķłëĬĶ":6378,"Ġê³µê°Ħ":6379,"Ġì¹ĺìĽĮ":6380,"Ġëĭ´ëĭ¹":6381,"ì¢ĭìĿĢ":6382,"ìĸ´ì§Ģ":6383,"ê±°ë©´":6384,"ĠëĲĢ":6385,"Ġnameìķ¼":6386,"Ġë§Īëĭ¹":6387,"ĠíļĮìĿĺ":6388,"Ġìĸ´ì©ĶìĪĺ":6389,"ëĤĺíķľíħĮ":6390,"Ġë¬¼ìĸ´ë³´ê³ł":6391,"ĠëıĪë§Į":6392,"Ġì´¬ìĺģ":6393,"ĠíĥĢìŀĦ":6394,"Ġê³µë¶Ģíķĺê³ł":6395,"ëŀį":6396,"ëĥĦ":6397,"ĠëĳĲìĭľê°Ħ":6398,"Ġë©ķ":6399,"ëį¤":6400,"ë¡ľìļ´":6401,"Ġë§İëĦ¤":6402,"Ġê·¸ëŁ¬ëĭ¤":6403,"ìĪĺë¡ľ":6404,"Ġë§Īë¬´":6405,"ì¦ĿìĿ´":6406,"Ġë°ĳìľ¼ë¡ľ":6407,"ĠìĪŁê°ĢëĿ½":6408,"ĠëŃĲíķĺëĬĶ":6409,"ë¥´ìĭł":6410,"ìļ°ëĤĺ":6411,"Ġê°ķìĽĲëıĦ":6412,"Ġëĭ´ìŀĦ":6413,"Ġê·¸ëŀ¬ëįĺ":6414,"Ġê·¼ì²ĺìĹĲ":6415,"Ġíĳ¹":6416,"ĠìŀĲëĿ¼":6417,"ĠëıĦìĽĢ":6418,"Ġë³´ë©į":6419,"Ġë¹ĦíĥĢë¯¼":6420,"ĠìľĦìĹĲìĦľ":6421,"ĠìĦłìĥĿëĭĺìĿĢ":6422,"ì¢ĭìķĦ":6423,"ëł¤ìķ¼":6424,"ìĦłìĿ´":6425,"Ġë°±ë§ĮìĽĲ":6426,"Ġì°½ê³ł":6427,"íķĺìļ°ìĬ¤":6428,"ĠìĥĿê¸°ëĬĶ":6429,"ìĽĲìĹĲìĦľ":6430,"ĠìļĶê¸°":6431,"ĠíĹĪìĹ°":6432,"ĠìĻĢì¤ĳìĹĲ":6433,"Ġìŀ¥ìĨĮ":6434,"Ġë§¤ëĭ¬":6435,"Ġìĸ´ë¥¸ëĵ¤ìĿ´":6436,"ë¿Ĳ":6437,"Ġ?":6438,"ĠìĹĨëĤĺ":6439,"Ġì¢ħìĿ¼":6440,"Ġì¢ħêµĲ":6441,"ìķĦíĻī":6442,"ë¶ĢëĬĶ":6443,"Ġìĸĺê¸°íķľ":6444,"Ġì¶©ìłĦ":6445,"ĠìĥĿê²¼ìĸ´":6446,"ĠìĿ´ì¼Ģ":6447,"ë¦ĦìĿ´":6448,"ĠíĮĮë§Ī":6449,"Ġê·¸ëłĩê¸´":6450,"Ġíķ´ìĤ¬":6451,"ĠìľĹ":6452,"ĠìĸĺëĦ¤ê°Ģ":6453,"ĠëĦ·íĶĮë¦ŃìĬ¤":6454,"ĠìĿ´ì£¼":6455,"ìļ±":6456,"Ġëĭ¤ë¥¼":6457,"Ġëĭ¤ìĿĮì£¼":6458,"ìķĶíĬ¼":6459,"Ġê°ľìĿ¸ìłģìľ¼ë¡ľ":6460,"Ġë°°ê³łíĮĮ":6461,"ìĦľê°Ģ":6462,"ë¦¬ë©´ìĦľ":6463,"ĠìķĬìŀĸìķĦ":6464,"Ġê³łì³Ĳ":6465,"Ġìķłê¸°ë¥¼":6466,"ĠìĮ©":6467,"ĠëŁ°":6468,"Ġìļ°ë¦¬ëĤĺ":6469,"Ġíķłì§Ģ":6470,"Ġì²«ì§¸":6471,"íŀĪê³ł":6472,"Ġìĺģíĸ¥":6473,"ĠëĪĦêµ¬ëŀĳ":6474,"Ġìĭ¶ìĸ´ê°Ģì§Ģê³ł":6475,"Ġì§ĢëĤĺë©´":6476,"ìļĶì¦ĺìĿĢ":6477,"Ġíļ¨ê³¼":6478,"·Ķ":6479,"ĠìķĦê³ł":6480,"ëĮĢíļĮ":6481,"ĠëĤ¨ìŀĲëĵ¤ìĿĢ":6482,"Ġì°įìĸ´ìĦľ":6483,"ĠêµŃëĤ´":6484,"Ġíĳľìłķ":6485,"Ġê·¸ìª½ìľ¼ë¡ľ":6486,"Ġë°°ê³łíĶĦ":6487,"ĠíĪŃ":6488,"ë¦¬ê¸°":6489,"ĠìĤ¬ì§Ģ":6490,"ë²¨":6491,"Ġìĸĺê¸°íĸĪ":6492,"ĠëĲłê¹Į":6493,"ĠíĥĢë©´":6494,"ĠíĮĮíĭ°":6495,"Ġë°Ģìĸ´":6496,"Ġê·¸ëŁ°ê±¸":6497,"Ġë§İìķĺìĸ´":6498,"ĠìļĶëŁ°":6499,"ĠìĬ¤ì¼Ģ":6500,"ë°ĶìĿ´íĬ¸":6501,"Ġìĸ´ë¥¸ëĵ¤":6502,"Ġíķĺë¯¼":6503,"Ġê°Ģë´Ĳ":6504,"ĠíĸĪêµ¬ëĤĺ":6505,"ĠíĮĶì²ľ":6506,"ìĺĢìľ¼ë©´":6507,"Ġê³¼ìłķ":6508,"Ġì¶ķìłľ":6509,"ĠëºĦ":6510,"Ġìł¸":6511,"ĠìĤ¬ì²ľ":6512,"ĠìĤ¼ìĭŃë¶Ħ":6513,"Ġê¶ģê¸Īíķľ":6514,"ìĿ´ìħĺ":6515,"ĠêµŃìĸ´":6516,"Ġìļ¸ê³ł":6517,"14":6518,"ĠìľłìĤ°":6519,"íĤ¤ë¡ľ":6520,"íķĺëĿ¼":6521,"Ġì¹ľêµ¬ëĵ¤ëıĦ":6522,"ĠëıĮê³ł":6523,"Ġë°©ìĸ´":6524,"Ġë¹łì§ĢëĬĶ":6525,"ìºĲ":6526,"ìĹĪëĭ¤ê°Ģ":6527,"ĠìĭľíĤ¨":6528,"Ġìķ½ìĿĦ":6529,"ĠëıĦìłĢíŀĪ":6530,"ĠíĶ¼ìĭľ":6531,"ĠíĬĢê¹Ģ":6532,"ìĭľëĭ¤":6533,"Ġêµ¿":6534,"Ġì¶ľë°ľ":6535,"Ġë¶Ģë¶ĦìĿ´":6536,"Ġíĩ´ì§ģ":6537,"Ġì¡±ìĿĢ":6538,"ë¡¤":6539,"ĠëĲĺê¸°":6540,"ĠìķĬì§Ģ":6541,"ëł¸ëĬĶëį°":6542,"Ġìĸ¼êµ´ìĹĲ":6543,"ë°ĽìķĦ":6544,"ë»Ķ":6545,"ĠëĤłìĶ¨ê°Ģ":6546,"Ġëĵ¤ìĹĪëįĺ":6547,"ĠìĤ´ìķĶ":6548,"ĠëĪĪìĿĦ":6549,"ĠëĪĪìį¹":6550,"ĠìĨĮë¦¬ë¥¼":6551,"Ġì¢ĭìľ¼ëĭĪê¹Į":6552,"ĠëĶ¸ìĿĢ":6553,"ĠìķĦíĻīìĭľ":6554,"Ġíķ´ë´¤ìŀĲ":6555,"Ġê°ĵ":6556,"ê±°ê¸°ìĹĲ":6557,"Ġëĭ¤íĸīíŀĪ":6558,"Ġìĸ´ìĿ´ê°Ģ":6559,"Ġë³´ëł¤ê³ł":6560,"ĠëĤĺìĿ´ìĹĲ":6561,"Ġëľ¯ìĸ´":6562,"Ġíķ´ì§Ģ":6563,"Ġì¹ľêµ¬ëĵ¤ìĿĢ":6564,"ĠëĤ¨ìŀĲëĵ¤ìĿ´":6565,"Ġê²°íĺ¼íķł":6566,"Ġë§ĪìĿĮëĮĢë¡ľ":6567,"Ġë§ĲíĸĪì§Ģ":6568,"ĠìĭľíĤ¤ëĬĶ":6569,"īģ":6570,"ĠëĲ©ëĭĪëĭ¤":6571,"Ġë´ĲëĿ¼":6572,"êº¼ë²ĪìĹĲ":6573,"ĠìĿ´ì¸µ":6574,"ì²¨":6575,"ì°ľ":6576,"ĠêµĲíĨµ":6577,"ĠìĿ¸íĦ´":6578,"ĠìĤ°ëĭ¤":6579,"ĠëĦ¤ê°Ģ":6580,"Ġì¤¬ëĬĶëį°":6581,"ĠìĥĿê°ģíĸĪ":6582,"Ġë´Ĳê°Ģì§Ģê³ł":6583,"Ġìłģëĭ¹íŀĪ":6584,"Ġê³¼ìĪĺ":6585,"ĠëĦ£ëĬĶ":6586,"Ġì§§ê²Į":6587,"ëĭ¤ëĭ¤":6588,"Ġì§Ģê³ł":6589,"Ġë°Ķë³´":6590,"Ġë¬¼ì§Ī":6591,"Ġê¼¼":6592,"ëĭ¬ëĿ¼":6593,"ĠëĨĶëĳĲê³ł":6594,"Ġë¸ĶëŀĻ":6595,"Ġì¶Ķì²ľíķ´":6596,"ĠëĮĢíĨµëł¹":6597,"ĠìķĮìķĦëĵ£":6598,"Ġë§İìķĦê°Ģì§Ģê³ł":6599,"ĠíĨµíķ´ìĦľ":6600,"ĠëĨĴìķĦ":6601,"ĠëĤĺëĿ¼ìĹĲìĦľ":6602,"ëĩ":6603,"Ġìĺµ":6604,"Ġëĭ®ê³ł":6605,"Ġë¨¹ìĿĦê±°":6606,"ë¶Īë¯Ħ":6607,"Ġê¸Īìķ¡":6608,"ĠìĿ´ë²ĪìĹĲëĬĶ":6609,"Ġê³łëĵ±ìĸ´":6610,"ĠìĿ´ë»Ĳ":6611,"Ġê°Ģê·¸ëĦ¤":6612,"ìłĲìĿĦ":6613,"ê°Ģë©´ìĦľ":6614,"ĠìĦ±ëĭ¹":6615,"ìĥīê¹Ķ":6616,"ì¹´ë¶ĢëĮĦ":6617,"ĠìķĦíĶĮ":6618,"ĠìĸĺëıĦ":6619,"Ġì¢ĭìķĦíķĺëĭĪê¹Į":6620,"ì§ĳìĿĢ":6621,"Ġìĭ¸ìĽł":6622,"ĠëĲĲëĭ¤":6623,"ëł¥ìĿĦ":6624,"ĠëĮĢëĭ¨íķľ":6625,"ĠìķĦëĭĲê¹Į":6626,"Ġì´Īë°ĺìĹĲ":6627,"ĠëĤĺìĿĢ":6628,"ĠíķľëıĻìķĪ":6629,"Ġë§Ĳíķ´ìķ¼":6630,"Ġìķ¼ìĿ´ëĦ¤":6631,"íĬ¸ë¡ľ":6632,"Ġê³µë¶Ģíķł":6633,"Ġì¤ĺëıĦ":6634,"ĠíĽĦë°°":6635,"íĮ¨ëĵľ":6636,"ê¸ĪìĿ´":6637,"ĠëĤ¨ëıĻìĥĿ":6638,"Ġê²½íķ´ëıĦ":6639,"ĠëŃĲë¥¼":6640,"íŀĲ":6641,"ìĺģíĻĶ":6642,"ĠìĿ´ëŀľ":6643,"ĠíķĺìĿ´":6644,"Ġê°ĢëĤĺ":6645,"ĠìŀĲì¡´":6646,"Ġëª»ê°Ģ":6647,"Ġê°ľëĬĶ":6648,"Ġê³µê¸°":6649,"Ġìį¸":6650,"Ġìļ´ìĺģ":6651,"ĠìłķìĭłìĿ´":6652,"Ġìĺ®ê²¨":6653,"Ġìĸ´ìĭ¤":6654,"íķľíħĲ":6655,"Ġë¨¹ìĹĪê±°ëĵł":6656,"ìĹĪêµ¬ëĤĺ":6657,"Ġë§ĪìĿ¸":6658,"ĠìłĦíĻĶíķ´":6659,"ĠìļķìĿĦ":6660,"Ġìļ°ë¦¬ì§ĳìĹĲ":6661,"ëĤ©":6662,"ìĿ¼ëĤł":6663,"Ġì¤Ħê²Į":6664,"ê²½íķ´":6665,"ìħĭ":6666,"Ġê´ľì¶ĺ":6667,"ĠíĦ°ìł¸":6668,"ê³łìĤ¬":6669,"íı´":6670,"Ġê·¸ë§ĮëĳĲ":6671,"Ġëĵ¤ìĸ´ìĺ¤ê³ł":6672,"ĠìķĪíĥĢ":6673,"ìķĺëĭ¤ê³ł":6674,"ĠìļĶë§Ŀ":6675,"ĠìĦľìļ´":6676,"ìĭ¤ìĿ´":6677,"ĠëĶ°ê³ł":6678,"ĠëĪĦêµ¬ëĥĲ":6679,"ĠíĭĢë¦¬":6680,"Ġì°½ë¬¸":6681,"Ġê·Ģì°®ìķĦ":6682,"ìĿ´ëŁ¬":6683,"ĠëĤ¯":6684,"Ġìĺ¬ëĿ¼ê°Ħ":6685,"ĠìĨįìĿ´":6686,"Ġì²ŃëħĦ":6687,"Ġë®¤":6688,"ĠëŃī":6689,"ë¹Ī":6690,"Ġê°ĪëĿ¼":6691,"íĶ¼ìĬ¤":6692,"ĠìĺģíĻĶê´Ģ":6693,"Ġëħ¸ëŀĺë¥¼":6694,"ĠëĳĺìĿ´ìĦľ":6695,"Ġê¸īìĭĿ":6696,"Ġì§§ìĿĢ":6697,"ì·":6698,"êµ¬ëĭĪ":6699,"Ġì¢ĭìķĦíĸĪ":6700,"Ġì¹ľêµ¬ëĦ¤":6701,"ĠíĶĦë¦¬":6702,"ìĹĲìĦľë§Į":6703,"ëįĶë§Į":6704,"ë²Ħë¦´":6705,"ĠëıĻê°ĳ":6706,"Ġìī´":6707,"Ġëıħê°Ĳ":6708,"ĠëĬĲëģ¼ëĬĶ":6709,"ìķ¼ëı¼":6710,"Ġì¢ĭëįĶëĿ¼":6711,"Ġë¡¯ëį°":6712,"ì©Į":6713,"ëıĦìĹĲ":6714,"íķĺëĥĲ":6715,"Ġë¨¹ìĸ´ë´¤":6716,"ĠíķĻêµĲëıĦ":6717,"ìľ¡ì§Ģ":6718,"Ġì»¤ìĦľ":6719,"Ġì¤ĺìĦľ":6720,"ë²ĮëłĪ":6721,"ĠíĤ¬ë¡ľ":6722,"Ġë¨¹ê¸´":6723,"ĠìķĬëĬĶëį°":6724,"Ġë§ĽìĿĢ":6725,"ĠìĦłìĥĿëĭĺëıĦ":6726,"Ġíķ¨ëįķ":6727,"ë©©":6728,"ìĤ¬ìĭŃ":6729,"Ġë§ĽìŀĪê³ł":6730,"Ġíĺ¼ìŀĲìĦľ":6731,"Ġì§ľìŀ¥":6732,"ëŁīìĿ´":6733,"ĠìĮ¤ìĿ´":6734,"Ġìķ¤":6735,"ëłī":6736,"Ġë§Ĳíķ´ëıĦ":6737,"Ġíĺ¹":6738,"Ġê±¸ë¦¬ë©´":6739,"êµŃìĿĢ":6740,"íĹ¤":6741,"ìĹ°íŀĪ":6742,"ĠìĤ´ìķĦëıĦ":6743,"ĠíĹ·ê°Ī":6744,"ìķ¼ìĿ´":6745,"ĠìĹ¬ê¸´":6746,"ë¹Į":6747,"Ġìĵ°ëĬĶëį°":6748,"Ġíŀĺëĵ¤ê²Į":6749,"Ġìľ¡ì§ĢìĹĲ":6750,"íķĺìŀĲ":6751,"ëħł":6752,"Ġíķłë¨¸ëĭĪëĵ¤":6753,"Ġì¯¤ìĹĲ":6754,"ĠíķĦëĿ¼íħĮ":6755,"ê¸ĭ":6756,"ĠìĥĿê°ģë§Į":6757,"Ġê¸°ê°Ģ":6758,"Ġì¢ĭìķĦíķł":6759,"ìłĢëĬĶ":6760,"ĠìĿ´ë¥´ì¼Ģ":6761,"ë¦¬ìĸ´":6762,"ĠëŃĲìĺĢ":6763,"Ġê·¸ê±°ìķ¼":6764,"ë³´íĨµ":6765,"ĠëĮĢíķ´":6766,"ì´Ŀ":6767,"ĠìĥĿê¸°ë©´":6768,"ĠìķĪëĲľëĭ¤ê³ł":6769,"Ġë§Īëĭ¤":6770,"Ġê°Īë¹Ħ":6771,"ĠëĮĢíķĻìĽĲ":6772,"ìĬ¬íı¬":6773,"Ġê·¸ìª½ìĹĲ":6774,"Ġê°ł":6775,"ĠìłĢê²ĥ":6776,"ìĹ¬ëįŁ":6777,"ĠìłĦìŀĲ":6778,"ìķłê°Ģ":6779,"ĠìĤ¬ëŀĮëĵ¤ìĿ´ëŀĳ":6780,"Ġë§İê±°ëĵł":6781,"ë³´ê²Į":6782,"Ġëª»íķĺëĭĪê¹Į":6783,"ĠìŀĲê¸°íķľíħĮ":6784,"ĠëĦĺìĸ´ìĦľ":6785,"ĠíĦ±":6786,"Ġìĺ¤ê¸°":6787,"ĠíĮ©":6788,"ìĺĮ":6789,"Ġìĺ¤ìŀĸìķĦ":6790,"ĠìĿ¸ì²ľ":6791,"ĠìķĦëĭĮëĶĶ":6792,"ĠíļĮìŀ¥":6793,"Ġë¯¸ìķĪíķ´":6794,"ê³łëĵ±íķĻêµĲ":6795,"ĠìĤ¬ëĭ¹":6796,"ìľ¼ê³ł":6797,"ĠìĭľìķĦë²Ħì§Ģ":6798,"Ġì¹¸":6799,"Ġì¡°ìłĪ":6800,"ê²¨ìļ¸":6801,"Ġì°įìĿĦ":6802,"ĠìĺģíĻĶë¥¼":6803,"ĠìłķíĻķíŀĪ":6804,"ëĩ¨":6805,"Ġê°ĢìĬ¤":6806,"íķľëĭ¤ëĬĶ":6807,"ëŀĳìĿ´":6808,"íĻį":6809,"ĠíĹĪëĭĪê¹Į":6810,"ìĺģìĥģ":6811,"Ġíģ¬ë¦¼":6812,"ĠëĤ¬ìĸ´":6813,"ìĵ¸":6814,"ĠìĿ´íķ´ë¥¼":6815,"ë¼Ī":6816,"Ġìĸ´ë¥´ìĭł":6817,"ĠìĹĨìķł":6818,"Ġë§Īìĭ¤":6819,"Ġê´ľì°®ëĭ¤ê³ł":6820,"Ġë§Ĳê³łëĬĶ":6821,"Ġìĸ´ë¨¸ëĭĺ":6822,"Ġëļľê»ĳ":6823,"Ġìķ¼ê°Ħ":6824,"ĠìĦľìĦľ":6825,"Ġë¬¸ìĿĦ":6826,"ĠíĻĺìŀĲ":6827,"Ġìĺ¥ëıĶ":6828,"Ġëı¼ì§Ģê³łê¸°":6829,"ì§ĢëĦ¤":6830,"ĠìĭľëĮģ":6831,"ĠìĬ¤ìľĦ":6832,"ĠëĪĦëĤĺê°Ģ":6833,"ë°Ķì§Ģ":6834,"ê³Ħë¥¼":6835,"Ġë§ĽìŀĪëĬĶëį°":6836,"Ġë¬´ìĭłê±°":6837,"ĠìĭłëŀĳìĿ´":6838,"ĠìµľëĮĢíķľ":6839,"ê±°ê¸°ëĬĶ":6840,"Ġìĸ´íĶĮ":6841,"ĠìķĮê²łì§Ģ":6842,"Ġìŀ¬ë¯¼":6843,"ëĨ©":6844,"Ġë°©íĸ¥":6845,"Ġê¹ĢìĹĲ":6846,"Ġê¶ģê¸Īíķ´":6847,"ìĹĪëĮĦ":6848,"Ġìĭ¬íķľ":6849,"ĠëĵľëŁ¬":6850,"ĠìºĶ":6851,"Ġë°´":6852,"Ġìľ¼ë¡ľ":6853,"Ġìĺ¤ì§ķ":6854,"ĠìĹ¬ìŀĲëĵ¤ìĿ´":6855,"Ġë§ĲíĸĪìŀĸìķĦ":6856,"ĠìĬµê´Ģ":6857,"Ġíķ´ìķĪ":6858,"ĠëĲĺê²łëĦ¤":6859,"Ġê·¸ëŀĺìļĶ":6860,"Ġë¶ķ":6861,"Ġìķ¼ìĿ´ëĬĶ":6862,"ĠëĤ¨ìŀĲëĵ¤":6863,"Ġíĺ¸ì£¼":6864,"Ġìĸ´ë¨¸ëĭĪëıĦ":6865,"Ġìĸ´ìłľëıĦ":6866,"Ġëĸ¨ìĸ´ì¡Į":6867,"ĠìħĶ":6868,"ĠëºĲ":6869,"ìĿ´êµ¬ëĤĺ":6870,"ìĦ¬":6871,"ìŀĸ":6872,"ĠëĤĺìĭłëĶĶ":6873,"Ġë§ŀê²Į":6874,"Ġìĺ¨ëĭ¤":6875,"ĠìķĬìķĦëıĦ":6876,"ĠìķĪëĲľëĭ¤":6877,"Ġë§ĪëĿ¼íĥķ":6878,"ĲëŁ¬":6879,"Ġíķ´ë³¼ê¹Į":6880,"ĠëĮĢë§Į":6881,"Ġê¹Ĳ":6882,"Ġì¤ĦëıĦ":6883,"Ġì´Īë¡Ŀ":6884,"ëĤ¨ìķĦ":6885,"íĺĢìĦľ":6886,"ë°ĽëĬĶ":6887,"ĠìķĮìķĺì§Ģ":6888,"Ġíķľê±°ìķ¼":6889,"Ġì¤į":6890,"Ġëĵ¤ëłģ":6891,"Ġëĵ¤ìľ¼ë©´ìĦľ":6892,"ĠëĮĢêµ¬":6893,"Ġë°Ķìģľ":6894,"íķĻìĽĲ":6895,"Ġë¶Ģë¥´ê³ł":6896,"Ġê²½ê¸°":6897,"ëŀĢëĭ¤":6898,"Ġìĭľìŀĳíķľ":6899,"ĠìĬ¤íĨłë¦¬":6900,"Ġíķ´ëĨ¨":6901,"ë°ĶëŀĮ":6902,"ĠìĿ´ìĽĶ":6903,"Ġíķĺê¸°ë¡ľ":6904,"ëĤĺëŀĳ":6905,"Ġë²¨":6906,"Ġëĵ¤ìľ¼ëĭĪê¹Į":6907,"ìĬ¤ëŁ¬":6908,"íĮ¬":6909,"íĮį":6910,"Ġìĭłíĺ¼":6911,"ĠìĬ¤ëĭĺ":6912,"ê²ħíĹĪëĤľ":6913,"ì³Ĳê°Ģì§Ģê³ł":6914,"ĠìĥĿíĻľìĿĦ":6915,"ĠìĻ¸êµŃìĿ¸":6916,"Ġë§ĪìĶ¸":6917,"Ġì°¨ëĬĶ":6918,"Ġì´Ĳ":6919,"Ġë°ĺìĿ´":6920,"ĠìŀĪìĹĪëĦ¤":6921,"ĠíĽĶ":6922,"Ġë²ĮëłĪ":6923,"ëı¼ì§Ģ":6924,"ĠìŀĪëĭ¨":6925,"íķľíĭ°":6926,"Ġì£¼ëĿ¼ê³ł":6927,"Ġì¢ĭìĿĢëĶĶ":6928,"ĠìŀĪìĹĪìľ¼ë©´":6929,"ĠìķĪíķł":6930,"ĠìķĪíķ´ìĦľ":6931,"ê²łëĭĪ":6932,"ĠëĳĲêº¼":6933,"Ġêµ¬ìĦĿ":6934,"ĠíĹĮëĶĶ":6935,"ĠìŀĲë¦¬ìĹĲ":6936,"Ġë¨¸ë¦¿":6937,"Ġê²½ìļ°ê°Ģ":6938,"ìĦľë¥¼":6939,"ĠìķĪíĸĪìĸ´":6940,"Ġê¸°ìĹħ":6941,"ĠíĮ¡":6942,"Ġê³ĦìłĪ":6943,"ĠìĬ¤íİĺ":6944,"ĠìħĢ":6945,"ĠëĤ´ìļ©ìĿ´":6946,"ì¹ĺì§Ģ":6947,"Ġë¶ĢëģĦ":6948,"ĠìĪ²":6949,"Ġëĭ¤ë¥¸ê±°":6950,"Ġë¶ĦìľĦê¸°ê°Ģ":6951,"ĠìŀĲëıĻì°¨":6952,"¤ë²Ħ":6953,"íķĺìĭł":6954,"íķĺëĭ¹":6955,"Ġê±°ê¸°ë¡ľ":6956,"ĠëıħìĿ¼":6957,"Ġëĭ¥":6958,"ĠìĤ´ë¦¼":6959,"ë¦°ëĭ¤":6960,"ì»·":6961,"Ġë§ĲíķĺëĬĶê±°":6962,"íķĺëĭ¤ëĬĶ":6963,"Ġì¢ĭëĮĢ":6964,"Ġëĵ¤ëŁ¬":6965,"ìłĢì©Įê³ł":6966,"Ġëĭ¬ëĭ¬":6967,"ĠìĿ´ë¦ĦìĿĢ":6968,"ì©¡":6969,"Ġê±°ëĵł":6970,"ëĶ´":6971,"nameëĬĶ":6972,"Ġê±°ê¸°ê¹Įì§Ģ":6973,"ìĹ¬ëıĦ":6974,"Ġê³µìĤ¬":6975,"íĦ°ë¦¬":6976,"ìķĦë§Ī":6977,"Ġë§Ĳê¹Į":6978,"íĺ¹ìĭľ":6979,"íķłë§Ŀ":6980,"ĠìĿ½ëĬĶ":6981,"ëļľ":6982,"Ġxxxxx":6983,"Ġëĵ¤ìĸ´ëıĦ":6984,"Ġë¨¹ìĸ´ìķ¼ì§Ģ":6985,"Ġëĭ¤ëĭĪëĭĪê¹Į":6986,"ĠìķĪìłķ":6987,"ĠëķĮëĭĪê¹Į":6988,"ĠìĿ¼íķł":6989,"Ġë²Ħë¦´":6990,"ĠìĹĲìĸ´íĮŁ":6991,"ë§Īíķľ":6992,"ĠëĪĪëıĦ":6993,"Ġëª©ìĤ¬ëĭĺ":6994,"ĠëĤĺìĻĶëįĺ":6995,"Ġë³´ìĹ¬ì£¼":6996,"Ġì¤ĳêµŃìĸ´":6997,"Ġê·¸ë¶ĦìĿ´":6998,"ìłľëıĦ":6999,"ĠëĦĪë¥¼":7000,"Ġìĺ¤ë§ĮìĽĲ":7001,"Ġëĵ¤ìĸ´ê°Ģì§Ģê³ł":7002,"Ġìĺ¤ëŀĺëĲľ":7003,"ĠíıīìĨĮìĹĲ":7004,"Ġìº¡":7005,"ìŀĲìĹĲ":7006,"ìĻĲ":7007,"ìĺ¤ëĿ¼":7008,"ĠìłĦìĹŃ":7009,"ĠíĹĪë©´":7010,"ĠìĪĺìĹħìĿĦ":7011,"Ġë²ĪìĿĦ":7012,"ìķĪìĹĲ":7013,"ĠcompanynameìĹĲ":7014,"Ġìŀ¬ë¯¸ìĹĨ":7015,"Ġíķĺëĭ¤ë³´ëĭĪê¹Į":7016,"ĠìķĦëģ¼":7017,"ìĿ¼ê³±":7018,"Ġìłľëª©":7019,"Ġìĸĺê¸°íķĺëĭ¤ê°Ģ":7020,"ìĭĿëıĦ":7021,"ìĤ°ìĿ´":7022,"ĠìĦ±ìĿ¸":7023,"Ġë°©ê¸Ī":7024,"Ġë¹łì§Ģê³ł":7025,"Ġëĵ±ê¸ī":7026,"íķĺëĮĢ":7027,"ìľĦë¡ľ":7028,"ĠëĳĲìĦ¸":7029,"ë¶ĢëĤľìĿ´":7030,"ĠëĬĲëĤĮìľ¼ë¡ľ":7031,"ĠìķĦë¥´ë°ĶìĿ´íĬ¸":7032,"ëĵ¤ìĹĲ":7033,"Ġíķľêº¼ë²ĪìĹĲ":7034,"íķ´ì§Ħ":7035,"Ġë§ĲíĸĪëĬĶëį°":7036,"ì°¾":7037,"ĠëĤĺê°Ģìķ¼":7038,"ìĪŃ":7039,"Ġê´ľì°®ì§Ģ":7040,"Ġìĸµì§Ģë¡ľ":7041,"ìłĢë²ĪìĹĲ":7042,"Ġë§ĽìĹĨ":7043,"Ġìĭľê°ĦìĿĢ":7044,"Ġë¹¨ë¦¬ë¹¨ë¦¬":7045,"ĠëĪĦêµ¬íķľíħĮ":7046,"ĠìĦłìĥĿëĭĺíķľíħĮ":7047,"Ġê°Ļê±°ëĵł":7048,"Ġìĺ¤ìłĦ":7049,"Ġíĺ¹ìĭľëĤĺ":7050,"Ġê¸°ë³¸ìłģìľ¼ë¡ľ":7051,"Ġëĳ¥":7052,"ĠìĿ´ëıĻ":7053,"Ġë§ŀìķĦìķ¼":7054,"ĠëŃĶê°Ģë¥¼":7055,"Ġëĵ¤ìĸ´ê°Ģìķ¼":7056,"ĠíħĶ":7057,"ìķĮìķĦ":7058,"ĠëĮĢíĻĶë¥¼":7059,"ĠìĿ´ë§ĪíĬ¸":7060,"ĠìĪłëıĦ":7061,"Ġìŀ¬ë¯¸ê°Ģ":7062,"Ġëĸ¨ìĸ´ì§Ģ":7063,"ë°ŃìĹĲ":7064,"íŀĺ":7065,"Ġê°¤":7066,"ë§ĮìĿĺ":7067,"Ġëª»ë¨¹":7068,"Ġìĸ´ëĳĲ":7069,"Ġë§ŀëĤĺ":7070,"Ġì¢ĭìķĦíķĺì§Ģ":7071,"ëĵľë¥¼":7072,"Ġë°Ľìľ¼":7073,"ì§ĳìĿĦ":7074,"ìĦ¸ê°Ģ":7075,"ĠìĻĶìŀĸìķĦ":7076,"ĠëģĿëĤĺëĬĶ":7077,"Ġìĭ«ê³ł":7078,"ĠìĿ´ê¸°":7079,"ĠìķĪëĵ¤ìĸ´":7080,"Ġë¨¹ê±°ëĵł":7081,"Ġíĥĵ":7082,"Ġìĸ¼êµ´ëıĦ":7083,"ĠíĥľíĴį":7084,"ìĭľëĭĪê¹Į":7085,"Ġêµ¶":7086,"ĠëĳĲëĵľ":7087,"ëĬĲëĭĪ":7088,"ĠëĤĺìĻĶìĿĦ":7089,"ĠìķĦëĿ¼ëıĻ":7090,"ê±°ë¥¼":7091,"ĠìĤ¬ìŀ¥":7092,"ĠìĭľíĤ¬":7093,"ĠìĥĿê°ģìĹĲ":7094,"ë°©ìĿĦ":7095,"ìŀĳëħĦ":7096,"ìĩł":7097,"ĠìĿ´ë£¨":7098,"íķ´ì£¼ëĬĶ":7099,"Ġë³´ëĭ¨":7100,"ë§ĪìĿĦ":7101,"Ġë¶ĢëŁ½":7102,"ĠíĿī":7103,"Ġë¶ģíķľ":7104,"ĠëķĮëŀĳ":7105,"Ġëªĩê°ľ":7106,"Ġì»¤íĶĮ":7107,"íķĺìĭľëĬĶ":7108,"Ġìĺģìĺģ":7109,"ì¤ĳíķĻêµĲ":7110,"ëı¼ìĦľ":7111,"ì§±":7112,"ĠìķĦìķĦ":7113,"Ġíķ´ìķ¼ê²łëĭ¤":7114,"Ġë¯¸ì³¤":7115,"ëĦĪëıĦ":7116,"Ġë°¥ìĿĢ":7117,"Ġë°Ķê¾¸ê³ł":7118,"Ġë§ĲíķĺëĬĶëį°":7119,"ĠëĲĺëĥĲ":7120,"ê²łëįĶëĿ¼":7121,"ĠíķĺëĬĶêµ¬ëĤĺ":7122,"ĠìķĦëĭĪê±°ëĵł":7123,"ê²łê³ł":7124,"Ġê´ľì°®ëĭ¤":7125,"ĠìķĪì¢ĭìķĦ":7126,"ĠëĤ´ë©´":7127,"Ġnameìĸ¸ëĭĪ":7128,"Ġëª¨ìķĦìĦľ":7129,"Ġì¤ĳíķĻìĥĿ":7130,"Ġê²½ìŁģ":7131,"ëĲĺëĭĪê¹Į":7132,"ĠìķĦê¹ĮëıĦ":7133,"ĠëıĻëĦ¤ìĹĲìĦľ":7134,"ì¤¬ëĬĶëį°":7135,"Ġê²°êµŃìĿĢ":7136,"Ġë¸Ķë¡ľê·¸":7137,"ĠëıħìĦľìĭ¤":7138,"ĠìķĬìķĪ":7139,"Ġëª¨ë¥´ìŀĸìķĦ":7140,"Ġë°ĺìĿĢ":7141,"Ġë¶Īê³ł":7142,"Ġë§¤ëĭĪ":7143,"Ġë¬¼ìĸ´ë³´ëĬĶ":7144,"Ġìĥīê¹ĶìĿ´":7145,"ëŀĦê¹Į":7146,"ĠíĿĺëŁ¬":7147,"ĠìĹĳìĬ¤":7148,"ìĦľë¡ľ":7149,"êµ¬ë§Į":7150,"ë¬¼ìĹĲ":7151,"ĠëģĿìĹĲ":7152,"ë©Ķê¸°":7153,"ĠëŃĲëŃĲ":7154,"ĠìķłíĶĮ":7155,"ìłĢëħģ":7156,"Ġë´Ĳìķ¼ì§Ģ":7157,"Ġë³ĳìĽĲìĹĲìĦľ":7158,"ĠíĦ°ì¡Į":7159,"ĠìĨĮê°ľìĭľì¼ľ":7160,"Ġë°©ë²ķìĿ´":7161,"ëİħ":7162,"Ġê·¸ëŀĺê°ĸê³ł":7163,"Ġì¢ĭìŀĸìķĦ":7164,"ìĨ¥":7165,"Ġë¶Ģë¥¸":7166,"ĠìŀħíķĻ":7167,"íĹĪëĬĶ":7168,"ĠìĻĶê±°ëĵł":7169,"ĠìĨĲíķ´":7170,"Ġìłģê¸Ī":7171,"ê»ı":7172,"Ġê¼½":7173,"Ġëĭ¤ìĿĮë¶ĢíĦ°":7174,"Ġë³µìŀ¡":7175,"Ġìŀĩ":7176,"ë¦ħ":7177,"ĠìĤ½":7178,"ĠëĲ¨":7179,"ì£¼ë§ĪëĬĶ":7180,"Ġìľ¤":7181,"Ġë¹Ħíķ´ìĦľ":7182,"ĠëªĩìĭŃ":7183,"Ġìŀ¡ìĿĦ":7184,"Ġìª½ìĹĲìĦľ":7185,"ĠìĿ´ë¦Ħìľ¼ë¡ľ":7186,"ĠìķĦê°Ģ":7187,"Ġê°ĢëĵĿ":7188,"ìķĺê±°ëĵł":7189,"Ġìĥģìĥģ":7190,"ĠíĮĶë¡ľ":7191,"ëĭ®ìķĦ":7192,"Ġë§İëĭ¤ê³ł":7193,"Ġê±¸ë¦¬ê³ł":7194,"ĠìĬ¤íĶ¼":7195,"Ġë¨¹ìĸ´ë³¸":7196,"Ġìĭ¬ìĸ´":7197,"Ġê¸°ëĭ¤ë¦¬ê³ł":7198,"Ġìĥģíĥľë¡ľ":7199,"Ġìĸ´ì§Ģ":7200,"Ġíķ´ëĤ¬":7201,"ĠëıĦìłĦ":7202,"Ġìĭ¶ê¸°ëıĦ":7203,"ìĨĮê°Ģ":7204,"Ġìĭ¬íķĺê²Į":7205,"Ġìĸ´ì©Įê³łìłĢì©Įê³ł":7206,"ĠìĹĦì²ŃëĤĺê²Į":7207,"Ġìĭ¸ìļ¸":7208,"Ġë°ľê²¬":7209,"Ġê·¸ëŀ¬ê±°ëĵł":7210,"ìħ¨ëĬĶëį°":7211,"Ġë¿Įë¦¬":7212,"ĠëıĦìĻĢì£¼":7213,"Ġë³´ìĿ¼ëŁ¬":7214,"Ġìľłì¹ĺìĽĲ":7215,"Ġê·¸ìłķëıĦ":7216,"ĠìĪĺìŀħ":7217,"Ġíķłê±°ìķ¼":7218,"ĠìķĦìĿ´íĮ¨ëĵľ":7219,"ë°©íķĻ":7220,"ë¬¼ëıĦ":7221,"êº¼ëĿ¼":7222,"ê¹Ģì¹ĺ":7223,"Ġë§īìķĦ":7224,"ĠìĻ¼":7225,"ë¬´ê²Į":7226,"Ġìĭľê¸°":7227,"Ġì°¸ê³ł":7228,"ĠìĭľíĹĺìĿĦ":7229,"ìĦľê²Į":7230,"Ġë´ħ":7231,"Ġëĭ¤ë¥´ê²Į":7232,"Ġì¡°ìĭ¬íķ´ìķ¼":7233,"Ġì´Īëĵ±íķĻìĥĿ":7234,"ìĸ´ì°¨íĶ¼":7235,"ĠíĹĪìłł":7236,"ĠìľłíķĻ":7237,"ê·¸ëŁ°ê±°":7238,"ĠìłĲìĪĺ":7239,"ĠìķĪë¨¹ìĸ´":7240,"Ġíķľê²Į":7241,"ë³´ë©´ìĿĢ":7242,"Ġê±´ëĵľ":7243,"Ġê°Ģê¸´":7244,"ìĿ¼ìĹĲ":7245,"ë²Ħë¦¬ëĬĶ":7246,"ëĨ¨ìĸ´":7247,"Ġíİľìħĺ":7248,"Ġë¹ħ":7249,"ĠìĥĿê°ģíķĺì§Ģ":7250,"Ġìķ¼ë¬´":7251,"ĠëıĻìª½":7252,"Ġë¯¸ëĭĪ":7253,"ë°©ìĹĲìĦľ":7254,"ë¹ĦëĬĶ":7255,"íļĮìĤ¬":7256,"ĠìłĦíĻĶíķ´ìĦľ":7257,"Ġëĸ¨ìĸ´ì§ĢëĬĶ":7258,"ĠìĹ¬ìĦ¯ìĭľ":7259,"ĠíĬ¸ëŁŃ":7260,"Ġëĵ¤ìĸ´ê°ĶëĬĶëį°":7261,"Ġíķĺëŀľ":7262,"ìľ¼ëĤ´":7263,"ê±Ķê°Ģ":7264,"ĠíķĺëĤĺíķĺëĤĺ":7265,"ë¯¼ìĿ´":7266,"ìŀ£":7267,"ĠìŀĪìĬµëĭĪëĭ¤":7268,"ë³´ìĦ¸ìļĶ":7269,"íĸĪëĮĦ":7270,"íķłìĪĺ":7271,"ĠëıĦëĳĳ":7272,"ĠìĤ¶ìĿĦ":7273,"ë³´ëĭĪê¹Ĳ":7274,"Ġëª¨ìĸĳìĿ´":7275,"Ġëª¨ìĬ¬íı¬":7276,"ë¬¸ìĿ´":7277,"ëĲĺëĬĶëį°":7278,"ê²½ìĿ´":7279,"ĠìķĦë¬´ëłĩ":7280,"Ġì£½ìĸ´ëıĦ":7281,"Ġì¹´ì¹´ìĺ¤":7282,"ĠëĤĺìĻĢìķ¼":7283,"Ġì¤Ģë¹Ħë¥¼":7284,"ìĦ¼íĦ°":7285,"ĠìĿ´ëłĩê²Įíķ´ìĦľ":7286,"Ġë¬´ë¦¬":7287,"ĠëħĦìĿĢ":7288,"ë¶Īë©´":7289,"Ġíķ´ëĤĺ":7290,"ëĶª":7291,"ĠëķĮìĹĲ":7292,"Ġì§ĢëŀĦ":7293,"ĠìĥĿê°ģíķĺëĭĪê¹Į":7294,"ë¥´ë¥´":7295,"ĠìĿ´ëŁ°ìĭĿìľ¼ë¡ľ":7296,"Ġë¶Ģëĵľ":7297,"Ġìĸ´ëĸ»ê²Įëĵł":7298,"Ġê²°ìłľ":7299,"Ġë¨¹ìĿĦê¹Į":7300,"Ġë³¼ê¹Į":7301,"Ġë³´ëĤ´ëĬĶ":7302,"Ġê±±ìłķìĿ´":7303,"ĠíļĮìĤ¬ìĹĲìĦľ":7304,"Ġë¸Ķë£¨":7305,"ëįĶëĿ¼êµ¬ìļĶ":7306,"ĠìķĪíķľ":7307,"Ġìĺģíķ´":7308,"ì¹ĺë£Į":7309,"Ġë°ĽìķĻ":7310,"Ġê¿Ķ":7311,"ĠìĤ¬ë¬´ìĭ¤":7312,"ĠëĤĺëĤĺ":7313,"Ġì´ĪëĶ©":7314,"Ġê°ĢëĬĶê²Į":7315,"ĠìłĬìĿĦ":7316,"ĠìĿ´ëĶ°ê°Ģ":7317,"ĠìķĦëĭĪëĥĲê³ł":7318,"ìłĦíĻĶ":7319,"Ġë´¥":7320,"Ġê°Ķëĭ¤ê³ł":7321,"íļĮìŀ¥":7322,"ĠìĿ´ìĭŃìĺ¤":7323,"Ġê¹ĶìķĦ":7324,"ĠìĤ¬ë¨¹":7325,"Ġë¨¸ë¦¬ëıĦ":7326,"Ġë¬¼ìĸ´ë³´ë©´":7327,"ĠìĹ¬íĸīëıĦ":7328,"ĠìĻĢìĿ´íĶĦ":7329,"ĠíĶĦëŀĳìĬ¤":7330,"Ġë³´ìĿ´ì§Ģ":7331,"Ġê³łê¸ī":7332,"ê²ĥë§Į":7333,"ĠìĦ¸ê²Į":7334,"ĠìĤ¬ëŀĮìĿ´ëĿ¼":7335,"Ġëĵ¤ìĸ´ê°ĢëĭĪê¹Į":7336,"ĠìŀĪìĹĪëĭ¤":7337,"ê±°ëĿ¼ê³ł":7338,"Ġë¨¹ìĹĦ":7339,"ĠëıĻë°±":7340,"ĠìĨĲì£¼":7341,"Ġíķĺì§Ģë§Ī":7342,"ĠìĽĶëĭ¬":7343,"Ġìĭľìŀĳíķ´":7344,"ëŁ½ê²Į":7345,"Ġê·¸ìĤ¬ëŀĮ":7346,"Ġëį´":7347,"ì§ĳëıĦ":7348,"Ġëĭ¬ìķĦ":7349,"Ġê²ħíĹĪëĤľ":7350,"15":7351,"Ġëĵ¤ìĹī":7352,"Ġë¶ĢëĤľ":7353,"Ġë°Ľìľ¼ëŁ¬":7354,"Ġì°¨ë¡ľ":7355,"Ġë¹łë¥¸":7356,"Ġíķłë¨¸ëĭĪëĬĶ":7357,"Ġê°Ģëł¤":7358,"Ġìĭľìĸ´ë©į":7359,"Ġíķłëŀĺ":7360,"Ġë¶Ħëĵ¤":7361,"Ġìĸ´ì©Įëĭ¤":7362,"XX":7363,"ê·¸ì¶Ķë£©":7364,"ĠìĹĨìĹĪê³ł":7365,"ì¤ĺëıĦ":7366,"ĠëĬĺìĸ´":7367,"ĠìĿ´ëłĩ":7368,"Ġëľ¨ëĬĶ":7369,"Ġê°Ģê²©ìĿ´":7370,"ì§Ģë§Ī":7371,"Ġíķĺê¸°ëĬĶ":7372,"ëıĻìĿ´":7373,"Ġë°ĽìķĪ":7374,"ĠëıĦìĽĢìĿ´":7375,"Ġê°ĢìĿ´ëıĦ":7376,"ĠíĮĲëĭ¨":7377,"ĠìħĭìĿ´":7378,"ĠìķĦìĭľ":7379,"ĠíķĺìŀĲê³ł":7380,"íķĺëĮĦ":7381,"ĠìłĦìŁģ":7382,"ĠìĦ¸ê°ľ":7383,"Ġë©¤ë²Ħ":7384,"Ġë°°ëł¤":7385,"Ġë¶Ģëª¨ëĭĺìĿ´":7386,"ĠíĻįë³´":7387,"ĠìłķíĻķíķĺê²Į":7388,"au":7389,"ĠìĤ¬ìļ°ëĤĺ":7390,"ĠíĸĪëĥĲë©´":7391,"ìĪĺëĭĺ":7392,"ĠìŀĪëĬĶê±°ìķ¼":7393,"Ġë¨¹ìĸ´ìĭłëĶĶ":7394,"Ġì°¸ê¸°ë¦Ħ":7395,"ĠìĿĺë£Į":7396,"Ġì²ľë§Į":7397,"ĠìĿ´ìķ¼ê¸°ë¥¼":7398,"ĠëºĢ":7399,"Ġê°ĢëĭĪê¹Ĳ":7400,"ĠìĺģíĻĶê°Ģ":7401,"Ġë©Ģìĸ´":7402,"lau":7403,"ĠëĤ´ë²Ħëł¤":7404,"êµ¬ë¦¬":7405,"Ġê·¸ëłĩê²Įê¹Įì§Ģ":7406,"ìĬ¤ëŁ¬ìĽĮ":7407,"ê²łëĬĶ":7408,"ĠìķĦìĿ´ë¥¼":7409,"íĸĪìľ¼ë©´":7410,"Ġìĭłë¶Ģ":7411,"Ġíĸīìłķ":7412,"Ġë¨¹ëĬĶëĭ¤ê³ł":7413,"Ġë¹ĦìĬ·íķĺê²Į":7414,"ĠìĤ¬ëª¨ëĭĺ":7415,"Ġì¤ľ":7416,"ëŃĺ":7417,"ĠíĮĮëŀĢ":7418,"Ġíŀĺëĵ¤ì§Ģ":7419,"Ġìĭľìŀĳíķĺë©´":7420,"ìĭľê°ĦìĹĲ":7421,"Ġëį°ë¦¬ëŁ¬":7422,"ê¹ľ":7423,"íĻĢ":7424,"ìĪĺê½Ī":7425,"ĠëıĻê·¸":7426,"ĠìŀĲì²´ë¥¼":7427,"Ġë³¶ìĿĮ":7428,"ĠìĥĿê°ģíĸĪìĸ´":7429,"ĠëĨĢëĭ¤ê°Ģ":7430,"Ġìĭ«ìĸ´ìĦľ":7431,"Ġìĸ´ëĸµíķ´":7432,"Ġì§Ħìĭ¬":7433,"ĠìĥĲëŁ¬":7434,"ì§ĢëĤĺ":7435,"ĠìķĦìī½":7436,"Ġê±°ìĹ¬":7437,"Ġë³´ìŀĸìķĦ":7438,"ĠìĤ´ê²Į":7439,"Ġìŀ¡ìĿĢ":7440,"ĠìĤ°ëĭ¤ê³ł":7441,"Ġë°ĽìķĦê°Ģì§Ģê³ł":7442,"ĠìĬ¤íĤ¤":7443,"ĠìĿ´ìĥģìĿĢ":7444,"Ġë¨¸ë¦¬ìĹĲ":7445,"ĠìķĦë°©ìĿĢ":7446,"Ġê±°ì£¼ê²Į":7447,"ĠìĤ´ìĹĲ":7448,"Ġë¹Ħë°Ģ":7449,"ĠìłķëıĦë§Į":7450,"Ġìŀĳê°Ģ":7451,"Ġìĸ´ë¥¸ëĵ¤ìĿĢ":7452,"ĠìĪĺíķĻìĹ¬íĸī":7453,"ë¥łìĿ´":7454,"Ġê·¸ë¯":7455,"Ġì¹´ëłĪ":7456,"Ġë¨¹ìĹĪìĿĦ":7457,"ĠíĸĦìĭłëĶĶ":7458,"Ġë°ĶëŀĮìĿ´":7459,"ĠíĭĪ":7460,"ĠìŀĪê¸°":7461,"ĠìĤ¬ìĻĢ":7462,"ĠìłĢê²Į":7463,"ìĤ¬ìĿ´":7464,"Ġê±¸ëł¤ìĦľ":7465,"ĠìĬ¤ë§ĪíĬ¸":7466,"ì²´ê°Ģ":7467,"ëŃĲëĥĲ":7468,"ĠìĦłìĥĿëĭĺëĵ¤":7469,"Ġë©įì²Ń":7470,"ë¤Ħ":7471,"ĠìĿ´ëĨĪ":7472,"ìĭľë¡ľ":7473,"ì¹«":7474,"ĠëĤ¨ê²¨":7475,"ĠìĿ´ëŁ¬ëĬĶëį°":7476,"Ġëĺĳë°Ķë¡ľ":7477,"ĠëĤĺìĺ¨ëĭ¤ê³ł":7478,"Ġëĭ¤ë¥´ê³ł":7479,"Ġëĭ¤ëħĶìĸ´":7480,"ĠìĦľë¹ĦìĬ¤":7481,"ap":7482,"ì§ĢëĤľ":7483,"ĠìĤ¬ëĮĢ":7484,"ìĤ¬ë¬´":7485,"ĠìĹ¬ìĦ±":7486,"ĠìłĦêµŃ":7487,"ê»į":7488,"ê·¸ëŁ¬ë©´ìĿĢ":7489,"ĠìĿĮìĭĿëıĦ":7490,"ĠìĿ´ê²ĥë§Į":7491,"ê²¸":7492,"ìĦľìķ¼":7493,"ĠìĨ¥":7494,"ìĸ¸ìłľ":7495,"Ġëĭ¤ìĿĮìĹĲëĬĶ":7496,"Ġê²Ģìłķ":7497,"Ġë¹ĦìĬ·íķ´":7498,"ìķĦë¹łê°Ģ":7499,"ì§ĢìŀĸìķĦ":7500,"ĠíķĺíķĦ":7501,"ĠìłĢìŀ¥":7502,"Ġì¢ĭìľ¼ë©´":7503,"ìĺ¤ì§Ģ":7504,"Ġë¶ĢëĶª":7505,"Ġëį°ë¡ľ":7506,"íĥĳ":7507,"Ġìĺ¬ëĿ¼ê°Ķ":7508,"ĠìĿĺë¯¸ê°Ģ":7509,"ĠìĿ´ìłľëıĦ":7510,"Ġìĺ¬ëŀĲ":7511,"Ġíŀĺëĵ¤ìĸ´ìĦľ":7512,"Ġë¯¸ìļ©ìĭ¤":7513,"ding":7514,"plau":7515,"ëĬĶëĭ¤":7516,"Ġê°Ģê¹Ŀ":7517,"ë¥´ì§Ģ":7518,"Ġê³µê°Ĳ":7519,"ëĨĺ":7520,"Ġìĺ¬ëĿ¼ìĺ¨":7521,"Ġê·¸ëłĩëĭ¤":7522,"ìķĦìĿ´ëĵ¤":7523,"ìıł":7524,"applau":7525,"applauding":7526,"Ġê¾":7527,"ìĹĪëĬĶì§Ģ":7528,"ĠìĪĺìļĶìĿ¼":7529,"íĬ¸ëıĦ":7530,"Ġê¸°íļĮê°Ģ":7531,"ĠìĬ¤íı¬ì¸ł":7532,"Ġê°Ģì§Ī":7533,"íĬĢ":7534,"ĠíķĺëĤĺë¡ľ":7535,"Ġê·¸ëłĩìŀĸìķĦ":7536,"Ġìŀłìĭľ":7537,"ĠìķĦê¹ĮìĽĮ":7538,"ĠìĨįìĹĲìĦľ":7539,"Ġëĸ¨ìĸ´ì§Ģë©´":7540,"ìĹ¬ê¸°ìĦľ":7541,"Ġëª©ìļķíĥķ":7542,"ĠìķĪíķ¸":7543,"Ġë¨¹ëĭ¤":7544,"ĠíķłìķĦë²Ħ":7545,"ĠìłľìĿ´":7546,"Ġë§Īë¥¸":7547,"ĠìĦľë¥ĺ":7548,"ì¡Įëĭ¤":7549,"Ġë©ĶìĿ´":7550,"ê°Ħëĭ¤":7551,"ĠíĸĪìĹĪëįĺ":7552,"ĠìĪĺë°ĸìĹĲ":7553,"ĠìĸĺíķľíħĮ":7554,"ì°¨ëĿ¼ë¦¬":7555,"ì»µ":7556,"Ġë³´ëĿ¼ê³ł":7557,"ìĪĺê´ĳ":7558,"ë¹łìĿ´":7559,"ĠíĹĪë²ħ":7560,"Ġìŀħìľ¼ë©´":7561,"ĠëĨĢëŀ¬":7562,"ì¹´íİĺ":7563,"Ġê·¸ëŀľ":7564,"ĠìĿ´ìĭŃìĤ¬":7565,"Ġì¤Ģëĭ¤":7566,"Ġìĭľìŀĳíķĺ":7567,"ĠíķĺëįĶëĿ¼ê³łìļĶ":7568,"Ġê³µìľł":7569,"Ġê°Ħê±°":7570,"ĠìĭŃì¹ł":7571,"Ġê¸°ìĸµëıĦ":7572,"ĠëĿł":7573,"Ġë§īê±¸ë¦¬":7574,"ìĿ´ìĹĪê±°ëĵł":7575,"ĠìĤ¬ëĬĶê±°":7576,"êµ¬ë¥¼":7577,"Ġëĵ¤ìĸ´ë³¸":7578,"Ġë°ĽìķĺëĬĶëį°":7579,"ë¦°ëĭ¤ê³ł":7580,"ìĹ°ìĿ´":7581,"ĠëĶ¸ê¸°":7582,"ê¶Ī":7583,"Ġìĺ¤íĨłë°ĶìĿ´":7584,"Ġê°Ģê²łëĭ¤ê³ł":7585,"ĠìķĪëĲ":7586,"ĠìĤ¬ë§Į":7587,"ìĭľë¥¼":7588,"ĠìķĮë©´":7589,"ĠìĤ´ëł¤":7590,"ìĪĺìļķ":7591,"ĠìłĦëĿ¼ëıĦ":7592,"Ġìŀ¥ë©´":7593,"ĠìĿ¼ìĸµ":7594,"Ġì£¼ëĬĶëį°":7595,"ĠíķĻë¶Ģëª¨":7596,"Ġìĸ´ëĶĶìĹĲ":7597,"ĠìľĦíķľ":7598,"ìĿ´ê±°ëĬĶ":7599,"Ġíķ¨ê»ĺ":7600,"Ġëļ±ëļ±":7601,"Ġìĺ¤ì§ķìĸ´":7602,"Ġíķľìª½":7603,"ìĿ¸ì¤Ħ":7604,"Ġêµ³":7605,"Ġëĵ¤ìĸ´ë´Ĳ":7606,"Ġëª¸ë¬´ê²Į":7607,"ĠìķĮë°ĶìĥĿ":7608,"Ġë³Ħê±°":7609,"Ġë°Ķê¿¨":7610,"ê²¹ìĤ´":7611,"Ġìºłíķĳ":7612,"íķ´ì§ĢëĬĶ":7613,"ë°©ìĿĢ":7614,"íĨ¤":7615,"ĠìĹ¬ìŀĲëĵ¤ìĿĢ":7616,"Ġëĭ¤ëĭĪì§Ģ":7617,"ĠìĪłì§ĳ":7618,"ĠìķĦìĿ´ëĵ¤íķľíħĮ":7619,"Ġíķ¨ë¶Ģë¡ľ":7620,"ê·¸ëłĩì§Ģ":7621,"Ġë°Ķëĭ·ê°Ģ":7622,"Ġë§Īë¬´ë¦¬":7623,"Ġì§ļ":7624,"Ġê°Ģìŀħ":7625,"ĠëŃĲëŀĳ":7626,"Ġë´¤ëĭ¤":7627,"ĠëĦ£ìĿĦ":7628,"ĠìĿ¼ìĸ´ëĤľ":7629,"ĠëĤ¨ìŀĲì¹ľêµ¬ê°Ģ":7630,"Ġë§īìĿ´":7631,"ìľ¼ëŀľ":7632,"ĠìķĦëĭĪìĹĪìĸ´":7633,"ĠìĹĨìĸ´ìł¸":7634,"Ġëħ¸ìĿ¸":7635,"Ġë§ĲíĸĪëĦ¤":7636,"Ġê²ĮìŀĦìĿĦ":7637,"Ġëª¬ëĶ±":7638,"Ġê°Ģê¸°ë¡ľ":7639,"Ġë³´ë§Ĳ":7640,"ìĭľê¸°":7641,"Ġë²¤":7642,"ìłĦìĹĲëĬĶ":7643,"Ġë¶ĵ":7644,"Ġêµ¬ì²ľ":7645,"Ġìŀ¥ê°Ģ":7646,"ĠëĲĲëĭ¤ê³ł":7647,"Ġìŀ¬ë¯¸ìŀĪìĸ´":7648,"ĠìķĮìķĺê±°ëĵł":7649,"Ġì½ĺìĦľ":7650,"êµĲíļĮ":7651,"Ġìĥģëĭ¹íŀĪ":7652,"Ġìľ¡ì²ľ":7653,"ê°ľë¥¼":7654,"ĠíĻĶìŀĲ":7655,"Ġíķ´ìĻ¸ìĹ¬íĸī":7656,"íĳ¼":7657,"ìĿ´ëĭĪ":7658,"ê°ĢìĬ´":7659,"ë©Ģ":7660,"ìŀĩ":7661,"ĠìĤ¬ëıĪ":7662,"íķ´ê°Ģ":7663,"ĠìķĦë¬´ê±°ëĤĺ":7664,"Ġê³¼ìĻ¸":7665,"ĠíĽĦëĿ¼ìĿ´":7666,"Ġê¾¸ë¯¸":7667,"Ġê±°ë¯Ħ":7668,"Ġíķľëĭ¬":7669,"ë³´ë©´ìĦľ":7670,"Ġì¡°ê±´":7671,"Ġìĺ¬ì¼Ģ":7672,"ĠìĨĮìĬ¤":7673,"ĠíĮĮë¦¬":7674,"ĠëĦĪëĦ¨":7675,"ĠìĤ¬ëŀĮíķĺê³ł":7676,"ìĺ¤ëĭĪê¹Į":7677,"íĺģ":7678,"ëª¨ëį¸":7679,"ë¨¹ìľ¼ë©´":7680,"Ġìĭ¸ìļ°ëĬĶ":7681,"ĠìĿ´ìĭŃë§Į":7682,"Ġëĵ£ê¸°":7683,"ĠìĦ¤ë§Ī":7684,"ì¹łìĭŃ":7685,"ĠíĸĦë²Ħê±°":7686,"ëıĦëĬĶ":7687,"ìľ¼ëĿ¼":7688,"ĠíķľìŀĶ":7689,"ĠìĿ¼ìĿ¼":7690,"ë¹Ķ":7691,"ĠëĤľë¦¬ê°Ģ":7692,"Ġë¨¹ìĸ´ë³´ê³ł":7693,"Ġìŀ¥ë¡Ģ":7694,"Ġì¹ĺê³¼":7695,"Ġë¬¼ìĸ´ë³´ëĭĪê¹Į":7696,"ëĲľëĭ¤":7697,"Ġìªĺ":7698,"Ġëį°ëł¤ê°Ģ":7699,"Ġê·ĢìĹ¬ìļ´":7700,"ĠìĿ´ìª½ìľ¼ë¡ľ":7701,"Ġê±°ëĥĲê³ł":7702,"ìľ¼ë¡ł":7703,"íķ´ì§Ģê³ł":7704,"ìĿĮìĭĿ":7705,"ĠìıŁ":7706,"ĠíĬĢìĸ´ëĤĺ":7707,"Ġì¹Ńì°¬":7708,"Ġê±°ì£¼":7709,"ĠìĹ¬ëıĻìĥĿ":7710,"ëĤ´ìĿ¼":7711,"ĠìĤ¼ìĸĳ":7712,"ĠìĦľë°©ìĿ´":7713,"Ġë¹¨ëĿ¼":7714,"ĠìľĦíķ´":7715,"ĠìĸĳìĿ´":7716,"ĠìķĬìķĺëĤĺ":7717,"Ġì¼ĢìĿ´ìĬ¤":7718,"ĠëĪĦêµ°ì§Ģ":7719,"Ġìĸ´ìĦ±":7720,"ĠìĤ¬ì£¼ê³ł":7721,"ĠìĿ´ëŁ°ê±´":7722,"ĠìļĶë§Įíģ¼":7723,"Ġê°ĶìĹĪëĬĶëį°":7724,"ĠìĶĮ":7725,"Ġëª©ìļĶìĿ¼":7726,"Ġê·¸ê²ĥìĿĦ":7727,"ĠëĤĺìĺ¨ëĭ¤":7728,"Ġì¦ī":7729,"Ġë²Ĺìĸ´":7730,"Ġëĭ¤ë¦¬ê°Ģ":7731,"Ġíķľê°Ģ":7732,"Ġëª¨ëŀĺ":7733,"ĠìķłëıĦ":7734,"ĠíķĻêµĲëĬĶ":7735,"ì¦ĪëĭĪ":7736,"ìĸ¼êµ´":7737,"ĠìĮĵìķĦ":7738,"ĠëĤĺë¨¸ì§ĢëĬĶ":7739,"Ġë°Ľì§Ģ":7740,"ëĲĺìĦľ":7741,"ì°¨ë¥¼":7742,"ĠíĤ¤ìļ´":7743,"ĠëĤ´ëł¤ìĺ¨":7744,"ë¸ĮìĿ´":7745,"Ġë±ĥ":7746,"ĠìĹħë¬´":7747,"ĠìĭŃìĿ¼ìĽĶ":7748,"ĠìĹĨëĭ¤ëĬĶ":7749,"ìĤ¬ì§Ģ":7750,"ĠìĽ¨":7751,"Ġì£¼ìĨĮ":7752,"Ġê¸¸ê±°ë¦¬":7753,"ĠíĸĪëįĺê±°":7754,"ĠíĺĪìķķ":7755,"ê·¸ëŀ¬":7756,"ĠìļĶìĥĮ":7757,"ĠëĪĦìĽĮìĦľ":7758,"Ġìŀ¡íĺĢ":7759,"ê·¸ëŁ¬ê³ł":7760,"ĠìŀĪìĿĦê±°":7761,"ìĥīìĿ´":7762,"Ġë°ķìķĦ":7763,"ìķĮë°Ķ":7764,"ĠìĭľíĤ¤ë©´":7765,"ìĿ´ì²ľ":7766,"ëĵ¤íķĺê³ł":7767,"ëł¤ëĬĶ":7768,"ìĪĺìĹħ":7769,"ìĹ¬ë¦Ħ":7770,"ĠìĿ¸ë¬¸":7771,"Ġêµ¬íķ´":7772,"Ġêµ¬ì¡°":7773,"ëĬĲëĿ¼":7774,"Ġì£½ìĹ¬":7775,"ë°Ķê°Ģ":7776,"ĠìĿ¼ëĤł":7777,"ê±¸ìĿ´":7778,"Ġê´Ģë¦¬ë¥¼":7779,"Ġê²ĢìĤ¬ë¥¼":7780,"ĠìĤ¬íĪ¬ë¦¬ê°Ģ":7781,"ĠìĤ¬ìĤ¼":7782,"ĠìķłëĭĪ":7783,"ĠìļĶë²Ī":7784,"Ġê³µëıĻ":7785,"ĠëĤĺìĺ¤ëĬĶê±°":7786,"Ġì§ĢëĤĺê°ĢëĬĶ":7787,"ĠëķħìĿ´":7788,"ĠìķīìķĦìŀĪ":7789,"Ġì¢ĭëįĶëĿ¼ê³ł":7790,"ĠìĹĨê¸´":7791,"ìĿĮìĿĦ":7792,"Ġì¢ĭìķĦê°Ģì§Ģê³ł":7793,"Ġê¹¡":7794,"Ġëį°ìĿ´íĬ¸":7795,"ĠìķĪëĲĺë©´":7796,"ìĭľëĮĢ":7797,"êµ¬ìļĶ":7798,"ìķłëĵ¤ìĿ´":7799,"Ġë¶ĦìĿĢ":7800,"íĮĮìĿ´":7801,"Ġë³´ëĤ´ì£¼":7802,"ĠìĦ¤ëªħìĿĦ":7803,"ĠíĸĪëĭ¨":7804,"ĠìĭľìĽĶ":7805,"ĠìŀĲìĿ´":7806,"Ġì£¼ìĿ¸ìĿ´":7807,"Ġëĭ¬ëŀĺ":7808,"Ġê²°íĺ¼íķĺê³ł":7809,"ìĺ¬ëĿ¼":7810,"ĠíĽĦë°ĺ":7811,"ĠìĦ¤ëĤł":7812,"ĠìĥĮ":7813,"Ġìĥĺ":7814,"ë©´íĹĪ":7815,"ĠíķłëķĮëĬĶ":7816,"ĠëĦĪë¬´ëĦĪë¬´":7817,"Ġì£¼ìĽĮ":7818,"Ġì£¼ë©´ìĦľ":7819,"Ġê¸°íĥĢ":7820,"ĠëĶ°ëĬĶ":7821,"ĠíŀĺìĿĦ":7822,"Ġìĺ¨ê±°":7823,"ĠìŀłìĿ´":7824,"ë°¥ìĿĦ":7825,"Ġê³łë¯¼ìĿĦ":7826,"ëĿ¼ìļ°":7827,"ëĤĺëĭ¤":7828,"ëįĶëŀĺ":7829,"ĠìĦ¸ìĽĶ":7830,"Ġì²ĺë¦¬":7831,"ĠìŀĪìĹĪëĤĺ":7832,"ĠìĸĳíĮĮ":7833,"ì§Ģê¸ĪëıĦ":7834,"ĠëĤĺëĦ¤":7835,"ĠìĤ¬ìľĦ":7836,"ĠìķĦìĿ´ëıĮ":7837,"Ġëį°ë¥¼":7838,"Ġë²Ħëł¸ìĸ´":7839,"ĠíĶ¼ê°Ģ":7840,"Ġìķłëĵ¤ëģ¼ë¦¬":7841,"ĠëıĮìķĦëĭ¤":7842,"ĠëıĻìĥĿìĿĢ":7843,"ĠìĿ´íĽĦìĹĲ":7844,"ìķĦíĮĮ":7845,"Ġëĭ¿":7846,"íķĺì§Ħ":7847,"Ġìĭ«ëĭ¤":7848,"Ġë¨¹ëĬĶëĭ¤":7849,"Ġê°Ģë´¤ìĸ´":7850,"ìĺ¤íŀĪëł¤":7851,"Ġë§ĽìĿĦ":7852,"ĠíĹĽ":7853,"Ġì´Īì½ľ":7854,"Ġê±°ê¸°ìĦľëıĦ":7855,"Ġìķłëĵ¤ìĿĦ":7856,"ĠìĿĺê²¬":7857,"Ġì°¾ëĬĶ":7858,"Ġë¡±":7859,"ìĿ´ìĹĲìļĶ":7860,"Ġìĺ¤ë©´ìĦľ":7861,"ĠìĥĿê°ģíķ´ëıĦ":7862,"Ġë¯¸íĦ°":7863,"ĠëĤ¨ìŀĲë¥¼":7864,"ĠìĦŀìĸ´":7865,"ĠìķĦëĭĪêµ¬ëĤĺ":7866,"Ġë³´ê±°ëĵł":7867,"Ġëĵ¤ìĸ´ë³´ë©´":7868,"Ġìłķì¹ĺ":7869,"ĠíĮĶë§Į":7870,"Ġê¸°ìĸµìĿĢ":7871,"ĠìĤ¬ì§ĦìĿ´":7872,"ëĨĵìľ¼ë©´":7873,"Ġë¯¸ìķĪíķľëį°":7874,"Ġë£¸":7875,"ĠìĤ¬ê·Ħ":7876,"íķľëĮĦ":7877,"Ġë¬ĺ":7878,"ĠëĲĺëĥĲê³ł":7879,"ĠìĨĮë°©":7880,"Ġìŀ¡ìķĻ":7881,"Ġíŀĺëĵ¤ëĭ¤":7882,"Ġë¬¼ìĸ´ë³¸":7883,"Ġë©Ģì©¡":7884,"ê²Ģì§Ħ":7885,"Ġëĭ¤ê°ĻìĿ´":7886,"ë¬ĺ":7887,"Ġë§Ĳíķ¸":7888,"Ġìŀ¥ê¸°":7889,"Ġê°Ģìł¸ìĻĢ":7890,"Ġì²´ëł¥":7891,"ĠëĤ³ìķĦ":7892,"ĠìĿ´ìłķëıĦ":7893,"Ġê°Ģë¦¬":7894,"íķľëĮĢ":7895,"Ġê²½ì£¼":7896,"Ġìĺ¬ëĿ¼ê°Ģë©´":7897,"Ġìŀĺëª»ëĲľ":7898,"Ġìĸ´ëĶ¨":7899,"ìĹ¥":7900,"ĠìķĦëĭĪìĹ¬":7901,"Ġë³´ëĬĶê±°":7902,"Ġë¨¹ìłł":7903,"Ġìľ¡ë°±":7904,"ĠìľĦì£¼ë¡ľ":7905,"ĠëĨĶìķ¼":7906,"Ġìĺ¤ëŀĺëĲĲ":7907,"ìĤ¼ì´Į":7908,"ĠíķĻìĥĿíļĮ":7909,"Ġëĭ«ìķĦ":7910,"Ġì¹¼ë¡ľ":7911,"Ġì§¬ë½ķ":7912,"ëĵ¤ìķĦ":7913,"ê·¸ì§Ģ":7914,"Ġë¬´ëĦĪ":7915,"Ġê³łê¸°ë¥¼":7916,"ëĵľë¡ľ":7917,"Ġë°©ìĿ´":7918,"ìħī":7919,"Ġë¬¼ìĸ´ë³¼":7920,"íīģ":7921,"Ġê±°ì£ł":7922,"Ġë¹Ĺ":7923,"Ġëį¥":7924,"ĠìłľëĿ¼":7925,"Ġì¤ĦìĿĦ":7926,"ĠëªħëıĦ":7927,"ĠìĹ¬ìŀĲëĵ¤":7928,"ë°ķìĿ´":7929,"ĠìĤ¬ëĬĶê²Į":7930,"ĠëĨįíĺĳ":7931,"Ġê³±ì°½":7932,"ĠëĦĵìĿĢ":7933,"ĠìĦ¼íĦ°":7934,"ìĩĦ":7935,"ĠìĹłë¹Ħ":7936,"Ġê°ĢìĪĺ":7937,"ìŀ¥ìľ¼ë¡ľ":7938,"Ġìĺ¬ë¦´":7939,"Ġëĭ¬ê³ł":7940,"Ġìĭ«ëĭ¤ê³ł":7941,"ĠíĮĮìĬ¤íĥĢ":7942,"Ġìŀ¬ë¯¸ìŀĪëĬĶ":7943,"Ġì¡´ìŀ¬":7944,"Ġìĺ¤ëĤľ":7945,"ë¹´":7946,"Ġê³³ìĹĲ":7947,"ĠìĿ´ì²ľìĿ´ìĭŃ":7948,"ìĭľë¦¬":7949,"ë³´ë¯Ħ":7950,"ĠëıĻëĤ¨ìķĦ":7951,"ĠìĭŃìľ¡":7952,"Ġêµ¬ë°±":7953,"Ġê²°ë¡ł":7954,"Ġëĭ¤ëĭĪëĭ¤ê°Ģ":7955,"ĠìıĻ":7956,"Ġìĭľìĸ´ë¨¸ëĭĪê°Ģ":7957,"íķľêµŃ":7958,"Ġë§İìľ¼ë©´":7959,"Ġê³łì¶":7960,"Ġê°ľë§Į":7961,"Ġì½§":7962,"Ġì±ħìĥģ":7963,"ĠëĪĦêµ°ê°Ģ":7964,"Ġìłķíķ´ìł¸":7965,"Ġë°Ķëĭ¥ìĹĲ":7966,"ìķĦì¹¨ìĹĲ":7967,"Ġíķĺìļ°ìĬ¤":7968,"ëĶĺ":7969,"ë¬´ìĭł":7970,"Ġìĭľê¸ī":7971,"Ġë§Įìł¸":7972,"Ġê°ĶëĦ¤":7973,"Ġê°ĻìĿĢëĶĶ":7974,"Ġë²Ħíĭ°":7975,"íĭ°ë¹Ħ":7976,"ĠìĻ¸íķłë¨¸ëĭĪ":7977,"ĠëĦ£ìĿĢ":7978,"ĠíĺĦìŀ¬":7979,"ĠìķĦíĶĦëĭ¤":7980,"Ġë§ĲíĸĪëįĺ":7981,"Ġê´´ë¡Ń":7982,"Ġê³łìĸĳìĿ´ê°Ģ":7983,"ê°ĢìĬ¤":7984,"Ġê±°ëĭĪ":7985,"Ġê°Ģë©į":7986,"ìľ¼ëĬĶ":7987,"ĠìĤ´ìķĺëĬĶëį°":7988,"Ġì¡°ìĤ¬":7989,"Ġì¡°êµĲ":7990,"ĠìĻĢìĿ¸":7991,"Ġë°ĺì§Ģ":7992,"ĠëĤĺê°Ģì§Ģ":7993,"ĠìĿ¼ìĸ´ëĤĺë©´":7994,"Ġë¯¿ê³ł":7995,"Ġìĺ¬ëłĪê¸¸":7996,"Ġê·¸ë¯Ħ":7997,"ĠìĤ¬ëŀĮë§Īëĭ¤":7998,"ĠìĥĿê²¬":7999,"ĠíķĺëĬĶê±´":8000,"ĠëĮĢìłķ":8001,"ì°¨ëıĦ":8002,"Ġëĸ¨ìĸ´ì§Ī":8003,"Ġë°ĳìĹĲìĦľ":8004,"ĠìĻłì§Ģ":8005,"ê¸°ë³´ëĭ¤ëĬĶ":8006,"ĠìłĦìĹĲëıĦ":8007,"íĨµìĹĲ":8008,"ĠíķĦê¸°":8009,"ĠíķĺìŀĸìķĦìļĶ":8010,"Ġëħ¸ëŀĺê°Ģ":8011,"Ġìĺ¤ì²ľìĽĲ":8012,"ìĿ´ìĹ°":8013,"Ġëĭ¤ìļ´":8014,"ĠëĤĺìĺ¤ëĦ¤":8015,"ê°ľê°Ģ":8016,"Ġëĭ¤ëĭĪëĬĶëį°":8017,"Ġë¶ĻìĿĢ":8018,"ĠíĥľêµŃ":8019,"ìĻ¸ë¡ľ":8020,"Ġíķ¸ëĵľíı°ìľ¼ë¡ľ":8021,"ëľ©":8022,"ĠíĺľíĥĿ":8023,"ê°Ģìķ¼":8024,"Ġê°Ģëĭ¤":8025,"ĠìłĢì©Įê³ł":8026,"ĠìľłìĿ¼":8027,"Ġìŀ¥íķĻ":8028,"ìĦłìĿĦ":8029,"Ġë§Įëĵ¤ìĸ´ìķ¼":8030,"Ġìĭ¸ìļ°ê³ł":8031,"íĿ¡":8032,"ĠìĦłìĥĿëĭĺëĵ¤ìĿ´":8033,"Ġì§Ħì§Ģ":8034,"ĠìķĦì£¼ë¨¸ëĭĪ":8035,"ĠíĻĺë¶Ī":8036,"ĠëıĮìķĦê°Ģìħ¨":8037,"ìķĹ":8038,"ĠìĥĿê°ģìľ¼ë¡ľ":8039,"Ġë¶Ģëª¨ê°Ģ":8040,"Ġìħĭì§¸":8041,"Ġíķłë§ĿìĿ´":8042,"Ġì¿łíĤ¤":8043,"ë¦¬ë¡ľ":8044,"íķłêº¼":8045,"ĠêµĲìŀ¥":8046,"ĠìĿ´ìĭŃìĿ¼":8047,"Ġë§ĪìĿĮìľ¼ë¡ľ":8048,"Ġë§Ĳë¡ľëĬĶ":8049,"Ġíķĺê¸°ëıĦ":8050,"ìľ¼ëŀĺ":8051,"ĠìŀĲìĤ´":8052,"Ġê³łìĨĮ":8053,"Ġë¶ĢëŁ¬ìĽĮ":8054,"Ġìĭłë¬¸":8055,"Ġë§ĪìĬ¤íģ¬ë¥¼":8056,"ĠìķĦëĤĺ":8057,"ĠìĤ¬ëıĦ":8058,"ĠëĲĺì¼ľ":8059,"ĠìłĢëł´":8060,"Ġê²ĥìĹĲ":8061,"Ġì¹ľìłĪ":8062,"ĠìĻĶëĭ¤ê°Ģ":8063,"Ġìļ¸ìĸ´":8064,"íĮĲìĹĲ":8065,"Ġìį¼ìĸ´":8066,"¨ĭ":8067,"ë¦¬íı¬":8068,"Ġë¨¹ìĹ¬":8069,"ìĭľëħľ":8070,"Ġëª»ìĥĿ":8071,"Ġë§ĪìĦ¸ìļĶ":8072,"íĸĪëĤĺ":8073,"ìĺ¬íķ´":8074,"Ġíıīìĥģ":8075,"Ġë²Ĺê³ł":8076,"ĠìĹĨìĹĪê±°ëĵł":8077,"Ġë¶Ģë¥¼":8078,"Ġìĸ¸ëĭĪìķ¼":8079,"ë°©ëıĦ":8080,"Ġì¹ľêµ¬ë¥¼":8081,"ĠëĤĺìĺ¤ê±°ëĵł":8082,"Ġìķŀë¨¸ë¦¬":8083,"ë°°ì¶Ķ":8084,"Ġìĭ¤ìĪĺ":8085,"Ġìī¬ìĸ´":8086,"Ġëĭ¹ìĹ°íķľ":8087,"Ġíķĺì§ĢëıĦ":8088,"ĠëĤĺìĻķ":8089,"ĠìŀĲê·¹":8090,"ìĺ¤ëŀĺ":8091,"ĠíĹĪê³¡":8092,"ëŃĲì§Ģ":8093,"Ġìµľìķħ":8094,"Ġëľ¨ê³ł":8095,"ĠíħĮëĭĪê¹Į":8096,"ĠìĻĦë²½":8097,"ë¶Ģë¥¼":8098,"Ġìĸ´ëĶĶì§Ģ":8099,"ĠëĳĺìĿ´ê°Ģ":8100,"Ġë°ľë¡ľ":8101,"ĠìŀĲìĭłìĿ´":8102,"ë¬¼ë¡ł":8103,"ĠëģĮìĸ´":8104,"ĠìķĦê»´":8105,"ìĺµ":8106,"ëł¤ëĤĺ":8107,"ë³´ëĤ´":8108,"Ġê¸°ìļ´":8109,"ê·¸ëŀĺê°Ģì§Ģêµ¬":8110,"ëĮĵ":8111,"ìĺĢìŀĸìķĦ":8112,"Ġì§ĢëĤĺê³ł":8113,"ĠìķĦíĶĦë©´":8114,"ĠëĤ¨íİ¸ìĿĢ":8115,"Ġë¯¿ëĬĶ":8116,"Ġë§¤ëĭĪìłĢ":8117,"Ġìĸ¸ëĭĪëĵ¤":8118,"ĠíĸīìĿ´ëĦ¤":8119,"ê²ħíķ´ë¶ĢëĤľ":8120,"Ġë©´ìĦ¸":8121,"Ġë¯¿ìĸ´":8122,"ìĺĽëĤłìĹĶ":8123,"Ġë¸ĮìĿ´":8124,"Ġê·Ģì°®ìķĦìĦľ":8125,"Ġìĭľë¦¬ì¦Ī":8126,"ìĿ´ìĸ´ìĦľ":8127,"ë¦¬ê²Į":8128,"ĠëĮĢìŀ¥":8129,"íĮ©":8130,"ĠìĨĮëıħ":8131,"ĠìķĮìķĦìļĶ":8132,"Ġê°ĲëıĻ":8133,"Ġì¡Į":8134,"Ġìĸĳë§Ĳ":8135,"Ġì¶Ķë£©":8136,"Ġìļ¸ë©´ìĦľ":8137,"Ġê´ĳì£¼":8138,"Ġë¶Īíİ¸íķ´":8139,"Ġìĺ¤ë¦¬":8140,"Ġëĭ´ìķĦìĦľ":8141,"ĠíĦ°ì§Ħ":8142,"ĠìŀĲë¦¬ìĹĲìĦľ":8143,"Ġê³łë§ĪìĽĮ":8144,"ĠëĶĶìŀĲìĿ¸":8145,"Ġê°Ģë¯¼":8146,"Ġê°ĢìľĦ":8147,"ĠìĿ´ëŁ°ê²ĥëıĦ":8148,"ĠëıĪê¹Į":8149,"ìĦłê²Į":8150,"íİĳ":8151,"Ġë§ĪìĿĮìĿĢ":8152,"Ġìĸ¼êµ´ìĿĦ":8153,"ĠíĺĦëĮĢ":8154,"ĠëķħìĿĦ":8155,"Ġë§ĮëĤ¬ëĬĶëį°":8156,"16":8157,"ìİĦ":8158,"ĠìķĪì£¼":8159,"Ġì¢ĭê²Ĳ":8160,"ĠíĸĪëĭ¤ëĬĶ":8161,"Ġê³łíĸ¥":8162,"Ġëª¸ëıĦ":8163,"Ġë°ĸìľ¼ë¡ľ":8164,"ĠìĽ¬ë§Įíķľ":8165,"ì§Ģê¸´":8166,"ĠíķĺëĵľëĿ¼":8167,"Ġë§Īì¹¨":8168,"Ġë¯¸ì³Ĳ":8169,"ë°ĽìĿĢ":8170,"ë»¤":8171,"ĠìŀĦìļ©":8172,"Ĭê·¸":8173,"Ġê·¸ê¸°":8174,"ìĸ´ë¦´":8175,"ĠìĽĲìĿ´ë©´":8176,"Ġë¶ĢëĮĢ":8177,"ĠëıĻìĺģìĥģ":8178,"ëĨĢìĿ´":8179,"Ġì¹ĺìļ°":8180,"ĠìĿĺìĤ¬ê°Ģ":8181,"ĠëĿ¼ìĿ¸":8182,"ĠëĮĦ":8183,"Ġìĭłê¸°íķĺëĭ¤":8184,"ĠìŀĲê°Ģê²©":8185,"ëį°ìĿ´":8186,"Ġê²ĥëĵ¤ëıĦ":8187,"Ġìķ¼êµ¬":8188,"Ġë¬¼ë¦¬":8189,"ĠëıĦë¯¼":8190,"Ġê¸°ìĸµëĤĺëĬĶ":8191,"ë§ĪìĬ¤íģ¬":8192,"ĠíĸĪìĹĪëĦ¤":8193,"ĠìķĬìĬµëĭĪê¹Į":8194,"ĠëĶ°ë¥¸":8195,"Ġìĭ¶ìĿĢëĶĶ":8196,"Ġì½©ëĤĺë¬¼":8197,"Ġë¶ĪëŁ¬ìĦľ":8198,"ĠíĢ":8199,"ë©´ìĦľëıĦ":8200,"ĠìĨĲì§Ģ":8201,"ĠìķĦëĭĪëĿ¼ìĦľ":8202,"ì¤Ħê¹Į":8203,"ë§¤ìĿ¼":8204,"ĠíŀĲ":8205,"ĠìŀĺìĥĿê²¼":8206,"Ġê°Ģê±°ëĵł":8207,"ĠìĤ´ê¹Į":8208,"Ġë¶ĢëıĻìĤ°":8209,"ĠìĹ´ë§¤":8210,"ĠìĨĲíĨ±":8211,"Ġêµ°ìĿ¸":8212,"ĠìĪĺìĪłìĿĦ":8213,"ëĥĦìĥĪ":8214,"½ìĿ´":8215,"Ġê±°ìļ¸":8216,"ìĹĪëĭ¨":8217,"ĠìŀĲê¸´":8218,"ëĤłìĿĢ":8219,"ĠìĭŃìĤ¼":8220,"Ġìļ°ëıĦ":8221,"ĠëĲĺëĬĶê²Į":8222,"íķĺê¸°ê°Ģ":8223,"ĠìĪĺë©´":8224,"Ġìłľì¶ľ":8225,"ê²łëĥĲê³ł":8226,"Ġì§Ģê¸ĪìĿ´":8227,"Ġê°Īëŀĺ":8228,"Ġë§Ĳíķ´ë´Ĳ":8229,"Ġë¦":8230,"ê²ĮìĿ´":8231,"Ġíķĺìħ¨":8232,"Ġìĸ´ë§Ī":8233,"ë§ĪíĨł":8234,"Ġì°ľ":8235,"Ġì°Ŀ":8236,"ë³´ëĿ¼ê³ł":8237,"ĠìĬ¤ì¹´":8238,"ìĭ¬ìĿĦ":8239,"ĠìĤ¬ì§ĦëıĦ":8240,"Ġìĸ´ë©įìĿĢ":8241,"Ġìĭłê²½ìĵ°":8242,"Ġê¸ĢìĿĦ":8243,"ë²łìĿ´íĦ°":8244,"ĠíĶ¼ë¶Ģê°Ģ":8245,"Ġíķĺê²łìĸ´":8246,"íķĺëįĺ":8247,"ìĺĪë¥¼":8248,"ë¬¼ë¡ľ":8249,"Ġìĭľìŀĳíķ´ìĦľ":8250,"ĠëĨĪìĿĺ":8251,"ì¥Ĳ":8252,"ìĭľíĤ¤ê³ł":8253,"ĠìĿ´ìĸ´íı°":8254,"į½":8255,"ê°Ģë¯Ħ":8256,"Ġê·¸ê±°ì§Ģ":8257,"Ġë§İëįĶëĿ¼":8258,"Ġê³łìĤ¼":8259,"Ġìĸ´ëĸł":8260,"ê·¸ëŁ¬ëĭĪê¹Ĳ":8261,"ĠíĬ¼":8262,"ĠëĦĪëĦ¤ëıĦ":8263,"ëª¨ëį¸ë§ģ":8264,"Ġëµ":8265,"Ġê°ĻëįĶëĿ¼ê³ł":8266,"ë¶ĢíĦ´":8267,"ĠìĹ°ê·¹":8268,"ìĿ¸ëį°ëıĦ":8269,"Ġëľ¨ê±°ìļ´":8270,"ëĨĶìķ¼":8271,"ìŀ¡ê³ł":8272,"Ġìĳ¤":8273,"Ġê·¸ìłĢê»ĺ":8274,"ëĤĺì§Ģ":8275,"íĸĪëĭ¤ê°Ģ":8276,"ì¤ĳêµŃ":8277,"Ġë°ĺë³µ":8278,"Ġê±Ķë¥¼":8279,"Ġë²Įìĸ´ìĦľ":8280,"íĻľëıĻ":8281,"Ġëħ¸ëŀĺëıĦ":8282,"Ġìĵ¸ëį°":8283,"ĠëĤĺëĿ¼ê°Ģ":8284,"Ġê¸´ìŀ¥":8285,"ĠëħĦëıĦìĹĲ":8286,"ìĹĳ":8287,"ëĿ¼ë¶ĢëĤľ":8288,"ĠìŀĪì£¼ê²Į":8289,"ĠìķĪë§ŀ":8290,"ĠëŃĲëıĦ":8291,"ì£¼ëĿ¼":8292,"íķĺëĬĶëĶĶ":8293,"ĠìĿ¸íĺķ":8294,"ĠëĨĢëŀľ":8295,"ê´ĢìĹĲ":8296,"Ġíİ¸ì§Ģ":8297,"Ġìĺģìĸ´ë¡ľ":8298,"íķ´ìĺģ":8299,"ĠìĿ¼ëħĦìĹĲ":8300,"Ġì¢ĢëįĶ":8301,"Ġê¸į":8302,"ìĿ´ëĿ¼ë¶ĢëĤľ":8303,"ĠëĤ´ëł¤ìĻĢìĦľ":8304,"Ġë¹łì§Ī":8305,"Ġë°Ģê°Ĳ":8306,"ĠëĮĢìĭłìĹĲ":8307,"ĠìŀĺìĥĿê¸´":8308,"Ġì§ľìŀ¥ë©´":8309,"íħĮëĭĪê¹Į":8310,"ĠëĮĢê¸°":8311,"ĠìłĦê¹Įì§Ģ":8312,"íĬ¸ëĬĶ":8313,"ĠëĤłëıĦ":8314,"ëł¸ëĭ¤":8315,"Ġìĭ¸ìĦľ":8316,"Ġíİĳ":8317,"ê¶ĮëıĦ":8318,"Ġê±·ê³ł":8319,"ìĥµ":8320,"ìĿ´ê±¸":8321,"ëĤĺëĤĺ":8322,"Ġíķľë³µ":8323,"Ġê²Įë¯¼":8324,"ĠìłľíĴĪ":8325,"íĸīìľ¼ëĦ¤":8326,"Ġì¤ĳìĿĺ":8327,"ĠìĬ¤íħĮ":8328,"Ġë¶ĦìĹĲ":8329,"ì¡Įëĭ¤ê³ł":8330,"ĠìĪľìĪĺ":8331,"Ġíħĥ":8332,"Ġê³³ëıĦ":8333,"Ġê°Ģì¡±ìĿ´":8334,"ĠìĺĪìģĺëĭ¤":8335,"ì³¥":8336,"Ġê¸°ëıĦë¥¼":8337,"ĠìŁ¤ëĬĶ":8338,"ĠìĹĲìĸ´ì»¨":8339,"Ġê¹¨ëģĹíķĺê²Į":8340,"ĠìĥĿìĿ´ëĿ¼":8341,"ìķĦëĭĪëĿ¼":8342,"ĠëĤłìķĦ":8343,"íģ¬ëĥĲ":8344,"ì»´":8345,"ë§ĽìĿ´":8346,"ìĺĨìĹĲ":8347,"ëĵ¤ìĸ´ê°Ģ":8348,"Ġê·¸ëŁ¬ìŀĸìķĦ":8349,"ê±´ê°ķ":8350,"ĠìĨĮì¤ĳ":8351,"ĠìĨĮìĦ¤":8352,"Ġì´ĺ":8353,"ĠíķľêµŃìĿ¸":8354,"ĠíķľêµŃìĹĲìĦľ":8355,"Ġìĭľì¼ľìĦľ":8356,"ĠìĹ°ìķłë¥¼":8357,"ĠìķĦëĭĪìļĶ":8358,"Ġë³´ê´Ģ":8359,"Ġìļ°ë¦¬ìĿĺ":8360,"Ġìĭľê³Ħ":8361,"Ġìŀħìĸĳ":8362,"Ġìĵ°ìŀĸìķĦ":8363,"ĠìķĮìķĦìĭłëĶĶ":8364,"ĠìĿĳê¸ī":8365,"ìŀħê³ł":8366,"Ġìĺ¤ìĭŃë§Į":8367,"Ġë½ĳëĬĶ":8368,"ĠìĥģíĻ©ìĹĲìĦľ":8369,"ĠìĿ´ê°Ģ":8370,"ê±°ë¯Ħ":8371,"ĠìĻĲ":8372,"ìĤ¬ëĭĺìĿ´":8373,"íĹĪë¯¼":8374,"ĠìĻĶìĸ´ìļĶ":8375,"Ġíģ°ê±°":8376,"ĠëĪĦêµ¬ì§Ģ":8377,"ĠìĽĥê³ł":8378,"Ġìļķìĭ¬ìĿ´":8379,"Ġíķ¸ëĵľíı°ìĿĦ":8380,"ĠìķĦë¦Ħ":8381,"ê±°ëĭĪ":8382,"Ġë³´ì¡°":8383,"ĠëĮĢìĥģ":8384,"Ġë¯¸ëģĦ":8385,"Ġìĵ°ëĬĶê±°":8386,"Ġìŀ¡ìľ¼ë©´":8387,"Ġê°Ķëĭ¤ìĻĶ":8388,"ì¹´ëĿ½":8389,"Ġì²«ë²Īì§¸":8390,"ëĭ¤ëĭĪëĬĶ":8391,"Ġë³´ìĿ´ëĬĶëį°":8392,"ë³¶ìĿĮ":8393,"ĠìĥĿê²¨ìĦľ":8394,"ĠëĬ¥ëł¥ìĿ´":8395,"Ġë°Ķê¾¼":8396,"ìŀĪëĬĶê±°":8397,"ë¯¸ìķĪ":8398,"ĠìĿĺì§Ģ":8399,"Ġì°¾ê³ł":8400,"Ġíıīê·ł":8401,"ì³Ķ":8402,"ĠìĮĵìĹ¬":8403,"ĠìĿ´ë§Įíķľ":8404,"Ġíķ´ë²Ħë¦¬ëĭĪê¹Į":8405,"Ġë³´ìĦ¸ìļĶ":8406,"Ġê·¸ëŁ°ê²ĥëıĦ":8407,"ĠìĥĿê°ģíķĺê±°ëĵł":8408,"ĠìĤ´ëįĺ":8409,"Ġìĸĺê¸°íķĺëĬĶëį°":8410,"ĠìŀħìĪł":8411,"Ġë©´ìĹŃ":8412,"ĠìĤ¶ìĿ´":8413,"ĠêµŃë¯¼íķĻêµĲ":8414,"ê°ĢìĿ´ëĦ¤":8415,"ì§ĢëĬĶê±°":8416,"Ġë§ĪìĭľëĬĶ":8417,"ĠíĹĪëĿ½":8418,"ĠìĦľìª½":8419,"ë³´ëĭ¤ëıĦ":8420,"ĠìķĦê¹Įìļ´":8421,"Ġìĭ¤íĮ¨":8422,"ê¿Ī":8423,"Ġëª°ëŀĲì§Ģ":8424,"Ġê°Ħëĭ¨íķĺê²Į":8425,"ê±°ëĭĪê¹Į":8426,"ëķĮë§Īëĭ¤":8427,"ĠìĭŃìĤ¬":8428,"ëªħìĿĦ":8429,"ĠëģĿëĤĺìĦľ":8430,"Ġë¹¼ìķ¼":8431,"ìĦĿìĿ´":8432,"Ġë¬¶ìĸ´":8433,"Ġìłĵê°Ī":8434,"ĠìŃĪ":8435,"ĠìĹĨì§Ģë§Į":8436,"Ġê²Įë©Ķ":8437,"Ġë°Ķë¥´":8438,"ĠìĹ´ê³ł":8439,"ìħĢ":8440,"Ġì´ĪìĹĲ":8441,"Ġë§¤ìŀ¥":8442,"ĠìĿ´ë¦ĦëıĦ":8443,"Ġìıł":8444,"Ġëª¨ìĬµìĿĦ":8445,"§ê°Ģë£¨":8446,"ĠëĲĺëįĶëĿ¼ê³ł":8447,"ëĮĢíı°":8448,"ĠnameìĮ¤":8449,"Ġë¬´íķľ":8450,"íĻĶìłĲ":8451,"ĠìľłìłĦ":8452,"ĠëıĦìĥĪê¸°":8453,"Ġìĸ¸ìĸ´":8454,"Ġíģ¬ëĭĪê¹Į":8455,"ìĸĺê°Ģ":8456,"Ġê°ĻëįĶëĿ¼":8457,"ìĿ¼ë¡ľ":8458,"ìŀĪëĭ¤":8459,"ĠìĽĶìĦ¸":8460,"ĠìĹĺë¦¬":8461,"ĠìĪĺê±´":8462,"ĠìĥĿê°ģíķĺëĬĶëį°":8463,"ìĭĿìĿĢ":8464,"ĠìŀħìĿ´":8465,"ĠìķĦë¬´ëĤĺ":8466,"ĠìĽĥìĸ´":8467,"íİľ":8468,"Ġì¤ĳìļĶíķ´":8469,"ĠêµĲìľ¡ìĿĦ":8470,"ê±ĶëĦ¤":8471,"ĠëĴ¤ì§ĳìĸ´":8472,"íķĺê²łëĭ¤":8473,"ĠìĥĿê°ģíķ¸":8474,"ĠìĦ¸ìĿ¼":8475,"Ġëªħë§Į":8476,"Ġë²Ħë¦ĩ":8477,"ëĭ¤ëĬĶê²Į":8478,"ĠëĳĺëŁ¬":8479,"ë©°ëĬĶ":8480,"Ġê²©ë¦¬":8481,"ìķĦëĬĶ":8482,"Ġíķ´ìĭłê°Ģ":8483,"Ġëĵľë¦¬":8484,"ìľĦìĹĲ":8485,"ĠìĥĲëŁ¬ëĵľ":8486,"ìĹĶê°Ģ":8487,"íķ´ê·¸ëĦ¹":8488,"ëĤľê±°":8489,"ìķĺìľ¼ë©´":8490,"ĠëĤ¨ì¹ľ":8491,"Ġê°Ħì§Ģ":8492,"ĠëıĮë¦¬":8493,"ĠìķĦì§ģê¹Įì§Ģ":8494,"ĠëĶ¸ëıĦ":8495,"Ġìĭłê²½ìĿĦ":8496,"ìļ°ëĭ¤ê²Į":8497,"ĠíĹ¬ìĬ¤ìŀ¥":8498,"ìłĬ":8499,"ĠìĤ¬ëŀĮìĿ¸":8500,"Ġëª¨ë¥´ì§Ģë§Į":8501,"ë°ĺìĿ´":8502,"ê¾¸ë¡ľ":8503,"ĠìĤ¼ìĭŃë§Į":8504,"Ġíĭ°ì¼ĵ":8505,"ĠëŃ£ëıĦ":8506,"ëĭ¤ëĵ¤":8507,"ë¡ľê°Ģ":8508,"ĠëĤ´êº¼":8509,"Ġìĭ¶ìĹĪìĸ´":8510,"Ġë¨¹ìľ¼ëŀľ":8511,"Ġëĸ¨ìĸ´ì§Ģê³ł":8512,"ĠìĤ´ìķĺëįĺ":8513,"ìĿįëĭĪê¹Į":8514,"ĠíķĦëĿ¼íħĮìĬ¤":8515,"Ġíķ´ë³´ëĭĪê¹Į":8516,"Ġì§ĢìĿĢ":8517,"ëŀĳìĿĢ":8518,"ê²łëįĶëĿ¼ê³ł":8519,"ĠëĤ¨ëĵ¤":8520,"ìĭĿëĭ¹":8521,"Ġì¹łì²ľ":8522,"Ġìĸ¸ìłľê¹Įì§Ģ":8523,"ìĽłëĬĶëį°":8524,"ëķľìĹĲ":8525,"ëĳĺìĿ´":8526,"Ġì¡°ê·¸ë§Į":8527,"ìĸ´ìļ°":8528,"ĠìķĦëĭĪìķĦëĭĪ":8529,"Ġë³´ê¸´":8530,"êµ¬ë©į":8531,"Ġëª¨ëį¸":8532,"ìĽĲìĿĢ":8533,"ĠëĤ¨ìķĺìĸ´":8534,"ĠíĹĪëŀľ":8535,"ĠìĨĮëĿ¼":8536,"ë¯¸ë¦¬":8537,"Ġë²ĦìĦ¯":8538,"ĠìĭĿê²Į":8539,"ĠíĶ¼ìĶ¨":8540,"Ġì´Īê°Ģ":8541,"ĠìĽĥìľ¼ë©´ìĦľ":8542,"Ġë¦¬ëª¨ëį¸ë§ģ":8543,"ì»¤ëĿ¼":8544,"ìĺ¤ë¹łê°Ģ":8545,"ĠíĺĪìķ¡":8546,"ĠìĿ´ê²¨":8547,"Ġê°Ģì§ĢëıĦ":8548,"ìŀĲê¾¸":8549,"Ġê²ĥë³´ëĭ¤ëĬĶ":8550,"Ġê°Ķìľ¼ë©´":8551,"ĠêµĲìĸĳ":8552,"ĠíıīìĨĮ":8553,"Ġíķ´ì£¼ìĦ¸ìļĶ":8554,"ĠìĿ¼ìĸ´ëĤ¬":8555,"Ġê±°ìłĪ":8556,"íķ´ìĹ¬":8557,"ĠnameìĶ¨":8558,"Ġìłģê²Į":8559,"ê´Ģë¦¬":8560,"ìĸ¸ëĭĪëĬĶ":8561,"ĠíĮĲë§¤":8562,"Ġíķĳê³Ħ":8563,"Ġë³´ë¦Ħ":8564,"Ġëĵ¤ìĸ´ë³´ëĭĪê¹Į":8565,"ë´Ħ":8566,"Ġë¶ĦëıĦ":8567,"Ġëĭ¨ìĪľ":8568,"Ġë§Ĳê³łëıĦ":8569,"ĠnameìĿ´ëĦ¤":8570,"Ġìī¬ìĽĮ":8571,"Ġëĭ¤ë¥´ì§Ģ":8572,"ëĭ¤ëĭĪê³ł":8573,"Ġíķľëĭ¤ìĿĮìĹĲ":8574,"ĠëķĮì¯¤":8575,"ĠìĿ¼ìļĶìĿ¼ëĤł":8576,"ì²©":8577,"ĠìķĬìķ¤":8578,"Ġê³łë¥¼":8579,"Ġê³łìĤ¬":8580,"Ġë§Īëĭ¹ìĹĲ":8581,"íĻĶìŀ¥":8582,"ĠëĤ¨ìĿ´":8583,"Ġë¨¹ìĸ´ëĿ¼":8584,"ê²½íķ´ëıĦ":8585,"Ġíķľë²ĪìĹĲ":8586,"Ġìŀ¥ìķł":8587,"ĠìĦ±ê²½":8588,"ê°ĻìĿĢê±°":8589,"ê°Īë¹Ħ":8590,"ĠìĿ¼ë³¸ìĹĲìĦľ":8591,"ĠíĶĮëĿ¼ìĬ¤":8592,"Ġê²½íĹĺìĿ´":8593,"ĠëĬĻìĿĢ":8594,"ë½Ģ":8595,"ì¿¨":8596,"ĠíĶ¼ìĭľë°©":8597,"ìĻĢê°Ģì§Ģê³ł":8598,"ĠëªĩëħĦ":8599,"Ġì¢ĭìĿĢê²Į":8600,"Ġë°¥ìĿ´":8601,"ĠëĲĲìŀĸìķĦ":8602,"ĠìĻ¸ë¡ľ":8603,"íĴĢìĿ´":8604,"ĠìĤ¶ìķĦ":8605,"ĠìĬĪíį¼":8606,"ìĭľê²½":8607,"ĠëĪķ":8608,"ĠìĺĪë°©":8609,"ëıĻìĹĲ":8610,"íĭ°ì½ĺ":8611,"ĠìķĪëĲĺì§Ģ":8612,"ĠíĨłìļĶìĿ¼ëĤł":8613,"ì¸¡":8614,"Ġíĥľìĸ´ëĤľ":8615,"ĠíķĺëįĶëĭĪ":8616,"ĠëĤĺìŀĸìķĦ":8617,"Ġê·¸ëŁ¬ëĦ¤":8618,"Ġìłķë¶Ģ":8619,"ĠìĿ¸ê°ķ":8620,"Ġë§ŀìķĦìĦľ":8621,"Ġë°°ê²½":8622,"ìĤ°ìĿĦ":8623,"Ġë¨¸ë¦¬ì¹´ëĿ½":8624,"Ġì·¨íĸ¥":8625,"Ġíļ¨ê³¼ê°Ģ":8626,"ìħ¨ìĸ´ìļĶ":8627,"ëĭ¤ìļ´":8628,"ĠìĭľìĬ¤":8629,"ĠìĽĲë£¸":8630,"Ġê²ħíķĺëĤľ":8631,"ê³¼ëĬĶ":8632,"Ġê°ĲìĦ±":8633,"Ġì°¸ìĹ¬":8634,"ĠìķĦìĿ´ëĵ¤ìĿĦ":8635,"Ġë±ī":8636,"ĠìĿĢê·¼íŀĪ":8637,"ìĿ´ê²ĥëıĦ":8638,"Ġíķ´ë´¤ëĬĶëį°":8639,"Ġë§ĮëĳĲ":8640,"ëĭ¨ìĿ´":8641,"ĠëĨĵìĿĦ":8642,"Ġì¢ĭìķĦíķ´ê°Ģì§Ģê³ł":8643,"ĠìĽĢì§ģìĿ´ëĬĶ":8644,"Ħë¦¬":8645,"ê±°ìĽĮ":8646,"Ġë¨¹ê³łìĭ¶":8647,"íĹĪìĹ°":8648,"Ġë²Ħëł¤ìĦľ":8649,"Ġê¹Įì§ĢëĬĶ":8650,"Ġë¬»ìĸ´":8651,"ĠëĤĺìķ¼":8652,"Ġë§Ĳíķĺë©´ìĦľ":8653,"Ġìĺ¤ìłĦìĹĲ":8654,"Ġê±¸ìĹī":8655,"ëĤ´ëł¤":8656,"êµŃìĿĦ":8657,"ĠíĤ¤ëıĦ":8658,"Ġë°ľëĭ¬":8659,"Ġìŀĺëª»íķľ":8660,"Ġëŀľ":8661,"ĠëĤĺë¦ĦëĮĢë¡ľ":8662,"Ġê·¸ìłĦìĹĲ":8663,"ëıĦë¦¬":8664,"Ġê°ĢìĤ¬":8665,"êµ³ìĿ´":8666,"ìľ¼ë¯¼":8667,"Ġì§ĢìłĲ":8668,"Ġë§İëįĶëĿ¼ê³ł":8669,"ĠìĪĺìłľ":8670,"Ġëª»íķ´ëıĦ":8671,"Ġë§ŀëĬĶê±°":8672,"ĠìļĶêµ¬":8673,"ëĭĺëıĦ":8674,"Ġë§ĽìŀĪìĹĪìĸ´":8675,"Ġë°±ìĺ¤ìĭŃ":8676,"ĠëĿ¼ìĿ´":8677,"Ġê¸Ģë¡ľ":8678,"Ġë§ĮëĤ¬ìĿĦ":8679,"Ġíİ¸ìķĪíķĺê²Į":8680,"Ġê°¤ëŁŃ":8681,"Ġë§µ":8682,"ĠìĹ½":8683,"ëĿ¼ì§Ģ":8684,"ĠíĸĪì£¼":8685,"ĠíĸĪëĥĲ":8686,"ĠìĥĿê°ģëĤľ":8687,"ìł¸ìķ¼":8688,"Ġê³¼ê±°":8689,"ìį©":8690,"ĠìķĦíĶĦëĭ¤ê³ł":8691,"Ġìļ´ìłĦìĿĦ":8692,"Ġê³µì§ľë¡ľ":8693,"nameëıĦ":8694,"ĠìķĮìķĶ":8695,"Ġê±´ì¶ķ":8696,"ĠìĤ¬ëŀĮìĿ´ëĭĪê¹Į":8697,"ìłģìĿ´ê³ł":8698,"Ġëĭ¤ìĿĮë¶ĢíĦ°ëĬĶ":8699,"Ġìłĳì´ī":8700,"Ġíķĺìŀ°":8701,"ë³´ë¦¬":8702,"ĠìĤ¼íķĻëħĦ":8703,"Ġì°¨ê³ł":8704,"ì¢ħìĿ´":8705,"ĠìĤ¬íĪ¬ë¦¬ë¡ľ":8706,"Ġê´Ģê´ĳì§Ģ":8707,"ëĴģ":8708,"ĠëĮĢê°Ģë¦¬":8709,"Ġê±°ìĺĢëĬĶëį°":8710,"íķĺì§ĢëĬĶ":8711,"ĠëĤľëĭ¤ê³ł":8712,"ë£»":8713,"ĠëıĮìķĦìĦľ":8714,"ìĦ¸ì§Ģ":8715,"ìĺĢëĦ¤":8716,"Ġìłķë§Ĳë¡ľ":8717,"ìħĶê°Ģì§Ģê³ł":8718,"Ġê¹Ģì¹ĺì°Įê°ľ":8719,"ĠìľłíĪ¬ë²Ħ":8720,"ĠìķĦê°ĢìĶ¨":8721,"ëį°ëıĦ":8722,"ìķĺìĿĦ":8723,"ĠíķĺëĤĺìĿĺ":8724,"ë¹Ħë¡ľ":8725,"Ġìĭľê°Ħë§Į":8726,"ë¯¼íĦ´":8727,"ĠìĹĲëĦĪ":8728,"Ġë¦¬ëįĶ":8729,"ĠìĹ¬ëŁ¬ê°Ģì§Ģ":8730,"ĠëĤĺì¤ĳìĹĶ":8731,"Ġê±°ë¡ľ":8732,"ë³´ëł¤ê³ł":8733,"Ġëª»íķĺë©´":8734,"ì°Ĳ":8735,"Ġìķ½ê°ĦìĿ´":8736,"íĺ¹":8737,"ĠëªħíĴĪ":8738,"ìŀĲê¸°ëĬĶ":8739,"ìļ©ìľ¼ë¡ľ":8740,"Ġê±´ê°ķíķĺê²Į":8741,"ëıĮìĿ´":8742,"ĠìĺĪìģĺê³ł":8743,"ĠìĹĬê·¸":8744,"Ġê³¶":8745,"ĠìķĦëĭĪìĹ°":8746,"Ġìĺ¤ë¶Ħ":8747,"ìļĶë²ĪìĹĲ":8748,"Ġì£¼ëĿ¼":8749,"íĶ½":8750,"Ġëĭ¬ë§Ī":8751,"ĠíĮĶë°±":8752,"ĠëĨĢìĿ´":8753,"Ġë¬¸íĻĶê°Ģ":8754,"ĠìĨĲìŀĲ":8755,"ĠëĤĺìĺ¨ê±°":8756,"Ġê²°êµŃìĹĲëĬĶ":8757,"ĠìĿ¸ìĬ¤íĥĢìĹĲ":8758,"ê°ĵ":8759,"Ġê°ĢìļĶ":8760,"íķľì§Ģ":8761,"Ġêµµ":8762,"Ġìľłì±Ħ":8763,"Ġê°ĢëĬĶëĶĶ":8764,"ëĺĺ":8765,"ĠëģĬê³ł":8766,"ĠìĤ¶ìķĦìĦľ":8767,"ĠìĹĩ":8768,"Ġë°Ķê¼Ī":8769,"ì°¨ëĬĶ":8770,"Ġê°ĲìĹ¼":8771,"Ġê¸°ìĸµìĿĦ":8772,"Ġì¹łë°±":8773,"ĠìĦ¤ì¹ĺ":8774,"ê¿Ģ":8775,"ĠìĤ¬ëĿ¼ë´ī":8776,"ĠíķłëĿ¼ê³ł":8777,"ĠíķĺëĬĶê²ĥëıĦ":8778,"ĠìĺģìĹħ":8779,"Ġì¡°ìĥģ":8780,"íĹĻ":8781,"ĠëĲłê±´ëĶĶ":8782,"ĠìĤ¬ëŀĮëĵ¤ìĿĺ":8783,"Ġì´ĪëĮĢ":8784,"Ġë§ĽìŀĪëĭ¤":8785,"Ġë§Įëĵ¤ë©´":8786,"Ġë°ľìĿ´":8787,"Ġìĭ¤íĹĺ":8788,"ĠëĤ´ëł¤ìĻĶ":8789,"ë§ŀì§Ģ":8790,"Ġìĭľìŀĳíķł":8791,"ĠìĿ¼ë³¸ìĸ´":8792,"ĠìĦľë¡ľê°Ģ":8793,"ĠíĬ¹ë³Ħíķľ":8794,"ê´ľì°®":8795,"ë¦¬íı¬íĦ°":8796,"ĠëĲĺê²łì§Ģ":8797,"Ġì¢ĭìķĺëĬĶëį°":8798,"ëĵľë¯¼íĦ´":8799,"ë§ĲìĿĢ":8800,"ĠêµĲìĤ¬":8801,"Ġìĸ¸ëĭĮ":8802,"ĠíĸĦìĦľ":8803,"ê¸°ë¡ľëĬĶ":8804,"ĠíĮ¨ìħĺ":8805,"Ġë¯¼ë§Ŀ":8806,"ĠíĦ¸ìĸ´":8807,"ĠìĺĢëĬĶëį°":8808,"Ġì£¼ìłľê°Ģ":8809,"ĠëŃĲëĿ¼ëıĦ":8810,"ĠëĲĺë¯Ħ":8811,"ë³´ìĹ¬":8812,"Ġë§ĪëĶĶ":8813,"Ġë§Īëĥ¥":8814,"Ġì¤ĳë¬¸":8815,"ìĨįìľ¼ë¡ľ":8816,"ĠcompanynameëıĦ":8817,"ĠíĿ¡":8818,"ĠìķĦì¹¨ë¶ĢíĦ°":8819,"Ġëª¨ìĿĺ":8820,"ĠëĶ°ì§Ģë©´":8821,"íĥĲ":8822,"ì¤Ģëĭ¤":8823,"Ġê±´ê°ķê²Ģì§Ħ":8824,"Ġìĸ´ì°ĮëĲĲ":8825,"Ġì¡°ê·¸ë§Īíķľ":8826,"ĠìĤ¬ìŀ¥ìĿ´":8827,"ĠìķĦëĭĪëŀĺ":8828,"Ġë¨¹ì§ĢëıĦ":8829,"ë§Īë¦¬":8830,"ĠìĹĨëįĶëĿ¼ê³ł":8831,"ìĿ¼ëıĦ":8832,"ĠìķĬëĭ¤":8833,"ĠìľłëĭĪ":8834,"ĠëĲĺëĬĶì§Ģ":8835,"Ġìĭ¸ìļ´":8836,"Ġë§Ĳíķ´ì¤ĺ":8837,"ëŁ½ê³ł":8838,"ĠëłĪëĵľ":8839,"Ġì¸¡":8840,"Ġëĭ¦ìķĦ":8841,"ìĸ¼ë§ĪëĤĺ":8842,"ĠìĿ´ìŀĲ":8843,"ì§Ģì»¬":8844,"Ġìļ°ë¦¬ë§Į":8845,"ĠëĤĺëĬĶìĿ´":8846,"ĠëĮĢë¦¬":8847,"ë³į":8848,"ĠìļĶëłĩê²Į":8849,"ĠìĿĺìŀĲ":8850,"Ġíı¬ìĿ¸íĬ¸":8851,"ĠëıĻìĥĿëıĦ":8852,"Ġë¹Ħìĭ¸ê³ł":8853,"ĠìĬ¬ìĬ¬":8854,"Ġëª©ìĨĮë¦¬ê°Ģ":8855,"ì§Ģë©´ìĦľ":8856,"Ġìļ°ë¦¬ë³´ëĭ¤":8857,"Ġë§Ĳëł¤":8858,"Ġì¢ĭê²łëĬĶëį°":8859,"Ġì°¨ëĭ¨":8860,"Ġê²Ģì§Ī":8861,"íķ¨ìĿ´":8862,"ìŀĪìľ¼ëĭĪê¹Į":8863,"íķłìķĦë²Ħì§Ģ":8864,"ë¬¼ìĸ´":8865,"Ġë§ĽìŀĪëįĶëĿ¼":8866,"ĠëĤĺíķľíħĮëĬĶ":8867,"Ġìĺ·ìĿĢ":8868,"ĠíĴĢê³ł":8869,"Ġë°¤ìĥĪ":8870,"ĠíļŁ":8871,"ê°ĢìĿ´ê°Ģ":8872,"ê±°ê¸°ê°Ģ":8873,"íķĺìĭľ":8874,"Ġíķ´ëĭ¬ëĿ¼ê³ł":8875,"ì§Ħëĭ¤ê³ł":8876,"ĠìĹĦì²ŃëĤľ":8877,"ĠëħĦëĮĢ":8878,"ĠíĶ¼ê³ł":8879,"Ġì¡°ë¦¬":8880,"ë°ľìĿ´":8881,"ë³ĳìĿ´":8882,"ĠëĤ´ìĿ¼ìĿĢ":8883,"ĠìĬ¤íĬ¸ëłĪìĬ¤ë¥¼":8884,"Ġíĳ¼":8885,"ĠìĹīëį©ìĿ´":8886,"Ġìļ°ë¦¬ëĤĺëĿ¼ëĬĶ":8887,"ê³łêµ¬ë§Ī":8888,"ì§ĢëĬĶëį°":8889,"ĠëĤĺë¬¼":8890,"Ġê°Ģë³´ë©´":8891,"ìĻĢëıĦ":8892,"Ġìĵ°ê²Į":8893,"Ġë°¥ë¨¹":8894,"Ġìĺ¤ë¹łëĦ¤":8895,"Ġë§ĽìŀĪì§Ģ":8896,"ĠíĽĮ":8897,"ĠìĻ¸ëª¨":8898,"ë°ķìĬ¤":8899,"Ġìĺģìĸ´ë¥¼":8900,"Ġë³´ê¸°ìĹĶ":8901,"Ġëĥīìŀ¥ê³łìĹĲ":8902,"ìķĦëĭĮ":8903,"Ġíķ´ë´¤ìĸ´":8904,"ìŀĸìķĦìĺĪ":8905,"Ġëĵ¤ìĹĪìĿĦ":8906,"ë¬¸ìĿĦ":8907,"Ġíķĺë©´ìĦľëıĦ":8908,"ĠìĮĪ":8909,"Ġê°Ģìł¸ê°ĢìĦľ":8910,"ĠìĿĮìĭĿìĿĢ":8911,"ë©Ķë¦¬ì¹´":8912,"ì¾":8913,"íľ":8914,"ëĤĺë³´ëĭ¤":8915,"Ġê°Ģìŀ°":8916,"ìĿĺë¥¼":8917,"ĠìķĬê±°ëĵł":8918,"Ġìĸĺë¥¼":8919,"Ġì¡°ìĦł":8920,"Ġê°ĶìĹĪìĸ´":8921,"Ġìĸĺê¸°ë§Į":8922,"Ġê°ķëĤ¨":8923,"Ġë°©ìĸ¸":8924,"ĠìĶģ":8925,"ĠëĤĺìĿ´ëıĦ":8926,"Ġë¨¹ìľ¼ëĿ¼":8927,"Ġì§ĢëĤĺìĦľ":8928,"ĠíŀĺëĵľëĭĪê¹Į":8929,"ĠìĬ¤íİĺìĿ¸":8930,"ê±°ë¦¬ëĬĶ":8931,"Ġì§ĸ":8932,"ê·¸ë¦ĩ":8933,"Ġë¨¹ìĿ´ê³ł":8934,"ë³´ê¸°":8935,"Ġê·¸ëŁ¬ëįĶëĿ¼ê³ł":8936,"ëĤ´ë¯¸":8937,"ìłĢëıĦ":8938,"Ġì±Ļê¸°":8939,"ĠëĥĦë¹Ħ":8940,"Ġê»Ħ":8941,"ëŀŃìĿ´":8942,"ì·Ħ":8943,"Ġê³łëł¤":8944,"ëĭ¨ê³Ħ":8945,"Ġëħ¸ëıĻ":8946,"ĠëĲĺëĬĶêµ¬ëĤĺ":8947,"ê²ħíķĺëĤľ":8948,"ì©Ķ":8949,"Ġë§Īì§Ģë§īìľ¼ë¡ľ":8950,"Ġì¢ģìĮĢ":8951,"ĠìľĦíĹĺíķľ":8952,"Ġìİ":8953,"ìĿ¼ìĿĢ":8954,"Ġê¸°ëĥ¥":8955,"ĠíĻĶìļĶìĿ¼":8956,"Ġìĭ¤ìłľ":8957,"ĠëĤ´ëł¤ìĺ¤ëĬĶ":8958,"Ġë¹¼ë¹¼":8959,"ĠíĨłëģ¼":8960,"Ġëĭ¤ëħĶëĬĶëį°":8961,"íķ¨ìĿĦ":8962,"íĻķìĭ¤":8963,"Ġë·Ķ":8964,"Ġê°Ģë´Ķ":8965,"ìĤ¿":8966,"Ġë§Īë£¨":8967,"íķĻê¸°":8968,"Ġë°Ľìľ¼ëĭĪê¹Į":8969,"ĠëĳĲë¶Ģ":8970,"ĠìĨĮíĻĶ":8971,"ëª¨ëĵł":8972,"Ġë´¤ìŀĸìķĦ":8973,"Ġìĸ´ì¨Į":8974,"Ġë³¼ëł¤ê³ł":8975,"ĠìĦľìļ¸ìĿĢ":8976,"ĠëĤĺìĻĶëĭ¤ê³ł":8977,"Ġìĸ¼êµ´ìĿĢ":8978,"Ġëıħë¦½":8979,"ĠìºĲëĤĺëĭ¤":8980,"Ġì§ĵê³ł":8981,"Ġíķĺìĭł":8982,"ëŀ´":8983,"Ġíķľê¸Ģ":8984,"Ġëĵ¤ìĹĪê±°ëĵł":8985,"Ġì±ħìĿ´":8986,"ĠìĨĮë¦¬ëıĦ":8987,"ĠëĸłëĤĺ":8988,"Ġìĸ´ëłµê²Į":8989,"ê²ģê²Į":8990,"ìķŀìĹĲ":8991,"Ġê³łì¶§ê°Ģë£¨":8992,"Ġê±°ìĺĢìĸ´":8993,"ĠìĤ´ë©į":8994,"íŀĪë©´":8995,"Ġì¤ĳëıħ":8996,"ê³¼ë¥¼":8997,"Ġì¶Ķìļ¸":8998,"Ġë¹łë¥´":8999,"ĠíķŃê³µ":9000,"ĠíķĦìļĶëĬĶ":9001,"Ġì¤Ģë¹Ħíķĺê³ł":9002,"Ġìľłëªħíķ´":9003,"Ġíľ´ëĮĢíı°":9004,"Ġë»¥":9005,"Ġìĥģê´ĢìĿ´":9006,"ĠìĿ´ìģĺê²Į":9007,"Ġê·¸ëıĻìķĪ":9008,"ìĿ´ëª¨":9009,"ĠìķĪë¨¹ê³ł":9010,"Ġë§Ĳëŀĺ":9011,"ìĺ¤ëĿ¼ê³ł":9012,"Ġê³łíĨµ":9013,"ĠìĤ¼ê²¹ìĤ´":9014,"ìĻĢìĿ´":9015,"Ġì¤ĦìĿĢ":9016,"Ġë³¸ëĭ¤":9017,"Ġì¢ħë¥ĺê°Ģ":9018,"ĠíķĢ":9019,"ê±°ë¦¬ê°Ģ":9020,"ê¸°ê°Ħ":9021,"Ġê°Ģë§Į":9022,"ĠìŀĲìķ¼":9023,"Ġê¹»":9024,"Ġëª¨ë¥´ì¼ľ":9025,"ĠìĹ°ìŀ¥":9026,"Ġë§ĮëĤĺìķ¼":9027,"Ġê¹Ģìŀ¥":9028,"ĠìĭľìŀĳíķĺëĬĶ":9029,"Ġë¹¼ë©´":9030,"ĠìĿ´ê²ĥìĿ´":9031,"ëĸ¼ê¸°":9032,"ìĿ´ìĹĪëįĺ":9033,"ìľ¤":9034,"ê·¸ê±¸ë¡ľ":9035,"íķĺê³łëĬĶ":9036,"Ġê±¸ê³ł":9037,"Ġìĭ¶ëĭ¤ëĬĶ":9038,"ĠëĬĲëĤĦ":9039,"Ġì±ħëıĦ":9040,"ë°ĽìĿĦ":9041,"Ġë¹Įëł¤ìĦľ":9042,"ĠìĹ¬ìľłê°Ģ":9043,"Ġìļ°ìļ¸ì¦Ŀ":9044,"ĠìĿ´íķĻëħĦ":9045,"ëıĹ":9046,"Ġë§ĲìŀĲ":9047,"ĠìĭľëĮĢê°Ģ":9048,"Ġì¢ĢìĿ´":9049,"Ġë²¼":9050,"Ġëª»íķľëĭ¤":9051,"ëĵľëłĪ":9052,"ìĭ¤ê±°":9053,"Ġë¨¹ìĸ´ë´Ĳ":9054,"ĠìĤ¬ëŀĮìĿ´ìķ¼":9055,"ë¦°ê±°":9056,"Ġë¨¹ìĹĪëĭ¤":9057,"ĠëĵľëĿ¼ìĿ´ë¸Į":9058,"Ġì´ĮìĹĲìĦľ":9059,"ĠìķĦê¸°ëĵ¤":9060,"ìĥĿíĻľìĿĦ":9061,"Ġì°¢ìĸ´":9062,"Ġë¹¡ìĦ¸ê²Į":9063,"ê°ĢëģĶ":9064,"Ġìļ°ë¦¬ë¥¼":9065,"Ġìĺ¤ë¯Ħ":9066,"ĠìĥĿë¦¬":9067,"Ġê±´ëĵ¤":9068,"ĠìĿ¸ìĥģ":9069,"ë¬¼ê´Ģ":9070,"ìĨĮìĹĲìĦľ":9071,"ìĺĢëĭ¤":9072,"Ġìĸ´ì¨ĭ":9073,"ĠíķĦìĪĺ":9074,"ìĪľê°Ħ":9075,"íĬ¹íŀĪ":9076,"ĠìĭľìĬ¤íħľ":9077,"Ġê°Ģëĵł":9078,"ëĵ¤ìĿ´ëĤĺ":9079,"Ġìĭłíĺ¸":9080,"íĥ±":9081,"ëĶ°ëĿ¼":9082,"Ġíķ´ë³´ìŀĲ":9083,"Ġê²°êµŃìĹĶ":9084,"Ġê°Ģë¥´ì¼ľ":9085,"ĠìĬ¬íĶĪ":9086,"Ġë§º":9087,"Ġê°Ģë³į":9088,"ĠëĮĢìłĦ":9089,"ĠìļĶë§Įíķľ":9090,"Ġê°ĶìĹĪê±°ëĵł":9091,"ìķ½ìĿĦ":9092,"ĠìŀĳíĴĪ":9093,"Ġìį¨ê°Ģì§Ģê³ł":9094,"ĠíĺķìĿĢ":9095,"ĠêµŃìłľ":9096,"Ġë§Ĳíķ´ì£¼":9097,"ëĶ°ë¡ľ":9098,"Ġë·°":9099,"ë¦¬íķĢ":9100,"Ġê±ĺ":9101,"ĠìĭŃêµ¬":9102,"ì§Īê±°":9103,"Ġíķ©ëĶĶëĭ¤":9104,"ĠĠčĊ":9105,"ìĿ´ë©´ìĿĢ":9106,"ĠìĿ´ìĤ¼":9107,"ë³´ëŁ¬":9108,"ĠëĤ¨ëħĢ":9109,"ĠìĤ¼ìĽĶ":9110,"ĠìŀĲê¸°ë¥¼":9111,"ê»¸":9112,"ê³µíķŃ":9113,"ĠìĿĺë¬´":9114,"ĠìĥĿê°ģíķ´ë´Ĳ":9115,"íĮ¡ìĿ´":9116,"ëĬ¦":9117,"Ġë§ģ":9118,"ëĭ¤ë³´ëĭĪê¹Į":9119,"ëĤľê²Į":9120,"ĠìĽħ":9121,"Ġëª»íķĺì§Ģ":9122,"Ġë¹Ħë¹Ķ":9123,"ê·¼ëį°ìĿ´":9124,"ìĭ¬ì§Ģìĸ´":9125,"Ġìį½":9126,"íĶ¼íĭ°":9127,"ĠìķĮë°ĶëıĦ":9128,"Ġíķĺë£¨ëĬĶ":9129,"ĠìŀĶìĨĮë¦¬":9130,"ĠìĿ´ìľłëĬĶ":9131,"Ġíĥģêµ¬":9132,"ì»¤íĶ¼":9133,"ĠìĺĢìĸ´":9134,"ê·¸ëĤł":9135,"ìĽħ":9136,"ìĭľê¹Įì§Ģ":9137,"Ġì¢ĭëĦ¤":9138,"ì²«":9139,"ìĭłëį°":9140,"ìĬ¤íĨł":9141,"Ġì£¼ìŀĸìķĦ":9142,"ĠìĹ°ê¸Ī":9143,"ĠìĦłìĥĿìĿ´":9144,"Ġíİ¸ì§ĳ":9145,"Ġë³¸ê±°":9146,"Ġì¤Ģë¹ĦíķĺëĬĶ":9147,"íķŃìĥģ":9148,"ĠìĸĺëĦ¤ëĬĶ":9149,"ĠìĶ»ìĸ´":9150,"Ġíĳľì¤Ģìĸ´":9151,"ĠìĹ¬ê³ł":9152,"Ġëĵ¤ìĸ´ê°ķ":9153,"Ġê²ħíķ´ë¶ĢëĤľ":9154,"Ġëĭ¹ì²¨":9155,"ĠìĹ¬ìŀĲë¥¼":9156,"Ġìĭ¬ë¦¬":9157,"ëıĪìĿ´":9158,"Ġì¹´íĨ¡ìľ¼ë¡ľ":9159,"ĠìŀĲê°Ģê²©ë¦¬":9160,"ĠíĶĮëĿ¼ìĬ¤íĭ±":9161,"ĠëĦĪë§Į":9162,"ìłĢê±°":9163,"Ġìĭ¤ëĤ´":9164,"Ġì¢ģìĿĢ":9165,"ì§Ģê·¼":9166,"íķľê±°ìķ¼":9167,"Ġë³´ìĿ´ëĭĪê¹Į":9168,"Ġë¨¹ëįĺ":9169,"ê°Ħëĭ¤ê³ł":9170,"ĠíĹĪëĬĶê±°":9171,"êµŃëıĦ":9172,"íı¼":9173,"ĠëĦĺê²¨":9174,"ê³µìĽĲ":9175,"Ġë§ĪìĿĮëıĦ":9176,"ĠìķĪëĲĺê²łëĭ¤":9177,"Ġìĸ´ìĦľë¶ĢëĤľ":9178,"Ġë°Ķê¿Ķìķ¼":9179,"ìŀłê¹Ĳ":9180,"Ġê±°ë§Į":9181,"ĠìŀĪëĭ¹":9182,"ĠìķĪê³ł":9183,"ĠëĤ´ëĨĵ":9184,"ë§Īê°Ģ":9185,"Ġì§ĢëĥĪ":9186,"ë³´ìĿ´":9187,"Ġì§ĳì°©":9188,"ĠìĻĶëĦ¤":9189,"Ġìľ¡ì§ĢëĬĶ":9190,"ĠëĪĪìľ¼ë¡ľ":9191,"ê·¸ëŁ¬ë©´ìĦľ":9192,"Ġìĺ¬ëĿ¼ìĺ¤ëĬĶ":9193,"Ġê¸īíķĺê²Į":9194,"Ġì§ĢëĤ´ê³ł":9195,"Ġì½ĺìĦľíĬ¸":9196,"ĠëĤĺìĺģ":9197,"ĠìĿ¼ìľ¼":9198,"ĠìŀĲë©´":9199,"ëĤłìĹĲ":9200,"Ġë¶Ģìłķ":9201,"ĠìłķëıĦê°Ģ":9202,"Ġë³¸ëĭ¤ê³ł":9203,"ìĤ¬ëŀĮëĵ¤ìĿĢ":9204,"Ġíĥģíĥģ":9205,"ĠìĿ´ìĭłê±°":9206,"Ġê°ĴìĿ´":9207,"ĠìĬ¤ì¼Ģì¤Ħ":9208,"íķ´ê·¸ëĦ¤":9209,"ĠìĥĿê°ģíķĺë©´ìĦľ":9210,"Ġëĭ¨ë°±":9211,"ĠìłĲìĿ´":9212,"ìĤ´ìķĦ":9213,"Ġëĭ´ìĹĲ":9214,"Ġë§İìķĦìļĶ":9215,"ĠìĶ¨ìĶ¨":9216,"Ġìĸ´ìĭłê±°":9217,"Ġê»įì§Ī":9218,"ĠëıĪê¹ĮìĬ¤":9219,"ĠìķĦëĦ¤":9220,"íķĺì§ĢëıĦ":9221,"Ġê°Ģì¼Ħ":9222,"ĠëŃĲëŀĦê¹Į":9223,"ĠíĮĿ":9224,"Ġìĸ¼ë§Į":9225,"Ġìŀĳê²Į":9226,"ĠíĽĦë¡ľ":9227,"Ġëĭ¨íĴį":9228,"íĺ¸ìĤ¬":9229,"ìį°":9230,"ĠíİĦ":9231,"ĠìĦ¼ì¹ĺ":9232,"Ġë²Ķì£Ħ":9233,"ì«Ħ":9234,"ĠíĥĢìĿ´ë°į":9235,"Ġíķ´ê°Ģì§Ģêµ¬":9236,"Ġë¶ĢìĦľ":9237,"Ġë¶Ħë¦¬":9238,"Ġëª°ëĿ¼ê°Ģì§Ģê³ł":9239,"Ġê³µë¶Ģë§Į":9240,"ĠìĭĿëĭ¹ìĹĲ":9241,"ĠëĬĲëģ¼ê³ł":9242,"Ġê·¸ë£":9243,"Ġê²ł":9244,"Ġíķ´ìŀ¥":9245,"Ġíķ´ìĤ°":9246,"Ġë§ĪìĿ´ëĦĪ":9247,"ìŀĪìĿĦ":9248,"ĠìĹ´ìĿ´":9249,"ĠìĹ´íĿĺ":9250,"Ġë¶Īë²ķ":9251,"Ġë°©ìĹĲìĦľ":9252,"ĠíĬ¹ì§ķ":9253,"Ġë½ķ":9254,"ĠìĿ½ìĿĦ":9255,"Ġê±´ê°ķíķľ":9256,"Ġíŀĺëĵłëį°":9257,"Ġì£¼ìľĦìĹĲ":9258,"Ġíķľëĭ¨":9259,"Ġëª»íĸĪ":9260,"Ġì£¼ëŀľ":9261,"Ġë¹Ħë¦°":9262,"ĠìĦ¸íĬ¸":9263,"Ġëį°ìĿ´íĦ°":9264,"Ġë¹¨ìķĦ":9265,"ĠìłĦíĻĶë²Īíĺ¸":9266,"ĠíļĮê³Ħ":9267,"ĠëĤ´ëł¤ìĺ¬":9268,"ĠìĦľìļ¸ëĮĢ":9269,"ĠìĿ´ë²ĪìĹĲëıĦ":9270,"ĠëĤ³ìĿĢ":9271,"ĠìĦłë¬¼ìĿĦ":9272,"ìłľì£¼ëıĦëĬĶ":9273,"ìĸ´ë¦¬":9274,"ĠìĤ¬ìĻĶ":9275,"Ġìĭ¶ìĹĪëįĺ":9276,"Ġìĭłìŀħ":9277,"Ġë²Įì´Ī":9278,"ĠìĿĺìĭ¬":9279,"Ġìĭ¶ìĸ´ëıĦ":9280,"ĠëĤ³ìĿĦ":9281,"ìĿ´ë¯¸":9282,"Ġê°Ģë³´ëĭĪê¹Į":9283,"ĠìķĪìľ¼ë¡ľ":9284,"ê·¸ëķĲ":9285,"Ġë§ŀê¸´":9286,"Ġë°Ķëĭ¹ìĹĲ":9287,"ĠëįĶìĽĮ":9288,"ĠëĪĦêµ¬ëĤĺ":9289,"ì¡Įì§Ģ":9290,"ë²Ħë¦¬ì§Ģ":9291,"ìĵ°ê³ł":9292,"Ġíķĳíģ¬":9293,"Ġìĸ´ëĶĶê°ĢìĦľ":9294,"Ġë¨¹ìĸ´ë´¤ìĸ´":9295,"ìĨĮíķľ":9296,"Ġì´ī":9297,"Ġë°¥ë§Į":9298,"ĠëģĿìĿ´":9299,"ĠêµĲíĻĺ":9300,"ìŀĳìĿĢ":9301,"Ġë³´ëĤ´ë©´":9302,"ĠíķŃìķĦë¦¬":9303,"Ġê²¨ìļ¸ìĹĲëĬĶ":9304,"Ġê³łëª¨ê°Ģ":9305,"ê°Ģì¡±":9306,"Ġê°ĩ":9307,"ĠìķĦëĭĪëĭĪ":9308,"ì£¼ëĿ¼ê³ł":9309,"ìŀĲë©´":9310,"ĠëĲĺíģ¬ëĿ¼":9311,"Ġëĵ¤ì§Ģ":9312,"ĠìĤ´ëĭ¹":9313,"ìłķíķľ":9314,"Ġê³µìŀ¥":9315,"ë§īìĿ´":9316,"Ġì½ĶíĬ¸":9317,"ĠëĲĲëĦ¤":9318,"Ġìĸ´ë¨¸ëĭĪíķľíħĮ":9319,"Ġê¸¸ë¡ľ":9320,"ĠëĸłëĤĺìĦľ":9321,"Ġì¶ķíķĺ":9322,"Ġìĸ´ë¥¸ìĿ´":9323,"ĠëĭµìĿ´":9324,"Ġëĭ¤ëĵ¬":9325,"ĠëĲĺìĹ¬":9326,"Ġë¹Ħë²¼":9327,"Ġê³µê²©":9328,"Ġëªĩë°±":9329,"Ġê±°ê¸°ìĦľëĬĶ":9330,"Ġê´ľì°®ê³ł":9331,"Ġíģ¬ì§Ģ":9332,"Ġëĺĳê°ĻìķĦ":9333,"ĠìĭľíĹĺìĿ´":9334,"ĠìķĦíĶĦëĭĪê¹Į":9335,"Ġë²łëŀĢëĭ¤":9336,"ĠìĥĢê±°ëĵł":9337,"Ġë¦¬ë·°":9338,"Ġê°ĢìĿ´ëĵľ":9339,"ĠíİĺìĿ´ìĬ¤":9340,"ĠëĹ":9341,"Ġíķ´ìĦĿ":9342,"ĠëŃĲëĵłì§Ģ":9343,"ìĤ¬ë¡ľ":9344,"Ġì£¼ë¨¸ëĭĪ":9345,"Ġì£¼íĥĿ":9346,"Ġë°Ķë¥´ê³ł":9347,"Ġê±¸ìĿĦ":9348,"Ġì¹ľêµ¬ëĵ¤íķľíħĮ":9349,"ĠëĤłìĶ¬":9350,"ìĪį":9351,"Ġìŀ¡ìľ¼ëŁ¬":9352,"íĮĮë¦¬":9353,"Ġíģ¬ë¡ľ":9354,"ĠíĸĦìĪĺëĭ¤":9355,"Ġìĺ¤ëĬĶê±°":9356,"ëł¤ëĭĪ":9357,"ìĬ¤íħĮ":9358,"Ġê³łê¹ĥ":9359,"Ġê¸°ìŀĲ":9360,"Ġë§ĪìĿ´íģ¬":9361,"ĠìķłêµĲ":9362,"Ġì¡°ê°ģ":9363,"Ġìĭ¶ê±°ëĵł":9364,"Ġê²ħíķ´ìĭłëĶĶ":9365,"ĠìŀĪëĦ¤ìĿ´":9366,"ëł¥ëıĦ":9367,"ĠíĨµìŀ¥":9368,"Ġë²Ĺê²¨":9369,"ëıĦëıĦ":9370,"Ġìĭľì»¤":9371,"Ġìķłê¸°ëıĦ":9372,"Ġê²½ìĺģ":9373,"Ġë¶ĪêµĲ":9374,"Ġì±Ħë¡ľ":9375,"Ġê¼°":9376,"ìłĲìĹĲìĦľ":9377,"ĠìĿ¼ë³¸ìĹĲ":9378,"ĠìłĢë²ĪìĹĲëıĦ":9379,"Ġë¹µë¹µ":9380,"Ġì§ĳìķĪìĹĲ":9381,"ĠìķĦëĭĪëŀľ":9382,"ë¬´ì¡°ê±´":9383,"Ġê·¸ëłĩê²ĮëıĦ":9384,"Ġê³łë§ĮíŀĪ":9385,"Ġì¤ĳìĭ¬":9386,"ĠíĶ½":9387,"ĠëĦĵìĸ´":9388,"Ġê·¼ìľ¡ìĿ´":9389,"Ġì¿¨":9390,"Ġë§»":9391,"ĠìķĦíĮ¡":9392,"Ġê°Ģì£½":9393,"Ġíķ´ìĹ°":9394,"íĻĪ":9395,"Ġê°Īêº¼":9396,"ĠìķĮìķĦë´Ĳ":9397,"ìľłìĿĺ":9398,"ĠëĤ¨ìŀĲëŀĳ":9399,"Ġìĭ¬ìŀ¥":9400,"Ġíİ¸ìŀħ":9401,"ĠìŀłëıĦ":9402,"ĠìĿ¼ë³¸ìĿĢ":9403,"ëıĪìĿĦ":9404,"Ġë¹Ħìĭ¸ê²Į":9405,"Ġë¶Īíİ¸íķľ":9406,"ĠìĮįêº¼":9407,"ê°Ģëĭ¤":9408,"Ġíķĺì§ĢëĬĶ":9409,"Ġê°Ģì¹ĺ":9410,"ì£¼ë¥¼":9411,"ĠìłĢê±´":9412,"ìĭľì§Ģ":9413,"Ġê·¸ëŁ¬ëĭĪ":9414,"Ġì£¼ë¨¹":9415,"ìłķìĭł":9416,"ĠìĦľëĦĪ":9417,"Ġê°Ħë³ĳ":9418,"ĠëªħìĿĦ":9419,"ìĹĶìĹĲìĬ¤":9420,"ĠìĿ´ìĭŃëĮĢ":9421,"Ġìĸ´ìłľëĬĶ":9422,"Ġë¨¹ìĹĪìŀĸìķĦ":9423,"Ġê³ĦíļįìĿĦ":9424,"ĠìķĦë²Ħì§ĢëıĦ":9425,"ìĸ´ë¥¸":9426,"Ġê±°ê¾¸ë¡ľ":9427,"Ġíķ´ë¦¬íı¬íĦ°":9428,"ì£¼ìĿ¸":9429,"ĠìļĶë¦¬ë¥¼":9430,"ìĤ°ìĹĲ":9431,"ê°ĲëıĦ":9432,"ëħ¸ëŀĺ":9433,"ĠìŀĪìĹĪìĸ´ìļĶ":9434,"ĠëĮĢíķ´ìĦľëĬĶ":9435,"ĠìĦłë¬¼ë¡ľ":9436,"Ġì·¨ë¯¸ê°Ģ":9437,"Ġë°ĶíĢ´ë²ĮëłĪ":9438,"Ġê²Ģìĥīíķ´":9439,"Ġì²´ìľ¡ëĮĢíļĮ":9440,"ĠìĿ´ëĭĪê¹Į":9441,"ìĸ´ê²Į":9442,"ê±°ê¸°ëıĦ":9443,"ĠìŀĪê²łì§Ģë§Į":9444,"ĠìķĪíĸĪëĬĶëį°":9445,"ĠìĤ¬ì¤ĺ":9446,"ĠìĻĢê·¸ëĦ¹":9447,"ĠìĿ´ìĥģíĺķ":9448,"ìĽłëįĺ":9449,"Ġë°ĶëĢĶ":9450,"ĠìķĦìī¬ìļ´":9451,"ĠìĤ¬ìĿ´ê°Ģ":9452,"ĠëķĮë¦¬":9453,"Ġìĺ¤ëŀ«":9454,"ëĶĶìħĺ":9455,"Ġê¸°ì°¨":9456,"Ġê¸°ë¡Ŀ":9457,"ë¬¸íĻĶ":9458,"ĠíĻĶë¥¼":9459,"ĠíļĮìĭĿ":9460,"Ġê²°íĺ¼íķľ":9461,"ĠëĽ°ê³ł":9462,"ĠìĿ´ìĭľë©´":9463,"Ġë±ħ":9464,"Ġíģ´ëŀĺ":9465,"íķĺê¸°ëĬĶ":9466,"ì£¼íĸī":9467,"Ġìĺ¤ê²Į":9468,"ĠìĹĨìĹĪì§Ģ":9469,"ëĮĢìĹĲìĦľ":9470,"Ġê¸°ëħĲ":9471,"ì¤ĳê°Ħ":9472,"ĠìľĦì¹ĺ":9473,"ëŀĢê²Į":9474,"ĠìĿĺìĭĿ":9475,"ĠíĨłë§ĪíĨł":9476,"ĠëıĮìķĦê°Ģìĭł":9477,"Ġë©°ëĬĲë¦¬ê°Ģ":9478,"Ġì§ĢëĤľë²ĪìĹĲ":9479,"Ġëĺĳëĺĳíķľ":9480,"ĠìĿ´ë¹łìĿ´":9481,"ìķĦìķĦ":9482,"ĠìŀĪëĭĪ":9483,"ĠìĿ´ìłľë¶ĢíĦ°":9484,"ĠìŀĲë§¤":9485,"ĠìļĶê¸Ī":9486,"ëĤ´ìĦľ":9487,"ĠìĿ¸ë¶Ħ":9488,"Ġì°¨ìĹĲìĦľ":9489,"Ġê°ĪìĪĺë¡Ŀ":9490,"ĠìŀĪìŀĸìķĦìĺĪ":9491,"Ġë¨¹ìĿĦëŀĺ":9492,"Ġìĵ´ëĭ¤ê³ł":9493,"ĠìĬ¬íį¼":9494,"Ġíģ´ëŁ½":9495,"Ġëĳ¬":9496,"ìĩ¼íķĳ":9497,"íķĺìĺģ":9498,"ĠìķĪíĸī":9499,"ĠìĤ¬ëŀĮìľ¼ë¡ľ":9500,"ĠìĥĿëªħ":9501,"ìļ´ìłĦ":9502,"Ġìŀħìŀ¥ìĹĲìĦľ":9503,"íĹĪëĭ¹":9504,"ĠíĥĢì§Ģ":9505,"ĠëıĻìķĪìĿĢ":9506,"ëĬ¥ìĿ´":9507,"Ġê·¸ë§ĮëĳĲê³ł":9508,"Ġì±Ļê¸°ê³ł":9509,"Ġìį¼ëĬĶëį°":9510,"ê°ĴìĿ´":9511,"Ġì¢Įìļ°":9512,"ë´ħìĦľ":9513,"ê³łê°Ģ":9514,"ìĦľê·Ģíı¬":9515,"Ġê±°ë©´ìĿĢ":9516,"ĠëĤ´ë¦¬ê³ł":9517,"ĠìĿ¼ìĿ¸":9518,"ìĿ¸ê±°ìķ¼":9519,"Ġë¹¤":9520,"Ġëĵ¤ë¦¬ëĬĶ":9521,"ìĿĺìĽĲ":9522,"Ġë°Ķì§Ŀ":9523,"ìķĺìŀĸìķĦ":9524,"ĠíķĻë²Ī":9525,"Ġë°°ëĵľë¯¼íĦ´":9526,"Ġê°ĢìĦľëıĦ":9527,"ĠíĨ¤":9528,"Ġë¬¼ìĸ´ë´¤ìĸ´":9529,"ĠíļĮìĤ¬ìĹĲ":9530,"ĠìķĬìķĺìĿĦê¹Į":9531,"Ġê³¼ìĪĺìĽĲ":9532,"ìľ¼ìĦ¸ìļĶ":9533,"ĠëĤ´ìĦľ":9534,"ĠìĭľìĦ¤":9535,"Ġë§Īìĭł":9536,"ĠìĤ¼ëĭ¤":9537,"Ġê°ľëıĦ":9538,"Ġê³µê°ĦìĿ´":9539,"Ġêµ¬ëĳĲ":9540,"ĠëĨĵìľ¼ëĭĪê¹Į":9541,"ĠëĪĦêµ¬ìķ¼":9542,"Ġìĭľì¼ľìķ¼":9543,"Ġë³´íĨµìĿĢ":9544,"ê²ĢìĤ¬":9545,"ìĿ´ë°±":9546,"ĠëĲĺëĬĶê±°ìķ¼":9547,"ĠìķĬëĦ¤":9548,"ĠëĨ¨ìĸ´":9549,"ìłĢëŁ°":9550,"ĠëĳĲëªħ":9551,"ĠìĹĦë§ĪëĦ¤":9552,"ĠìŀħìĹī":9553,"ĠìķĮìķĦë³´ê³ł":9554,"ĠìĿĳìĽĲ":9555,"ëĳĲë©´":9556,"ë´¤ê±°ëĵł":9557,"ĠíķĦë¦¬íķĢ":9558,"ĠëĬĲê»´ìł¸":9559,"ĠìĿ´ë©´":9560,"ĠìķĦëĤ´":9561,"Ġê·¼ëį°ìĿ´":9562,"Ġì§Ģêµ¬":9563,"ĠíĸĪê²łì§Ģ":9564,"Ġì£¼ê¸°":9565,"Ġì¤ĦìĿ´":9566,"Ġë¶ĻìĿ´ê³ł":9567,"ĠëķħìĹĲ":9568,"Ġì°½íĶ¼":9569,"Ġì¶¤ì¶Ķ":9570,"ëº":9571,"ĠìĿ´ê³¼":9572,"Ġíķĺëŀĺ":9573,"ëŀµ":9574,"ìĺ¤ëŀľ":9575,"Ġê¸°ì¹¨":9576,"ìĭ¤ê±°ëĿ¼":9577,"Ġê°ĪëķĮ":9578,"Ġë¶Ħëĵ¤ìĿĢ":9579,"ĠìĹ¬ìŀĲëŀĳ":9580,"ĠíĮĮëĬĶëį°":9581,"ĠìĻ¸ìĽĮ":9582,"Ġíķłë¨¸ëĭĪëıĦ":9583,"ĠìķĦíĶĦì§Ģ":9584,"Ġë§Ĳíķĺê¸°":9585,"Ġê¹Ķê³ł":9586,"ĠëĭŃê°ĢìĬ´":9587,"Ġëĵ¯ìĿ´":9588,"Ġëĭµëĭµíķ´":9589,"ê¸°ëĦ¤":9590,"ëĿ¼ê°Ģ":9591,"ëĤĺëĤľ":9592,"Ġíķ´ìĪĺìļķ":9593,"Ġë³´ìĿ´ìŀĸìķĦ":9594,"Ġë§Īì¼ĵ":9595,"ĠìĤ¬ëŀĮìĿ´ê³ł":9596,"Ġëĭ¬ë¦¬":9597,"ë°Ķëĭ¤":9598,"Ġë¶Ħìķ¼":9599,"ĠëĶ°ëŁ¬":9600,"ĠíĶ¼ëĬĶ":9601,"Ġìļ´ëıĻíķĺëĬĶ":9602,"ĠíĦ°ì§Ģê³ł":9603,"ìĭľê°ĦìĿ´":9604,"Ġëª¨ë¥´ê²łìĸ´ìļĶ":9605,"ĠìĦľê·Ģíı¬ìĹĲ":9606,"Ġì¸µìĹĲ":9607,"ĠìķĦì¤Įë§Īê°Ģ":9608,"ëĬĶê°Ģ":9609,"Ġì§ĢëĤ¬":9610,"êµ¬íķĺê³ł":9611,"ĠìĨľ":9612,"ĠìŀĪìĸ´ìķ¼ì§Ģ":9613,"Ġë¨¹ìĸ´ê°Ģì§Ģê³ł":9614,"ĠëĶ°ìĦľ":9615,"ĠëĸĦ":9616,"ĠìĤ¬ëŀĮëĵ¤ë§Į":9617,"Ġìĸ´ëĸ¤ê±°":9618,"ëĸł":9619,"ì¡ĮìĿĦ":9620,"ĠìĻķëĶ°":9621,"íķ©ëĭĪê¹Į":9622,"Ġì§ĳìĸ´ëĦ£":9623,"Ġë³¶ìĿĮë°¥":9624,"Ġê·¸ì¶ķ":9625,"ëĬĶìĿ´":9626,"ê²Įë¯¼":9627,"ê¸°ìĸµ":9628,"íķĺë¯¼":9629,"Ġê³łìłķ":9630,"ĠìĻĢëĿ¼":9631,"Ġë´ĲìļĶ":9632,"ĠìĹ°ìĸ´":9633,"ìĨĮë¥¼":9634,"Ġë´¤ëĭ¤ê³ł":9635,"ìļ©ìĿĦ":9636,"ê¼´":9637,"Ġê±ĶëĦ¤ëĵ¤":9638,"êµ°ëį°":9639,"Ġìļ©ëĭ´":9640,"Ġë³¶ìķĦ":9641,"ĠìĭľëĪĦìĿ´":9642,"ĠìĿ´ëıĦ":9643,"ĠìĹĨëįĶëĿ¼":9644,"ë¥´íĬ¸":9645,"ĠëįĶìĿ´ìĥģ":9646,"ì¤ĳê°ĦìĹĲ":9647,"ĠíķĦìļĶíķ´":9648,"Ġëª¨ìĬµìĿ´":9649,"Ġì»¨ìħī":9650,"ĠìĬ¤ë§ĪíĬ¸íı°":9651,"Ġìķ¨":9652,"Ġê·¸ëĨ":9653,"ê¸°ìĤ¬":9654,"ì£¼ë§ĪìĶ¨":9655,"ĠìŀĲë£Į":9656,"ìĻĪ":9657,"Ġê·¸ëłĩê²ĮíķĺëĭĪê¹Į":9658,"Ġë§Īê°Ĳ":9659,"Ġë°Ķê»´":9660,"íĸĪëĮĢ":9661,"ìŀĪê²Į":9662,"ĠëĳĲìĭľ":9663,"ĠíģĲ":9664,"ĠëıĮë©©":9665,"ĠëĶ°ìķ¼":9666,"Ġìĺ¬ëĿ¼ê°Ģê³ł":9667,"Ġì§ģìĽĲìĿ´":9668,"Ġë¨¹ìĹĪëĭ¤ê³ł":9669,"ĠíĳľìĦł":9670,"ĠëĭŃë°ľ":9671,"Ġëĭ¤íĸīìĿ´ëĭ¤":9672,"Ġíĸīë³µíķľ":9673,"Ġëª½ê³¨":9674,"ìĸ´ë¨¸":9675,"ĠëķĮê¹Įì§ĢëĬĶ":9676,"ĠìĪĺìĿµ":9677,"ĠìłķìĿ´":9678,"Ġì¢ĭìķĦíķĺìŀĸìķĦ":9679,"ĠíĹĪë¦¬ê°Ģ":9680,"ëĭ¨ìĿĦ":9681,"ĠìķĮìķĦì§Ģ":9682,"ĠíĮĶìķĦìĦľ":9683,"Ġë°©ìļ¸":9684,"ĠëĤ³ìľ¼ë©´":9685,"ìĿ´ìĹĪëĤĺ":9686,"íķĺëįĺëį°":9687,"ĠìŀĪê±°ëĤĺ":9688,"ë§Īì¼ĵ":9689,"Ġê²Įëĭ¤ê°Ģ":9690,"Ġë¶Ģìĸ´":9691,"ĠìĬ¤íĭ°":9692,"Ġìĵ°ëĿ¼ê³ł":9693,"Ġìĭľê°ĦìĶ©":9694,"Ġëª°ëł¤":9695,"ìłĲìłĲ":9696,"Ġë§¤ëł¥":9697,"ë´¤ì§Ģ":9698,"ĠëıĻëĦ¤ê°Ģ":9699,"Ġê±ĶëĦ¤ëĵ¤ìĿĢ":9700,"ĠëĮĢíķľë¯¼":9701,"Ġì£¼ë³ĢìĹĲìĦľ":9702,"Ġë§¡ê²¨":9703,"ĠìĤ¬ê·Ģê³ł":9704,"ĠëıĦë§Ŀê°Ģ":9705,"ĠëłĮì¦Ī":9706,"ĠìķĪëħķíķĺìĦ¸ìļĶ":9707,"ĠìĹĺë¦¬ë²łìĿ´íĦ°":9708,"ĠìĽĲíĶ¼ìĬ¤":9709,"ì¡°ë¦¬":9710,"ìĪ«":9711,"ĠìĽĥëĬĶ":9712,"Ġì¤ĺìķ¼ì§Ģ":9713,"Ġë¹¼ëĬĶ":9714,"ë©ĶìĿ´ìħĺ":9715,"Ġì¤ĳêµŃìĿ¸":9716,"Ġë¡ľëĺĲ":9717,"Ġë³´ê¸°ìĹĲëĬĶ":9718,"ë³ĳìĽĲìĹĲ":9719,"Ġê·¸ëĨĪ":9720,"ëĭĪê»ĺ":9721,"íķĺìłł":9722,"ĠìĤ¬ì¶ĺ":9723,"Ġë³´ëĦ¤":9724,"ĠíĸĪìĹĪê³ł":9725,"Ġê¸°ì´Ī":9726,"Ġê°ľëĤĺ":9727,"ë¨¹ìĿĢ":9728,"ĠìĦ¤ëłĪ":9729,"Ġë´īíĪ¬":9730,"ë¿Į":9731,"ë§ĺ":9732,"Ġê°Ģêµ¬":9733,"Ġê°Ģëŀľ":9734,"ĠëĦī":9735,"ë°ĳ":9736,"ĠìĪĺë°ķ":9737,"Ġê·¸ëłĩê²Įíķĺë©´":9738,"Ġì£¼ìĿĺ":9739,"ĠëĳĲëł¤":9740,"ĠìĭłìĦ¸":9741,"Ġìĵ°ëįĺ":9742,"ĠëĲłêº¼":9743,"Ġë°©íĥĦ":9744,"ĠëĲĲê³ł":9745,"Ġì¢ħê°ķ":9746,"ĠìĿĢíĺľ":9747,"Ġê¹ĬìĿĢ":9748,"ĠìĿ´ê¸¸":9749,"Ġê±°ì²ĺëŁ¼":9750,"ê¹ĮìļĶ":9751,"ĠìŀĪìĪĺëĭ¤":9752,"ĠìĹĨêµ¬ëĤĺ":9753,"Ġì¹ľíķĺê²Į":9754,"Ġìĸ¼ë¥¸":9755,"Ġìĵ°ë©´ìĦľ":9756,"ĠìĻĶëįĺ":9757,"Ġë¹łì§Ģë©´":9758,"Ġíİ¼":9759,"Ġê°Ģê¹ĮìĽĮ":9760,"ìłľëĬĶ":9761,"ĠëķĮë¦¬ê³ł":9762,"Ġë§İê¸´":9763,"ĠìŀĲë¥´":9764,"ĠìĿ¸ëĶĶ":9765,"Ġë¬¼ê³ł":9766,"ĠìĬ¤íİ":9767,"ë°ĶíĢ´":9768,"Ġë¶ĦìĿĺ":9769,"ĠìĨĶì§ģ":9770,"ĠíķľêµŃìĹĲ":9771,"ĠëĮĢíķĻìĿĦ":9772,"ĠìĬ¤ë¬´ìĤ´":9773,"ĠëłĮíĬ¸":9774,"Ġìķ±":9775,"ĠìĿ´ì§Ģ":9776,"ìķĦëĵ¤ìĿ´":9777,"ĠìķĦëĭĪìĺĢìĸ´":9778,"Ġìĸ¹":9779,"ìŀĲëĵ¤ìĿ´":9780,"ìĭľíĶ¼":9781,"Ġíķłê±´ëį°":9782,"ìĪĺìĪĺ":9783,"ìŀĪìĸ´ìļĶ":9784,"ĠìĹ°íĥĦ":9785,"ĠìłķëıĦìĿĺ":9786,"ëĳĲë¶Ģ":9787,"Ġë¹¨ê°ľ":9788,"ĠìŀĪìĿĦëķĮ":9789,"Ġë¶Ļìĸ´ìĦľ":9790,"ìĹīìľ¼ëĦ¤":9791,"Ġë¨¼ì§Ģ":9792,"Ġíĭ°ê°Ģ":9793,"Ġì¡¸ìĹħíķĺê³ł":9794,"ĠìĿ´ì²ľìĭŃ":9795,"ĠìĿ´ëĵĿ":9796,"ĠëŃĲìĹĲ":9797,"ìĤ¬ìĹĲ":9798,"ĠìĦ¸ìļ°":9799,"Ġê³µíı¬":9800,"ëĭ¹íķľ":9801,"ë¬¼ìĿĢ":9802,"Ġë°±íĶĦë¡ľ":9803,"Ġcompanynameê°Ģ":9804,"ĠëıĮìķĦê°ĢëĬĶ":9805,"ĠëĬĲëĤĮìĿĦ":9806,"íĺ¸íħĶ":9807,"ĠìĹ¬íĸīìĿĢ":9808,"Ġìļ´ëıĻíķĺê³ł":9809,"ĠëıĻìĥĿìĿ´ëŀĳ":9810,"Ġê¹¨ëĭ¬":9811,"Ġê±´ê°ķìĿĦ":9812,"ĠëĶĶì¦ĪëĭĪ":9813,"Ġìŀ¡ìķĦìķ¼":9814,"ĠíĻķì§ĦìŀĲê°Ģ":9815,"ĠíĨ¡íĨ¡":9816,"ì¹´ë¶Ģëį´":9817,"ĠìĿ´ìĻķ":9818,"Ġë³´ëĵľ":9819,"Ġì°¹":9820,"Ġì£¼ëĬĶê±°":9821,"Ġê³łëĶ©":9822,"Ġê·¸ëŁ°ëį°ëıĦ":9823,"ĠìĤ°ê±°":9824,"Ġì°¸ìķĦ":9825,"Ġì¹´íİĺìĹĲ":9826,"Ġíĸ¥ìĿ´":9827,"Ġê¹İìķĦ":9828,"ĠíĥĳëıĻ":9829,"ĠìĿ´ë²¤":9830,"Ġíķĺì¼Ħ":9831,"ĠëĤ´ë¶Ī":9832,"Ġì§ĢìĽĮ":9833,"ĠìŀĲë¦¬ë¥¼":9834,"ĠìķĮê²Ĳ":9835,"Ġìĸĺê¸°íķĺë©´ìĦľ":9836,"Ġêµ¬ëĤĺ":9837,"Ġìŀĳê³ł":9838,"ĠëĦ¤ëª¨":9839,"Ġë§ĮëĤĺì§Ģ":9840,"ĠìĽĥìĿĮ":9841,"ĠnameìĿ´íķľíħĮ":9842,"Ġë§ĪìĿĮìĿĺ":9843,"Ġëĵ±ìĤ°":9844,"Ġì§ĵëĬĶ":9845,"ĠìĽ¨ëĶ©":9846,"Ġë·Ķíİĺ":9847,"Ġê±°ê°Ģ":9848,"ë¡ľë¡ľ":9849,"ĠìĪĺëĭ¤":9850,"ëŁ¬ìĽĮìĦľ":9851,"Ġê³łìĪĺ":9852,"ëĤ´ê¸°":9853,"ëħĦëıĦ":9854,"Ġë¯¸ì¹ĺ":9855,"Ġëĭ¹ìĿ¼":9856,"ëĭĪëĭ¤ê²Į":9857,"Ġê°Ģê³łìĭ¶":9858,"ĠëĤĺìĻĶì§Ģ":9859,"Ġëįķë¶ĦìĹĲ":9860,"ĠíķĺëĵľëĿ¼ê³ł":9861,"ìľ¨ìĿ´":9862,"Ġìĺ¤ë©Ķê¸°":9863,"Ġê³µì£¼":9864,"Ġìľłê¸°":9865,"Ġëĵ¤ìĸ´ê°Ģì§Ģ":9866,"Ġíķłë¨¸ëĭĪëŀĳ":9867,"ĠìķĦì£¼ë²Ħ":9868,"ì±Ļ":9869,"Ġìĥ´":9870,"ìª¼":9871,"Ġìĭľì²ŃìĹĲ":9872,"ê»Ģëį°":9873,"Ġì£ĦìĨ¡íķ©ëĭĪëĭ¤":9874,"17":9875,"Ġê°Ģëĭ¹":9876,"ĠìķĪìķĦ":9877,"Ġë§ĲëĮĢë¡ľ":9878,"Ġê·¸ëĥ¥ìĿ´":9879,"Ġíķłëł¤ë©´":9880,"ĠìĤ´ìĿ¸":9881,"Ġê¸°ìłĢ":9882,"Ġë§ĪìĿ´":9883,"Ġë¶Ģìŀ£":9884,"ĠëıĻìĭľìĹĲ":9885,"Ġìĸ´ëĶĶìķ¼":9886,"Ġì²ľë§ĮìĽĲ":9887,"Ġë¨¹ìľ¼ëĤľ":9888,"ëĥīìĿ´":9889,"ĠìĪĺìĹħìĿ´":9890,"ĠëĤ®ìĿĢ":9891,"Ġìĭłì²ŃìĿĦ":9892,"ĠíĽĶì³Ĳ":9893,"ĠëĤĺì²ĺëŁ¼":9894,"ëĿ¼ëĭĪê¹Į":9895,"ë¡¬":9896,"Ġê°Ģë´¤ëĬĶëį°":9897,"Ġíķ´ë³´ë©´":9898,"Ġë§İëĮĢ":9899,"ĠìĽ¨ìĿ´":9900,"Ġnameë¥¼":9901,"ĠëĮĢëĨĵê³ł":9902,"Ġë°Ķêµ¬ëĭĪ":9903,"Ġê°Ķê³ł":9904,"Ġìĵ°ëĭ¤ê°Ģ":9905,"íĹĪë©´":9906,"ĠìĦ±ê²Į":9907,"ĠìĤ´ìķĦê°ĢëĬĶ":9908,"Ġë°ŃìĿĦ":9909,"Ġë¹Ħìĭ¸ì§Ģ":9910,"ĠëĮķê¸°ê³ł":9911,"Ġê³±ê²Į":9912,"ĠëĶ°ëľ»íķĺê²Į":9913,"Ġì¡±ë°ľ":9914,"ĠìĿ¸íĦ°ëĦ·ìľ¼ë¡ľ":9915,"Ġíķĺê³łìĭ¶ìĿĢ":9916,"Ġë°´ëĵľ":9917,"ìĿ´ê²ĥ":9918,"Ġê°Ģê·¸ëĥī":9919,"ìķĪíķ´":9920,"ĠíĹĪê²Į":9921,"Ġë¶Īë§Į":9922,"ìľłëŁ½":9923,"ĠìĦ±ìŀ¥":9924,"Ġëĭ¹ëĩ¨":9925,"Ġìį¨ìł¸":9926,"Ġëª¸ìĿĢ":9927,"ĠìŀĲìĭĿìĿ´":9928,"ĠëĤĺëĪłìĦľ":9929,"Ġë´ĦìĹĲ":9930,"18":9931,"Ġìĸ´íľ´":9932,"ë§Įíķ´":9933,"ëĶľ":9934,"ĠìĿ¼ê³ł":9935,"Ġê²ĥê¹Įì§Ģ":9936,"ë³´ì§ĢëıĦ":9937,"ìĭĿíĴĪ":9938,"íĭ°ê°Ģ":9939,"Ġëģ¼ìĽĮ":9940,"ĠìĻķìľ¼ëĦ¤":9941,"ê±ĶëĬĶ":9942,"ìķĦì°Į":9943,"ĠìĤ¬ëĤĺ":9944,"ĠíķľìŀĲ":9945,"ĠìĹ¬ê¸°ë¡ľ":9946,"Ġë°±íĮĶìĭŃ":9947,"Ġê³µë¶Ģíķ´ìķ¼":9948,"Ġìŀłìŀł":9949,"ìľĦë¥¼":9950,"ëĲľëĭ¤ê³ł":9951,"ĠíķĺìĹ¬ê°Ħ":9952,"Ġìļ´ìłĦë©´íĹĪ":9953,"ĠìĹłë¹Ħíĭ°":9954,"íĻķìĭ¤íŀĪ":9955,"Ġìĸ´ì¨ĭëĵł":9956,"ĠëķĮëĿ¼":9957,"Ġì§ĢìĿ¸":9958,"ĠìķĮê²łëĭ¤":9959,"ìĿ´ëĿ¼ëĵłì§Ģ":9960,"Ġìļ°ìĹĲ":9961,"ìª½ìĿ´":9962,"Ġíİ¸ìĿ´":9963,"ĠëĤ´ëł¤ìĦľ":9964,"ìŀħëĭĪê¹Į":9965,"Ġê±´ê°ķìĹĲ":9966,"ĠíĮ¨íĤ¤":9967,"Ġìĸ´ìļ¸ë¦¬ëĬĶ":9968,"ê»ĢëĶĶ":9969,"Ĳģ":9970,"ĠìķĦë©Ķë¦¬ì¹´":9971,"ĠëĤĺê°ķ":9972,"Ġëį¤":9973,"ĠìķĦìĿ´ìĬ¤":9974,"ĠìĦ¸íĻĶ":9975,"ĠíĥĢìķ¼":9976,"ìĺ¨ê±°":9977,"Ġê³¼ìĹ°":9978,"Ġì·¨ê¸ī":9979,"Ġë°ĽìķĦëıĦ":9980,"ĠíķĦìļĶëıĦ":9981,"ĠëĽ°ëĬĶ":9982,"ĠëĲĺëĬĶê±°ì§Ģ":9983,"ĠìŀĲìĭĿëĵ¤":9984,"ĠìĹİìĸ´":9985,"ë¢":9986,"Ġíķ´ëĭ¹":9987,"ë¶ĢìĿ¸":9988,"Ġë§Īìĭľë©´":9989,"Ġì¡°ì²ľ":9990,"Ġê°Ģì§Ģê³łìĿ´":9991,"ĠìŀĪìŀĸìķĦìĿ´":9992,"Ġë¶ĪìĿ´":9993,"Ġê°ķìĤ¬":9994,"Ġê·¸ëłĩì§Ģë§Į":9995,"ìłĪëĮĢ":9996,"Ġíıīë²Ķ":9997,"Ġë»Ĺ":9998,"ĠìĿ¼ìĸ´ëĤł":9999,"ĠìĹŃíķłìĿĦ":10000,"Ġìĭľìŀĳíķĺê²łìĬµëĭĪëĭ¤":10001,"ĠìŀĪìĬµëĭĪê¹Į":10002,"ìĭłê±°":10003,"Ġê·¸ëŁ¬ëĤĺ":10004,"ĠìĥĿê°ģíĸĪê±°ëĵł":10005,"ĠìĽĲë§Į":10006,"Ġìĵ±":10007,"ĠìĹĨìĸ´ì§Ħ":10008,"Ġë´¤ê³ł":10009,"íĥĢë¦¬":10010,"Ġê·¸ëŀ¬ìŀĸìķĦ":10011,"ĠíĺķëĭĺìĿ´":10012,"ĠëĪĦêµ¬ëĬĶ":10013,"Ġëĭ®ìĿĢëį°":10014,"Ġë©Ģë¦¬ìĦľ":10015,"Ġëĭ¤ìĸĳíķľ":10016,"ê³łë¥¼":10017,"ĠìĿ´ëĿ¼ëĬĶ":10018,"ĠëĤĢ":10019,"ĠìĤ¬ë§Ŀ":10020,"ĠëĲĺëįĶëĿ¼":10021,"ìĭľëıĦ":10022,"ë¶ĢëĭĪê¹Ĳ":10023,"ëŁ¬ìĦľ":10024,"ĠìķĮë°Ķê°Ģ":10025,"Ġìķ½ìĿ´":10026,"Ġì¢ĭìķĦíķľëĭ¤":10027,"ĠìĻĢê·¸ëĦ¤":10028,"Ġê³Ħì¢Į":10029,"Ġìļ°ëĬĶ":10030,"ìĥīìľ¼ë¡ľ":10031,"ĠìķĦëĵ¤íķľíħĮ":10032,"ĠìķĦíĶĦë¦¬ì¹´":10033,"Ġì¶ľìĭł":10034,"Ġë©Ģë¯¸":10035,"ĠìŁģ":10036,"ĠìĽĢì§ģìĿ´":10037,"ì³¤ìĸ´":10038,"ì£¼ëĬĶëį°":10039,"êµ¬ëĬĶ":10040,"Ġëª»íĸĪìĸ´":10041,"ë¥´ë¥µ":10042,"ĠìłĦíķĻ":10043,"ĠìłĦëĭ¬":10044,"íĸĪìĹĪìĸ´":10045,"ì¤ĳìĿ´":10046,"ĠíĸĪëĬĶëį°ëıĦ":10047,"Ġìļ´ëıĻìĿĢ":10048,"Ġì»¤íĶ¼ìĪį":10049,"ìĦłìĥĿëĭĺìĿ´":10050,"Ġìĺ¤íĽĦìĹĲ":10051,"ĠëĳĲêº¼ìļ´":10052,"Ġìĺ¤ëŀ«ëıĻìķĪ":10053,"ĠìķĦìĽĥ":10054,"Ġíķ´ë²Ħë¦¬ë©´":10055,"íķ´ì¤ĺ":10056,"ĠëģĶ":10057,"Ġì¤ĳìĹĲìĦľëıĦ":10058,"Ġë¬¼ë¡ľ":10059,"Ġëª°ìķĦ":10060,"ĠëĿµ":10061,"íİ´":10062,"ĠìµľìłĢ":10063,"Ġë°ĽìķĦëĵ¤":10064,"Ġëħ¸ëŀĺë°©":10065,"Ġì¹´íİĺìĹĲìĦľ":10066,"ĠëĬĺìĸ´ëĤĺ":10067,"Ġì¢ģìķĦ":10068,"Ġë©Īì¶°":10069,"ĠëĭŃê°ĢìĬ´ìĤ´":10070,"ĠìĿ´ë§Ī":10071,"ĠëĮĢëĤĺë¬´":10072,"ĠìĦ¸ë²Ī":10073,"ëķĮê°Ģ":10074,"Ġì£½ìľ¼ë©´":10075,"Ġê°ĲìłķìĿ´":10076,"ĠëĤĺìĻĶëĭ¤":10077,"Ġë°°ìĽĮìķ¼":10078,"ĠëŁ°ëĭĿ":10079,"Ġìĸ´ì°ĮëĲĲëĵł":10080,"ê²Įë§¤":10081,"ìłĲìĿĢ":10082,"ê°Ķëĭ¤ê°Ģ":10083,"Ġì°¾ìĿĦ":10084,"ĠëĤ´ëł¤ê°ĢëĬĶ":10085,"Ġê±ĶëĦ¤ëıĦ":10086,"ì¤¬ê±°ëĵł":10087,"ĠìĽĢì§ģìĹ¬":10088,"ĠìĦľë°©ìĿĢ":10089,"ĠìķłëĭĪë©ĶìĿ´ìħĺ":10090,"ê°ł":10091,"ìĹ¿":10092,"ĠëĤĺê°Ķëĭ¤":10093,"ĠìķĦëĭĪëįĶëĿ¼ëıĦ":10094,"ìŀĲëĵ¤":10095,"Ġë¨¹ìĿ´":10096,"ìĭłìĿĦ":10097,"ĠìķĮëŀĮ":10098,"ìĪĺìĪł":10099,"Ġê³łë°±":10100,"Ġìĸĺê¸´":10101,"Ġëı¼ìĹ¬":10102,"Ġê²½ê¸°ëıĦ":10103,"ìļ°ë¦¬ëĤĺëĿ¼":10104,"ĠëĪĪë¬¼ìĿ´":10105,"Ġíĺ¸ëĤĺ":10106,"ê°Ķì§Ģ":10107,"ĠíķĺëįĶëĿ¼ëıĦ":10108,"ĠëĮĢíĻĶê°Ģ":10109,"Ġëĭ«ê³ł":10110,"Ġë¹¼ê³łëĬĶ":10111,"íĪŃ":10112,"Ġê¹»ìŀİ":10113,"ë¢°":10114,"ëĤĺëĭĪê¹Į":10115,"Ġë§Īì·¨":10116,"Ġìĺģíĺ¼":10117,"ĠìĺĪìĪł":10118,"Ġìķ¼ìŀĲ":10119,"ĠìĦłê±°":10120,"Ġë°°íĦ°ë¦¬":10121,"ĠëĲĲìĸ´ìļĶ":10122,"ĠëĤĺìĻĶìŀĸìķĦ":10123,"ĠìĤ¼ìĭŃìĿ¼":10124,"Ġìĸ¸ìłľë¶ĢíĦ°":10125,"Ġë½ĳê³ł":10126,"Ġì°©íķ´":10127,"ëĽ":10128,"Ġê°Ģë´Ĳìķ¼":10129,"êµ¬ë°±":10130,"Ġê¸°ê°ĦìĿ´":10131,"ĠìłĦê¹Įì§ĢëĬĶ":10132,"ê²ĥëĵ¤":10133,"ĠëıĻìĦľ":10134,"ìĻĢìķ¼":10135,"ĠìŀĲê¸°ìĿĺ":10136,"ĠìĬ¤íĤ¨":10137,"Ġìŀħìĸ´ìķ¼":10138,"Ġëħ¸ëŀĳ":10139,"ĠìłģíĺĢ":10140,"ĠìĿ´ëª¨ëĦ¤":10141,"Ġì¢ĭìĿĦê±°":10142,"ĠëĮķê¸°ëĬĶ":10143,"ĠìĭĿêµ¬ëĵ¤":10144,"ĠíĸīëıĻìĿĦ":10145,"Ġê°ĢìĬ´ìĿ´":10146,"sing":10147,"ëĤ®":10148,"ĠëĲ©":10149,"Ġë³´ìĿ´ë©´":10150,"ĠìĤ´ëıĦ":10151,"ìĪĺê¸°":10152,"Ġê°ĶëĤĺ":10153,"Ġê¹¨ìĸ´":10154,"ĠìĹ¬ìŀĲëıĦ":10155,"Ġì»¤ë²Ħ":10156,"Ġê·ĢìĹĲ":10157,"ëŀĲìĸ´":10158,"ĠìĤ¬ìĿ´íĬ¸":10159,"Ġë²ĦìĬ¤ê°Ģ":10160,"ĠíĹ¤ìĸ´ì§Ģ":10161,"Ġê²½íĹĺìĿĦ":10162,"ĠíĿ¬ë§Ŀ":10163,"ĠìľłìĿ¼íķĺê²Į":10164,"singing":10165,"ìĦ°":10166,"ì£¼íĥĿ":10167,"ĠìĿ¼ìłķ":10168,"ìĭľëĦ¤":10169,"ìĤ¬ìĹĲìĦľ":10170,"ĠíĹĪìŀ°":10171,"Ġê³µê¸°ìĹħ":10172,"Ġê²½ìĥģëıĦ":10173,"ĠíĨµê³¼":10174,"íĿĲ":10175,"Ġëľ°":10176,"Ġê·¸ë¦°":10177,"Ġë»ĺ":10178,"íģ°ê²Į":10179,"ĠìķĦë¬´ëłĩì§ĢëıĦ":10180,"Ġê°Ģë²¼":10181,"ĠìĤ¬íĥķ":10182,"Ġíķ´ëĤĺìĭłëĶĶ":10183,"ìŀĲëĤĺ":10184,"Ġì§Ģìĸ´ìĦľ":10185,"ë£°":10186,"ĠìŀĲê¸°ë§Į":10187,"ĠìĪ¨ìĸ´":10188,"Ġìĥģíķ´":10189,"ĠëıĮë¦¬ê³ł":10190,"ë°ľë¡ľ":10191,"ĠëıĻëĦ¤ëĬĶ":10192,"Ġìĭľì¼ľë¨¹":10193,"Ġë²ĦìĬ¤ë¥¼":10194,"Ġë©ĭìŀĪëĬĶ":10195,"ìķĦë¬´ë¦¬":10196,"ĠìķĪì¢ĭìĿĢ":10197,"ìķĦê³ł":10198,"Ġë§Ĳì§Ģ":10199,"ë³´ë¯¼":10200,"ĠìĤ´ê±°":10201,"Ġì£¼ëł¤ê³ł":10202,"Ġê³łê¸°ëıĦ":10203,"ĠíĮĶë©´":10204,"ë°°ê¸°":10205,"Ġê¹Įíİĺ":10206,"Ġë§ĲíķĺëįĶëĿ¼":10207,"Ġë²Ĺìĸ´ëĤĺ":10208,"Ġë¯¸êµŃìĹĲìĦľ":10209,"Ġê¸°ì¤ĢìĿ´":10210,"Ġê°ĢìĿ¸":10211,"Ġìĺ¤ë¡ľ":10212,"ëĤľìĺĪ":10213,"ìĻģ":10214,"Ġë§Īìħ¨":10215,"ĠíĮ½":10216,"Ġì¢ĭìķĦíĸĪëįĺ":10217,"íĤ¤ëĬĶ":10218,"Ġê·Ģíķľ":10219,"ĠìĿ´ìĦľë¶ĢëĤľ":10220,"Ġë³ĳìĽĲìĿĦ":10221,"Ġì¤ĳêµŃìĹĲìĦľ":10222,"ê²°êµŃ":10223,"ĠìĿ´ëŀĺê°Ģì§Ģê³ł":10224,"ĠìĬ¬íĶĦ":10225,"Ġëĵ¤ìĸ´ê°Ķìĸ´":10226,"Ġìĺ¤ëĿ¼ë°©":10227,"Ġê³łë§Īìļ´":10228,"ĠíŀĲë§ģ":10229,"ê°ĢìĿ´ëĬĶ":10230,"Ġíķľì§Ģ":10231,"ĠìķĬëĭĪ":10232,"ĠìĿ´ê±°ìķ¼":10233,"ĠëĮĢê³ł":10234,"ĠìĽĲìĿĢ":10235,"Ġë°±íĻĶìłĲ":10236,"Ġìĸ´ë¨¸ëĭĪëĦ¤":10237,"Ġë¬¸ìłľì§Ģ":10238,"Ġì±ĦìĨĮ":10239,"Ġì£¼ìłľë¥¼":10240,"Ġëŀ©":10241,"ĠìĤ¼ì´ĮìĿ´":10242,"ĠíĮĶë¡ľìļ°":10243,"ê¹į":10244,"Ġê°Ģë§Ī":10245,"ĠíĸĪìł¸":10246,"ĠíĸĪìĹĪëĤĺ":10247,"Ġì£¼ê±°ëĵł":10248,"ëĭ¨ìĹĲ":10249,"Ġë²ĦíĦ°":10250,"íĶĦê°Ģ":10251,"Ġë°ľëª©":10252,"Ġëª©ìĿ´":10253,"Ġë³´ëĤ´ìķ¼":10254,"ìĸ´ê°ĢëĬĶ":10255,"Ġëª¨ë¥´ê²łëĦ¤":10256,"ĠìĹ´ëĳĲìĭľ":10257,"ĠìĬµê´ĢìĿ´":10258,"ë°¤ìĹĲ":10259,"Ġë§ĪìĿ´ëĦĪìĬ¤":10260,"ê³łë£¨":10261,"Ġë§ĳ":10262,"ĠíķĺëįĺëĶĶ":10263,"ëĤĺë§Ī":10264,"ê·¸ëĿ¼":10265,"Ġìĺ¤íķ´":10266,"Ġê¹į":10267,"ìķĦëĭĪì§Ģ":10268,"ĠíĹī":10269,"ìŀĳëħĦìĹĲ":10270,"Ġì¢ħíķ©":10271,"ĠíĺĦìŀ¥":10272,"ĠìĹ¬ë¦ĦìĹĲëĬĶ":10273,"Ġë³´ë¦¬ë°¥":10274,"ĠëĮĢëĭ¨íķĺëĭ¤":10275,"ì¥¬ê²Į":10276,"Ġì¼ĢìĿµ":10277,"ê²Ł":10278,"ë§£":10279,"ĠìĹĨìľ¼ëĭĪê¹Ĳ":10280,"Ġë§ŀëĭ¤ê³ł":10281,"Ġë§Īêµ¬":10282,"Ġì§Ģê¸Īë¶ĢíĦ°":10283,"Ġë¶Ģìŀĳ":10284,"ĠëĤ¨ì£¼":10285,"ëıĻë¬¼":10286,"ëķĮë¶ĢíĦ°":10287,"ĠìĻĶëĮĦ":10288,"Ġìĭ«ìĿĢëį°":10289,"ĠëĦĪëĦ¤ëŀĳ":10290,"ĠëĪĦêµ¬ëĦ¤":10291,"ĠìĦľìļ¸ë¡ľ":10292,"ĠìĺģíĻĶëĬĶ":10293,"ĠìĿ´ë²Īì£¼":10294,"ĠìĺģìĥģìĿĦ":10295,"Ġì¿łíĮ¡":10296,"Ġì½ĺíħĮ":10297,"Ġíķ´ìķĪëıĦë¡ľ":10298,"ĠìĿ¸ë¬¸ê³Ħ":10299,"ìĸ´ìłĢê»ĺ":10300,"ìĹĪìĸ¸":10301,"nameìĿ´ê°Ģ":10302,"ëł¤ëıĦ":10303,"ëĵľë¦¬":10304,"ĠìĨĮíĴį":10305,"ĠìĬ¤íĮĮ":10306,"Ġê³§ëĬĶ":10307,"íĮ¨ëĶ©":10308,"ì«Į":10309,"ĠìŀĪì£ł":10310,"Ġê°Ģê±°ëĤĺ":10311,"êµ¬ëıĦ":10312,"íħĮíģ¬":10313,"Ġê¸°ìłĪ":10314,"ĠìłĦíĨµ":10315,"Ġì¡°ê°ľ":10316,"Ġìĺ¬ë¦¬ë©´":10317,"Ġëĭ®ìķĪ":10318,"Ġêµ¬ë¶Ħ":10319,"Ġëħ¸ë¦ĩ":10320,"ĠëĨĢìķĺ":10321,"Ġëĭ¤ìĦ¯ìĭľ":10322,"ĠìłĬìĹĪìĿĦ":10323,"ìĹĦë§ĪëĬĶ":10324,"ĠìĦŀìĸ´ìĦľ":10325,"Ġê°ĲìĤ¬íķ©ëĭĪëĭ¤":10326,"ĠëĥīëıĻìĭ¤ìĹĲ":10327,"ĠìĸĩìĿĢ":10328,"Ġìķµ":10329,"ĠìķĻ":10330,"ìĿ´ëĶĶ":10331,"ë¦¬ìĺ¤":10332,"Ġíķ´ëĨĵ":10333,"Ġìĺ¤ìĦ¸ìļĶ":10334,"ĠìĿ¼ê¸°":10335,"ĠìłĢëĶĶ":10336,"ĠìĹĨê²Į":10337,"Ġë§İìķĪ":10338,"Ġìŀĺíķĺë©´":10339,"ĠìĿ¸ì§Ģ":10340,"ì§ĦìĿ´":10341,"Ġê·¸ëŁ¬ëĭĪê¹ĮìļĶ":10342,"ìĺĢìĿĦ":10343,"Ġë°©ë¬¸":10344,"Ġìķłê¸°ëĵ¤ìĿ´":10345,"Ġë§ĮëĤĺëŁ¬":10346,"ĠìķĦíĮĮê°Ģì§Ģê³ł":10347,"Ġìĸµìĸĳ":10348,"ĠìĪ¨ê²¨":10349,"ĠìĨĮë¬¸ìĿ´":10350,"ĠíĮįíĮį":10351,"íľĺ":10352,"Ġê°Ļìľ¼ëĭĪê¹Į":10353,"Ġê³Ħìĭľ":10354,"Ġìłģê³ł":10355,"Ġíİ¸íķĺê³ł":10356,"Ġìŀłìĺ·":10357,"ĠìķĪëĲĺëĬĶëį°":10358,"Ġìŀ¬ë°ĮìĿĦ":10359,"ìĮĪ":10360,"ĠìĹĲìĬ¤ìĹĶìĹĲìĬ¤":10361,"ĠìĥĮëĵľ":10362,"Ġê°Ŀ":10363,"Ġê±°ë¦¬ê°Ģ":10364,"Ġíķ´ëĨĶ":10365,"ìĤ¬íļĮ":10366,"Ġê·¸ëłĩê²Įíķ´ëıĦ":10367,"ĠìĿĮìĦ±":10368,"ĠìĭĿíĥģ":10369,"Ġê¼Ī":10370,"Ġíŀĺëĵ¤ëĭ¤ê³ł":10371,"ĠëĤĺìĻĢìĭłëĶĶ":10372,"ĠëĤ´ëł¤ê°Ī":10373,"ĠìķĦì£¼ë§Ŀ":10374,"ĠìŀĦëĮĢ":10375,"Ġêµ´ëŁ¬":10376,"Ġìķ½ìĨįìĿĦ":10377,"ë©ľ":10378,"ìłľíĴĪ":10379,"Ġíķľìĭľ":10380,"Ġë¶ī":10381,"ìŀĪìĸ´ìĦľ":10382,"ì§ģìĿ´":10383,"Ġê³µìĽĲ":10384,"Ġìĸ¼ìĿĮ":10385,"Ġêµ¬ëĿ¼":10386,"Ġë°ĺì§Ŀ":10387,"ĠëĨįìĤ¬ë¥¼":10388,"Ġëķħì½©":10389,"Ġê¸°ëĭ¤ë¦¬ëĬĶ":10390,"ìĭ¸ìĽĢ":10391,"ĠëµĪ":10392,"ìľ¼ìĭł":10393,"Ġë³´ì¦Ŀ":10394,"ê¸ĪëıĦ":10395,"Ġê³łê°Ŀ":10396,"Ġíķĺê³łìĿ´":10397,"ĠìĺĪë»¤":10398,"ĠìŀħëĭĪëĭ¤":10399,"ĠíķĺëĬĶëį°ëıĦ":10400,"ì½ķ":10401,"Ġê±±ìłķíķĺì§Ģ":10402,"ĠíķĻìĥĿëĵ¤":10403,"ĠëĤ¨ìŀĲì¹ľêµ¬ëŀĳ":10404,"Ġë§ĲìĶĢìĿĦ":10405,"ĠìĤ¬ìĭłëĶĶ":10406,"Ġë§īíĺĢ":10407,"ĠìĹĨëĬĶê±°ìķ¼":10408,"Ġnameíķĺê³ł":10409,"Ġìłķë¦¬ë¥¼":10410,"íķłëķĮëıĦ":10411,"ĠëĤ¨íķľíħĮ":10412,"ĠêµĲìłķ":10413,"Ġì£½ê¸°":10414,"Ġìŀ¡ìķĺ":10415,"Ġë§ĽìŀĪê¸´":10416,"Ġíİ¸ìĿĢ":10417,"Ġì¶ĶìĽĮìĦľ":10418,"ĠìĿĺìĻ¸ë¡ľ":10419,"Ġê·¸ëŀ¬ëĤĺ":10420,"Ġê¸ĪìļĶìĿ¼ëĤł":10421,"Ġëĭ¤ëħĢìĦľ":10422,"Ġëĭ¤ëħĶëįĺ":10423,"Ġë§ĪìĿ¸ëĵľ":10424,"ê°Ģë©į":10425,"ĠìĿ´ì°¨":10426,"Ġìŀī":10427,"ëĭ¤ëĭ¥":10428,"Ġê°ĢìĦ¸ìļĶ":10429,"ĠíĸĪìĬµëĭĪëĭ¤":10430,"ìłĦìĿ´":10431,"ĠìĬ¤íĦ°":10432,"ĠìĥĪíķ´":10433,"ĠíĽħ":10434,"Ġë§¤ëħĦ":10435,"ĠëĬĲëĤĮìĿĢ":10436,"ë°ĺì°¬":10437,"Ġê²°íĺ¼íķ´ìĦľ":10438,"ĠìĿ´ìĭŃë§ĮìĽĲ":10439,"ìŀ¬ë¯¸":10440,"ĠëĬĻìĸ´":10441,"Ġì¿łíı°":10442,"Ġë°ĶìĿ´ëŁ¬ìĬ¤":10443,"ļê½ĥ":10444,"Ġë§Ļ":10445,"ĠíķĺëĿ¼ëĬĶ":10446,"Ġíķĺì§Ģë§ĮìĿĢ":10447,"Ġìĺ¤ë°Ķ":10448,"ë§ĪìĿĮ":10449,"ìłĦìĿĦ":10450,"ĠìłķëıĪ":10451,"ĠìĹ¬ê¸°ë¥¼":10452,"Ġëį°ê¼¬":10453,"ëĭ¹ëıĦ":10454,"ĠìĭĿíĴĪ":10455,"Ġìĺ¬ëĿ¼ìĻĶ":10456,"ĠëĤĺìĻĢëıĦ":10457,"ĠìĽĥê²¼":10458,"ĠëĤĺìĻĶê±°ëĵł":10459,"ìĹĪëįĺê±°":10460,"Ġì²´ìĿ¸":10461,"Ġê¶Ĥ":10462,"ĠíĮĢìĿ´":10463,"Ġì°ĮëĬĶ":10464,"ĠëŁ¬ìĭľìķĦ":10465,"ĠìķĪëĭ¤":10466,"Ġì¢Ģë¹Ħ":10467,"ë¶Ģì§Ģ":10468,"ì°Ŀ":10469,"ĠìķĬìķ":10470,"ëĭĺíķľíħĮ":10471,"ë¯¸ê¹¡":10472,"Ġë¨¹ìĸ´ìļĶ":10473,"ĠìłĢê¸°ìĦľ":10474,"ĠëĲľê±°ì§Ģ":10475,"ĠëĤĺìĺ¤ê¸°":10476,"Ġìŀ¥ê°ĳ":10477,"ĠìĭĿì´Ī":10478,"Ġëĭ´ìķĻ":10479,"Ġìļ´ëıĻìĿ´":10480,"ĠìłĪìĹĲ":10481,"ê¼½":10482,"Ġíĥľê¶ĮëıĦ":10483,"ĠëģĵìĹ¬ìĦľ":10484,"ĠíĬ¸ëłĪìĿ´":10485,"ĠìĺĪìłĦìĹĶ":10486,"Ġëª½ëķħ":10487,"Ġìĸ´ìĿ´ìĹĨ":10488,"ì¤įìĦľ":10489,"ë¡¯":10490,"ĠìķĪë´Ĳ":10491,"ìĺ¤ì²ľ":10492,"ĠìĤ´ì°Į":10493,"ĠíķĻê³¼":10494,"Ġë¶Ħë§Į":10495,"ĠíĥĢìŀħ":10496,"Ġë§Įëĵ¤ìĹĪ":10497,"ëĺ£":10498,"Ġëĸłìĺ¤":10499,"Ġê°Ģì¡±ëĵ¤":10500,"Ġê¸įìłķ":10501,"¨į":10502,"ĠìĿ¼ì°¨":10503,"Ġì§Ģíĺľ":10504,"ìĤ¬ëĿ¼":10505,"ĠìŀĺëĤľ":10506,"ĠìŀĺëĿ¼ìĦľ":10507,"Ġìłľíķľ":10508,"ĠëįĶëŁ¬ìĽĮ":10509,"ĠìĿ¸ìĭĿ":10510,"ĠìĪ¯":10511,"Ġê°ĦëĮĦ":10512,"ê·¼ìĹĲ":10513,"Ġë°ľìĿĮ":10514,"Ġë°ĽìķĦëĵ¤ìĿ´":10515,"íķ¸ëĵľíı°":10516,"ĠìĥģíĻ©ìĿĦ":10517,"ĠìĥĿíĻľìĿ´":10518,"ĠìĥĿê²¼ëĬĶëį°":10519,"ĠíĻĶìŀ¥ìĭ¤ìĹĲ":10520,"ìŀ¼":10521,"ìĤ¬íĪ¬":10522,"ìĺģìĿ´":10523,"ĠëıĮìĿ´":10524,"ĠíĹĺ":10525,"ìķĺìĸ´ìļĶ":10526,"ĠìŀłìŀĲ":10527,"Ġë¨¹ëĬĶê²Į":10528,"Ġë¨¹ìľ¼ë©į":10529,"Ġê±°ìŀĸìķĦìļĶ":10530,"Ġë¯¸ìķĪíķĺëĭ¤":10531,"ê¶ĮìĿ´":10532,"ĠëıĦìĻĢì£¼ê³ł":10533,"Ġë¼Īê°Ģ":10534,"ĠìĬ¤íĦ°ëĶĶ":10535,"ĠìĿ´íĥĪ":10536,"ĠìĺĽ":10537,"Ġë¬´ê²Į":10538,"Ġëĵ¤ìĸ´ìĭłëĶĶ":10539,"Ġìłľì£¼ìĭľìĹĲ":10540,"ĠìĹ¬ê¸°ëĭ¤":10541,"ë¹Ħíĸī":10542,"ĠíĻĶëĤľ":10543,"Ġìĺ¬ëĿ¼ìĺ¤ê³ł":10544,"íĺ¸ê°Ģ":10545,"ĠìĤ´ìķĦìĺ¨":10546,"ìľĦì¹ĺ":10547,"ĠìĿĮìĭĿìłĲ":10548,"ĠíķĦìļĶíķł":10549,"ĠëĶĶìłĢ":10550,"ĠëłĪìłĦ":10551,"Ġìį¼ëįĺ":10552,"ĠìĤ¬ëŀĳìĿĦ":10553,"ĠíĺķëĭĺìĿĢ":10554,"ìĿ´ë§Į":10555,"ìłĿ":10556,"Ġê±°ìĭ¤":10557,"Ġë¨¹ëĦ¤":10558,"ì¹¸":10559,"ëĮĢê³ł":10560,"ĠìŀĪëĬĶëĶĶ":10561,"ĠìĬ¤ëĭĺìĿ´":10562,"Ġë³´ìĹ¬ì¤ĺ":10563,"ĠìľłìĤ°ê·ł":10564,"ĠíĮ¡íĮ¡":10565,"Ġìķ¨ë²Ķ":10566,"Ġì¾":10567,"ìĿ´ìĭłëĶĶ":10568,"ìĸ´ìĭłëĶĶ":10569,"ìĸ´ì©Ķ":10570,"ĠíķĺëĥĲë©´":10571,"Ġê±°ìĹĲìĦľ":10572,"Ġìĭ£":10573,"Ġì¢ĭê±°ëĵł":10574,"ĠìĺĪìĥģ":10575,"ĠìĿ¸íħĮ":10576,"Ġë§ĽìĹĲ":10577,"ĠìĨĲëıĦ":10578,"ĠcompanynameëĬĶ":10579,"íĺ¸ëģĶ":10580,"ĠìķĪëĲĺëĭĪê¹Į":10581,"ĠíĦ°ì§Ī":10582,"ĠíļĮìĤ¬ê°Ģ":10583,"Ġë°ĶëĢĮê³ł":10584,"Ġìı´":10585,"ĠíĹ¤ìĸ´ì§Ģê³ł":10586,"ĠìĿ´ëĨĪìĿĺ":10587,"Ġìŀ¥ë¡ĢìĭĿ":10588,"ìĹĳìĬ¤":10589,"ë¡ľìĹĲ":10590,"ëĵ¤ìĸ´ìĦľ":10591,"ĠìķĦëĭĪê°Ģ":10592,"ĠìĤ´ìĤ´":10593,"ĠíĮģ":10594,"ĠìĿ¸ì¢ħ":10595,"ìķĪìĿ´":10596,"ĠíĮĶìķĺ":10597,"ĠëĦĪëĦ¤íķľíħĮ":10598,"ĠëıĮìķĦëĭ¤ëħĢ":10599,"Ġê°Ģìł¸ê°Ħ":10600,"ê¶ĮìĿĦ":10601,"Ġì§ĵìĿĦ":10602,"ĠìĿ¼ìĸ´ëĤĺëĬĶ":10603,"Ġìłķíķ´ì§Ħ":10604,"ĠìĪ«ìŀĲ":10605,"ĠìĤ¬ì¤Ģ":10606,"Ġìĺ¤ëĭ¤ê°Ģ":10607,"ìĤ¬ì¹´":10608,"Ġëª¨ëłĪ":10609,"ĠìłĦìĿ´":10610,"ĠìĺĪìĿĺ":10611,"ĠëĤ¨ìĽĲ":10612,"Ġìĭ¶ìĸ¸":10613,"ë°©ìĨ¡":10614,"Ġë°ĺë°ĺ":10615,"Ġë°ĺì£½":10616,"Ġìĭ¸ìĿ´":10617,"ìŀĦìĿ´":10618,"ĠëĲĲê±°ëĵł":10619,"Ġë³ĳìĿ´":10620,"Ġë§İìĿĢê±°":10621,"ĠíķĻìĽĲìĿĦ":10622,"Ġëª»íķĺê²łìĸ´":10623,"ìĺ¤ëĬĺìĿĢ":10624,"Ġìĺ¬ë¦¬ë¸Į":10625,"ĠíĬ¹ìĿ´íķľ":10626,"Ġìĸ´ìĦł":10627,"Ġìŀĺíķľ":10628,"Ġê°Ķìĸ´ìļĶ":10629,"Ġë¹Ħë£Į":10630,"ëĭ¨ì§Ģ":10631,"Ġë´Ĳì£¼":10632,"ĠìĦłê³¼":10633,"ìŀĲê¸°ëĦ¤":10634,"íĶĦëĿ¼ìĿ´":10635,"Ġìļ´ìĿ´":10636,"ëł¸ëĭ¤ê°Ģ":10637,"Ġì°įìľ¼ë©´":10638,"ĠëĿ¼ëĶĶìĺ¤":10639,"ĠìĮĮ":10640,"ĠìĭľìŀĳìĿĦ":10641,"Ġì§ľê³ł":10642,"Ġê¸Īì§Ģ":10643,"Ġìľ¡ì§Ģë¡ľ":10644,"ìħĶìķ¼":10645,"Ġëľ¨ë©´":10646,"ìĥĺ":10647,"ĠëĤ¨ìŀĲìķłê°Ģ":10648,"Ġì¶ĶìĸµìĿ´":10649,"ì²ĺìĿĮìĹĲëĬĶ":10650,"ê·¸ë¯Ħ":10651,"ĠìĻĵ":10652,"Ġë§İìķĺëĬĶëį°":10653,"ìĹ¬ëŁ¬":10654,"ĠìĽĲëıĦ":10655,"ĠíķĺëĤĺë°ĸìĹĲ":10656,"Ġìĵ°ëł¤ê³ł":10657,"Ġëª°ëŀĳ":10658,"ĠìĽĶìļĶìĿ¼ëĤł":10659,"ĠìĤ°ìĹħ":10660,"ĠìķīìķĦê°Ģì§Ģê³ł":10661,"ĠëĤĺìģĺê²Į":10662,"Ġë°©ë²ķìĿĦ":10663,"ĠìĬ¤íħĮìĿ´íģ¬":10664,"ìĭ¼":10665,"ë°ĸ":10666,"êµ¬ìĦĿ":10667,"ĠìķĦìĿ´ëĿ¼":10668,"ĠìĹĦë§Į":10669,"Ġìķłëŀĳ":10670,"ĠìĺĪëĬ¥":10671,"Ġë¹Ħíķ´":10672,"Ġë¯¸ë£¨":10673,"ĠìĦ±íĸ¥":10674,"Ġìĭ¤ë§Ŀ":10675,"Ġë§Ĳíķĺëł¤ê³ł":10676,"Ġëĭ¤ë¥´ìŀĸìķĦ":10677,"ĠëģĿëĤ¬ìĸ´":10678,"Ġì°¹ìĮĢ":10679,"ëĽ°":10680,"ëĭī":10681,"ìķĦë°©ìĿ´":10682,"ĠëĤĺëĳĲ":10683,"ìĿĢìĹĲ":10684,"ë¡ľì¼Ģ":10685,"ĠìĤ¬ëł¤ê³ł":10686,"ĠìĤ¬ë°ľ":10687,"Ġê°ĻìĬµëĭĪëĭ¤":10688,"êµ¬ëł¤":10689,"Ġì°¼":10690,"Ġì¢ĭìķĦíĸĪìĸ´":10691,"ĠëĤ¨ìĿĦ":10692,"Ġìķ¼ìķ¼":10693,"Ġê³µìĿµ":10694,"Ġìĭłìļ©":10695,"Ġìŀħìľ¼ë¡ľ":10696,"ĠëĶ°ì§Ģ":10697,"Ġì¹ĺìļ°ê³ł":10698,"Ġì»·":10699,"Ġë§ĮëĤĺê°Ģì§Ģê³ł":10700,"ëĤ¨íİ¸":10701,"ìĤ¬ëŀĮìĿĢ":10702,"Ġê¼¬ë°ķ":10703,"ĠìĹ°ìĬµìĿĦ":10704,"ĠìĤŃìłľ":10705,"Ġë§Ĳíķĺëĭ¤":10706,"ĠìĿ¼íķ´":10707,"Ġì§Ģê°ģ":10708,"Ġì§Ģë£¨":10709,"ëł¤ë©´ìĿĢ":10710,"ĠìĿ´ê±°ìĹĲ":10711,"Ġìĵ°ê±°ëĵł":10712,"Ġë°ĺíĮĶ":10713,"ĠìŀĪìĿĦê±¸":10714,"Ġë³´ëĬĶê²Į":10715,"ĠëĤ¨íİ¸ëıĦ":10716,"Ġê´ľì°®ìķĦìļĶ":10717,"ĠìķĬëĬĶëĭ¤":10718,"ĠíĶ¼ê³¤íķ´":10719,"ĠíĮ¬íĭ°":10720,"Ġë§Ľì¢ĭìķĦ":10721,"ĠìĿĮë£ĮìĪĺ":10722,"ĠìĿ´ìĽĥ":10723,"Ġíķĺê²ł":10724,"íķĺë§¨":10725,"Ġíķľíİ¸":10726,"ĠëŃĲíķł":10727,"ĠëŃĲíķĺëŁ¬":10728,"ĠìĿ¼ì¸µ":10729,"ìĭľìĺ¤":10730,"ë¥´ê¸°":10731,"ìĹ¬ê²Į":10732,"ĠëĮĢê¸°ìĹħ":10733,"Ġì¤ĳë°ĺ":10734,"Ġëĭ®ìķĺ":10735,"ĠëªħìĿĺ":10736,"ĠìĿ´ëŁ¬ëĭ¤ê°Ģ":10737,"ĠíĮĮìķħ":10738,"Ġê°Ķëĭ¤ìĺ¤ê³ł":10739,"ĠíļĮìĽĲ":10740,"Ġë¨¹ìľ¼ëŀĺ":10741,"ĠìŀĶëĶĶ":10742,"ì¤¬ì§Ģ":10743,"Ġì§Īì§Ī":10744,"ĠëĳĶ":10745,"ĠìķĦë©Ķë¦¬ì¹´ëħ¸":10746,"½ì§Ģ":10747,"Ġì¯":10748,"ĠìĿ´ëĤĺ":10749,"ĠëĤĺìĹĲê²Į":10750,"ìĺ¹":10751,"Ġê³łìļ´":10752,"ĠíķĺëĭĪê¹ĮëĬĶ":10753,"ì§ĳë§Īëĭ¤":10754,"Ġìŀ¥ìĹĲ":10755,"ìħľ":10756,"ìĥĪë²½":10757,"Ġëĵľìĭł":10758,"ĠìĿ´ìĥģíķĺëĭ¤":10759,"ê»ĺìĦľ":10760,"Ġì¡¸ìĹħìĭĿ":10761,"Ġë¶Ģë¥´ë©´":10762,"Ġê´´ë¬¼":10763,"íĺĪìķķ":10764,"Ġìĺģíĸ¥ìĿĦ":10765,"ìĽ¨ìĿ´":10766,"ĠìŀĲëħĢ":10767,"ĠìķĦìĿ´ìľł":10768,"Ġë§ĪìĤ¬ì§Ģ":10769,"ëĬĲëĿ¼ê³ł":10770,"ìĤ´ì§Ŀ":10771,"Ġëª¸êµŃ":10772,"ĠìķĦëĵ¤ìĿĦ":10773,"ĠëĤ³ìķĦìĦľ":10774,"Ġê»Į":10775,"ĠëĦĺìĸ´ê°Ģë©´":10776,"Ġë©Īì¶Ķ":10777,"Ġìĸ´ëĶĺì§Ģ":10778,"ëĭ«":10779,"ĠëĲĺì£¼ê²Į":10780,"ĠìŀĲëĭ¤ê°Ģ":10781,"Ġìĸ´ëķ":10782,"ìłĦíŀĪ":10783,"ë§ĲëĿ¼":10784,"Ġìľ¡ë§Į":10785,"Ġëĸ¨ìĸ´ìł¸ìĦľ":10786,"Ġê²ĥìĿ´ëĭ¤":10787,"Ġë¹µì§ĳ":10788,"ĠíķľëĿ¼ëĮĢ":10789,"Ġê¾¸ë©°":10790,"Ġê³łì¶Ķìŀ¥":10791,"Ġìĺ¤ë©Ķê¸°ëĸ¡":10792,"ëĤĺìĻĢ":10793,"Ġíķľê±°ì§Ģ":10794,"Ġì§Ģì§Ģ":10795,"Ġë¨¹ìĸ´ë´Ķ":10796,"ë¶ĦìĿĺ":10797,"Ġë°©ìĹŃ":10798,"ĠëĤ¨ìŀĲëıĦ":10799,"ĠëĵľëĬĶëį°":10800,"Ġê±°ëĿ¼ëıĦ":10801,"ĠìłĦíĻĶëıĦ":10802,"Ġëĭ¤ìĿĮìĹĶ":10803,"Ġê¸°ë³¸ìłģìĿ¸":10804,"Ġì»´íĻľ":10805,"Ġê³µíķŃìĹĲìĦľ":10806,"ĠìİĪ":10807,"ĠìĮįêº¼íĴĢ":10808,"Ġíķµ":10809,"Ġíķĺê²łì§Ģë§Į":10810,"ĠëķĮìķ¼":10811,"ĠëķĮìĹĲëĬĶ":10812,"Ġëĵ¤ëįĶëĿ¼ê³ł":10813,"Ġëª»íķĺëĬĶëį°":10814,"ĠìĤ´ëĿ¼ê³ł":10815,"Ġì°¨ì§Ģ":10816,"ë¦ĦìĿĦ":10817,"ĠíĥĢëŁ¬":10818,"Ġì½Ķë¡ľ":10819,"Ġì»¬":10820,"ĠìĭĿìĤ¬":10821,"ĠëĦ¤ìĭľ":10822,"Ġë§İìķĦë¶ĢëĤľ":10823,"Ġíķłë¨¸ëĭĪíķľíħĮ":10824,"ĠëĨįìķ½":10825,"ĠìĹ¬ìŀĲì¹ľêµ¬ê°Ģ":10826,"Ġë§ĲìķĦìķ¼ì§Ģ":10827,"Ġìĸ´ìļ¸ëł¤":10828,"ĠìıŁìķĦ":10829,"ê³§":10830,"ìĸ´ì°Į":10831,"ĠìŀĪìĿĮ":10832,"ĠëŃĲìĹ¬":10833,"ì£¼ë§ĪìĶ¸":10834,"Ġíķłê±°ëĿ¼":10835,"ĠíķĺëĬĶê±´ëį°":10836,"Ġìķ½íķľ":10837,"ĠìķłíķľíħĮ":10838,"Ġëĭ¬ë¦°":10839,"ĠëĤĺìĺ¤ê¸´":10840,"ìĦ±íĻĶ":10841,"Ġëĵľë¦´":10842,"ĠëĮķê¸¸":10843,"Ġë©ĭì§Ħ":10844,"ëłĪìĿ´íģ¬":10845,"ĠëĤĺê°Ķìĸ´":10846,"Ġëħ¸ëł¥ìĿĦ":10847,"Ġë¶ĪìĮįíķľ":10848,"ĠìĬ¤íĶ¼ì»¤":10849,"Ġë¹¼ë¹¼ë¡ľ":10850,"¬Ĳ":10851,"ëĤĮ":10852,"ĠìŀĪê¸°ëĬĶ":10853,"ìłľìĿ´":10854,"ëŀĺìļĶ":10855,"Ġëª»íķĺìŀĸìķĦ":10856,"ĠìĤ´ëķĮ":10857,"Ġë¶Ģë¶Ģê°Ģ":10858,"Ġëı¼ëıĦ":10859,"ĠìĦ¸ëªħ":10860,"Ġê°ĦëĮĢ":10861,"ë°Ķë¦¬":10862,"Ġì½Ķì½Ķ":10863,"ìłĲìĹĲ":10864,"ĠíĸĪìĸ´ìķ¼":10865,"ì¶Ķë¥µ":10866,"ĠíķľêµŃìĤ¬":10867,"Ġì»¤íĶ¼ë¥¼":10868,"Ġë¸ĮëĿ¼":10869,"Ġì§§ìķĦ":10870,"ìĭľíĤ¤ëĬĶ":10871,"Ġì¤ĳìķĻìĹ¬ê³ł":10872,"Ġê°¤ëŁŃìĭľ":10873,"ë®¤":10874,"Ġíķĺê¸°ê°Ģ":10875,"ë¡ľìĽĮ":10876,"ĠìķĦëĭĪìĺĪìļĶ":10877,"Ġë¨¹ìŀĲê³ł":10878,"Ġìĺ¤ë²Ħ":10879,"ëĶĶìĸ´":10880,"êµ¬ìĭŃ":10881,"Ġìĭľê¸°ê°Ģ":10882,"ĠìĹĨìĹĪìŀĸìķĦ":10883,"ê°ģìĭľ":10884,"Ġì£¼ë©´ìĿĢ":10885,"ĠëĨĺ":10886,"Ġë°Ķë¦¬":10887,"ìļ°ê°Ģ":10888,"ĠìĦ¸ë¸Ĳ":10889,"ĠìĨĮë¹Ħ":10890,"ë¯¸ëĦĲ":10891,"ĠìĦ±íĺķ":10892,"ĠëĵľëĭĪê¹Į":10893,"ĠëıĮìķĦìĺ¤":10894,"Ġíŀĺëĵ¤ìĹĪìĸ´":10895,"Ġì§ĳìĹĲìĦľëıĦ":10896,"ĠìŀĲì²´ëıĦ":10897,"ĠìĹĲìĿ´ìķĦìĿ´":10898,"ĠìĨĲëĭĺëĵ¤":10899,"Ġë¿ĲìĿ´ì§Ģ":10900,"Ġê¹ĶëģĶíķĺê²Į":10901,"ĠìķĪíĥĢê¹Į":10902,"Ġê±°ëĭĪê¹Ĳ":10903,"Ġíķ´ë¶Ī":10904,"Ġìĺ¤ëħĦ":10905,"ĠìĥĿê°ģíĸĪëįĺ":10906,"ĠìĥĿê°ģëĤľëĭ¤":10907,"ĠëĮĢìłĳ":10908,"Ġê°ľê·¸":10909,"Ġìĸ´ëĶĶê¹Įì§Ģ":10910,"Ġê°ĻìķĦê°Ģì§Ģê³ł":10911,"Ġë¨¹ìĸ´ë³´":10912,"ĠëĪĪë¹Ľ":10913,"ĠìķĦëĭĮê²Į":10914,"ĠìĸĳìĭĿ":10915,"ĠcompanynameìĿ´":10916,"Ġëĭ¨ì§Ģ":10917,"Ġìŀłë§Į":10918,"Ġë¹łë¥´ê²Į":10919,"ĠìĿ´ìĭŃëħĦ":10920,"ĠìĹ¬íĸīìĿ´":10921,"Ġì¹łë§Į":10922,"ì¯¤ìĿĢ":10923,"Ġëĵ¤ìĸ´ìĺ¤ëĭĪê¹Į":10924,"Ġê¼¬ë¦¬":10925,"ĠëĤ¬ëĬĶëį°":10926,"ĠíķĻìĥĿëĵ¤ìĿ´":10927,"Ġìĥ´íĳ¸":10928,"ì§Ģë°©":10929,"Ġê±°ìĺĢ":10930,"ìŀ¥íĮĲ":10931,"Ġê³łëŀĲ":10932,"ìĥģìľ¼ë¡ľ":10933,"ìłģìĿĢ":10934,"ê²½ìĿĦ":10935,"Ġë´¤ìĸ´ìļĶ":10936,"Ġë¶Īìĸ´":10937,"ĠíĮĮìĿ´ë¸Į":10938,"Ġê°Ķëĭ¤ìĺ¤":10939,"Ġì°įìĸ´ìķ¼":10940,"ĠëĲĲëĤĺ":10941,"Ġëĭ´ê·¸":10942,"ĠìłĪëĮĢë¡ľ":10943,"ĠíĴĭ":10944,"ë³µìĿ´":10945,"ĠíĨµíĨµ":10946,"Ġê¹Įëĭ¤":10947,"Ġê±ĶëĦ¤ëĵ¤ìĿ´":10948,"Ġíķ´ì£¼ì§Ģ":10949,"Ġìĸ´ëł¤ìļ¸":10950,"Ġê°Ģë¥´ì¹ĺ":10951,"Ġìŀ¤ìĸ´":10952,"ê³łìĥĿ":10953,"Ġê±°ê²łì§Ģ":10954,"ë¦¬ëĬĶëį°":10955,"ë¡ľêµ¬ëĤĺ":10956,"ĠëĤ´ì§Ģ":10957,"ĠìķĬì§Ģë§Į":10958,"Ġì°¨ìĿ´ëĤĺ":10959,"ĠíĻĶë¶ģ":10960,"ì¡°ìĤ¬":10961,"Ġë¬¼ìĸ´ë´¤ëĬĶëį°":10962,"Ġë°ĶëĢĮëĬĶ":10963,"ë§İìĿĢ":10964,"Ġëľ¬ê¸Ī":10965,"Ġë³´ì§ĢëıĦ":10966,"ĠìłĢëŀĺ":10967,"ĠíĸĪëĬĶ":10968,"ĠìłĦìĹĶ":10969,"Ġë°Ķëĭ¤ê°Ģ":10970,"ĠëıĦëĤ¨":10971,"Ġë°©ìĿĦ":10972,"ĠìĤ´ìķĦìķ¼ì§Ģ":10973,"ĠëĨĶëıĦ":10974,"ĠìĹ°ëĿ½íķ´":10975,"Ġë¹µìĿĦ":10976,"Ġìłĳì¢ħ":10977,"ĠìŁ¤ê°Ģ":10978,"Ġêº¾ìĸ´":10979,"Ġìŀ¥íķĻê¸Ī":10980,"Ġê°¸":10981,"ĠìĤ¬ê±°ë¦¬":10982,"ĠìĹ¬ëĵľ":10983,"ëħ¹":10984,"Ġê³łë¥¸":10985,"Ġê³łê¸°ê°Ģ":10986,"ĠìłķìĦ±":10987,"íĸĪêµ¬ëĤĺ":10988,"ĠëıĪê°ĢìĬ¤":10989,"ëĲĺëĬĶê±°":10990,"ê´Ģê´ĳ":10991,"ĠìķŀìĿ´":10992,"Ġê¹Ģëħķ":10993,"Ġì§ĳìĹĲìĦľëĬĶ":10994,"ĠìĺģíĻĶëıĦ":10995,"Ġíıīê°Ģ":10996,"ë°ĽìķĦìĦľ":10997,"Ġë²łê°ľ":10998,"Ġíķłë§Ŀëĵ¤":10999,"ĠìĿ¸ìĥĿìĿ´":11000,"Ġê²ĢìĿĢìĥī":11001,"Ġë¶Ģì§ĢëŁ°íŀĪ":11002,"Ġì°Ŀì°Ŀ":11003,"19":11004,"íķı":11005,"ìķĦê¸°":11006,"Ġíķĺì£¼ê²Į":11007,"Ġíķ´ìł¸":11008,"Ġíķ´ë´Ķ":11009,"ĠëŃĲìĺģ":11010,"ĠëĲĺì§Ģë§Į":11011,"Ġì¢ĭëĭ¤ëĬĶ":11012,"ê°ģìĿ´":11013,"ĠìĥĿê°ģíķ´ìķ¼":11014,"Ġë¬¼íļĮ":11015,"ĠìĹĦë§Īëĵ¤ìĿ´":11016,"Ġê²½íķ¸":11017,"Ġê°ĪìĪĺ":11018,"ĠìĺĽëĤłìĹĲëıĦ":11019,"ê²½íĹĮëĶĶ":11020,"ìĤ°ëıĦ":11021,"ëł¸ì§Ģ":11022,"ë°¥ëıĦ":11023,"Ġë¨¹ìľ¼ë©´ìĿĢ":11024,"ĠìķĦë§ĪëıĦ":11025,"Ġê²ģëĭĪëĭ¤":11026,"ëĪĪìĿ´":11027,"ĠëıĻë¬¸ìĭľìŀ¥":11028,"Ġìĸ¸ìłłê°Ģ":11029,"ĠìĿ´ìª½ìĹĲ":11030,"ìķĦíĶĦ":11031,"ê²ĮëģĶ":11032,"ĠìķĦìĺ¤":11033,"ëĿ¼ëĵłì§Ģ":11034,"Ġê°Ģì§ĢëĬĶ":11035,"Ġì§Ģì³Ĳ":11036,"ĠìŀĺíĸĪìĸ´":11037,"Ġì¤Ń":11038,"Ġë²ļê½ĥ":11039,"íķĺê³łìĿ´":11040,"ĠìĦ¸ìļ°ê³ł":11041,"ĠëıĮë¦¬ëĬĶ":11042,"ĠëªħìĿ¸ê°Ģ":11043,"Ġëĭ¹ìĭłìĿ´":11044,"Ġì£½ìĿ´ê³ł":11045,"Ġê¸°ìĸµíķ´":11046,"ĠëĦĺìľ¼ë©´":11047,"Ġë°ľëł¹":11048,"Ġì°¸ì¹ĺ":11049,"Ġìķłê¸°ëĬĶ":11050,"ìłģìľ¼ë¡ľëĬĶ":11051,"Ġë°ķë¬¼ê´Ģ":11052,"ìĻ¸êµŃ":11053,"Ġê±·ìĸ´":11054,"Ġìĺ®ê¸°":11055,"Ġë¹¨ê°Ħìĥī":11056,"ĠíĸĪìĪĺëĭ¤":11057,"ì°Ķ":11058,"Ġì£¼ë°©":11059,"Ġê³µê°ľ":11060,"Ġíĺķë¶Ģê°Ģ":11061,"Ġíķłë¨¸ëĭĪëĦ¤":11062,"ìķĻìľ¼ëĦ¤":11063,"Ġë¹¼ìĦľ":11064,"Ġë¬¸ìłľë¥¼":11065,"ëª©ìĿ´":11066,"ì¹ľêµ¬ê°Ģ":11067,"ĠíĪ¬íĳľ":11068,"ĠëĨĪìĤĲ":11069,"Ġë¶ĪìĮįíķ´":11070,"ĠìĥģëĮĢë°©ìĿ´":11071,"ĠìŀĲì¡´ìĭ¬":11072,"Ġê°Ģë¶ĢëĤľ":11073,"Ġë³´ìłł":11074,"ĠëĲĺë©´ìĦľ":11075,"ë´ĩ":11076,"ĠëįĶìļ´":11077,"íķłê²Į":11078,"ĠëĤ¨ìķĪ":11079,"Ġë²ĪìĿ¸ê°Ģ":11080,"Ġìłľì£¼ëıĦë¡ľ":11081,"Ġìłľì£¼ëıĦìĿĺ":11082,"ĠëĲłê±´ëį°":11083,"Ġë§Įëĵ¤ìĹī":11084,"ĠêµŃìĭľ":11085,"Ġëĵ£ì§Ģ":11086,"ĠìºĦ":11087,"Ġíķ¸ëĵľíı°ìĿ´":11088,"ëª¸ìĿ´":11089,"ëĭ¤ìĭľíĶ¼":11090,"Ġë§ŀìĿĢíİ¸":11091,"Ġê·¸ìłĦ":11092,"ìĿ´ì¦Ī":11093,"ĠìĤ¬ëĥ¥":11094,"ë¥Ļ":11095,"Ġìĭľì¼":11096,"ĠìĤ´ìķĪ":11097,"ìĺĪìłĦìĹĲ":11098,"ì¹ĺíĤ¨":11099,"Ġë¬¼ìĿĢ":11100,"Ġê°Īê²Į":11101,"ì§ĳëĭĪê¹Į":11102,"Ġì¡°ê¸ĪìĿ´ëĿ¼ëıĦ":11103,"ĠëĤĺê°ĢëĭĪê¹Į":11104,"Ġë¬¸ìĸ´":11105,"Ġëĭ´ê³ł":11106,"Ġìļ´ëıĻìŀ¥":11107,"ĠëŃĶë§Ĳ":11108,"ĠíĨµìĹĲ":11109,"ë£Įê°Ģ":11110,"Ġìŀ¬ë¯¸ë¡ľ":11111,"Ġì§ĢëĤĺê°Ģë©´":11112,"ĠìŀĶìŀĶ":11113,"ĠëıĮìķĦê°Ģë©´ìĦľ":11114,"ĠëĬĲê»´ì§ĢëĬĶ":11115,"ĠìĿ¸íĦ°ë·°":11116,"Ġê´Ģê´ĳê°Ŀëĵ¤":11117,"Ġì©Į":11118,"Ġë°Ķê¹¥ìĹĲ":11119,"Ġì£¼ìĿ¸ê³µìĿ´":11120,"Ġìĸ´ëķł":11121,"ëĤ³":11122,"Ġì§Ħë¡ľ":11123,"ĠëĤ´ë¦´":11124,"ĠëĤ´ë¦¬ëĬĶ":11125,"íĸĪëĬĶì§Ģ":11126,"Ġê²½ëł¥":11127,"ĠëħĦìĥĿ":11128,"Ġë¶ĪìĿĦ":11129,"Ġë¶Īêµ¬íķĺê³ł":11130,"Ġì°¾ìľ¼ëŁ¬":11131,"ê²ĮëĤľìĿ´":11132,"Ġìŀ¬ë°ĮìĹĪìĸ´":11133,"ì¤¬ìľ¼ë©´":11134,"ĠíĺĦíĥĢ":11135,"Ġê·¸ë§Ĳ":11136,"ĠìĤ¬ëŀĳíķĺëĬĶ":11137,"ĠëĤ´ìļ©ìĿĦ":11138,"Ġëĭ´ë°°ë¥¼":11139,"Ġëª¨ë¥¸ëĭ¤":11140,"ĠíħĶëłĪ":11141,"ĠìĹłë¹Ħíĭ°ìķĦìĿ´":11142,"ĠìĲ":11143,"Ġê±°ëŀĢ":11144,"ì£¼ëıĦ":11145,"ĠíĺĢ":11146,"ĠìĽĲìŀ¥":11147,"ĠëĳĲìĸ´":11148,"ê°Ļìķł":11149,"Ġê³µë¶ĢëĬĶ":11150,"ëĤ¬ëĭ¤":11151,"Ġíķłë¨¸ëĭĪëĵ¤ìĿ´":11152,"ĠìķīìĿĢ":11153,"Ġëģ¼ë¦¬":11154,"Ġë¹Ħìĭ¸ìĦľ":11155,"ĠìĹ¬ëŁ¬ê°ľ":11156,"Ġê»Ģ":11157,"Ġìĵ´ëĭ¤":11158,"ĠíĬĢìĸ´":11159,"ë¨¸ë¦¬ê°Ģ":11160,"Ġíĳ¸ëĬĶ":11161,"Ġëĭ¦ê³ł":11162,"Ġëĭ¤ëĭĮëĭ¤ê³ł":11163,"Ġê²¬ëĶĶ":11164,"Ġíķı":11165,"ĠìķĦëŀ«":11166,"ĠëĤĺê±°ëĵł":11167,"ëŀ¨":11168,"ĠìķĪìĺ¤":11169,"ĠìķĪìĻĢ":11170,"Ġë§ŀìķĺìĸ´":11171,"ĠìłĦìĭľ":11172,"ĠíķĻìĬµ":11173,"Ġë¹ĦìĽĮ":11174,"ìķĦëĭĪìķĦëĭĪ":11175,"ëķĮê¹Įì§Ģ":11176,"Ġíķ´ìķ¼ëĲĺê³ł":11177,"ë´ĲìĭłëĶĶ":11178,"Ġìŀ¬íĻľ":11179,"ì§Īëŀľëĵľ":11180,"ĠìľĦê°Ģ":11181,"Ġë²Įê¸Ī":11182,"Ġë¦¬ê°Ģ":11183,"Ġì¤¬ê±°ëĵł":11184,"Ġë§ĮìĽĲìĶ©":11185,"íĹĮê±°":11186,"ĠìĤ´ìķĺì§Ģ":11187,"ĠíķľëĿ¼ë´ī":11188,"Ġë¸Įë¡ľ":11189,"Ġxxxxxx":11190,"Ġë§ĮëĤ¬ìĸ´":11191,"ë°Ķëĭ¥ìĹĲ":11192,"Ġë¯¸ìĹŃêµŃ":11193,"Ġê°łê°Ģ":11194,"ĠìĿ´ê³ł":11195,"ĠìĿ´íĥľ":11196,"ê¸°ìĹĲëĬĶ":11197,"ĠìĤ¬ì¤Ħ":11198,"Ġíķ´ë¨¹ê³ł":11199,"Ġìĺ¤ëİħ":11200,"ĠìĤ¬ëŀĮìĹĲ":11201,"Ġì¡°íķ©":11202,"ĠíĹĪëĿ¼":11203,"Ġì°¨ë³Ħ":11204,"ĠìĬ¤íģ¬":11205,"ì°¨ë³Ħ":11206,"ìĦłìĪĺ":11207,"Ġê°ĲìłĢ":11208,"Ġê°Ĳëĭ¹":11209,"íĮĮíĭ°":11210,"Ġíģ¬ë©´":11211,"ìĹĨê³ł":11212,"ĠëĬ¦ìĸ´":11213,"íķŃê³µ":11214,"ĠìĦ±ê²©ëıĦ":11215,"ĠëłĪìĬ¨":11216,"Ġìĥģíĥľê°Ģ":11217,"ĠíĦ¸ìĿ´":11218,"Ġë°Ķë¹łìĦľ":11219,"ĠìŀĲìĦ¸íŀĪ":11220,"Ġì§Ħì§Ģíķĺê²Į":11221,"ì§Ģëĭ¤":11222,"ëĿ¼ê°Ģì§Ģê³ł":11223,"Ġë¨¹ê±°ë¦¬":11224,"Ġì§ĢìĿĦ":11225,"ĠìĿ¸íķ´ìĦľ":11226,"ĠëĳĲë£¨":11227,"Ġëª°ë¥´":11228,"Ġë¬¸ìĿ´":11229,"ê²©ìĿ´":11230,"ĠìĻ¸ëıĦ":11231,"Ġë§ĮëĤĺê¸°ë¡ľ":11232,"Ġìĭ¶ìĿĢê±°":11233,"Ġëĭ¤ìĿĮì£¼ìĹĲ":11234,"ĠíĬ¸ëĿ¼ìļ°":11235,"Ġë¹Ħìĭ¼ê±°":11236,"ĠìĤ¬ëĿ¼ìł¸":11237,"Ġíķ´ìķ¼ëĲĺëĬĶëį°":11238,"ĠìĹ¬ìŀĲìķłê°Ģ":11239,"ĠíĻĺê²½ìĿ´":11240,"ĠëĬĲê¼Īìĸ´":11241,"Ġë¶ķìĸ´":11242,"ëĬ¬":11243,"Ġíķĺëįĺê°Ģ":11244,"ìĿĢíĸī":11245,"Ġë§īíŀĪ":11246,"ĠëŃĲëĬĶ":11247,"ëĮĢíķľ":11248,"Ġë§Įë§Į":11249,"ĠëĦĺìĿĢ":11250,"ĠìłĦíĻĶë¡ľ":11251,"ĠìķĪëĲĺìĦľ":11252,"Ġëĭ¤ëħĶì§Ģ":11253,"Ġíİĺë¶ģ":11254,"ĠìķĬìķĺìĸ´ìļĶ":11255,"ĠìĤ¬ìĹħìĿĦ":11256,"ĠíİľíĬ¸":11257,"Ġìĺ¤ë¥¸ìª½":11258,"ĠìĤ¬ê·Ī":11259,"īĺ":11260,"Ġíķĺëł¤ë©´":11261,"ëĿ¼ë¯¸":11262,"Ġë³´ì¡´":11263,"Ġì§Ģë¶ķ":11264,"ĠíĸĪëįĶëĿ¼":11265,"Ġëª¨ê¸°":11266,"Ġìĸĺëĵ¤ìķĦ":11267,"ë¹ĦìĹĲìĬ¤":11268,"Ġëĭ®ê¸´":11269,"ĠìķĮìķĦëĵ¤":11270,"ĠìĤ¬ëŀĮëĵ¤ëģ¼ë¦¬":11271,"ĠíĥĢê°Ģì§Ģê³ł":11272,"Ġì½ĶëĶ©":11273,"íĶ¼ê°Ģ":11274,"Ġëĵ¤ìĸ´ê°ĢëıĦ":11275,"ĠìŀĪìľ¼ë©´ìĦľ":11276,"Ġì³ĲëıĦ":11277,"ĠìŀĪëĭ¤ë©´":11278,"ĠìĥģëĮĢë°©":11279,"Ġëī´ìĬ¤ìĹĲ":11280,"ëĦĽ":11281,"Ġë¨¹ê¸°ëıĦ":11282,"Ġê·¸ê±°ìŀĸìķĦ":11283,"Ġê³łì§ĳ":11284,"íĸĪìľ¼ëĭĪê¹Į":11285,"ĠëĤ¨ë§¤":11286,"Ġë¹Ħìļ©":11287,"Ġë°ĺëł¤":11288,"Ġë²Ħíħ":11289,"Ġë§Įëĵ¤ìĹĪìĸ´":11290,"ê²ħíķ´ìĭłëĶĶ":11291,"Ġìļ´ëıĻíĻĶ":11292,"Ġë¨¹ìĹĪëĦ¤":11293,"Ġëĭ¤ëħĢëıĦ":11294,"ĠêµĲìĪĺê°Ģ":11295,"Ġëĭ¤ë¥´ëĭĪê¹Į":11296,"ĠìĤ¶ìĿĢ":11297,"Ġìļ°ë¦¬ì§ĳìĿ´":11298,"ĠìĿ¼ìĸ´ëĤŃ":11299,"Ġë°ĶëĢĮìĸ´":11300,"ĠìĽĥê¸´ê²Į":11301,"Ġìĸ´ëłµì§Ģ":11302,"Ġë³´ìĿ¸ëĭ¤":11303,"ìĤ¬ë¬´ìĨĮ":11304,"ê°Ģê¸°":11305,"ê°Ģë¯¼":11306,"Ġê·¸ë©":11307,"Ġíķĺìĭľê³ł":11308,"ìĭ«":11309,"Ġë§īëĳ¥ìĿ´":11310,"ì£¼ëŀľ":11311,"ìŀĲëŀĳ":11312,"Ġê·¸ëŁ°ê²ĥ":11313,"ĠìĤ¬ëŀĮëĦ¤":11314,"ĠëĲĺìĭłëĶĶ":11315,"Ġì£¼ê²łëĭ¤ê³ł":11316,"ĠìķĦìĿ´íķľíħĮ":11317,"Ġë°Ľìľ¼ë©´ìĦľ":11318,"ĠìĹ´ëł¤":11319,"Ġíķľë²ĪìĿĢ":11320,"Ġë§ĽìŀĪìĸ¸":11321,"ì²´ë¥¼":11322,"Ġê²°íĺ¼íķĺë©´":11323,"ĠìĪľê°ĦìĹĲ":11324,"Ġì²´ì§Ī":11325,"ĠëĨįêµ¬":11326,"Ġë¯¸ìķĪíķľ":11327,"ĠíķĺëĬĲëĥĲ":11328,"ë§Īê·Ģ":11329,"ĠëĲĺìķ¼":11330,"ë¬´ìĭľ":11331,"ë¹Ĺ":11332,"ĠìłĦëıĦ":11333,"ê±¸ëŀĳ":11334,"Ġë¹ĦìĹ¼":11335,"Ġëĭ®ìĪĺëĭ¤":11336,"Ġëªĩìĭľê°Ħ":11337,"ĠìĨĲíĿ¥":11338,"ĠíĶ¼íĶ¼íĭ°":11339,"Ġíĺ¸íĿ¡":11340,"ìĽĶëĵľ":11341,"ĠìĦľê·Ģíı¬ìĹĲìĦľ":11342,"Ġì£¼ì°¨ìŀ¥":11343,"Ġì´Īë¡Ŀìĥī":11344,"Ġìĭłíĺ¼ìĹ¬íĸī":11345,"ëĬ¦ê²Į":11346,"Ġê¼°ëĮĢ":11347,"Ġê¸°ìłĢê·Ģ":11348,"ê³łëĿ¼":11349,"Ġê·¸ëĵ":11350,"íĶĶ":11351,"Ġìĸĺê¸°íķĺëĭ¤":11352,"ìĭ¤ìĿĦ":11353,"ë¨¹ì§Ģ":11354,"ëĤ¬ì£¼ê²Į":11355,"ìĹŃìĿ´":11356,"Ġìĭ«ìĸ´ê°Ģì§Ģê³ł":11357,"ĠíıīìĿ¼":11358,"ê½ģ":11359,"ĠíĪ¬ëªħ":11360,"ì¿łê³¼":11361,"Ġë¯¸ìķĪíķĺëĭ¤ê³ł":11362,"ĠíĻľìļ©":11363,"Ġë§ĪíĬ¸ìĹĲ":11364,"ĠíİĺìĿ´ìĬ¤ë¶ģ":11365,"ĠëĲ©ëĭĪê¹Į":11366,"ĠìĿ´ìŀĸìķĦ":11367,"Ġíķĺê²łìĬµëĭĪëĭ¤":11368,"ĠëŃĲëįĶëĿ¼":11369,"ëĶĶëıĦ":11370,"Ġìĭľì¯¤":11371,"ìĺ¤ë§Į":11372,"ìķĺëĭ¤ê°Ģ":11373,"ì¹ĺê²Į":11374,"ë¶ĢíĦ°ê°Ģ":11375,"Ġë°¥ë¨¹ê³ł":11376,"ĠìĹĲë²Ħ":11377,"ĠëŃĲëĥĲê³ł":11378,"Ġë°ľìĥĿ":11379,"ĠìĹ¬íĸīì§Ģ":11380,"Ġì¡´ëĮĵ":11381,"Ġë¯¿ìĿĦ":11382,"Ġê·¸ìª½ìĹĲìĦľ":11383,"ĠìĬ¬ë¦¬":11384,"ë²Ħë¦°ê±°ìķ¼":11385,"Ĭìĸ´":11386,"ĠìĭľëıĦ":11387,"Ġê²ĮìĿ´":11388,"ë¹ĦìłĦ":11389,"ë³´ëĵľ":11390,"Ġëª»íķ¸":11391,"ĠëĶľ":11392,"Ġë§ĮëĤŃ":11393,"Ġìķ½ëıĦ":11394,"ĠìĽĲìŀ¥ëĭĺ":11395,"ĠìĿ¸ìĹ°":11396,"Ġì¢ĭìķĦíķľëĭ¤ê³ł":11397,"ìłķìĿĢ":11398,"Ġì°¨ë¡Ģ":11399,"ĠëıĦëĬĶ":11400,"Ġë°ĺëĮĢë¡ľ":11401,"ĠìŀĪìĹĪëĭ¤ê³ł":11402,"Ġê±°ëĿ¼ëĬĶ":11403,"ĠíĨłë¡ł":11404,"ĠíĺĦì§Ģ":11405,"Ġê²ĮìŀĦìĿ´":11406,"ĠíĻķìĭ¤íķĺê²Į":11407,"Ġê¹ľë¹¡":11408,"Ġê´Ģìĭ¬ìĿĦ":11409,"ëłĮì§Ģ":11410,"Ġê½ĤìķĦ":11411,"ĠíĳľíĺĦìĿĦ":11412,"ê°ĢëĬĶëį°":11413,"Ġíķľê±°ëĿ¼":11414,"ĠìķĦëĭĪìļ°ê½Ī":11415,"Ġìĺ¤ìĿ´":11416,"ìļĶê°Ģ":11417,"íķĺê³łëıĦ":11418,"ĠìĥĿê°ģíĸĪì§Ģ":11419,"ĠíķĺëĬĶê²ĥ":11420,"ìĹ¬ê¸°ëĬĶ":11421,"Ġë§ĪìĶ¨":11422,"Ġíķĺê³łëĬĶ":11423,"Ġë°Ķê¸Ģ":11424,"ë´¥":11425,"ë¹ĦìĬ·":11426,"Ġì½¤":11427,"Ġë³´ë©´ìĿ´":11428,"Ġíģ°ëį°":11429,"ĠíĻĶíķĻ":11430,"ìĻĶëĭ¤":11431,"Ġì§ĳìĹĲëıĦ":11432,"ê´Ģê³Ħ":11433,"Ġì°¾ìķĦë³´ê³ł":11434,"ĠìĥĢì§Ģ":11435,"ĠìĬ¤íĥĢìĿ¼ìĿĢ":11436,"Ġìľłëªħíķľëį°":11437,"ĠëĨĴê²Į":11438,"Ġê³łë¯¼ìĿ´":11439,"Ġíļ¡":11440,"Ġìį°ìĸ´ìĦľ":11441,"Ġìĭľì²ŃìĹĲìĦľ":11442,"Ġì£¼ìĿ¼ìĹĲ":11443,"ê³łëĬĶ":11444,"ë©Ķê°Ģ":11445,"Ġê±°ìĬ¬":11446,"ëĿ¼ê¸°":11447,"ĠìķĪíĹĪ":11448,"ĠìĻģ":11449,"Ġë§Ĳë¦°":11450,"Ġìĺ¤íĤ¤":11451,"ĠìĿ¸ì¦Ŀ":11452,"ĠìĤ¼ìĤ¬":11453,"ìĽĮì¹ĺ":11454,"ëĬĶê±°ëĬĶ":11455,"Ġë°°ë¥¼":11456,"Ġë°ĺë§Ĳ":11457,"Ġìĸĳë°ĺ":11458,"Ġìĸ´ëĸµíĸī":11459,"Ġê¸¸ê³ł":11460,"Ġë¹łìł¸ìĦľ":11461,"ĠìĿ´ìĭŃë¶Ħ":11462,"Ġê°Ģìķ¼ëı¼":11463,"Ġì²´ëł¥ìĿ´":11464,"Ġíķ©ì³Ĳ":11465,"Ġë³µì§Ģ":11466,"ĠìĤ¶ìĿĺ":11467,"ìŀ¡ìķĦ":11468,"ĠìĪĺìĺģìŀ¥":11469,"Ġëķ¡ê²¨":11470,"ĠìĹłíĭ°":11471,"ĠíĤ¹":11472,"Ġë©ĺíĥĪ":11473,"Ġê·¸ìłľ":11474,"ëĤĢ":11475,"íķĺëıĦ":11476,"íķĺë¥´":11477,"ĠìķĪê±¸":11478,"ì£¼ë§Į":11479,"ĠìłĢë¦¬":11480,"ìĭłê¸°":11481,"ĠìĤ´ìĿĦ":11482,"Ġëª¨ìħĶ":11483,"ìĹ¬ì¤ĳ":11484,"Ġë°ĶëĤĺëĤĺ":11485,"Ġì¡°ê¸°":11486,"ĠëĪĦë¥´ë©´":11487,"ëłĪìĿ¸":11488,"Ġë°¥ìĹĲ":11489,"ĠìłķëıĦë°ĸìĹĲ":11490,"ĠíĻĶëĤ´":11491,"Ġë°±ìĿ´ìĭŃ":11492,"Ġìĭ¸ê°Ģì§Ģ":11493,"Ġìĭ¤ëł¥":11494,"ĠìĤ´ìķĦëĤ¨":11495,"ĠëĿ¼ìĿ´ë¸Į":11496,"ê¸īìĿ´":11497,"Ġë³´ìĹ¬ì£¼ê³ł":11498,"ĠíĬ¹ìľłìĿĺ":11499,"ĠíĹĮê±°":11500,"ĠìķĮìķĺëĭ¤ê³ł":11501,"ĠíķĻìĥĿìĿ´":11502,"ìŀĶì¹ĺ":11503,"Ġíĸīë³µíķ´":11504,"Ġê¸ģìĸ´":11505,"Ġë¬´ë£Įë¡ľ":11506,"Ġíĥľìĸ´ëĤĺìĦľ":11507,"ĠìĦ¸íĥģê¸°":11508,"Ġê²ĮìĬ¤íĬ¸":11509,"ìĺ¤ìĿ¼":11510,"Ġìķ½êµŃ":11511,"ìĥģìĿĢ":11512,"ë©įìĿ´":11513,"Ġê²ħíķ¸":11514,"ĠíĥĢë¡ľ":11515,"ĠìĭĿëĭ¨":11516,"ë°ĺìĹĲ":11517,"Ġê·¸ëŀ¬ìĹĪëĬĶëį°":11518,"ĠìķĦë°©ëıĦ":11519,"Ġê¸ĢìĶ¨":11520,"Ġì·¨ë¯¸ë¡ľ":11521,"ëĮķê¸°":11522,"Ġê·¸ë©´":11523,"ĠìĿ´íĺ¸":11524,"ìĦľìĹĲ":11525,"ìĸ´ëĬĶ":11526,"ĠìłĢê±¸":11527,"ĠìĪĺìĭľ":11528,"ĠìĪĺì¹ĺ":11529,"Ġíķĺë©´ìĿ´":11530,"ìŀĪëĤĺ":11531,"Ġë²ĪìĿ´ëĤĺ":11532,"Ġë¹ĦìŀĲ":11533,"Ġìŀ¬íħĮíģ¬":11534,"ìĿ´ëĿ¼ë©´":11535,"Ġë²Ħê±°":11536,"ëł¸ëĭ¤ê³ł":11537,"ĠìĺĨì§ĳ":11538,"Ġê°Ģì§Ģë¥¼":11539,"ì£¼ëĬĶê²Į":11540,"Ġì¤Ģë¹Ħíķ´":11541,"ĠìĥģíĻ©ìĹĲ":11542,"ĠëĤĺëĿ¼ìĹĲ":11543,"ĠëĦĺìĸ´ê°Ī":11544,"Ġì¹´ëĵľë¥¼":11545,"Ġê¸°ê³Ħê°Ģ":11546,"Ġê¹Ĭê²Į":11547,"ĠìķĦìī¬ìĽĮ":11548,"Ġìŀħë§ĽìĿ´":11549,"Ġê·¸ëĦ":11550,"Ġíķĺëĵ¯ìĿ´":11551,"ĠíķľìĭĿ":11552,"ëĤ´ëħĦ":11553,"Ġë¹ĦìĮĢ":11554,"Ġëį°ëĤĺ":11555,"Ġëªĩì²ľ":11556,"Ġë§¤íĬ¸":11557,"Ġë¨¹ëĬĶëĶĶ":11558,"ĠìĻ¸ìĤ¼ì´Į":11559,"ĠìłĪê°Ħ":11560,"ĠíĽĦê¸°":11561,"Ġë°ŃìĹĲìĦľ":11562,"ĠìĥĪëģ¼ëĵ¤":11563,"ĠìĮĢë°¥":11564,"Ġìĺ¬ëł¤ìķ¼":11565,"ĠìĿ¸íĦ°ëĦ·ìĹĲ":11566,"ĠìĥĿê²¨ê°Ģì§Ģê³ł":11567,"ĠìķĦë¶Ģì§Ģê°Ģ":11568,"Ġê¼¼ê¼¼":11569,"Ġëĭ¨ë°±ì§Ī":11570,"Ġê±°ìĿ´":11571,"Ġê°Ģì§ľ":11572,"ĠìĿ¼ìŀĲ":11573,"ĠìĿ¼ì¢ħ":11574,"ĠìĺĪìĪĺ":11575,"Ġë¶ĢìĿ¸":11576,"Ġìķ¼ìĻ¸":11577,"ìłĢë²Ī":11578,"Ġì¤ĳìĪľ":11579,"ìł¸ëıĦ":11580,"Ġìĸ´ëĶĶë¥¼":11581,"ĠìĹ´ëĭ¤ìĦ¯":11582,"ĠìĻĶìľ¼ë©´":11583,"Ġëĭ¹íķľ":11584,"Ġë³´ê³łìĭ¶":11585,"Ġë§ĮëĤĺê²Į":11586,"Ġë³µíķĻ":11587,"ĠìħĭìĿ´ìĦľ":11588,"ĠìĹ¬ìŀĲì¹ľêµ¬ëŀĳ":11589,"ĠìķĦë²Ħëĭĺ":11590,"ĠëĤĺê°ĶëĬĶëį°":11591,"Ġë³´ëĥĪìĸ´":11592,"Ġìĭľì¼°ëĬĶëį°":11593,"ê³łì¶Ķ":11594,"ì§ł":11595,"ĠìĪĺíĸī":11596,"Ġìłľìŀĳ":11597,"Ġë§Īìķ½":11598,"ĠìĭłìķĻ":11599,"ìĹħìĿĦ":11600,"Ġìłģìĸ´ëıĦ":11601,"Ġëĭ¤ìĭľëĬĶ":11602,"ĠíıīíĻĶ":11603,"Ġë°Ģëł¤":11604,"Ġìŀ¥ëĤľê°Ĳ":11605,"ĠíĥĪì¶ľ":11606,"ĠìĿ¸ìĥĿìĿĦ":11607,"Ġê¸°ëĭ¤ëł¤ìķ¼":11608,"Ġíĥľìĸ´ëĤ¬":11609,"ëĦī":11610,"ĠëŃĲëŀĺ":11611,"Ġê°Ļì§ĢëĬĶ":11612,"ĠëįĶëŁ¬ìļ´":11613,"ëĵľë§Į":11614,"Ġê°ľìĹĲ":11615,"ĠëıĮëĭ´":11616,"ĠëĨĢìĿ´íĦ°":11617,"Ġê²°ê³¼ê°Ģ":11618,"ê´ĢìĹĲìĦľ":11619,"Ġëĭ¨ë°ľ":11620,"ĠíķĻëħĦìĿ´":11621,"Ġìª¼ê¸Ī":11622,"Ġê¸ĢìİĦ":11623,"Ġë©ĭìŀĪìĸ´":11624,"ĠíĶ¼ë¶Ģê³¼":11625,"Ġì¶¥ê³ł":11626,"Ġìĭ±ìĭ±":11627,"ì§ĢìķĬìķĦ":11628,"ĠìķĦìĭľìķĦ":11629,"íķĺê²łëĭ¤ê³ł":11630,"ĠìĤ¬ëħĦ":11631,"ĠìķĬëĭ¤ê³ł":11632,"Ġê·¸ëķĮê¹Įì§Ģ":11633,"ĠìŀĪìĸ´ë¶ĢëĤľ":11634,"ì¶¤":11635,"ĠìĹ´ìĭľ":11636,"Ġìŀħìĸ´ìĦľ":11637,"ìĨĮë¦¬ê°Ģ":11638,"ĠëĪĪìĿĢ":11639,"ĠëĤ´ëł¤ê°ĢìĦľ":11640,"ë£Įë¥¼":11641,"ĠíİĢ":11642,"ĠìŀĪê±°ëĵłìļĶ":11643,"Ġê³³ìĿĢ":11644,"ĠíħĲíĬ¸":11645,"ëłīìĬ¤":11646,"Ġë¯¸ëģĦëŁ¬":11647,"ëıĦìĭľ":11648,"Ġê°Ģê²łëĭ¤":11649,"ì£¼êµĲ":11650,"ìŀĲìĻĪ":11651,"ìĭľì½Ķ":11652,"Ġíķłê²ĮìļĶ":11653,"Ġìĸ´ëľ":11654,"Ġì§ĳìĿĺ":11655,"Ġìĸĺê¸°íķ´ìķ¼":11656,"Ġë¬¼ë§Į":11657,"ìĿ´ëĿ¼ëĬĶê²Į":11658,"Ġìļ°ìĹ°íŀĪ":11659,"Ġìĸĳìĭ¬":11660,"ĠëĦ£ìĸ´ìķ¼":11661,"Ġëĵ£ëĬĶëį°":11662,"Ġì¢ĭìķĦíķ´ìļĶ":11663,"ëĪĦëĤĺ":11664,"ìķĮê³ł":11665,"ĠìĿ´ë¯¸ì§Ģ":11666,"ĠìŀĲê¸°ëĦ¤ëĬĶ":11667,"ĠëĲľëĭ¤ëĭĪê¹Į":11668,"ĠìķĮìķĺëĭ¤":11669,"ĠìĬ¤íĬ¸ëłĪ":11670,"ê¼¬ì¹ĺ":11671,"íĩ´ê·¼":11672,"ĠìļĶìĸĳìĽĲ":11673,"ĠìĬ¤ìľĦíĬ¸":11674,"ĠìķĦìĶ¨":11675,"Ġíķĺë£»":11676,"Ġê±°ìĺĢê±°ëĵł":11677,"ĠëĤ´ë¶Ģ":11678,"ĠìĿ¼ëĵ¤ìĿ´":11679,"Ġë¹½":11680,"ĠìŀĲê¶ģ":11681,"Ġëĵ¤ìĹĪì§Ģ":11682,"ìĿ¼ê¹Į":11683,"ĠëĤľìĿ´":11684,"Ġê³łê°ľ":11685,"Ġì§ĳëĵ¤ìĿ´":11686,"ĠíķĺëĤĺëĿ¼ëıĦ":11687,"Ġë²ĪìĿ´":11688,"ĠëıĻìĸĳ":11689,"Ġë°ĽëĬĶëį°":11690,"ì¤ĳìĹĲìĦľ":11691,"ĠëĨĢìĿ´ê¸°":11692,"Ġë§ĽìŀĪëĬĶê±°":11693,"Ġëª°ëĿ¼ìļĶ":11694,"ĠëıĮìķĦìĺ¤ëĬĶ":11695,"ĠëĤĺíķľíħĮëıĦ":11696,"ĠíķĦë¦Ħ":11697,"ĠìĥĽ":11698,"ĠìĸµìĥĪ":11699,"íħĲì¸ł":11700,"Ġë°ĶëŀĮìĹĲ":11701,"Ġìļ°ë¦¬ëĤĺëĿ¼ê°Ģ":11702,"Ġê³ĦíļįìĿ´":11703,"Ġìłľì£¼ìĸ´ë¥¼":11704,"Ġì§Īë¬¸ìĿĦ":11705,"ĠìĤ¬ëĮĢë¶Ģ":11706,"Ġíİĳíİĳ":11707,"íķ´ì¤Ħ":11708,"Ġìĺ¤ìĽĶ":11709,"ĠìłĢëŁ¬":11710,"Ġê²Įìĭľ":11711,"Ġëª»íķľëĭ¤ê³ł":11712,"Ġë§Īëł¨":11713,"Ġë°Ķìĭ¹":11714,"Ġìĭłìĸ´":11715,"ìĦ±ëıĦ":11716,"Ġëĵľë¦¬ê³ł":11717,"ì¤ĺìķ¼ì§Ģ":11718,"Ġê½Ŀ":11719,"ĠìĤ¼ìĭŃëĮĢ":11720,"Ġê·¸ë§ĮëĳĶ":11721,"ìķĦë¬´ëŀĺëıĦ":11722,"ê·¸ëłĩëĭ¤ê³ł":11723,"ĠëĮĢíķľë¯¼êµŃ":11724,"ĠìĿ´íĥĪë¦¬ìķĦ":11725,"ĠìĿ´ë¶Ħ":11726,"ĠëĤĺê²Į":11727,"ĠìĤ¬íķĻëħĦ":11728,"Ġìĺ¤ëĦ¤":11729,"Ġìĺ¤ëł¤ê³ł":11730,"ĠìłĢìª½ìĹĲ":11731,"Ġì¢ĭìķĦëĿ¼":11732,"ĠëĤ¨ìķĦìĦľ":11733,"Ġìłľì£¼ëıĦë¥¼":11734,"ĠëĶ°ë©´":11735,"ìĦ±ìĹĲ":11736,"Ġìķłëĵ¤ë§Į":11737,"ĠìŀĪìĿĦì§Ģ":11738,"Ġê°Ģìł¸ìĦľ":11739,"ĠíĭĢê³ł":11740,"ë³¼ê²Į":11741,"ĠëĬ¦ìĿĢ":11742,"Ġê°Ģì¡±ëģ¼ë¦¬":11743,"ìĽĢìĿĦ":11744,"ë°ŃìĿ´":11745,"ìĽĲëŀĺëĬĶ":11746,"ĠíĤ¤ìļ°ë©´":11747,"ëĪĪìį¹":11748,"ĠëĦĺìĸ´ê°ĢëĬĶ":11749,"Ġíķĺì§Ħ":11750,"ëĤĺë¥¼":11751,"Ġê°Ģê°Ģ":11752,"ĠìĤ¬ìĺ¨":11753,"ìĹĪì§Ģë§Į":11754,"Ġì¢ĭì§Ģë§Į":11755,"Ġê·¸ê±°ëĿ¼":11756,"ĠìĹĨìĬµëĭĪëĭ¤":11757,"ìĿ¼ì£¼ìĿ¼":11758,"Ġê±´ë¬¼ìĿ´":11759,"íĦ°ê°Ģ":11760,"Ġë¹ĦìĮ":11761,"Ġê°Īìĥī":11762,"Ġëª°ëĿ¼ìĭłëĶĶ":11763,"íĺ¸ë°ķ":11764,"Ġì¤Ģê±°":11765,"ĠìĨįìĺ·":11766,"ìŀ¬ê°Ģ":11767,"Ġê·¸ëĤłìĿĢ":11768,"ĠíĹ¤ìĸ´ì§Ħ":11769,"ĠìĭłëŀĳìĿĢ":11770,"Ġêº¼ëĤ´ìĦľ":11771,"ĠíĿ¬íķľ":11772,"Ġì´Īì½ľë¦¿":11773,"Ġíķĺìĭ¤":11774,"Ġê±°ìĹ°":11775,"Ġìĸĩê²Į":11776,"Ġì§ĢëĦ¤ê°Ģ":11777,"Ġìŀĺíķľëĭ¤":11778,"ë¯¸ëĭĪ":11779,"ĠëĦĪë¬´ëĤĺ":11780,"ìĶĢìĿ´":11781,"Ġê°ĻìĿĢê²Į":11782,"ì§ģìĽĲ":11783,"ĠëĲľëį°":11784,"Ġë´¤ìŀĲ":11785,"Ġë¬¸ê³¼":11786,"Ġë§ĲìĿ´ìĹĲìļĶ":11787,"ĠëĦ¤ê°ľ":11788,"Ġë°ķìĤ¬":11789,"Ġì±Ħìļ°":11790,"Ġìĸ´ëĶ¨ìĸ´":11791,"Ġì¹¼êµŃìĪĺ":11792,"ĠíĻķìĿ¸íķ´":11793,"Ġë©´ìĦ¸ìłĲ":11794,"ĠìĿ´ë§ĮìĽĲ":11795,"Ġíķľìłķ":11796,"ë¬´ìĦľ":11797,"Ġë¬´ê±°ìļ´":11798,"Ġëª¨ìĭľê³ł":11799,"ĠìłĦê³¼":11800,"Ġìĸ¸ëĭĪëĵ¤ìĿ´":11801,"ë°Ķê¸Ģ":11802,"Ġë§ĽìŀĪê²łëĭ¤":11803,"Ġê°Ģìł¸ê°Ī":11804,"ĠìķĮë°Ķíķł":11805,"Ġì§ĪíĪ¬":11806,"ê·¸ëŀĹê²Į":11807,"Ġìłľì£¼ìĸ´ë¡ľ":11808,"ĠìĤ¬ê±´ìĿ´":11809,"Ġê³łìĸĳìĿ´ëĬĶ":11810,"ĠíĿ¥ë¯¸":11811,"Ġë®¤ì§Ģì»¬":11812,"Ġê·¸ì¤ĳìĹĲ":11813,"ĠìĿ´ìĦł":11814,"ëĭĪëĦ¤":11815,"Ġíķĺëĵłê°Ģ":11816,"ĠëıĶ":11817,"ĠìĿ¼íļĮ":11818,"Ġë§ĮìĿĢ":11819,"ĠëĮĢê¸°ê³ł":11820,"ĠìłķìĭĿ":11821,"Ġê°ľìĽĥ":11822,"Ġìĸĺê¸°íĸĪëĬĶëį°":11823,"ĠìĦ¸ëĦ¤":11824,"ĠìĹĦë§Īë¥¼":11825,"ĠìĥģìĹĲ":11826,"Ġì´ŀ":11827,"ëĵ±ë¡Ŀ":11828,"Ġìĸ¼ë§ĪìĶ©":11829,"Ġê·¸ë§ĮëĴĢ":11830,"Ġë¡ľë§¨":11831,"ëĲĲìĸ´":11832,"ĠìķĮìķĺìĸ´ìļĶ":11833,"ĠëıĮìķĦëĭ¤ëĭĪê³ł":11834,"Ġëľ»ìĿ´":11835,"ìłĬìĿĢ":11836,"Ġê°Ģë¡ľ":11837,"Ġëĭ¤ëĭĪëĭ¤":11838,"ĠëŃĲë§Į":11839,"Ġë³´ìŀĲë§ĪìŀĲ":11840,"ìĤ¬ê±´":11841,"ĠìĥĿê°ķ":11842,"ĠìķĮê²łëĭ¤ê³ł":11843,"Ġìĸĺê¸°íķĺì§Ģ":11844,"ĠìĨĮëĵĿ":11845,"Ġëĭ®ìķĦìĺĪ":11846,"íļĮë¥¼":11847,"Ġìĸĳë°°ì¶Ķ":11848,"ëŃĲëĿ¼":11849,"ĠëĦĺëĬĶ":11850,"ĠìŀĪëĭ¤ëĭĪê¹Į":11851,"ĠëĸłìĦľ":11852,"ĠìĿ´ëª¨ëĬĶ":11853,"Ġì°©ê°ģ":11854,"ĠíĥĪìĥī":11855,"Ġì°Įê°ľ":11856,"ĠëıĮìķĦëĭ¤ëĭĪëĬĶ":11857,"ê²Įíĭ°":11858,"ìł¤":11859,"ê±°ëŀĺ":11860,"Ġíķĺê·Ģ":11861,"ĠìĤ¬ìĿ¼":11862,"Ġíķ´ë³ĳ":11863,"ê·¸ë§Į":11864,"Ġë³´íĥľ":11865,"ĠëĲĺëıĦ":11866,"Ġëĵ¤ìĹĦ":11867,"Ġê±°ê¸°ë§Į":11868,"Ġê³łì§Ģ":11869,"ëĲ¬":11870,"ëĭ¹ìĹ°íŀĪ":11871,"Ġë¯¸ìĽĮ":11872,"ë¶Ħê±°ëĿ¼":11873,"ĠìĭĿë¹µ":11874,"íĥ±ìĿ´":11875,"Ġëĵ¤ìĸ´ê°Ģê¸°":11876,"Ġëĭ¤ëĭĪìŀĸìķĦ":11877,"Ġëĳĺë§Į":11878,"Ġíķ¸ê²Į":11879,"ĠìĿ´ìĥģìĿ´":11880,"Ġê·¸ëŀ¬ìĹĪìĸ´":11881,"ĠìŀĶìĿ¸":11882,"ĠëłĪìķĮ":11883,"Ġëºĳ":11884,"Ġë§¤ìĿ¼ë§¤ìĿ¼":11885,"Ġì»¨ëĶĶìħĺ":11886,"ĠëıĮìķĦëĭ¤ëĭĪë©´ìĦľ":11887,"Ġì°ĶëŁ¬":11888,"Ġê°Ģë³įê²Į":11889,"Ġíķĺë©°":11890,"íķĺëŀľ":11891,"Ġë³´ìĥģ":11892,"ìĽ¨":11893,"Ġì§ĢìłĢ":11894,"Ġëĵ¤ìľ¼":11895,"íĸĪëĭ¤ëĬĶ":11896,"íĸĪì£¼ê²Į":11897,"Ġê±¸ëł¸ìĸ´":11898,"ë£¡":11899,"Ġê³ĦìĹ´":11900,"ĠìĤ¬ëŀĮìĿ´ëĿ¼ê³ł":11901,"Ġë´¤ëĦ¤":11902,"Ġíķľë²Īë§Į":11903,"Ġëħ¸ë£¨":11904,"ĠcompanynameìĿĢ":11905,"ĠìĪľëĮĢ":11906,"Ġë¹ĮëĿ¼":11907,"Ġë³ĦìĿĺ":11908,"Ġë³ĢíĻĶ":11909,"ĠëĤ«ëĭ¤":11910,"ĠìĮįëĳ¥ìĿ´":11911,"Ġê³µíķŃìĹĲ":11912,"Ġëį®ìĸ´":11913,"Ġê°ľëħĲìĿ´":11914,"Ġì¬Ĳ":11915,"ĠíķĺíĬ¼":11916,"ĠëĤĺë©´ìĿĢ":11917,"ĠìķĪëĤ¨":11918,"ĠìķĦëĭĪìĸ´ëıĦ":11919,"Ġë¨¹ìŀ°":11920,"ĠìĿ´ëłĩê²Įê¹Įì§Ģ":11921,"ĠìĪĺê³ł":11922,"Ġê³łëŀĮ":11923,"Ġì§ĳì§ĳë§Īëĭ¤":11924,"Ġê´ĢìłĪ":11925,"Ġë§¤ë²Ī":11926,"Ġì½Ķë¡ľëĤĺëıĦ":11927,"ê·¸ê±°ìĹĲ":11928,"ì¡ĮìŀĸìķĦ":11929,"ìį¼":11930,"ìĤ¼ì¶ĺ":11931,"Ġì§ĢëĤĺê°Ī":11932,"ĠìĤ¬ê³łê°Ģ":11933,"ĠíķĻìĽĲëıĦ":11934,"ĠëĵľëĿ¼ë§Īë¥¼":11935,"ĠëłĪìĭľíĶ¼":11936,"Ġëī´ì§Īëŀľëĵľ":11937,"ĠíĥĶëĬĶëį°":11938,"ĠíĬ¹ë³ĦíŀĪ":11939,"ĠìĿµìĪĻíķ´":11940,"ĠìĬ¤íĭ°ì»¤":11941,"ìķĦìĿ´ëĬĶ":11942,"íķĺìĿ´":11943,"ĠìķĪìį¨":11944,"ì£¼ëł¤ê³ł":11945,"Ġìĺ¤ìĤ¬ì¹´":11946,"ĠìĿ¼ìĿ¸ê°Ģ":11947,"nameëŀĳ":11948,"ĠìłľìĤ¬ë¥¼":11949,"ĠëĮĢíĺķ":11950,"Ġê°ĶëĮĦ":11951,"ĠìĿ¸ê¸°ê°Ģ":11952,"Ġì¶ĺ":11953,"Ġì¤Ħì¤Ħ":11954,"ĠëªĩìĭľìĹĲ":11955,"ĠíĸĪìĸ´ìĭłëĶĶ":11956,"Ġë§Įëĵ¤ê¸°":11957,"Ġê³µë¶Ģê°Ģ":11958,"Ġê³µë¶Ģíķ´":11959,"Ġê±°ëĿ¼ìĺĪ":11960,"Ġê¹Įë§Į":11961,"ĠëıĻìķĪìĹĲ":11962,"Ġì°¾ìķĦê°Ģ":11963,"ĠíĪ¬ìŀĲë¥¼":11964,"ìŁ¤":11965,"Ġë¶ĢìĤ°ìĹĲ":11966,"Ġíĸ¥ìĪĺ":11967,"ĠëĮĢëĭµìĿĦ":11968,"ì§Ģêµ¬":11969,"íķľëĿ¼":11970,"Ġìĺ¤ë¸Ĳ":11971,"ëĤľìĹĲ":11972,"ë¯Ģ":11973,"Ġê³łìĬ¤":11974,"êµĲìĤ¬":11975,"ĠìĨĮìĨį":11976,"Ġê²½ê³Ħ":11977,"ĠìĬ¤íĥ":11978,"íĹĪëĭĪê¹Į":11979,"ĠëıĦê¹¨":11980,"ĠíĻĶë¶Ħ":11981,"íĶĦíĬ¸":11982,"ëĸ¨ìĸ´":11983,"Ġê¸¸ëŁ¬":11984,"ĠëĤ´ëł¤ê°Ģë©´":11985,"Ġê·ĢìĭłìĿ´":11986,"ĠëģĿëĤĺëĭĪê¹Į":11987,"ëĿ¼ëĬĶê²Į":11988,"Ġë°ŃëıĦ":11989,"ĠìķĦëĵ¤ë§Į":11990,"Ġë³´ìĹ¬ìĦľ":11991,"ĠëıĻìĥĿëĵ¤":11992,"Ġì¶ľìĦĿ":11993,"ìĵ´":11994,"ĠíĸĪìŀĸìķĦìļĶ":11995,"ĠíĻľëıĻìĿĦ":11996,"Ġíķĺë¥´ë°©ìĿ´":11997,"ĠëłĪìłĦëĵľ":11998,"ìĸ´ë§Ī":11999,"Ġê°ĢìŀĲë§ĪìŀĲ":12000,"ĠìķĪê·¸ëŀĺëıĦ":12001,"ĠìĿ´ëłĩê²Įë§Į":12002,"ĠìĹĨëįĺ":12003,"íķĺëĬĶê±°ìķ¼":12004,"ëĭ¤ê°ĢëıĦ":12005,"ĠëıĦìŀ¥":12006,"ĠêµĲëĮĢ":12007,"ê·¸ëķĮëıĦ":12008,"Ġì¤ĳìļĶíķĺì§Ģ":12009,"íĮĲìĿ´":12010,"ĠëĤĺë¬´ê°Ģ":12011,"Ġíķ´ì¤Ħê²Į":12012,"Ġë¶ķìĸ´ë¹µ":12013,"ĠëĤĺìĻĲ":12014,"íķĺëĥĲê³ł":12015,"ĠìķĪê°Ģê³ł":12016,"ìľĪ":12017,"Ġê°Ļê¸°ëĬĶ":12018,"Ġìĺ¤ë¥¼":12019,"ìĹĪëĭ¤ëĬĶ":12020,"ìĹĪìĬµëĭĪëĭ¤":12021,"ĠìĥĿìłĦ":12022,"ìĿĺìĤ¬":12023,"Ġë¨¹ìĸ´ëĤľ":12024,"Ġì½Ķê°Ģ":12025,"Ġë§ĽìŀĪìĿĦ":12026,"íĮĮëıĦ":12027,"Ġíĺ¸ëĸ¡":12028,"ĠìĽĶëĭ¬ìĹĲ":12029,"ĠíĻķíĻķ":12030,"ĠìĪłìĿ´":12031,"Ġëª¸ë§¤":12032,"ëĲľê±°":12033,"Ġê°Ģìł¸ëĭ¤":12034,"Ġê°Ģì§Ģê°Ģ":12035,"Ġê³³ìĹĲìĦľ":12036,"Ġëĸ¡ìĿĦ":12037,"ĠëģĵìĿ´ë©´":12038,"ĠìĭĿëĭ¹ìĹĲìĦľ":12039,"Ġíĸīë³µíķĺê²Į":12040,"ê»Ģê°Ģ":12041,"Ġì¼Ģìĸ´":12042,"Ġìłĵê°ĢëĿ½":12043,"Ġê³łë¬´ì¤Ħ":12044,"Ġìº¡ì³Ĳ":12045,"Ġê·¸ë£¹":12046,"ìĳ¥":12047,"Ġìŀİ":12048,"ĠëķĮìĿ´":12049,"Ġê³łë§Į":12050,"Ġë°Ķë¹´":12051,"Ġìĺ¬ëł¤ìĦľ":12052,"ĠìĹ°ëıĻ":12053,"ë¦°ëį°":12054,"Ġê°ĦìĿ´":12055,"Ġê´ľì°®ìĿĢê±°":12056,"ëĨĵëĬĶ":12057,"ĠìĥĿê°ģíķ´ìĭłëĶĶ":12058,"Ġíĥľìĸĳ":12059,"ìĿĦê¹Įë´Ĳ":12060,"ĠëıĮìķĦê°ĢìħĶ":12061,"Ġêµ°ëĮĢë¥¼":12062,"Ġìŀ¬ë¯¸ìŀĪìĿĦ":12063,"ĠìĪĻìłľ":12064,"ĠíĻįìĤ¼":12065,"Ġëª©íĳľê°Ģ":12066,"ĠìĹ®":12067,"Ġíķ´ëĦ¤":12068,"íķľê°Ģ":12069,"ĠëĲĺìĸ´ìĦľ":12070,"Ġì§Ģë¦¬":12071,"ĠìĭľìĹĲìĦľ":12072,"ĠìĭľêµŃìĹĲ":12073,"Ġëª¨ìĿ´":12074,"Ġê¸°ìĸ´":12075,"íĸĪìĹĪëĬĶëį°":12076,"íĬ¸ë¦¬":12077,"ĠìĦľë¸Į":12078,"ĠìĦľëŀį":12079,"ìĭ¤ë¡ľ":12080,"Ġìĵ°ê¸°":12081,"Ġë¶Ħìĸĳ":12082,"Ġë§¨ëĵ¤":12083,"ĠìŀĪìĹĪìľ¼ëĭĪê¹Į":12084,"ĠëĨĵì§Ģ":12085,"Ġìĭ¤ê¸°":12086,"ì¡ĮëĦ¤":12087,"Ġê·¸ê²ĥë³´ëĭ¤":12088,"ì»¹":12089,"ĠìĻ¸êµŃìĹĲìĦľ":12090,"Ġìį°ë§¤":12091,"ĠëĮĢë°ķìĿ´ëĭ¤":12092,"ì¿Ħ":12093,"Ġë¥ĺ":12094,"ëĭ¤ëĭĲ":12095,"ìĿĢê²Į":12096,"ĠëĤ´ìĭľê²½":12097,"Ġë¨¹ìĿį":12098,"ë¶ĢëıĦ":12099,"Ġë°Ķê°Ģì§Ģ":12100,"ìĭŃìĿ´":12101,"ĠìĺĪìĪĺëĭĺ":12102,"Ġë¶ĢìĹĲ":12103,"Ġë¶Ģì²ĺ":12104,"Ġìĸĺê¸°íĸĪìĸ´":12105,"Ġíı¼":12106,"ëĳĲê¸°":12107,"ëĭ¬ëŀľ":12108,"ĠíĻķë¥łìĿ´":12109,"ë¶Īë¯¼":12110,"ĠìķīìĿĦ":12111,"ë³µì§Ģ":12112,"ĠìķĪëĲĺìŀĸìķĦ":12113,"ëª»íķ´":12114,"Ġëĸ¨ìĸ´ëľ¨":12115,"ĠíĳľìłķìĿ´":12116,"Ġìĸ´ë©įëıĦ":12117,"Ġë´īì§Ģ":12118,"ì±ħìĿĦ":12119,"ĠìĿ´ë²¤íĬ¸":12120,"Ġë¶Ģìŀ£ì§ĳ":12121,"ìĿ½":12122,"ĠìķĦìĿ¸":12123,"ĠìķĪê°Ħ":12124,"ĠìķĪíķĺëĬĶëį°":12125,"Ġìļ¸ë¦¬":12126,"Ġë³´ëŀĺ":12127,"Ġìĺ¤ìŀĲë§ĪìŀĲ":12128,"Ġê³łìĻĢ":12129,"ĠëĮĢì¤ĳ":12130,"ìĦ±ìĿĢ":12131,"ĠìĹĲíľ´":12132,"Ġëĭ¤ëĭĪë©į":12133,"ê³µë¬´ìĽĲ":12134,"ĠëĶ¸ëĤ´ë¯¸":12135,"Ġë³´ëĤ´ì¤ĺ":12136,"ĠëĤĺìĻĶëĦ¤":12137,"ĠëĭĪê¹Į":12138,"Ġê·¸ëŁ°ê±°ì§Ģ":12139,"ë©°ëĬĲ":12140,"Ġì¡¸ìĹħíķł":12141,"íį¼ìĦ¼íĬ¸":12142,"ĠìļĶë²ĪìĹĲëıĦ":12143,"ìļĶì¦ĺìĹĲ":12144,"Ġë²Ħëł¤ìķ¼":12145,"Ġë²Ķë²ħ":12146,"ë¿Ķ":12147,"Ġë¬¼ê±´ìĿĦ":12148,"Ġìĭ±ê°Ģ":12149,"ĠìĬ¤íİĻ":12150,"ìĿ´ì§Ģë§Į":12151,"ì§Ģëħ¸":12152,"ĠëĤĺìĿ´ëĬĶ":12153,"ëłĲ":12154,"ëĶ°ë¦¬":12155,"ĠìŀĲëĿ½":12156,"ĠìĹ¬ìĪĺ":12157,"Ġìĸ´ëĳ":12158,"Ġë¹Ħë¹Ħ":12159,"Ġê°Īê³ł":12160,"ĠìľłìķĦ":12161,"íĥĢëĬĶ":12162,"ìª½ìĿĢ":12163,"ê´ĢìĿĦ":12164,"Ġë§¤ì£¼":12165,"ĠíĬ¸ë¦¬":12166,"ĠëıĮìķĦê°Ģê³ł":12167,"Ġìķīìľ¼ë©´":12168,"ĠëĨĶëĳĶ":12169,"Ġì°©íķĺëĭ¤":12170,"Ġë°Ľìķĺëįĺ":12171,"Ġìĸ´ì©Įëĭ¤ê°Ģ":12172,"Ġìĺģìĸĳìłľ":12173,"ĠíķłìķĦë²Ħì§ĢëĬĶ":12174,"íķĺëŀĺ":12175,"ë¥ľ":12176,"Ġíķľì¹ĺ":12177,"ĠëŃĲìĺĪìļĶ":12178,"ĠìĭľëĮĢìĹĲ":12179,"ë³´ì¹´":12180,"Ġê·¸ëłĩê²Įíķ´":12181,"ê²łì£ł":12182,"ĠëĤ¨ê³ł":12183,"Ġêµ¬ìĽĶ":12184,"ìĿ´ëĿ¼ëĵłê°Ģ":12185,"ëĬĲëĤĮ":12186,"ĠíĻĶëł¤":12187,"ĠíĻĶíĪ¬":12188,"ĠìŀĪìĹĪëĭ¨":12189,"Ġíģ¬ê¸°":12190,"ĠìĻ¸ë¶Ģ":12191,"Ġìĸ´ëĸµíķł":12192,"Ġê°ĸëĭ¤ê°Ģ":12193,"Ġì§Ħìŀĳ":12194,"Ġë°ķíĺĢ":12195,"ìĻķìĿ´":12196,"Ġë¦¬íĦ°":12197,"Ġëħ¹ì°¨":12198,"Ġëĭ¤ë¥´ê¸´":12199,"Ġêµ°ëĮĢìĹĲìĦľ":12200,"ĠìĿ´ëŀ¬ê±°ëĵł":12201,"íĻĺìĿ´":12202,"Ġíķ´ì¤¬ìĸ´":12203,"Ġê²ªìĸ´":12204,"ì²ĺìĿĮìĹĶ":12205,"Ġë¨¸ë¦¿ìĨįìĹĲ":12206,"ĠíĬ¼íĬ¼":12207,"ì¾Į":12208,"ĠíİľíĬ¸íķĺìļ°ìĬ¤":12209,"ë¦¬ëŀĳ":12210,"Ġê°ĢëĥĲ":12211,"ĠìĤ¬ì¤¬":12212,"ëŁ¿":12213,"ĠìķĦëĭĪìĹĪëĬĶëį°":12214,"ë§Īì§Ģë§ī":12215,"ĠìĹ¬ë³´":12216,"ĠìĪĺíĻķ":12217,"Ġê·¸ëłĩê²Įíķĺê³ł":12218,"Ġìłķëĭµ":12219,"Ġìłľì£¼ìĹĲ":12220,"Ġë¬¼ê³łê¸°":12221,"Ġìĥģì¶Ķ":12222,"ì§ĪëıĦ":12223,"ĠëģĿëĤŃ":12224,"Ġëĵ¤ìĸ´ê°Ģê°Ģì§Ģê³ł":12225,"ĠëĪĦêµ¬ëıĦ":12226,"ĠêµŃë°¥":12227,"Ġíı¬ëıĦ":12228,"Ġìŀ¬ë°Įìĸ¸":12229,"Ġë³´ìĹ¬ì¤Ħ":12230,"Ġë§ĲíĸĪê±°ëĵł":12231,"Ġì¹´íİĺê°Ģ":12232,"ĠíĹĪëĤľìĹĲ":12233,"Ġì²«ëĤł":12234,"íĦ±":12235,"Ġë§Ŀê³ł":12236,"ìĸ´ë¨¸ëĭĪê°Ģ":12237,"ëĵľëĿ¼ë§Ī":12238,"Ġì§ĳìķĪìĿ´":12239,"Ġíķ´ê°Ģë©į":12240,"Ġì§ģìĹħìĿ´":12241,"ê´ľíŀĪ":12242,"ë·Ķ":12243,"ĠìķĪìĤ¬":12244,"ĠìķĦëĭĪìĹĪìľ¼ë©´":12245,"Ġìķ½íķ´":12246,"ì¶Ķê°Ģ":12247,"Ġë¶Ħëĵ¤ëıĦ":12248,"ìĤ°ìĿĢ":12249,"Ġë§ĲìĿ´ëĥĲ":12250,"ĠëĴĢ":12251,"Ġëª©ìĪ¨":12252,"ĠëĤ´ëł¤ìĺ¤ë©´":12253,"ĠìķĦì¹¨ë§Īëĭ¤":12254,"ĠëłĪìĿ´":12255,"Ġì¹ľêµ¬ëĵ¤ëģ¼ë¦¬":12256,"Ġìĥģê´ĢìĹĨëĬĶëį°":12257,"Ġê°ķìķĦì§Ģê°Ģ":12258,"ĠìĿ¼ê¹Įì§Ģ":12259,"ĠíķłíħĲëį°":12260,"Ġë°ĶëĶĶ":12261,"Ġê±¸ìĿĮ":12262,"ìĻĢëŀĳ":12263,"ì²ŃìĨĮ":12264,"Ġëĭ®ì§Ģ":12265,"Ġìŀħê¸Ī":12266,"ĠëıĮëł¤ìĦľ":12267,"ĠìŀĪê³łìĿ´":12268,"Ġë°ĺìŀ¥":12269,"Ġëĭ¤ëĭĪê¸°":12270,"Ġìĸĳìª½":12271,"ĠëĵľëŁ¼":12272,"ĠëĬĲëĤĮëıĦ":12273,"Ġê²°íĺ¼ëıĦ":12274,"ĠíĺķëıĦ":12275,"Ġì²ľì£¼êµĲ":12276,"Ġê°Ģìł¸ìĻĢìĦľ":12277,"Ġê°Ģìķ¼ëĲĺ":12278,"ĠíĬ¹ìĪĺ":12279,"ĠìŀĲì²´ëĬĶ":12280,"ĠíĬ¸ë¡ľ":12281,"ìĪľìĿ´":12282,"Ġëĭµìŀ¥":12283,"Ġë°Ķëĭ¤ìĹĲìĦľ":12284,"ĠìłĲìĭ¬ìĭľê°Ħ":12285,"Ġë¹Ħìĭ¼ëį°":12286,"ĠìĿ¸ìĥĿìĹĲ":12287,"Ġë§¡ìķĦ":12288,"ĠìĿ´ëŀ¬ìĸ´":12289,"ĠìľĦíĹĺíķ´":12290,"ìĸ´ì¹ĺ":12291,"Ġíķ´ë²Ħëł¤":12292,"Ġê°Ļëĭ¤ëĬĶ":12293,"Ġìĺ¤ê±°ëĵł":12294,"Ġìŀĺíķĺ":12295,"ì¹©":12296,"ĠìĪĺìĪĺ":12297,"ĠìķĮê¸°":12298,"ĠìļĶë¡ľì¼Ģ":12299,"ëĵľë¦´":12300,"Ġì¤ĳìĤ°":12301,"ĠëıĻìķĦ":12302,"Ġëį°ë§Į":12303,"ĠìĨĮìĭĿ":12304,"ë¯¸ëĬĶ":12305,"Ġë¶Īë©´":12306,"ĠìķĦë¬´ëŁ°":12307,"ìľłê°Ģ":12308,"Ġëĵľë¦¼":12309,"ëŃĲê°Ģ":12310,"ë°ľìĿĦ":12311,"ëĸĦ":12312,"ì¦ĿìĿĦ":12313,"Ġê°Ģìł¸ìĺ¨":12314,"íİĺìĿ´ì§Ģ":12315,"ìŀ¬ê¸°":12316,"Ġë°¤ìĿ´":12317,"Ġíķ´ì£¼ëĭĪê¹Į":12318,"ĠíĶĦë¡ľìłĿ":12319,"Ġë±ĢìĿ´":12320,"Ġê±¸ëł¤ê°Ģì§Ģê³ł":12321,"Ġê¹¨ëģĹíķľ":12322,"ĠìŀĲëıĻìľ¼ë¡ľ":12323,"ĠìĭľìłĪìĹĲ":12324,"ĠìłĦëĤłìĹĲ":12325,"Ġëĭ¨ì²´ë¡ľ":12326,"ĠìĬ¬ë¦¬íį¼":12327,"ëį°ìļĶ":12328,"ĠíķĺíĬ¸":12329,"ĠìķĪíķĺì§Ģ":12330,"ĠìķĪíĸĦ":12331,"ì£¼ë³Ģ":12332,"Ġëĵ¤ë¦¬ê³ł":12333,"Ġê·¸ëŁ¬ëĬĶê±°":12334,"Ġë°Ķë¥¸":12335,"íĸĪìĸ¸":12336,"Ġìĭłì²ľ":12337,"Ġëĭ®ìķĺìĸ´":12338,"Ġíķ´ìķ¼ëĲĺëĬĶ":12339,"Ġì¤Ħê¹Į":12340,"ĠëĤĺìĺ¤ë©´ìĿĢ":12341,"ĠíĤ¤ê³ł":12342,"Ġìĭ¬ë¶Ģ":12343,"íĨµíĻĶ":12344,"ĠëŃĲëĥĲíķĺë©´":12345,"Ġìķīê³ł":12346,"ìĹŃìĿĦ":12347,"ì¶ľìĿ´":12348,"ĠìĥĪëģ¼ê°Ģ":12349,"ĠìĥĿìĿ¼ëĤł":12350,"Ġëħ¹ìĿĮìĿĦ":12351,"ĠìĺĪìķ½ìĿĦ":12352,"ëĴ¤ìĹĲ":12353,"ĠíħĶëłĪë¹Ħ":12354,"Ġìŀłìĭľë§Į":12355,"Ġê·¸ìķĦìĿ´":12356,"ĠìĿ´ìĸµ":12357,"ĠíķłëĿ¼":12358,"ìĬ¤ì½Ķ":12359,"ìŀ¥ì°½":12360,"ĠìļĶë§Į":12361,"ĠìĨĮìĭ¬":12362,"Ġë°°ë¶Ģ":12363,"ĠìĹĨìĸ´ì§ĢëĬĶ":12364,"ë¶Ħê±°":12365,"Ġë¶Ħëħ¸":12366,"ëģ¼ê³ł":12367,"Ġëĵ¤ìĸ´ê°Ģê²Į":12368,"ĠìŀĪìĹĪëĮĢ":12369,"Ġëĭ¨ëıħ":12370,"Ġê²°íĺ¼ìĿĢ":12371,"ĠìĦ¤ìłķ":12372,"ĠìĪľëĳĲë¶Ģ":12373,"ĠìŀĶëľ©":12374,"Ġë¹Įìĸ´":12375,"ĠìĮĢêµŃìĪĺ":12376,"Ġë²Ħë¦¬ì§Ģ":12377,"Ġë°Ķìģĺê²Į":12378,"Ġë¶ĢëŁ½ëĭ¤":12379,"Ġ*":12380,"ìķĦìĽĥ":12381,"ĠìķĪíĹĪê³ł":12382,"Ġíķ´ë²Ħë¦¬":12383,"Ġë§ĲëĿ¼ëĬĶ":12384,"ĠìĤ´ë§Į":12385,"ìĹ¬ìĭłëĶĶ":12386,"íķĺëĬĶì§Ģ":12387,"Ġì¡°ë¦¼":12388,"ë£¬":12389,"ìķĪíķĺê³ł":12390,"ëħĦìĿ´":12391,"Ġì¤ĦëĦĺ":12392,"íĹĪì§Ģ":12393,"ĠìĻĶìĹĪìĸ´":12394,"Ġê°ķíķľ":12395,"Ġê³¨ìķĺ":12396,"íĺķìĿĢ":12397,"Ġê°Ģìķ¼ê²łëĭ¤":12398,"Ġê·ł":12399,"Ġëľ¨ê°ľ":12400,"Ġê±·ê¸°":12401,"ĠìĿ¼ê³±ìĭľ":12402,"Ġì²łíķĻ":12403,"ĠìĿ´ë°±ë§Į":12404,"ìĸ´ë©įìĿ´":12405,"íķĺêµ¬ëĤĺ":12406,"ìľ¼ëĥī":12407,"ĠëŃĲíķľ":12408,"ĠìĿ¼ìĿ¼ìĿ´":12409,"Ġì§Ģêº¼":12410,"ĠìĥĿê°ģìĹĨìĿ´":12411,"Ġêµ¬ìĽĮìĦľ":12412,"ê³¼íķĻ":12413,"Ġì±ħìĿĢ":12414,"ĠìĻķë³µ":12415,"ĠëģĬìĿĦ":12416,"Ġíķľëĭ¤ëĭĪê¹Į":12417,"ĠìĿ¼ìĸ´ëĤĺê³ł":12418,"ĠìĤ¬ìĭŃìĺ¤":12419,"Ġìļ°ë¦¬ì§ĳìĹĲìĦľ":12420,"Ġë¶ĢìĤ°ìĹĲìĦľ":12421,"ëĨ¨ëĬĶëį°":12422,"Ġëĸ¼ê³ł":12423,"ĠëĨ¨ëĬĶëį°":12424,"ĠìĽĮëĤĻìĹĲ":12425,"Ġì§ĢëĤĺê°Ģëĭ¤ê°Ģ":12426,"ë§¹ìĿ´":12427,"Ġëª¨ìĿĺê³łìĤ¬":12428,"Ġíķ´ìŀ¥êµŃ":12429,"ĠëģĶì°į":12430,"ĠìĤ¬ëĤľ":12431,"Ġíķ´ëĤĺìĦľ":12432,"Ġë§īì°½":12433,"Ġìĺ¤ë¯¼":12434,"ĠëĲĺìļĶ":12435,"Ġìŀĺíķł":12436,"ìĭłëıĦ":12437,"ĠìĿ¸êµ¬":12438,"ĠìĿ¸ìĭĿìĿ´":12439,"Ġìĭ¶ìĹĪê±°ëĵł":12440,"Ġë¹Ħíķĺë©´":12441,"Ġë°Ľê¸°":12442,"Ġìĸ´ëĶĶëĵł":12443,"ìłģìĿ´ì§Ģ":12444,"ĠëıĮìķĻ":12445,"Ġë¶ĦìĦĿ":12446,"ëłĪê¸°":12447,"Ġì¤ĺê°Ģì§Ģê³ł":12448,"Ġíħľ":12449,"ĠìĦ¸ìĥģìĿĦ":12450,"ĠíĬĢê²¨":12451,"Ġë¶Ģë¶ĦìĿĢ":12452,"ë²ĮìĿ´":12453,"Ġë¨¹ìĹĪìĸ´ìļĶ":12454,"ĠëĤĺìģĺì§Ħ":12455,"ĠìķĦëŀĺë¡ľ":12456,"Ġë³´ë¦¬ìĮĢ":12457,"ĠìĭŃìĺ¤ë§Į":12458,"ĠíĿĳëı¼ì§Ģ":12459,"ìļĶìĥĪëĬĶ":12460,"Ġëĭ¤ìĸĳíķĺê²Į":12461,"ëĬĶì§ĢëıĦ":12462,"ĠëĤĺëĤľ":12463,"ĠìĥĿìĤ°":12464,"ĠìĿ´ê±°ëŀĳ":12465,"ĠëĤĺëĬĶê±°":12466,"Ġìĭ¶ì§ĢëĬĶ":12467,"ë°©ìļ¸":12468,"ĠìĺĽëĤłìĿĢ":12469,"Ġêµ¬ë¦Ħ":12470,"Ġë¶Īê³łê¸°":12471,"ìļ°ë¦¬ì§ĳ":12472,"ĠìķĦëĭĪëĿ¼ëıĦ":12473,"Ġìŀłëĵ¤":12474,"Ġëĭ´ê°Ģ":12475,"Ġë¬¼ìĸ´ë´Ķ":12476,"Ġìĭ¶ìĸ´ìļĶ":12477,"Ġì§Ħìĥģ":12478,"ĠíĦ°ë¯¸ëĦĲ":12479,"Ġëģ¼ëĬĶ":12480,"ĠìĸµìĸĳìĿ´":12481,"Ġì¢ĭìķĺì§Ģ":12482,"ĠìĿ´ëķĮê¹Įì§Ģ":12483,"ĠìĹĲë²Ħëŀľëĵľ":12484,"ëĩĮ":12485,"ĠìķĦë§¹":12486,"Ġê±°ë¶ģ":12487,"íķĺê¸°ë¡ľ":12488,"ëł·":12489,"Ġìĸ´ìĭľë¯Ħ":12490,"Ġìĺ¤ìĹ¼":12491,"Ġì¢Ģë§Į":12492,"ë³´ëĭ¤ê°Ģ":12493,"ìĺ¤ëĬĶëį°":12494,"ĠìĥĿê°ģëĤĺê³ł":12495,"Ġìłķê¸°":12496,"ìŀĪëĭ¤ê³ł":12497,"Ġê°Ģì§Ģê³łëĬĶ":12498,"ĠìĤ¼ë§ĮìĽĲ":12499,"ĠíĹĪë©´ìĿĢ":12500,"Ġëª¨ë¥´ì¿łëĭ¤":12501,"Ġì´Īê¸°":12502,"ĠíĦ°ì¹ĺ":12503,"ĠëıĻìĥĿíķľíħĮ":12504,"ĠìĿ´íķ´íķł":12505,"Ġë´Ĳìķ¼ê²łëĭ¤":12506,"Ġíķ´ë³´ëł¤ê³ł":12507,"ĠêµĲíļĮìĹĲìĦľ":12508,"ĠìŀĪìľ¼ëĭĪ":12509,"ĠëĮķê¸°ë©į":12510,"ĠìĽ¨ìĿ´íĮħ":12511,"ìĸ´ë¦°":12512,"Ġê°Ģëŀĺ":12513,"Ġëĭ¤ìĭł":12514,"ê·¸ëĦ¨":12515,"ĠíķľëķĮ":12516,"ĠëĤ´ë¦°":12517,"nameìĿ´ëĬĶ":12518,"ĠìŀĲëĬĶëį°":12519,"ìĬ¤ë¬¼":12520,"ĠìĤ´ìŀĸìķĦ":12521,"Ġê¸°íļį":12522,"Ġëĵ¤ìĸ´ë´¤":12523,"ìŀĪê±°ëĵł":12524,"ĠìĦľìĸĳ":12525,"ĠìĨĮê³ł":12526,"ĠìĨĮëĤĺë¬´":12527,"íĹĪê³¡":12528,"Ġë°ĺê°Ģ":12529,"Ġë°ĺìĿĦ":12530,"ê·¸ëŁ¬ëĭ¤ê°Ģ":12531,"ĠëĳĺìĿĢ":12532,"Ġëĭ¨ëĭ¨":12533,"ĠíĺķìĿ´ëŀĳ":12534,"ĠìĨįëıĦ":12535,"ìĿ´ê±°ë¥¼":12536,"ĠíħĮìĬ¤íĬ¸":12537,"Ġëĭ¹ìĹ°íķĺì§Ģ":12538,"ĠíĬ¸ëŁ¼":12539,"ìĵ°ëĬĶ":12540,"ëİĮ":12541,"ãħ":12542,"Ġê·¸ë¥":12543,"ëĤĺë§Į":12544,"ĠìĤ¬ìłĦ":12545,"Ġëĭ¤ëħĦ":12546,"Ġë°¸":12547,"ì¦Ļ":12548,"ìĭ¤ê±´ëĶĶ":12549,"ĠìĨĮíĨµ":12550,"ìĨĮë¦¬ë¥¼":12551,"Ġìŀ¬ìŀĳëħĦ":12552,"ĠëĲľê±°ìķ¼":12553,"ìĺĢìľ¼ëĭĪê¹Į":12554,"Ġëĳĺëĭ¤":12555,"Ġëĭ¨ê¸°":12556,"Ġíķ©ì³ĲìĦľ":12557,"Ġëª°ëŀĲê±°ëĵł":12558,"Ġëª°ëŀĲëįĺ":12559,"ĠëĥĦìĥĪëıĦ":12560,"Ġê°Ģì¡±ëĵ¤ìĿ´":12561,"ĠíķĻìĽĲìĹĲìĦľ":12562,"ĠìķĬìķĺëĥĲ":12563,"Ġë¸ĮëłĪìĿ´íģ¬":12564,"Ġë¹¡ë¹¡":12565,"Ġë§ŀì¶°ìķ¼":12566,"Ġì§ĢëĤ´ëĬĶ":12567,"ĠëĤ¨ìŀĲìķłëĵ¤":12568,"ìĮ¤ìĿ´":12569,"Ġë¶Ģì¡±íķľ":12570,"Ġê´Ģê³Ħê°Ģ":12571,"Ġê»įëį°ê¸°":12572,"ĠëļĿëĶ±":12573,"ĠìŀĪê²łìĸ´":12574,"ìĤĺ":12575,"Ġìĺ¤ê¸´":12576,"ĠìĿ¼êµ¬":12577,"Ġì§Ģì¹ĺ":12578,"ê¸ĪìĿĢ":12579,"ĠìŀĲë³¸":12580,"ĠëĺĲìĿ´":12581,"ì¹ĺë§Ī":12582,"Ġìłľì£¼ë§Ĳ":12583,"ëıĻìĿĦ":12584,"ĠìĦ¸ìĪĺ":12585,"Ġê²½íĹĮëĶĶ":12586,"ìĨįìĹĲìĦľ":12587,"ĠíĮĶìŀĲ":12588,"íĶĦíĭ°ì½ĺ":12589,"Ġê³¼ê°Ģ":12590,"Ġë¨¹ìĿĦê²Į":12591,"Ġë¬¼ìĸ´ë´Ĳìķ¼":12592,"ĠëĨĶê°Ģì§Ģê³ł":12593,"Ġìĭľìŀĳíķĺê³ł":12594,"íĨłë¦¬":12595,"ĠìķĪëı¼ìļĶ":12596,"ĠìŀĲë¦¬ìłĵ":12597,"ĠìĿ¸íĦ°ëĦ·ìĹĲìĦľ":12598,"ë²Ħëł¸ì§Ģ":12599,"Ġë°ĿìĿĢ":12600,"ê°ĢëĬ¥":12601,"ëŀ©":12602,"Ġê°Ģë³¼":12603,"ì£¼ë©´ìĦľ":12604,"ìĭľìłĪ":12605,"Ġê·¸ê±°ëĦ¤":12606,"Ġëª»íĸī":12607,"Ġê·¸ëŁ¬íķľ":12608,"Ġë´ł":12609,"Ġë§ĪëĨį":12610,"Ġë¹Ħìĸ´":12611,"ë¹Ħë§Į":12612,"Ġì¤ĦìĹ¬":12613,"Ġë´¤ëĤĺ":12614,"Ġë°ĺìĹĲìĦľ":12615,"ê³Ħíļį":12616,"ĠëĳĺëłĪ":12617,"Ġìĺ¨ëıĦ":12618,"Ġìŀłìŀĺ":12619,"Ġê·¸ê±´ëį°":12620,"Ġì¶Ķìļ´ëį°":12621,"Ġì½Ķë¡ľëĤĺëķĮë¬¸ìĹĲ":12622,"ëĤ¬ì§Ģ":12623,"Ġëĭ¤ìĦ¯ê°ľ":12624,"ìħĺìĿ´":12625,"Ġê°Ģê²ĮìĹĲ":12626,"Ġìłĳìĭľ":12627,"ĠíĶĦëĿ¼ìĿ´":12628,"Ġìļ°ë¦¬ëĤĺëĿ¼ìĹĲìĦľ":12629,"Ġìĩ¼íķĳëª°":12630,"ĠíħĶëłĪë¹ĦìłĦ":12631,"ê³łëª¨":12632,"ĠìķĪìĹĲëĬĶ":12633,"ĠìĿ¼ìĿ´ìķ¼":12634,"ìĿ¸ì§ĢëĬĶ":12635,"ĠìĭľëĤĺ":12636,"ĠìŀĺëŀĲ":12637,"ĠíķłëķĮëıĦ":12638,"ĠìĦłìĿĦ":12639,"Ġê°ĪìķĦìĦľ":12640,"ĠìĻĶëĮĢ":12641,"Ġì£½ê²Į":12642,"ì¢ģ":12643,"ĠëĨĵìķĦ":12644,"ëĭ´ìĿĦ":12645,"Ġì°©ì°©":12646,"Ġë¯¸êµŃìĿĢ":12647,"Ġê¶ģê¸Īíķ´ìĦľ":12648,"Ġíķ´ìķ¼ëĲĺì§Ģ":12649,"Ġë°Ķê¾¸ëĬĶ":12650,"Ġë§ŀì¶Ķê³ł":12651,"ê¸ĢìĿ´":12652,"ìķ¼ìĿ´ê°Ģ":12653,"ĠíĸĪëĬĶëĶĶ":12654,"ĠìĹĨìĹĪìĿĦ":12655,"Ġë°ĶìĹĲëĬĶ":12656,"ĠëĤ¨ëħķ":12657,"ĠìĦ¸ìļ¸":12658,"Ġë´Ĳì£¼ê³ł":12659,"ĠìĪŃ":12660,"Ġëĭ¹íķ´":12661,"ìĪ²":12662,"ìĺ¨ëĭ¤":12663,"ë¶Īì§Ģ":12664,"Ġêµ°ëĮĢìĹĲ":12665,"ĠëĤ®ìķĦ":12666,"ĠëĤ´ëħĦìĹĲëĬĶ":12667,"Ġìĸ´ìļ¸ë¦´":12668,"Ġë³´ëĥĪëĬĶëį°":12669,"ĠìĦ±ëĭĺìĿĢ":12670,"Ġìĸ´ëĶĺê°Ģ":12671,"ĠìĻ¼ìª½":12672,"¾°":12673,"ë©´ìĹĲ":12674,"ĠìŀĪëĵľëĿ¼ê³ł":12675,"ĠëĤ´ìŀ¥":12676,"ĠìĹĨëĥĲ":12677,"ĠìĹ¬ì¹ľ":12678,"Ġíķłê±¸":12679,"ìĪĺíĻĶ":12680,"Ġë°Ķìģł":12681,"Ġê·¸ëķĮë§Į":12682,"ëĵľëıĦ":12683,"Ġê°ĻìķĦëıĦ":12684,"ĠíĮĮíĬ¸":12685,"ĠëĿ½":12686,"Ġì¦Ĳê¸°":12687,"Ġìĭ±íģ¬":12688,"ĠëĪĦê²Įê°Ģ":12689,"ĠìĥĮëĵľìľĦì¹ĺ":12690,"ĪìĿ´":12691,"Ġê±°ê¸¸":12692,"ĠëĤĺëĿ¼ëıĦ":12693,"ë¦¬ëĬĶê±°":12694,"ìĭ¯":12695,"ëĤĺê°Ģì§Ģê³ł":12696,"Ġíķ´ë³Ģ":12697,"ĠíķľìĪ¨":12698,"ĠëĤ´ë¦¬ë©´":12699,"Ġìŀĺíķ´ìķ¼":12700,"ëĮĢìĭł":12701,"Ġëĵ¤ë©´ìĿĢ":12702,"ĠìķĬìĿįëĭĪê¹Į":12703,"ê±´ìĿ´":12704,"Ġë¹Ħìĥģ":12705,"ĠìĹĨìĸ´ì§Ģê³ł":12706,"ĠëħĦë§Į":12707,"ĠìķĮìķĦìł¸":12708,"Ġë´¤ìĹĪëĬĶëį°":12709,"ĠíĨ³":12710,"Ġìŀ¥ìĤ¬ê°Ģ":12711,"Ġìŀ¥ë©´ìĿ´":12712,"ĠìĹ¬ìŀĲìķĦìĿ´":12713,"Ġìŀ¡ì´Ī":12714,"Ġìª½íĮĶ":12715,"ĠìķĦì§ģê¹Įì§ĢëĬĶ":12716,"Ġì¹łìĦ±":12717,"Ġê³¨ê³łë£¨":12718,"Ġìĸ¼êµ´ë§Į":12719,"ĠëĤ³ëĬĶ":12720,"ìĸĺëĬĶ":12721,"Ġë²ķìĿ´":12722,"ĠìĤ¬ê·ĢëĬĶ":12723,"Ġì§¤ëĿ¼":12724,"Ġë¶ĪìķĪíķ´":12725,"Ġìĺ¤íĨłë°Ķ":12726,"ĠìĤ¼ëĭ¤ìĪĺ":12727,"ĠìĿ´ìłĦ":12728,"ì§ĢìĽĲ":12729,"Ġì§Ń":12730,"Ġëĭ¤íķ´":12731,"Ġìĺ¤ëĤĺ":12732,"Ġë§İëĮĦ":12733,"Ġê³łìĤ°":12734,"ĠìĽĲìĿ¸ëį°":12735,"ĠìĿ¸ìĽĲ":12736,"ìĻĢìĭłëĶĶ":12737,"ĠëĳĲê»į":12738,"Ġëª¨ë¥´ëĦ¤":12739,"Ġêµ¬ë§¤":12740,"ĠëªħìĿ´ëŀĳ":12741,"ë¶Ħëĵ¤ìĿ´":12742,"Ġë°ĺê¹Įì§Ģ":12743,"ëĤĺëĬĶìĿ´":12744,"ê°ĶìĿĦ":12745,"íĺĢê°Ģì§Ģê³ł":12746,"Ġë¦¬ìĸ¼":12747,"Ġì±ĦëĦĲ":12748,"ë²ķìĿ´":12749,"ĠìĤ¬ìĭŃë¶Ħ":12750,"ĠëĶ°ëĿ¼ê°Ģ":12751,"Ġìĸ´ìłĢê»ĺëıĦ":12752,"ĠìĪľê°Ħë¶ĢíĦ°":12753,"Ġê°Ģê²©ëıĦ":12754,"ĠëĨĢëŀ¬ìĸ´":12755,"Ġíķ´ìĪĺìļķìŀ¥":12756,"ĠìĿ´ë¡ł":12757,"íķ´ì§Ī":12758,"ĠìĿ¼ëĮĢ":12759,"Ġëĵ¬":12760,"ĠnameìĿĺ":12761,"Ġê¸°ë¶Ģ":12762,"ĠìĿ´ëŁ°ìłĢëŁ°":12763,"ìļ°ìĻĢ":12764,"ë¯¸êµŃ":12765,"ì§ĳëĭĪëĭ¤":12766,"ĠìŀħìĹĲìĦľ":12767,"Ġë¯¸ëł¨":12768,"Ġìľłëıħ":12769,"ê²½íķĺëĤľ":12770,"Ġìĺ¤ëĬĺë¶ĢíĦ°":12771,"ĠìĨĶìŀİ":12772,"ĠìĪłìĿĢ":12773,"ë°°ìļ°":12774,"Ġê°Ģìł¸ìĺ¤":12775,"Ġë³ĳìĽĲëıĦ":12776,"Ġê·ĵ":12777,"ë»ĺ":12778,"Ġê¿ĪìĹĲ":12779,"Ġê¿ĪìĿĢ":12780,"ĠìĥĿíĻľë¹Ħ":12781,"Ġì¢ĭìķĺìĿĦ":12782,"Ġëħ¼ëŀĢ":12783,"Ġìĸ´ëłµê³ł":12784,"ĠìĮįìĪĺ":12785,"ĠìĶ¹ìĸ´":12786,"Ġì¢ĭê²ł":12787,"Ġëª»ê°Ģê³ł":12788,"Ġêµ¼":12789,"Ġë§ĪìļĶ":12790,"Ġë§Ľìľ¼ë¡ľ":12791,"Ġìĸ¼ìĸ´":12792,"Ġë¨¹ìĸ´ë´¤ëĬĶëį°":12793,"Ġë¶ĦìĿĦ":12794,"ìĶ¨ëĬĶ":12795,"íĪ¬ìĬ¤":12796,"ĠìĿ´ìĦľìķ¼":12797,"Ġë¬¸ìłľìķ¼":12798,"ìħĶì¸ł":12799,"Ġë¿Ķ":12800,"íĳľë¥¼":12801,"ë§Įíģ¼ìĿĢ":12802,"ëıħêµĲ":12803,"Ġìłķë¦¬íķĺê³ł":12804,"ĠíĻĪìĩ¼íķĳ":12805,"ĠìĤ¬ë©´ìĿĢ":12806,"ë³´ëĬĶëį°":12807,"ëĥĲë©´ìĿĢ":12808,"Ġë°ĶëĬĺ":12809,"Ġìĸ´ëĶĶëĭ¤":12810,"Ġì°¨ë¶Ħ":12811,"Ġê°ĪëĿ¼ê³ł":12812,"Ġíĥ±":12813,"ĠìĤ°ìĿ´":12814,"Ġìļ´ëıĻíļĮ":12815,"ìį½":12816,"Ġê°Ģì§ĢëŁ¬":12817,"ĠìĹ¬ê¸°ìĦľëĬĶ":12818,"ĠëķĮê¹Įì§Ģë§Į":12819,"Ġê°ģìĭľê°Ģ":12820,"Ġì§Ģì¼ľìķ¼":12821,"íķĺë£¨ìĹĲ":12822,"ĠìµľìĨĮíķľ":12823,"ìĪŃìķĦ":12824,"Ġìĺ¤ë¡ľì§Ģ":12825,"ĠìĨĲíĿ¥ë¯¼":12826,"ĠëĲĺë¶ĢëĤľ":12827,"ĠìŀĲìľ¨":12828,"ëĮĢìŀ¥":12829,"Ġë§ŀìŀĸìķĦ":12830,"Ġê¸°ì§Ģ":12831,"ĠëįĶëŁ½":12832,"ëĵľëŀĳ":12833,"Ġëĭ¬ìĿĢ":12834,"Ġìłľì£¼ëıĦìĹĲìĦľëĬĶ":12835,"Ġëªħë°ĸìĹĲ":12836,"Ġì£½ìĹĪìĸ´":12837,"ì¡°ë¦¼":12838,"ì²´ìłģìľ¼ë¡ľ":12839,"Ġê·¸ëłĩì£ł":12840,"Ġìķłê¸°ëĵ¤ìĿĢ":12841,"Ġë§ĮëĤĺëıĦ":12842,"Ġì¤ĢëĮĢ":12843,"êµ°ëĮĢ":12844,"Ġì³ĲìĦľ":12845,"ĠìłĢëħģìĿĦ":12846,"ìĹ´ìĭ¬íŀĪ":12847,"Ġê¸īíķľ":12848,"Ġë°Ľìķĺê±°ëĵł":12849,"ĠìĹ¬ëįŁìĭľ":12850,"Ġê¸°ë¦ĦìĿ´":12851,"ĠìķĮëł¤ì£¼":12852,"ê°ĴëıĦ":12853,"ĠìĦŀìĹ¬":12854,"Ġìµľê³łìĿĺ":12855,"Ġìłľì£¼ìĭľìĹĲìĦľ":12856,"ĠíĤ¤ìĽĮìķ¼":12857,"ĠíĢ´":12858,"ë¦¬ìĬ¤íĬ¸":12859,"ĠìĤ¬ëĿ¼ê³ł":12860,"ìĹĪì£¼ê²Į":12861,"ĠìłĢì§Ģ":12862,"Ġë²Ļ":12863,"Ġê·¸ëłĩê²ĮëĬĶ":12864,"ĠnameìĿ¸":12865,"ìłĦëıĦ":12866,"Ġëª¨ìĿ´ëĬĶ":12867,"ìķĺê³ł":12868,"Ġê²½íķĺëĤľ":12869,"Ġì°¨ë¦¬ê³ł":12870,"ë§ĲìĹĲ":12871,"Ġë°°ëıĦ":12872,"Ġë°°ìĽĮìĦľ":12873,"ĠìĹ´ë©´":12874,"ĠìĹ´ìĸ´ìĦľ":12875,"Ġìĵ°ë©´ìĿĢ":12876,"ë¯ĦìĿ´":12877,"Ġê·¸ë¦¬ëĬĶ":12878,"ĠëĤłëł¤":12879,"ĠëıĦëĿ¼":12880,"Ġìŀ¥ìĤ¬ë¥¼":12881,"ĠêµĲê³¼":12882,"ĠìĹĲíĶ¼":12883,"ëŃĲìķ¼":12884,"ĠëĿ¼ëĸ¼":12885,"ìĨĲìľ¼ë¡ľ":12886,"Ġê·¸ë¶ĦìĿĢ":12887,"Ġëĭµëĭµíķľ":12888,"ĠìłĦì²´ìłģìľ¼ë¡ľ":12889,"ĠíĶ¼ìĶ¨ë°©":12890,"Ġê³łê¹ĥì§ĳ":12891,"Ġì§ĢìłĢë¶Ħ":12892,"ê³°":12893,"ìĿ´ëħģ":12894,"íķĺìŀĲë§ĪìŀĲ":12895,"ĠëĤ´ê¸°":12896,"Ġë¨¹ì§Ħ":12897,"ĠìĿ¼íķĺë©´":12898,"êµ¬ìĿ´":12899,"Ġìĭľì¯¤ìĹĲ":12900,"ì¤ı":12901,"ĠìĥĿê°ģíķĺê¸°":12902,"ĠìĤ´ìķĻ":12903,"Ġë¬´ëĤľ":12904,"Ġì§Ģê¸Īì²ĺëŁ¼":12905,"Ġê±¸ìĸ´ìķ¼":12906,"ëĵľëł¤":12907,"Ġì¤ĳìĹĲëĬĶ":12908,"Ġìĺ¬ê±°":12909,"ìķłíĶĮ":12910,"ĠìĨĮë§¤":12911,"ĠëĪĦë¥´":12912,"Ġëĭ¬ë§Į":12913,"ĠëħĦìĿ¸ê°Ģ":12914,"ĠëĤłìĹĲëĬĶ":12915,"ĠìķĮìķĦê°Ģì§Ģê³ł":12916,"ĠëĤĺìĺ¤ëįĶëĿ¼":12917,"Ġë°±ì¹łìĭŃ":12918,"ĠëŃĲëĥĲë©´ìĿĢ":12919,"Ġìª½íĮĮ":12920,"Ġê·Ģê°Ģ":12921,"Ġë¶Ļìľ¼ë©´":12922,"ĠìĿĮìĭĿë¬¼":12923,"ĠìĬ¤íĥĢíĬ¸":12924,"Ġê±´ê°ķìĿ´":12925,"Ġê²¨ìļ¸ìĿ´":12926,"ì¼ĢíĮħ":12927,"ĠëĨĴìĿ´":12928,"Ġê¹Ģì¹ĺë¥¼":12929,"ê¼¬ë°ķ":12930,"Ġë°Ľìķĺì§Ģ":12931,"ĠìĽĢì§ģìĿ´ì§Ģ":12932,"Ġë°Ķê¿ĶìĦľ":12933,"Ġìĺ¥ìĪĺìĪĺ":12934,"ĠìķĦëĭĻëĭĪëĭ¤":12935,"ĠìĪĺì¤ĢìĿ´":12936,"Ġê²°ë¡łìĿĢ":12937,"ĠìĬ¤ì¹´ìĿ´":12938,"ĠìĤ¬ì¶ĺê¸°":12939,".#":12940,"ĠXX":12941,"Ġê±°ë¦Ħ":12942,"ëĭ¤ë©°":12943,"íķĺë©°":12944,"ĠìķĪíķĺëĭĪê¹Į":12945,"ê·¸ìŀĲ":12946,"ĠëĤ´ë©´ìĦľ":12947,"ĠìŀĲìĨĮ":12948,"Ġìķ½ê°ĦìĿĺ":12949,"ĠëĤ¨ìķĺëĬĶëį°":12950,"Ġê°ľìĿĺ":12951,"Ġë¯¹":12952,"Ġëªĩëªħ":12953,"ĠëħĦì§¸":12954,"Ġë¬¸ìŀĲê°Ģ":12955,"ëł¸ê±°ëĵł":12956,"Ġìĺ¨ì²ľ":12957,"ĠìĤ°ë¶ĢìĿ¸":12958,"ë°°ë¥¼":12959,"Ġë°Ķë¡ľë°Ķë¡ľ":12960,"Ġë³¼ê²Į":12961,"Ġì¤Ģë¹Ħíķ´ìķ¼":12962,"Ġì¹´ëĵľë¡ľ":12963,"ĠìĨĲëĭĺëĵ¤ìĿ´":12964,"Ġë§ĺëĮĢë¡ľ":12965,"Ġìĵ¸ëį°ìĹĨëĬĶ":12966,"20":12967,"ìŃ":12968,"Ġ~":12969,"ĠìĿ´ê±°ëĵł":12970,"ĠìĿ´ìĭłê°Ģ":12971,"Ġê±°ìļ°ëĭ¤":12972,"Ġê·¸ê±°ê°Ģ":12973,"Ġê²ĥìĿ¸ê°Ģ":12974,"ĠìĪĺë¦¬":12975,"Ġê·¸ëŁ¬ëįĶëĿ¼":12976,"ĠìķĬíķ´":12977,"Ġì£¼ì¼Ħ":12978,"Ġê±¸ëł¨":12979,"ĠìĺĪìĺĪ":12980,"ìĭ¤ìĿĢ":12981,"ĠìĦłìŀĦ":12982,"ĠìłĢê¸°ëıĦ":12983,"ĠìĦ±íĸ¥ìĿ´":12984,"ê°ľìĿ¸":12985,"Ġì£½ìĸ´ìĦľ":12986,"ìĦłë¬¼":12987,"Ġê°ĳëĭĪëĭ¤":12988,"ĠëĲĲìľ¼ë©´":12989,"ì§¸ë¡ľ":12990,"Ġëģ¼ë©´":12991,"Ġì¤ĳêµŃìĹĲ":12992,
[...]
